{"<unk>":0,"!":1,"\"":2,"#":3,"%":4,"&":5,"'":6,"(":7,")":8,"*":9,"+":10,",":11,"-":12,".":13,"/":14,"0":15,"1":16,"2":17,"3":18,"4":19,"5":20,"6":21,"7":22,"8":23,"9":24,":":25,";":26,"<":27,"=":28,">":29,"?":30,"@":31,"A":32,"B":33,"C":34,"D":35,"E":36,"F":37,"G":38,"H":39,"I":40,"J":41,"K":42,"L":43,"M":44,"N":45,"O":46,"P":47,"R":48,"S":49,"T":50,"U":51,"V":52,"W":53,"X":54,"Y":55,"Z":56,"[":57,"\\":58,"]":59,"_":60,"`":61,"a":62,"b":63,"c":64,"d":65,"e":66,"f":67,"g":68,"h":69,"i":70,"j":71,"k":72,"l":73,"m":74,"n":75,"o":76,"p":77,"r":78,"s":79,"t":80,"u":81,"v":82,"w":83,"x":84,"y":85,"z":86,"{":87,"|":88,"}":89,"~":90,"©":91,"±":92,"·":93,"Δ":94,"‘":95,"’":96,"“":97,"”":98,"…":99,"‧":100,"※":101,"↑":102,"→":103,"∼":104,"ⓒ":105,"■":106,"▲":107,"△":108,"▶":109,"▷":110,"◆":111,"◇":112,"◉":113,"◎":114,"☎":115,"☏":116,"☞":117,"〈":118,"〉":119,"【":120,"】":121,"ㆍ":122,"㈜":123,"㎞":124,"中":125,"前":126,"北":127,"南":128,"安":129,"故":130,"文":131,"日":132,"朴":133,"檢":134,"美":135,"與":136,"軍":137,"野":138,"金":139,"靑":140,"韓":141,"黃":142,"가":143,"각":144,"간":145,"갈":146,"감":147,"갑":148,"값":149,"갔":150,"강":151,"갖":152,"같":153,"개":154,"객":155,"갱":156,"거":157,"걱":158,"건":159,"걷":160,"걸":161,"검":162,"겁":163,"것":164,"게":165,"겐":166,"겠":167,"겨":168,"격":169,"겪":170,"견":171,"결":172,"겸":173,"겼":174,"경":175,"계":176,"고":177,"곡":178,"곤":179,"곧":180,"골":181,"곳":182,"공":183,"과":184,"곽":185,"관":186,"괄":187,"광":188,"괴":189,"굉":190,"교":191,"구":192,"국":193,"군":194,"굳":195,"굴":196,"궁":197,"권":198,"궐":199,"궤":200,"귀":201,"규":202,"균":203,"그":204,"극":205,"근":206,"글":207,"금":208,"급":209,"긋":210,"긍":211,"기":212,"긴":213,"길":214,"김":215,"깊":216,"까":217,"깝":218,"깨":219,"꺼":220,"꺾":221,"껏":222,"께":223,"껴":224,"꼈":225,"꼬":226,"꼭":227,"꼴":228,"꼼":229,"꼽":230,"꽃":231,"꾸":232,"꾼":233,"꿀":234,"꿈":235,"꿔":236,"뀌":237,"끄":238,"끈":239,"끊":240,"끌":241,"끗":242,"끝":243,"끼":244,"낀":245,"나":246,"낙":247,"난":248,"날":249,"낡":250,"남":251,"납":252,"났":253,"낭":254,"낮":255,"낳":256,"내":257,"낸":258,"낼":259,"냈":260,"냉":261,"냐":262,"냥":263,"너":264,"널":265,"넓":266,"넘":267,"넣":268,"네":269,"넷":270,"녀":271,"녁":272,"년":273,"념":274,"녕":275,"녘":276,"노":277,"녹":278,"논":279,"놀":280,"농":281,"높":282,"놓":283,"놔":284,"놨":285,"뇌":286,"누":287,"눈":288,"눠":289,"뉴":290,"느":291,"는":292,"늘":293,"능":294,"늦":295,"니":296,"닌":297,"닐":298,"님":299,"닙":300,"닝":301,"다":302,"닥":303,"단":304,"닫":305,"달":306,"담":307,"답":308,"닷":309,"당":310,"대":311,"댓":312,"더":313,"덕":314,"던":315,"덜":316,"덧":317,"덮":318,"데":319,"델":320,"도":321,"독":322,"돈":323,"돌":324,"돕":325,"동":326,"돼":327,"됐":328,"되":329,"된":330,"될":331,"됨":332,"됩":333,"두":334,"둔":335,"둘":336,"둥":337,"뒀":338,"뒤":339,"뒷":340,"드":341,"득":342,"든":343,"듣":344,"들":345,"듭":346,"듯":347,"등":348,"디":349,"딛":350,"딜":351,"따":352,"딱":353,"딸":354,"땀":355,"땅":356,"때":357,"땐":358,"떠":359,"떡":360,"떤":361,"떨":362,"떻":363,"떼":364,"또":365,"똑":366,"뚜":367,"뚫":368,"뛰":369,"뜨":370,"뜻":371,"띄":372,"띠":373,"라":374,"락":375,"란":376,"람":377,"랍":378,"랐":379,"랑":380,"래":381,"랙":382,"랜":383,"램":384,"랫":385,"략":386,"량":387,"러":388,"런":389,"럴":390,"럼":391,"럽":392,"렀":393,"렇":394,"레":395,"려":396,"력":397,"련":398,"렬":399,"렴":400,"렵":401,"렷":402,"렸":403,"령":404,"례":405,"로":406,"록":407,"론":408,"롤":409,"롭":410,"롯":411,"롱":412,"뢰":413,"료":414,"룡":415,"루":416,"룩":417,"룬":418,"룰":419,"룸":420,"룹":421,"뤄":422,"뤘":423,"류":424,"륙":425,"률":426,"르":427,"른":428,"를":429,"름":430,"릉":431,"리":432,"릭":433,"린":434,"릴":435,"림":436,"립":437,"링":438,"마":439,"막":440,"만":441,"많":442,"말":443,"맙":444,"망":445,"맞":446,"맡":447,"매":448,"맥":449,"맨":450,"맹":451,"맺":452,"머":453,"먹":454,"먼":455,"멀":456,"멈":457,"메":458,"멘":459,"며":460,"면":461,"멸":462,"명":463,"몇":464,"모":465,"목":466,"몫":467,"몰":468,"몸":469,"못":470,"묘":471,"무":472,"묵":473,"묶":474,"문":475,"묻":476,"물":477,"뭉":478,"뭐":479,"뭔":480,"뮤":481,"므":482,"미":483,"민":484,"믿":485,"밀":486,"밍":487,"및":488,"밑":489,"바":490,"박":491,"밖":492,"반":493,"받":494,"발":495,"밝":496,"밟":497,"밤":498,"방":499,"밭":500,"배":501,"백":502,"뱅":503,"버":504,"번":505,"벌":506,"범":507,"법":508,"벗":509,"베":510,"벤":511,"벨":512,"벼":513,"벽":514,"변":515,"별":516,"병":517,"보":518,"복":519,"본":520,"볼":521,"봄":522,"봅":523,"봉":524,"봐":525,"봤":526,"부":527,"북":528,"분":529,"불":530,"붙":531,"뷰":532,"브":533,"블":534,"비":535,"빅":536,"빈":537,"빌":538,"빗":539,"빙":540,"빚":541,"빛":542,"빠":543,"빨":544,"빼":545,"뽑":546,"뿌":547,"뿐":548,"쁜":549,"사":550,"삭":551,"산":552,"살":553,"삶":554,"삼":555,"상":556,"새":557,"색":558,"샌":559,"생":560,"서":561,"석":562,"선":563,"설":564,"섬":565,"섭":566,"섯":567,"섰":568,"성":569,"세":570,"센":571,"셈":572,"셔":573,"션":574,"셜":575,"셨":576,"소":577,"속":578,"손":579,"솔":580,"송":581,"쇄":582,"쇼":583,"수":584,"숙":585,"순":586,"술":587,"숨":588,"숫":589,"숭":590,"쉬":591,"쉽":592,"슈":593,"스":594,"슨":595,"슬":596,"슴":597,"습":598,"슷":599,"승":600,"시":601,"식":602,"신":603,"실":604,"심":605,"십":606,"싱":607,"싶":608,"싸":609,"싼":610,"쌓":611,"써":612,"썼":613,"쏘":614,"쏜":615,"쏟":616,"쏠":617,"쓰":618,"쓴":619,"쓸":620,"씀":621,"씨":622,"씩":623,"씬":624,"아":625,"악":626,"안":627,"앉":628,"않":629,"알":630,"암":631,"압":632,"앗":633,"았":634,"앙":635,"앞":636,"애":637,"액":638,"앤":639,"앱":640,"앵":641,"야":642,"약":643,"양":644,"얘":645,"어":646,"억":647,"언":648,"얻":649,"얼":650,"엄":651,"업":652,"없":653,"엇":654,"었":655,"에":656,"엔":657,"엘":658,"엠":659,"여":660,"역":661,"연":662,"열":663,"염":664,"엽":665,"였":666,"영":667,"옆":668,"예":669,"옛":670,"오":671,"옥":672,"온":673,"올":674,"옮":675,"옳":676,"옵":677,"옹":678,"와":679,"완":680,"왔":681,"왕":682,"왜":683,"외":684,"왼":685,"요":686,"욕":687,"용":688,"우":689,"욱":690,"운":691,"울":692,"움":693,"웃":694,"웅":695,"워":696,"원":697,"월":698,"웠":699,"웨":700,"위":701,"유":702,"육":703,"윤":704,"율":705,"융":706,"으":707,"은":708,"을":709,"음":710,"읍":711,"응":712,"의":713,"이":714,"익":715,"인":716,"일":717,"읽":718,"잃":719,"임":720,"입":721,"잇":722,"있":723,"잊":724,"자":725,"작":726,"잔":727,"잖":728,"잘":729,"잠":730,"잡":731,"장":732,"재":733,"쟁":734,"저":735,"적":736,"전":737,"절":738,"젊":739,"점":740,"접":741,"정":742,"제":743,"젝":744,"젠":745,"져":746,"졌":747,"조":748,"족":749,"존":750,"졸":751,"좀":752,"좁":753,"종":754,"좋":755,"좌":756,"죄":757,"죠":758,"주":759,"죽":760,"준":761,"줄":762,"중":763,"줘":764,"줬":765,"쥐":766,"즈":767,"즉":768,"즐":769,"즘":770,"증":771,"지":772,"직":773,"진":774,"질":775,"짐":776,"집":777,"짓":778,"징":779,"짜":780,"짝":781,"짧":782,"째":783,"쩌":784,"쪽":785,"쫙":786,"쯤":787,"찌":788,"찍":789,"찔":790,"차":791,"착":792,"찬":793,"찮":794,"찰":795,"참":796,"창":797,"찾":798,"채":799,"책":800,"챙":801,"처":802,"척":803,"천":804,"철":805,"첨":806,"첩":807,"첫":808,"청":809,"체":810,"쳐":811,"쳤":812,"초":813,"촉":814,"촌":815,"촛":816,"총":817,"촬":818,"최":819,"추":820,"축":821,"춘":822,"출":823,"춤":824,"충":825,"춰":826,"췄":827,"취":828,"츠":829,"측":830,"층":831,"치":832,"칙":833,"친":834,"칠":835,"침":836,"칭":837,"카":838,"칼":839,"캐":840,"캠":841,"캡":842,"커":843,"컨":844,"컴":845,"컷":846,"케":847,"켓":848,"켜":849,"켰":850,"코":851,"콘":852,"콜":853,"콤":854,"콧":855,"콩":856,"쿄":857,"쿠":858,"쿨":859,"크":860,"큰":861,"클":862,"큼":863,"키":864,"킨":865,"킬":866,"킷":867,"킹":868,"타":869,"탁":870,"탄":871,"탈":872,"탐":873,"탑":874,"탓":875,"탕":876,"태":877,"택":878,"터":879,"턱":880,"턴":881,"털":882,"텃":883,"테":884,"텐":885,"텔":886,"템":887,"토":888,"톡":889,"톤":890,"톱":891,"통":892,"퇴":893,"투":894,"튜":895,"트":896,"특":897,"튼":898,"틀":899,"틈":900,"티":901,"팀":902,"팅":903,"파":904,"팎":905,"판":906,"팔":907,"팟":908,"패":909,"팩":910,"팬":911,"팽":912,"퍼":913,"페":914,"펫":915,"펴":916,"편":917,"펼":918,"평":919,"폐":920,"포":921,"폭":922,"폰":923,"폴":924,"폼":925,"표":926,"푸":927,"풀":928,"품":929,"풍":930,"퓨":931,"프":932,"픈":933,"플":934,"피":935,"픽":936,"핀":937,"필":938,"핑":939,"하":940,"학":941,"한":942,"할":943,"함":944,"합":945,"항":946,"해":947,"핵":948,"했":949,"행":950,"향":951,"허":952,"헉":953,"헌":954,"험":955,"헤":956,"헬":957,"혀":958,"혁":959,"현":960,"혈":961,"혐":962,"협":963,"혔":964,"형":965,"혜":966,"호":967,"혹":968,"혼":969,"홀":970,"홈":971,"홍":972,"화":973,"확":974,"환":975,"활":976,"황":977,"회":978,"획":979,"횡":980,"효":981,"후":982,"훈":983,"훨":984,"훼":985,"휘":986,"휴":987,"흐":988,"흑":989,"흔":990,"흘":991,"흠":992,"흡":993,"흥":994,"희":995,"히":996,"힌":997,"힐":998,"힘":999,"�":1000,"”</w>":1001,"서</w>":1002,"?</w>":1003,"권</w>":1004,",</w>":1005,"지</w>":1006,"와</w>":1007,"호</w>":1008,"부</w>":1009,"사</w>":1010,"원</w>":1011,"니</w>":1012,"에</w>":1013,"는</w>":1014,"과</w>":1015,".</w>":1016,"혜</w>":1017,"`</w>":1018,"간</w>":1019,"도</w>":1020,"'</w>":1021,"이</w>":1022,")</w>":1023,"7</w>":1024,"을</w>":1025,"기</w>":1026,"0</w>":1027,"은</w>":1028,"의</w>":1029,"고</w>":1030,"번</w>":1031,"순</w>":1032,"해</w>":1033,"가</w>":1034,"듯</w>":1035,"로</w>":1036,"면</w>":1037,"를</w>":1038,"9</w>":1039,"p</w>":1040,"m</w>":1041,"문</w>":1042,"제</w>":1043,"트</w>":1044,"교</w>":1045,"석</w>":1046,"구</w>":1047,"찬</w>":1048,"게</w>":1049,"계</w>":1050,"엔</w>":1051,"복</w>":1052,"집</w>":1053,"드</w>":1054,"식</w>":1055,"여</w>":1056,"치</w>":1057,"늘</w>":1058,"천</w>":1059,"적</w>":1060,"감</w>":1061,"러</w>":1062,"중</w>":1063,"된</w>":1064,"단</w>":1065,"회</w>":1066,"스</w>":1067,"일</w>":1068,"벌</w>":1069,"초</w>":1070,"수</w>":1071,"조</w>":1072,"찰</w>":1073,"화</w>":1074,"곳</w>":1075,"히</w>":1076,"위</w>":1077,"령</w>":1078,"정</w>":1079,"한</w>":1080,"말</w>":1081,"성</w>":1082,"건</w>":1083,"훈</w>":1084,"라</w>":1085,"당</w>":1086,"년</w>":1087,"며</w>":1088,"될</w>":1089,"급</w>":1090,"실</w>":1091,"할</w>":1092,"필</w>":1093,"인</w>":1094,"상</w>":1095,"균</w>":1096,"크</w>":1097,"임</w>":1098,"데</w>":1099,"래</w>":1100,"넷</w>":1101,"장</w>":1102,"시</w>":1103,"세</w>":1104,"야</w>":1105,"온</w>":1106,"!</w>":1107,"핑</w>":1108,"약</w>":1109,"군</w>":1110,"어</w>":1111,"개</w>":1112,"함</w>":1113,"날</w>":1114,"나</w>":1115,"보</w>":1116,"…</w>":1117,"학</w>":1118,"만</w>":1119,"생</w>":1120,"안</w>":1121,"北</w>":1122,"달</w>":1123,"\"</w>":1124,"염</w>":1125,"역</w>":1126,"&</w>":1127,"내</w>":1128,"육</w>":1129,"들</w>":1130,"범</w>":1131,"색</w>":1132,"촌</w>":1133,"동</w>":1134,"진</w>":1135,"줄</w>":1136,"저</w>":1137,"%</w>":1138,"민</w>":1139,"A</w>":1140,"법</w>":1141,"산</w>":1142,"영</w>":1143,"대</w>":1144,"것</w>":1145,"K</w>":1146,"與</w>":1147,"련</w>":1148,"든</w>":1149,"주</w>":1150,"후</w>":1151,"입</w>":1152,"터</w>":1153,"란</w>":1154,"공</w>":1155,"품</w>":1156,"템</w>":1157,"난</w>":1158,"선</w>":1159,"업</w>":1160,"득</w>":1161,"록</w>":1162,"마</w>":1163,"자</w>":1164,"른</w>":1165,"힐</w>":1166,"처</w>":1167,"]</w>":1168,"써</w>":1169,"름</w>":1170,"별</w>":1171,"까</w>":1172,"길</w>":1173,"병</w>":1174,"슬</w>":1175,"월</w>":1176,"체</w>":1177,"런</w>":1178,"향</w>":1179,"다</w>":1180,"력</w>":1181,"종</w>":1182,"소</w>":1183,"전</w>":1184,"청</w>":1185,"돼</w>":1186,"l</w>":1187,"통</w>":1188,"먹</w>":1189,"뿐</w>":1190,"료</w>":1191,"론</w>":1192,"절</w>":1193,"현</w>":1194,"던</w>":1195,"닌</w>":1196,"축</w>":1197,"x</w>":1198,"우</w>":1199,"낸</w>":1200,"쪽</w>":1201,"하</w>":1202,"겸</w>":1203,"/</w>":1204,"께</w>":1205,"객</w>":1206,"웅</w>":1207,"긴</w>":1208,"압</w>":1209,"운</w>":1210,"옥</w>":1211,"C</w>":1212,"표</w>":1213,"례</w>":1214,"키</w>":1215,"째</w>":1216,"직</w>":1217,"허</w>":1218,"섭</w>":1219,"킬</w>":1220,"용</w>":1221,"친</w>":1222,"경</w>":1223,"관</w>":1224,"오</w>":1225,"태</w>":1226,"차</w>":1227,"냐</w>":1228,"혁</w>":1229,"량</w>":1230,"재</w>":1231,"질</w>":1232,"티</w>":1233,"룬</w>":1234,"무</w>":1235,"’</w>":1236,"국</w>":1237,"셈</w>":1238,"환</w>":1239,"린</w>":1240,"비</w>":1241,"></w>":1242,"착</w>":1243,"혹</w>":1244,"락</w>":1245,"신</w>":1246,"컴</w>":1247,"합</w>":1248,"명</w>":1249,"럼</w>":1250,"준</w>":1251,"�</w>":1252,"바</w>":1253,"형</w>":1254,"㎞</w>":1255,"층</w>":1256,"방</w>":1257,"규</w>":1258,"설</w>":1259,"잠</w>":1260,"n</w>":1261,"[</w>":1262,"볼</w>":1263,"백</w>":1264,"모</w>":1265,"봉</w>":1266,"족</w>":1267,"근</w>":1268,"1</w>":1269,"남</w>":1270,"6</w>":1271,"희</w>":1272,"슈</w>":1273,"혀</w>":1274,"애</w>":1275,"룹</w>":1276,"느</w>":1277,"각</w>":1278,"측</w>":1279,"네</w>":1280,"액</w>":1281,"아</w>":1282,"십</w>":1283,"리</w>":1284,"연</w>":1285,"靑</w>":1286,"文</w>":1287,"징</w>":1288,"또</w>":1289,"t</w>":1290,"접</w>":1291,"d</w>":1292,"팀</w>":1293,"능</w>":1294,"켜</w>":1295,":</w>":1296,"갈</w>":1297,"릭</w>":1298,"두</w>":1299,"립</w>":1300,"휘</w>":1301,"움</w>":1302,"응</w>":1303,"r</w>":1304,"릴</w>":1305,"분</w>":1306,"북</w>":1307,"걸</w>":1308,"녕</w>":1309,"랙</w>":1310,"숙</w>":1311,"3</w>":1312,"항</w>":1313,"률</w>":1314,"밤</w>":1315,"너</w>":1316,"타</w>":1317,"쯤</w>":1318,"물</w>":1319,"증</w>":1320,"울</w>":1321,"철</w>":1322,"(</w>":1323,"행</w>":1324,"즈</w>":1325,"요</w>":1326,"좌</w>":1327,"져</w>":1328,"거</w>":1329,"G</w>":1330,"담</w>":1331,"씩</w>":1332,"큰</w>":1333,"험</w>":1334,"낼</w>":1335,"갑</w>":1336,"韓</w>":1337,"등</w>":1338,"씨</w>":1339,"발</w>":1340,"존</w>":1341,"견</w>":1342,"목</w>":1343,"野</w>":1344,"억</w>":1345,"극</w>":1346,"금</w>":1347,"님</w>":1348,"려</w>":1349,"더</w>":1350,"미</w>":1351,"택</w>":1352,"되</w>":1353,"예</w>":1354,"율</w>":1355,"中</w>":1356,"덕</w>":1357,"커</w>":1358,"배</w>":1359,"D</w>":1360,"e</w>":1361,"폰</w>":1362,"광</w>":1363,"외</w>":1364,"X</w>":1365,"손</w>":1366,"꾼</w>":1367,"5</w>":1368,"파</w>":1369,"흘</w>":1370,"檢</w>":1371,"픈</w>":1372,"략</w>":1373,"그</w>":1374,"욱</w>":1375,"즉</w>":1376,"본</w>":1377,"픽</w>":1378,"킨</w>":1379,"격</w>":1380,"악</w>":1381,"끼</w>":1382,"양</w>":1383,"피</w>":1384,"점</w>":1385,"곽</w>":1386,"뒷</w>":1387,"죄</w>":1388,"짐</w>":1389,"망</w>":1390,"㈜</w>":1391,"채</w>":1392,"슨</w>":1393,"돈</w>":1394,"쟁</w>":1395,"유</w>":1396,"폭</w>":1397,"괄</w>":1398,"반</w>":1399,"변</w>":1400,"델</w>":1401,"언</w>":1402,"매</w>":1403,"녘</w>":1404,"참</w>":1405,"8</w>":1406,"창</w>":1407,"투</w>":1408,"엘</w>":1409,"암</w>":1410,"술</w>":1411,"P</w>":1412,"풍</w>":1413,"숨</w>":1414,"욕</w>":1415,"o</w>":1416,"탕</w>":1417,"윤</w>":1418,"F</w>":1419,"칠</w>":1420,"익</w>":1421,"열</w>":1422,"굴</w>":1423,"카</w>":1424,"패</w>":1425,"벽</w>":1426,"B</w>":1427,"링</w>":1428,"엽</w>":1429,"홍</w>":1430,"c</w>":1431,"륙</w>":1432,"작</w>":1433,"V</w>":1434,"션</w>":1435,"렬</w>":1436,"독</w>":1437,"속</w>":1438,"겐</w>":1439,"블</w>":1440,"답</w>":1441,"큼</w>":1442,"둥</w>":1443,"총</w>":1444,"람</w>":1445,"벨</w>":1446,"봄</w>":1447,"판</w>":1448,"출</w>":1449,"심</w>":1450,"널</w>":1451,"흥</w>":1452,"글</w>":1453,"평</w>":1454,"T</w>":1455,"책</w>":1456,"땐</w>":1457,"-</w>":1458,"@</w>":1459,"·</w>":1460,"르</w>":1461,"=</w>":1462,"때</w>":1463,"결</w>":1464,"곡</w>":1465,"딱</w>":1466,"金</w>":1467,"팽</w>":1468,"코</w>":1469,"죠</w>":1470,"눈</w>":1471,"랑</w>":1472,"2</w>":1473,"테</w>":1474,"노</w>":1475,"디</w>":1476,"Z</w>":1477,"둔</w>":1478,"팅</w>":1479,"곤</w>":1480,"탑</w>":1481,"셔</w>":1482,";</w>":1483,"朴</w>":1484,"횡</w>":1485,"편</w>":1486,"쇄</w>":1487,"침</w>":1488,"냥</w>":1489,"포</w>":1490,"〉</w>":1491,"뒤</w>":1492,"옛</w>":1493,"a</w>":1494,"몇</w>":1495,"日</w>":1496,"턴</w>":1497,"램</w>":1498,"콤</w>":1499,"센</w>":1500,"홀</w>":1501,"칙</w>":1502,"궐</w>":1503,"막</w>":1504,"류</w>":1505,"강</w>":1506,"박</w>":1507,"↑</w>":1508,"】</w>":1509,"프</w>":1510,"힘</w>":1511,"림</w>":1512,"취</w>":1513,"s</w>":1514,"룰</w>":1515,"y</w>":1516,"켓</w>":1517,"올</w>":1518,"브</w>":1519,"엄</w>":1520,"꿀</w>":1521,"김</w>":1522,"쳐</w>":1523,"탄</w>":1524,"쓴</w>":1525,"4</w>":1526,"뭐</w>":1527,"◇</w>":1528,"쥐</w>":1529,"습</w>":1530,"루</w>":1531,"겨</w>":1532,"※</w>":1533,"확</w>":1534,"새</w>":1535,"털</w>":1536,"레</w>":1537,"룡</w>":1538,"셜</w>":1539,"N</w>":1540,"읍</w>":1541,"빈</w>":1542,"살</w>":1543,"M</w>":1544,"첫</w>":1545,"잔</w>":1546,"검</w>":1547,"송</w>":1548,"활</w>":1549,"봐</w>":1550,"둘</w>":1551,"황</w>":1552,"헌</w>":1553,"쇼</w>":1554,"춘</w>":1555,"O</w>":1556,"틀</w>":1557,"념</w>":1558,"워</w>":1559,"멸</w>":1560,"쉬</w>":1561,"귀</w>":1562,"콩</w>":1563,"승</w>":1564,"▷</w>":1565,"랜</w>":1566,"츠</w>":1567,"롱</w>":1568,"줘</w>":1569,"i</w>":1570,"g</w>":1571,"폐</w>":1572,"뤄</w>":1573,"협</w>":1574,"힌</w>":1575,"왜</w>":1576,"美</w>":1577,"S</w>":1578,"음</w>":1579,"뢰</w>":1580,"R</w>":1581,"값</w>":1582,"획</w>":1583,"죽</w>":1584,"■</w>":1585,"짜</w>":1586,"잡</w>":1587,"팟</w>":1588,"퍼</w>":1589,"돌</w>":1590,"軍</w>":1591,"빙</w>":1592,"퇴</w>":1593,"융</w>":1594,"추</w>":1595,"밍</w>":1596,"불</w>":1597,"콧</w>":1598,"b</w>":1599,"왕</w>":1600,"효</w>":1601,"땅</w>":1602,"U</w>":1603,"혈</w>":1604,"놔</w>":1605,"꼴</w>":1606,"및</w>":1607,"첩</w>":1608,"럽</w>":1609,"쿨</w>":1610,"땀</w>":1611,"떤</w>":1612,"▶</w>":1613,"톤</w>":1614,"꼭</w>":1615,"꽃</w>":1616,"쁜</w>":1617,"텔</w>":1618,"골</w>":1619,"완</w>":1620,"맹</w>":1621,"安</w>":1622,"黃</w>":1623,"E</w>":1624,"핀</w>":1625,"렴</w>":1626,"낭</w>":1627,"누</w>":1628,"베</w>":1629,"충</w>":1630,"+</w>":1631,"©</w>":1632,"칼</w>":1633,"낮</w>":1634,"#</w>":1635,"◆</w>":1636,"탈</w>":1637,"씀</w>":1638,"뷰</w>":1639,"섯</w>":1640,"킹</w>":1641,"☎</w>":1642,"폼</w>":1643,"톱</w>":1644,"척</w>":1645,"칭</w>":1646,"팔</w>":1647,"“</w>":1648,"△</w>":1649,"듭</w>":1650,"턱</w>":1651,"토</w>":1652,"k</w>":1653,"폴</w>":1654,"팬</w>":1655,"튼</w>":1656,"최</w>":1657,"짓</w>":1658,"h</w>":1659,"곧</w>":1660,"밀</w>":1661,"흠</w>":1662,"슴</w>":1663,"껏</w>":1664,"컷</w>":1665,"끝</w>":1666,"녀</w>":1667,"앞</w>":1668,"젠</w>":1669,"버</w>":1670,"짝</w>":1671,"빛</w>":1672,"촉</w>":1673,"빠</w>":1674,"맥</w>":1675,"싱</w>":1676,"머</w>":1677,"【</w>":1678,"밭</w>":1679,"핵</w>":1680,"삼</w>":1681,"릉</w>":1682,"ⓒ</w>":1683,"뜻</w>":1684,"찌</w>":1685,"떼</w>":1686,"궤</w>":1687,"I</w>":1688,"케</w>":1689,"킷</w>":1690,"끈</w>":1691,"‘</w>":1692,"꼬</w>":1693,"몰</w>":1694,"닥</w>":1695,"랍</w>":1696,"얼</w>":1697,"클</w>":1698,"못</w>":1699,"슷</w>":1700,"前</w>":1701,"즐</w>":1702,"쓸</w>":1703,"앤</w>":1704,"덜</w>":1705,"씬</w>":1706,"南</w>":1707,"묘</w>":1708,"낀</w>":1709,"렵</w>":1710,"꺼</w>":1711,"∼</w>":1712,"빚</w>":1713,"룸</w>":1714,"녁</w>":1715,"싼</w>":1716,"펫</w>":1717,"띠</w>":1718,"f</w>":1719,"뚜</w>":1720,"춰</w>":1721,"훼</w>":1722,"잘</w>":1723,"푸</w>":1724,"롤</w>":1725,"닝</w>":1726,"섬</w>":1727,"밑</w>":1728,"럴</w>":1729,"웃</w>":1730,"페</w>":1731,"떡</w>":1732,"닐</w>":1733,"쿠</w>":1734,"삶</w>":1735,"맨</w>":1736,"w</w>":1737,"◎</w>":1738,"솔</w>":1739,"L</w>":1740,"W</w>":1741,"→</w>":1742,"몸</w>":1743,"|</w>":1744,"톡</w>":1745,"옆</w>":1746,"궁</w>":1747,"룩</w>":1748,"밖</w>":1749,"☏</w>":1750,"겁</w>":1751,"*</w>":1752,"따</w>":1753,"딜</w>":1754,"탁</w>":1755,"~</w>":1756,"휴</w>":1757,"괴</w>":1758,"▲</w>":1759,"먼</w>":1760,"깨</w>":1761,"풀</w>":1762,"ㆍ</w>":1763,"혼</w>":1764,"앙</w>":1765,"묵</w>":1766,"덧</w>":1767,"탓</w>":1768,"J</w>":1769,"떨</w>":1770,"논</w>":1771,"껴</w>":1772,"<</w>":1773,"멘</w>":1774,"빨</w>":1775,"좀</w>":1776,"꿈</w>":1777,"쓰</w>":1778,"춤</w>":1779,"농</w>":1780,"뱅</w>":1781,"앗</w>":1782,"팎</w>":1783,"즘</w>":1784,"웨</w>":1785,"☞</w>":1786,"H</w>":1787,"Δ</w>":1788,"콘</w>":1789,"콜</w>":1790,"납</w>":1791,"뇌</w>":1792,"쏠</w>":1793,"롯</w>":1794,"팩</w>":1795,"뭔</w>":1796,"떠</w>":1797,"엠</w>":1798,"졸</w>":1799,"앵</w>":1800,"쿄</w>":1801,"빌</w>":1802,"알</w>":1803,"홈</w>":1804,"쏜</w>":1805,"v</w>":1806,"〈</w>":1807,"똑</w>":1808,"찍</w>":1809,"故</w>":1810,"옹</w>":1811,"텐</w>":1812,"흡</w>":1813,"숭</w>":1814,"끌</w>":1815,"펴</w>":1816,"틈</w>":1817,"_</w>":1818,"빼</w>":1819,"z</w>":1820,"꾸</w>":1821,"뉴</w>":1822,"플</w>":1823,"빅</w>":1824,"}</w>":1825,"갖</w>":1826,"으</w>":1827,"놀</w>":1828,"낙</w>":1829,"꿔</w>":1830,"쫙</w>":1831,"벼</w>":1832,"엇</w>":1833,"몫</w>":1834,"쉽</w>":1835,"메</w>":1836,"넘</w>":1837,"싸</w>":1838,"딸</w>":1839,"벤</w>":1840,"펼</w>":1841,"렷</w>":1842,"삭</w>":1843,"눠</w>":1844,"앱</w>":1845,"Y</w>":1846,"20":1847,"다.</w>":1848,"id":1849,"00":1850,".0":1851,"',</w>":1852,"2020":1853,"id=":1854,"-0":1855,",2020":1856,"정치":1857,",,":1858,",정치":1859,"에서</w>":1860,"\\n":1861,".n":1862,"sid":1863,"&sid":1864,",2020-0":1865,",2020-03":1866,"으로</w>":1867,"했다.</w>":1868,"id=00":1869,",정치,":1870,"ew":1871,".c":1872,"'\\n":1873,"ews":1874,"news":1875,".co":1876,"\"\"":1877,"\\t":1878,"re":1879,"ve":1880,"mo":1881,"sh":1882,"26":1883,"하고</w>":1884,".com":1885,"다고</w>":1886,"-1":1887,"100":1888,"in":1889,"ht":1890,"tp":1891,"하는</w>":1892,"ma":1893,"//":1894,"://":1895,"http":1896,"s://":1897,"https://":1898,"de":1899,"ad":1900,"ver":1901,"main":1902,"&a":1903,".com/":1904,"aver":1905,".naver":1906,"/re":1907,"hn":1908,".naver.com/":1909,"https://news":1910,"LS":1911,".nhn":1912,".nhn?":1913,"mode":1914,"&m":1915,"&o":1916,",https://news":1917,"1=":1918,"2=":1919,"2D":1920,"=LS":1921,"m&sid":1922,"id=sh":1923,"&sid2=":1924,",2020-03-1":1925,"100&sid2=":1926,"ad.nhn?":1927,"main/re":1928,"&aid=00":1929,".naver.com/main/re":1930,"mode=LS":1931,"&mid=sh":1932,",https://news.naver.com/main/re":1933,"1=100&sid2=":1934,"2D&mid=sh":1935,"m&sid1=100&sid2=":1936,"ad.nhn?mode=LS":1937,",https://news.naver.com/main/read.nhn?mode=LS":1938,"2D&mid=shm&sid1=100&sid2=":1939,",https://news.naver.com/main/read.nhn?mode=LS2D&mid=shm&sid1=100&sid2=":1940,",https://news.naver.com/main/read.nhn?mode=LS2D&mid=shm&sid1=100&sid2=26":1941,"코로":1942,"니다.</w>":1943,"3.0":1944,"위원":1945,",2020.0":1946,"뉴시":1947,"대통":1948,"있다.</w>":1949,"코로나":1950,"오후</w>":1951,"뉴스":1952,"19":1953,"대표":1954,".0,":1955,"'\\n\\t":1956,",2020-03-17</w>":1957,"의원":1958,"대통령":1959,"국회":1960,"&aid=000":1961,"이라":1962,"오전</w>":1963,"다.":1964,"한국":1965,"민주":1966,"뉴시스":1967,"\",정치,":1968,",2020-03-0":1969,",2020.03.0":1970,"11":1971,"21":1972,"다.',</w>":1973,"3:":1974,"습니다.</w>":1975,"&oid=00":1976,"회의":1977,"통합":1978,"1.0":1979,"연합":1980,"영상":1981,"2,":1982,"하겠":1983,"10":1984,"국민":1985,"다는</w>":1986,"2.</w>":1987,"&oid=":1988,"일반":1989,"위원장":1990,"미래":1991,"-7":1992,"0,2020-03-17</w>":1993,",정치,정치":1994,",https://news.naver.com/main/read.nhn?mode=LS2D&mid=shm&sid1=100&sid2=269":1995,",정치,정치일반":1996,"다”":1997,":5":1998,"19</w>":1999,"\",":2000,"서울</w>":2001,"정부":2002,"2일</w>":2003,":3":2004,"코로나19</w>":2005,":4":2006,"'\\n\\t',</w>":2007,"면서</w>":2008,"이다.</w>":2009,",,,</w>":2010,"북한":2011,"청와":2012,"장관":2013,",,,,,</w>":2014,"위한</w>":2015,"12":2016,":0":2017,"이라고</w>":2018,"선거":2019,"되는</w>":2020,"지역":2021,"대한</w>":2022,"la":2023,"뉴스</w>":2024,"연합뉴스":2025,",,\"</w>":2026,"열린</w>":2027,"민주당</w>":2028,"\\n',</w>":2029,"5,":2030,"사진":2031,"fla":2032,"하기</w>":2033,"정당":2034,"있다고</w>":2035,"기자</w>":2036,"밝혔":2037,"외교":2038,"문재":2039,"47":2040,"국회</w>":2041,"이날</w>":2042,"고,</w>":2043,",,</w>":2044,"들이</w>":2045,"문재인</w>":2046,"5.</w>":2047,"있는</w>":2048,"02":2049,"1.":2050,"\\n\\t":2051,"공감":2052,"3&aid=000":2053,"서울":2054,"후보":2055,"다며</w>":2056,"성이</w>":2057,"1.02.</w>":2058,"언론</w>":2059,",정치,정치일반,2020-03-0":2060,"원내":2061,"&oid=003&aid=000":2062,"&oid=003&aid=0009":2063,"공감언론</w>":2064,"다\"\"":2065,"위해</w>":2066,"제보":2067,"1-0":2068,",2020-01-0":2069,"기자":2070,"여러":2071,"지난":2072,"대구":2073,"경제":2074,"공천":2075,"판단":2076,"주시":2077,"사진</w>":2078,"05":2079,"여러분":2080,"1,":2081,"서는</w>":2082,"국무":2083,"코로나19":2084,"통합당</w>":2085,"04":2086,"것으로</w>":2087,"보내":2088,"마스":2089,"\\n\\t',</w>":2090,"5일</w>":2091,":1":2092,"적으로</w>":2093,",2020.03.05.</w>":2094,"&aid=0004":2095,"까지</w>":2096,"또는</w>":2097,"밝혔다.</w>":2098,"적극</w>":2099,"뉴시스</w>":2100,":2":2101,"대해</w>":2102,"감염":2103,"1일</w>":2104,"더불":2105,"반영":2106,"라고</w>":2107,"에게</w>":2108,"말했다.</w>":2109,"추가":2110,"가치":2111,"부터</w>":2112,"중한</w>":2113,"민주당":2114,"더불어":2115,"하게</w>":2116,"여의":2117,"기다":2118,",2020.01.02.</w>":2119,"인사":2120,"다”고</w>":2121,"1.0,":2122,"1.</w>":2123,",2020-01-02,":2124,"2020.0":2125,"부(":2126,"여의도</w>":2127,"습니":2128,"소중한</w>":2129,")로</w>":2130,"립니다.</w>":2131,"\",정치,0,2020-03-17</w>":2132,".0,,":2133,"영상을</w>":2134,"여러분의</w>":2135,"'▶</w>":2136,"470":2137,"중앙":2138,"화제":2139,"독자</w>":2140,"사진영상":2141,"국회에서</w>":2142,"주시면</w>":2143,"판단되는</w>":2144,"반영하겠":2145,"제보를</w>":2146,"청와대":2147,"참석":2148,"뉴시스가</w>":2149,"보내주시면</w>":2150,"화제성이</w>":2151,"21-7":2152,"-721-7":2153,"02-721-7":2154,"가치나</w>":2155,"기다립니다.</w>":2156,"470)로</w>":2157,"사진영상부(":2158,"02-721-7470)로</w>":2159,"un":2160,",2020-03-16</w>":2161,"원내대표":2162,",뉴시스":2163,"총리":2164,"2020.":2165,"김정":2166,"()</w>":2167,",https://news.naver.com/main/read.nhn?mode=LS2D&mid=shm&sid1=100&sid2=269&oid=":2168,"@news":2169,"적인</w>":2170,"18":2171,"3.":2172,"하지</w>":2173,"2019":2174,"30":2175,"관계":2176,"통해</w>":2177,"03:":2178,"우리":2179,"한국당</w>":2180,"금지":2181,"14":2182,"\"[":2183,"al":2184,"상황":2185,"자유":2186,"이러":2187,"사를</w>":2188,"에는</w>":2189,"비례":2190,"지만</w>":2191,"22":2192,"한국당":2193,"&oid=003&aid=00097":2194,"의원은</w>":2195,"대통령은</w>":2196,"하기":2197,"1&aid=00":2198,"&oid=001&aid=00":2199,"&oid=001&aid=0011":2200,"ti":2201,"장을</w>":2202,"국방":2203,"반영하겠습니다.</w>":2204,"사진영상부(,</w>":2205,"가능":2206,"더불어민주당</w>":2207,"회의</w>":2208,"들의</w>":2209,"류를</w>":2210,"lb":2211,"미래통합당</w>":2212,"tio":2213,"으로":2214,"바이러":2215,"했다.',</w>":2216,"대통령이</w>":2217,"ck":2218,"도록</w>":2219,"ctio":2220,"']":2221,"fun":2222,"functio":2223,"우회":2224,"뉴스1":2225,"국가":2226,"17":2227,"function</w>":2228,"마스크</w>":2229,"15":2230,"함께</w>":2231,"지원":2232,"//</w>":2233,"ack":2234,"{}":2235,"remo":2236,"remove":2237,"28":2238,"'\\n',</w>":2239,"removeC":2240,"'\\n\\n',</w>":2241,"allb":2242,"오류를</w>":2243,"allback":2244,"_fla":2245,"_removeC":2246,"sh</w>":2247,"함수</w>":2248,"\\nfunction</w>":2249,"'\\n//</w>":2250,"sh_removeC":2251,"flash</w>":2252,"추가\\nfunction</w>":2253,"\"['\\n\\t',</w>":2254,"우회하기</w>":2255,"{}\\n',</w>":2256,"allback()</w>":2257,"_flash_removeC":2258,"_flash_removeCallback()</w>":2259,"'\\n\\t']":2260,"이어</w>":2261,"16":2262,"우리</w>":2263,"정부</w>":2264,"지난</w>":2265,"'[":2266,"관련":2267,"강조":2268,"청와대</w>":2269,"하며</w>":2270,"관리":2271,"이라며</w>":2272,"그러":2273,"2020.03.0":2274,"해야</w>":2275,"/정당":2276,"대응":2277,",정치,국회":2278,",https://news.naver.com/main/read.nhn?mode=LS2D&mid=shm&sid1=100&sid2=265":2279,",정치,국회/정당":2280,"총선</w>":2281,"사회":2282,"대한":2283,"의원</w>":2284,"'\\n\\t']\",정치,":2285,"자는</w>":2286,"29":2287,"38":2288,"관련</w>":2289,"행정":2290,"35":2291,"전략":2292,"조치":2293,"출마":2294,"발사":2295,"37":2296,"발언":2297,"검찰":2298,"북한</w>":2299,"27":2300,"아니":2301,",정치,0,2020-03-17</w>":2302,"통합당":2303,",2020.03.02.</w>":2304,"대변":2305,"대표</w>":2306,"장은</w>":2307,"습니다.',</w>":2308,"한다.</w>":2309,"미국":2310,"위원회</w>":2311,"됐다.</w>":2312,"다\"\"고</w>":2313,"바이러스</w>":2314,"회의에서</w>":2315,"진행":2316,".k":2317,"24":2318,",,\"['\\n\\t',</w>":2319,"신종</w>":2320,"'\\n\\t\\n\\t',</w>":2321,"황교":2322,"입국":2323,"감염증":2324,"총선":2325,"2020.3.":2326,"들은</w>":2327,"발표":2328,",연합뉴스":2329,"4,":2330,"지를</w>":2331,"위원장이</w>":2332,"안전":2333,"노동":2334,"대표가</w>":2335,"36":2336,"대책":2337,"(코로나19":2338,"장이</w>":2339,"]',</w>":2340,"정책":2341,"것은</w>":2342,"다”며</w>":2343,"력을</w>":2344,"xa":2345,"\\xa":2346,"서도</w>":2347,",2020-03-05,":2348,",2019":2349,"설명":2350,"예비":2351,"대해":2352,"대통령</w>":2353,"인은</w>":2354,"정의":2355,"44":2356,"최고":2357,"대표는</w>":2358,"필요":2359,"지난달</w>":2360,"확진":2361,"그는</w>":2362,"421":2363,"코로나바이러스</w>":2364,"한다고</w>":2365,"라는</w>":2366,"등을</w>":2367,"39":2368,"선언":2369,"is":2370,"의원이</w>":2371,"했다고</w>":2372,"421&aid=0004":2373,"\\xa0":2374,"신년":2375,"안을</w>":2376,"감염증(코로나19":2377,"재배":2378,"에도</w>":2379,"3,":2380,"개혁":2381,"이번</w>":2382,"문제":2383,"처리":2384,"들과</w>":2385,"된다.</w>":2386,"위원회":2387,"지난해</w>":2388,"한반":2389,"것을</w>":2390,"황교안</w>":2391,"에서는</w>":2392,"\"\",</w>":2393,"지역</w>":2394,"문에</w>":2395,"저작":2396,"조선":2397,"저작권":2398,"김정은</w>":2399,",정치,정치일반,2020-03-02,":2400,"기를</w>":2401,"생각":2402,"법무":2403,"구독":2404,",정치,정치일반,2020-03-05,":2405,"신천":2406,"\\'":2407,"통신":2408,"재배포</w>":2409,"2.0,":2410,"34":2411,"50":2412,"1.0,,":2413,"대로</w>":2414,"의료":2415,"것이라고</w>":2416,"군사":2417,"네이":2418,"뉴스1</w>":2419,",정치,정치일반,2020-01-02,":2420,"위원장은</w>":2421,"것이</w>":2422,"자가</w>":2423,"),</w>":2424,"따라</w>":2425,"했습니다.</w>":2426,"&oid=421&aid=0004":2427,"들을</w>":2428,"@news1.":2429,"결정":2430,"사람":2431,"대통령의</w>":2432,"는데</w>":2433,"중국":2434,"자유한국당</w>":2435,"었다.</w>":2436,"전문":2437,"같은</w>":2438,"보수":2439,"사에서</w>":2440,"새로":2441,"25":2442,"하고,</w>":2443,"지는</w>":2444,"@newsis":2445,"기자회":2446,"들어":2447,"방역":2448,"공천</w>":2449,"1.0,,</w>":2450,"감염증(코로나19)</w>":2451,"��":2452,"4일</w>":2453,"지도":2454,"하면</w>":2455,"없는</w>":2456,"안철":2457,"임명":2458,"하면서</w>":2459,"평화":2460,"일보":2461,"@newsis.com":2462,"·1":2463,"추미":2464,"0,2020-03-16</w>":2465,"사실":2466,",정치,청와대":2467,",https://news.naver.com/main/read.nhn?mode=LS2D&mid=shm&sid1=100&sid2=264":2468,"민생":2469,"3일</w>":2470,"만,</w>":2471,"4.</w>":2472,"수사":2473,"/외교":2474,",정치,국방":2475,",https://news.naver.com/main/read.nhn?mode=LS2D&mid=shm&sid1=100&sid2=267":2476,",정치,국방/외교":2477,"모든</w>":2478,"예정":2479,".12":2480,"23:":2481,"격리":2482,"해서</w>":2483,"되고</w>":2484,"비판":2485,"정세":2486,"방문":2487,"기자회견":2488,"공관":2489,"확산":2490,"이라는</w>":2491,"/뉴스1</w>":2492,".co.k":2493,"였다.</w>":2494,"대상":2495,"·경":2496,"강화":2497,"코로나</w>":2498,",정치,행정":2499,",https://news.naver.com/main/read.nhn?mode=LS2D&mid=shm&sid1=100&sid2=266":2500,"보다</w>":2501,"추미애</w>":2502,"40":2503,"병원":2504,"예산":2505,"전원":2506,"강조했다.</w>":2507,"다시</w>":2508,"무단":2509,"회의를</w>":2510,"의를</w>":2511,"서울=":2512,"보건":2513,"조정":2514,"국민</w>":2515,"부는</w>":2516,"시작":2517,"ho":2518,"북한이</w>":2519,"평가":2520,"기념":2521,".0</w>":2522,"어려":2523,"라며</w>":2524,"다\"\"며</w>":2525,",\"</w>":2526,"장관이</w>":2527,"관에서</w>":2528,"시민":2529,".co.kr":2530,"았다.</w>":2531,"대응</w>":2532,"이에</w>":2533,"to":2534,"바른":2535,"장,</w>":2536,"예비후보":2537,",2020.03.01.</w>":2538,"이런</w>":2539,"추경":2540,",뉴스1":2541,"인터":2542,"리고</w>":2543,"&oid=0":2544,"보도":2545,"특별":2546,"이후</w>":2547,"네이버</w>":2548,"다면</w>":2549,"49":2550,"지만,</w>":2551,"상공":2552,"요구":2553,"페이":2554,"사가</w>":2555,"선을</w>":2556,"훈련":2557,"대변인은</w>":2558,"스트":2559,",,,":2560,"외교부</w>":2561,",정치,북한":2562,",https://news.naver.com/main/read.nhn?mode=LS2D&mid=shm&sid1=100&sid2=268":2563,"그러면서</w>":2564,",https://news.naver.com/main/read.nhn?mode=LS2D&mid=shm&sid1=100&sid2=269&oid=003&aid=00097":2565,"사는</w>":2566,"개정":2567,"신문":2568,"하겠다고</w>":2569,"공개":2570,"경제</w>":2571,"내용":2572,"주장":2573,"추진":2574,"특히</w>":2575,"마스크":2576,"기소":2577,"언급":2578,"13":2579,"바른미래":2580,"앞서</w>":2581,".12.0":2582,"메시":2583,"신청":2584,"입니다.</w>":2585,".12.01.</w>":2586,"<저작권":2587,"무단전":2588,"리는</w>":2589,"성을</w>":2590,"이인":2591,"최고위원":2592,"결과":2593,"새로운</w>":2594,"제공":2595,"졌다.</w>":2596,"00:5":2597,"남북":2598,"같이</w>":2599,"가운":2600,"”이라고</w>":2601,"이나</w>":2602,"교육":2603,"신속":2604,"법무부</w>":2605,"장관</w>":2606,"없이</w>":2607,"장관은</w>":2608,"&oid=003&aid=00096":2609,"관련해</w>":2610,"대한민":2611,"다른</w>":2612,"사태":2613,"일부</w>":2614,"클릭":2615,"출마</w>":2616,"노동당</w>":2617,"임시":2618,"이어":2619,"박근":2620,"있다는</w>":2621,",https://news.naver.com/main/read.nhn?mode=LS2D&mid=shm&sid1=100&sid2=269&oid=0":2622,"지적":2623,"자신":2624,"MB":2625,"58":2626,"수석":2627,"명이</w>":2628,"정을</w>":2629,"명을</w>":2630,"기에</w>":2631,"공천관리":2632,"대화":2633,"요.</w>":2634,"1,\"":2635,"시간":2636,"정세균</w>":2637,"한다는</w>":2638,"1.0</w>":2639,"정당</w>":2640,"패스트":2641,"나라":2642,"국무총리":2643,"참석해</w>":2644,"패스트트":2645,"정부의</w>":2646,"제1":2647,"지지":2648,"1,2020-03-17</w>":2649,"기업":2650,"정부가</w>":2651,"두고</w>":2652,"따르":2653,"이고</w>":2654,",2020-03-04,":2655,",2020.03.04.</w>":2656,"회의에</w>":2657,"하기로</w>":2658,"오는</w>":2659,"3.</w>":2660,"경우</w>":2661,"이해":2662,"책임":2663,"공동":2664,"국민의":2665,",https://news.naver.com/main/read.nhn?mode=LS2D&mid=shm&sid1=100&sid2=269&oid=001&aid=0011":2666,"통과":2667,"'\\n\\t']\",정치,0,2020-03-16</w>":2668,"버스":2669,"있도록</w>":2670,"총리</w>":2671,"입장":2672,"대구</w>":2673,"계획":2674,"확인":2675,".0,,</w>":2676,"이를</w>":2677,"-12":2678,"정부는</w>":2679,"국군":2680,"리를</w>":2681,"필리":2682,"오늘</w>":2683,",2019-12":2684,",2019-12-0":2685,"공정":2686,"'▶":2687,"미래통합당":2688,"민주당은</w>":2689,"세종":2690,"연합뉴스)</w>":2691,"보인":2692,"새해</w>":2693,"논의":2694,"지원</w>":2695,"45":2696,"한미":2697,"노력":2698,"요청":2699,"조사":2700,"보고":2701,"대구·경":2702,"며,</w>":2703,"회를</w>":2704,"때문에</w>":2705,"국민의</w>":2706,"브리":2707,"원을</w>":2708,"지고</w>":2709,"덧붙":2710,"동안</w>":2711,"33":2712,"\\t\\t":2713,"극복":2714,"모습":2715,"데일":2716,"현재</w>":2717,"2020.1.":2718,"북한의</w>":2719,".0,1.0,":2720,"여야</w>":2721,"pho":2722,"\",뉴시스":2723,"입국</w>":2724,"..":2725,"기자회견을</w>":2726,"정상":2727,"가장</w>":2728,"미사":2729,"&aid=0000":2730,"렇게</w>":2731,"동을</w>":2732,"3.0,":2733,"이인영</w>":2734,"원내대표는</w>":2735,"관계자는</w>":2736,"기관":2737,"조치를</w>":2738,"79":2739,"설명했다.</w>":2740,"필리버스":2741,"모두</w>":2742,"사업":2743,"했던</w>":2744,"치료":2745,"것이":2746,"베트":2747,"연구":2748,"당의</w>":2749,"재난":2750,"국제":2751,",정치,국회/정당,2020-03-05,":2752,"대전":2753,"세계":2754,"59":2755,"시키":2756,"안철수</w>":2757,"협력":2758,"지금</w>":2759,"검찰</w>":2760,"한반도":2761,"법안":2762,"시아":2763,"데일리":2764,"8,":2765,"photo":2766,"것이다.</w>":2767,"이는</w>":2768,"an":2769,"출마를</w>":2770,"알려":2771,"일부터</w>":2772,"있었":2773,"'을</w>":2774,"경기</w>":2775,"보고</w>":2776,"정보":2777,"포함":2778,"기획":2779,",2019.12.01.</w>":2780,"박근혜</w>":2781,"방역</w>":2782,"브리핑":2783,"분석":2784,"겠다고</w>":2785,"7,":2786,"준비":2787,"올해</w>":2788,"2020.03.05.</w>":2789,"사회,":2790,"신천지</w>":2791,"되지</w>":2792,"위는</w>":2793,"46":2794,"간담":2795,"한국</w>":2796,"최근</w>":2797,"자를</w>":2798,"하지만</w>":2799,"지역구":2800,"우려":2801,"00:4":2802,"당국":2803,"-재배포</w>":2804,"1.0,,,,</w>":2805,"그런</w>":2806,"들에게</w>":2807,"종로":2808,"창당":2809,"금지>":2810,"@newsis.com',</w>":2811,"독립":2812,"과의</w>":2813,"식을</w>":2814,"가운데</w>":2815,"소속</w>":2816,"많은</w>":2817,"운영":2818,"촉구":2819,",뉴시스,2020.03.05.</w>":2820,"안보":2821,"신임</w>":2822,"대해서는</w>":2823,"질문":2824,"23":2825,"관학":2826,"있을</w>":2827,"선거구</w>":2828,"여론":2829,"나가":2830,"화를</w>":2831,"실시":2832,"우리는</w>":2833,"바른미래당</w>":2834,",2020.03.03.</w>":2835,",2020-03-03,":2836,"한반도</w>":2837,"<저작권\",정치,0,2020-03-17</w>":2838,"따르면</w>":2839,"교수":2840,"제가</w>":2841,"는데":2842,"서를</w>":2843,"어떻":2844,".co.kr',</w>":2845,"않은</w>":2846,"기도</w>":2847,"임관":2848,"직접</w>":2849,"전체":2850,"원내대표가</w>":2851,"인터넷":2852,"에서도</w>":2853,"회에서</w>":2854,"이뤄":2855,"일본":2856,"자리":2857,"부산":2858,"사령":2859,"이상</w>":2860,"제안":2861,"마련":2862,"돌아":2863,"지에</w>":2864,"이낙":2865,"'<":2866,"검토":2867,"만들":2868,"명의</w>":2869,"서울=뉴시스":2870,"재-재배포</w>":2871,"공직":2872,"31":2873,"심재":2874,",,\"":2875,"지금":2876,"전망":2877,"후보</w>":2878,")',</w>":2879,"이같이</w>":2880,"간호":2881,"전했다.</w>":2882,"대통령과</w>":2883,"장의</w>":2884,"청원":2885,"하나":2886,"협의":2887,"과정":2888,"당은</w>":2889,"2020.01.02.</w>":2890,"총리는</w>":2891,"면접":2892,"6,":2893,"강경":2894,"장과</w>":2895,"21대</w>":2896,"드시</w>":2897,"세력":2898,"금지>\\n\\t',</w>":2899,"반드시</w>":2900,"미국</w>":2901,"이상":2902,"했다":2903,"않았":2904,"장에서</w>":2905,",뉴시스,2020.01.02.</w>":2906,"어떻게</w>":2907,"강원":2908,"마스크를</w>":2909,"거나</w>":2910,"열고</w>":2911,"으면</w>":2912,"정치</w>":2913,"ri":2914,"오늘":2915,"공수":2916,"중심":2917,":00":2918,"혁신":2919,"당시</w>":2920,"영상</w>":2921,"1.01.</w>":2922,"2.0,,":2923,"중단":2924,"통일":2925,"대를</w>":2926,"종합":2927,"생활":2928,"000":2929,"경찰":2930,"에서":2931,"신뢰":2932,"==":2933,"감사":2934,"청사에서</w>":2935,"기로</w>":2936,"다만</w>":2937,"중요":2938,"획정":2939,"자의</w>":2940,",정치,국회/정당,2020-01-02,":2941,"포인":2942,"위원장의</w>":2943,"이데일리":2944,"정의당</w>":2945,"패스트트랙</w>":2946,"있다며</w>":2947,".,정치,0,2020-03-17</w>":2948,"2.":2949,"본부":2950,"사.</w>":2951,"않고</w>":2952,"등이</w>":2953,"시설":2954,"se":2955,"머니":2956,"9,":2957,"도로</w>":2958,"도를</w>":2959,"여야":2960,"선거구":2961,"추가</w>":2962,"자유한국당":2963,"구독(":2964,"!',</w>":2965,"3·1":2966,"비서":2967,"합동":2968,"경선":2969,"부부":2970,"\",연합뉴스":2971,"법을</w>":2972,"제한":2973,"'를</w>":2974,"피해":2975,"상을</w>":2976,"48":2977,"데이":2978,"힘을</w>":2979,",https://news.naver.com/main/read.nhn?mode=LS2D&mid=shm&sid1=100&sid2=265&oid=421&aid=0004":2980,"이었":2981,"제한</w>":2982,"모두":2983,"만큼</w>":2984,"상태":2985,"점을</w>":2986,"합의":2987,"받아":2988,"당을</w>":2989,"현충":2990,"어떤</w>":2991,"2020년</w>":2992,"김여":2993,"무단전재-재배포</w>":2994,"희망":2995,"뉴시스통신":2996,"뉴시스통신사.</w>":2997,"이낙연</w>":2998,"종로구</w>":2999,"하겠다는</w>":3000,"비례대표</w>":3001,"보인다.</w>":3002,"페이스":3003,"확보":3004,"'<ⓒ</w>":3005,"비롯":3006,"덧붙였다.</w>":3007,"비상":3008,"장에</w>":3009,"on":3010,"해결":3011,"역시</w>":3012,"당이</w>":3013,"변화":3014,"발언을</w>":3015,"단체":3016,"중국</w>":3017,"했습니다.',</w>":3018,"않을</w>":3019,"사건":3020,"홍남":3021,"만에</w>":3022,",2019-12-01,":3023,"개혁</w>":3024,"북한은</w>":3025,"공천을</w>":3026,"사무":3027,"정권":3028,"조선중앙":3029,"입장을</w>":3030,"확산</w>":3031,"전날</w>":3032,"나온":3033,"격리</w>":3034,"센터":3035,"감염병</w>":3036,"다.\"\",</w>":3037,"통화":3038,"밖에</w>":3039,"99":3040,"부분":3041,"정론":3042,"위를</w>":3043,"방식":3044,"등에</w>":3045,"일본</w>":3046,"심재철</w>":3047,"이유":3048,"80":3049,"확대":3050,"법안</w>":3051,"있습니다.</w>":3052,"'이</w>":3053,"민주당이</w>":3054,"습니다":3055,"대한민국":3056,"보수</w>":3057,"확정":3058,"이재":3059,"나경":3060,"명,</w>":3061,"당부":3062,".\",정치,":3063,"지방":3064,"28일</w>":3065,"대변인":3066,"방사":3067,"관한</w>":3068,",,,1.0,,</w>":3069,"75":3070,"등의</w>":3071,"한편</w>":3072,"발생":3073,"본회의":3074,"처럼</w>":3075,"기준":3076,"것”이라고</w>":3077,"국민이</w>":3078,"기술":3079,"다면서</w>":3080,"이동":3081,"김정은":3082,"관계</w>":3083,"그러나</w>":3084,"본회의</w>":3085,"이야":3086,",2020.01.01.</w>":3087,"'에</w>":3088,"말씀":3089,"항공":3090,"'[서울=뉴시스":3091,"니다.',</w>":3092,"가는</w>":3093,"금지</w>":3094,"의원과</w>":3095,"참여":3096,"안정":3097,"차관":3098,"아니라</w>":3099,"아시아":3100,"운동":3101,"질문에</w>":3102,"달라":3103,"홍남기</w>":3104,"변호":3105,"에선</w>":3106,"김형":3107,"유지":3108,"트럼":3109,"\",\"</w>":3110,"비난":3111,"한다며</w>":3112,"70":3113,"수여":3114,"대통령,</w>":3115,"2월</w>":3116,"김병":3117,"산업":3118,"선거</w>":3119,"\"\"',</w>":3120,"하다.</w>":3121,"국정":3122,"전을</w>":3123,"있어":3124,"CB":3125,"기가</w>":3126,"본회의에서</w>":3127,"복지":3128,"역할":3129,"가능성":3130,"것이라며</w>":3131,"때문":3132,"라도</w>":3133,"\\t',</w>":3134,"여러</w>":3135,"자들이</w>":3136,"76":3137,"갖고</w>":3138,"가능성이</w>":3139,"중구</w>":3140,":30":3141,"제출":3142,"바란":3143,"%,</w>":3144,"비핵":3145,"연합뉴스</w>":3146,"재난안전":3147,"왔다.</w>":3148,"참배":3149,"05:1":3150,")이</w>":3151,"\"\"이라고</w>":3152,"차원":3153,"필리버스터":3154,"공수처":3155,"실에서</w>":3156,"으며</w>":3157,"우리가</w>":3158,"”이라며</w>":3159,"향해</w>":3160,"정론관에서</w>":3161,"78":3162,"\\r":3163,"하다고</w>":3164,"강경화</w>":3165,"나오":3166,"다'":3167,"많이</w>":3168,"않는":3169,"했고,</w>":3170,"받고</w>":3171,"전략무":3172,"발을</w>":3173,"\",사회,":3174,"yn":3175,"기는</w>":3176,"95":3177,"없다고</w>":3178,"'[사진</w>":3179,"전원회의</w>":3180,"구체":3181,"비례대표":3182,"60":3183,"겠다는</w>":3184,"대책</w>":3185,"지역구</w>":3186,"·15</w>":3187,"의원의</w>":3188,"자체":3189,"절차":3190,"컷오":3191,"시장</w>":3192,"신천지":3193,"느냐":3194,"대상으로</w>":3195,"무단</w>":3196,"승리":3197,"소상공":3198,"나온다.</w>":3199,"한다”고</w>":3200,"재난안전대책":3201,"문을</w>":3202,"장병":3203,"er":3204,"국내</w>":3205,"위원장</w>":3206,"고려":3207,",https://news.naver.com/main/read.nhn?mode=LS2D&mid=shm&sid1=100&sid2=267&oid=001&aid=0011":3208,"훈련을</w>":3209,"받은</w>":3210,"자신의</w>":3211,"일(":3212,"'\\xa0":3213,"5차</w>":3214,"남북</w>":3215,"나경원</w>":3216,"확진자</w>":3217,"울산":3218,"육군</w>":3219,"계속</w>":3220,"김진":3221,"예상":3222,"은행":3223,"중도":3224,"하려":3225,"필요한</w>":3226,",https://news.naver.com/main/read.nhn?mode=LS2D&mid=shm&sid1=100&sid2=266&oid=003&aid=00097":3227,"경선</w>":3228,"거리</w>":3229,"32":3230,"더욱</w>":3231,"이렇게</w>":3232,"68":3233,"부족":3234,"주민":3235,"리아":3236,"국회의원</w>":3237,"의견":3238,"결과</w>":3239,"협상":3240,"의미":3241,"투입":3242,"@newsis.com,</w>":3243,"yna":3244,":40":3245,"발사체</w>":3246,"중인</w>":3247,"기자간담":3248,"나누":3249,".0,2.0,":3250,"총선에서</w>":3251,"매우</w>":3252,"4·15</w>":3253,":21":3254,"또한</w>":3255,"심을</w>":3256,"국무위원장이</w>":3257,"현역</w>":3258,"매일":3259,"국민의당</w>":3260,":20":3261,"불출마</w>":3262,"안이</w>":3263,"추경</w>":3264,"대구시":3265,"사실상</w>":3266,"외국":3267,"안에</w>":3268,"논란":3269,"영향":3270,"22:5":3271,"보는</w>":3272,"합니다.</w>":3273,"아울":3274,"의사":3275,"하도록</w>":3276,"트럼프</w>":3277,"강한</w>":3278,"바로":3279,"이미</w>":3280,"주재":3281,"면서도</w>":3282,":19":3283,"대표와</w>":3284,"과정에서</w>":3285,"'(":3286,"방안을</w>":3287,"04:5":3288,"09":3289,"2.0,,</w>":3290,"일까지</w>":3291,"있어</w>":3292,"시행":3293,"정부서울":3294,"하기',</w>":3295,"움을</w>":3296,":38":3297,"확진자가</w>":3298,"대구·경북</w>":3299,"아울러</w>":3300,"제대로</w>":3301,"2018":3302,"페이스북":3303,"88":3304,"제1부부":3305,":39":3306,"상황을</w>":3307,"프리":3308,"목소":3309,"전히</w>":3310,"입국을</w>":3311,"안철수":3312,"말했다.',</w>":3313,"지역에</w>":3314,"파이":3315,"상공회의":3316,"적극":3317,"신년</w>":3318,"출신</w>":3319,"대사":3320,"제를</w>":3321,"n-":3322,"경쟁":3323,"고위":3324,"공급":3325,"노컷":3326,"위성":3327,"제보받":3328,"식에</w>":3329,"우선</w>":3330,"반영하겠습니다.',</w>":3331,"사진영상부(n-":3332,"photo@newsis.com,</w>":3333,"rig":3334,"중심으로</w>":3335,"습니다]',</w>":3336,"제보받습니다]',</w>":3337,"사진영상부(n-photo@newsis.com,</w>":3338,"@h":3339,"검사":3340,"긴급":3341,"3.0,,":3342,":11":3343,"뜻을</w>":3344,"나서":3345,"진료":3346,"1주":3347,"권을</w>":3348,"만나</w>":3349,"해석":3350,"체계":3351,"협력</w>":3352,"위에</w>":3353,"당한</w>":3354,"마음":3355,"발언하고</w>":3356,"지정":3357,"선거법</w>":3358,"지켜":3359,"바로</w>":3360,"376":3361,"부총리</w>":3362,"01":3363,"56":3364,"치고</w>":3365,"인재":3366,"3월</w>":3367,"규모":3368,"감을</w>":3369,"제기":3370,"한국발</w>":3371,":37":3372,":26":3373,"TV":3374,"국립":3375,"여행":3376,"제시":3377,"4,,,,,</w>":3378,"@yna":3379,"대화</w>":3380,"사용":3381,"부를</w>":3382,"조직":3383,"청년":3384,"2:5":3385,"·김":3386,"양산":3387,"왼쪽":3388,"이용":3389,"전에</w>":3390,"복귀":3391,"본부</w>":3392,"선택":3393,"속보":3394,"정신":3395,"방침":3396,"오른":3397,"조사</w>":3398,"진영</w>":3399,"권력":3400,"현실":3401,"수준":3402,"세를</w>":3403,"않는</w>":3404,"작업":3405,"해주":3406,"경북</w>":3407,"시에</w>":3408,"돌파":3409,"분야</w>":3410,"으나</w>":3411,"보도했다.</w>":3412,"국무총리가</w>":3413,"베트남":3414,"반발":3415,"부가</w>":3416,"아직</w>":3417,"사이":3418,"심판":3419,"인천":3420,"의원을</w>":3421,"@yna.co.kr',</w>":3422,"집중":3423,"채널</w>":3424,"탄핵":3425,",뉴시스,2020.03.02.</w>":3426,"하여</w>":3427,"했다는</w>":3428,"3,,,,,</w>":3429,"5,,,,,</w>":3430,"04:4":3431,"관학교":3432,"나타":3433,"대학":3434,"되면</w>":3435,"연설":3436,"달라고</w>":3437,"전국</w>":3438,"해당</w>":3439,"위해":3440,"96":3441,"주요</w>":3442,"지적했다.</w>":3443,"것에</w>":3444,"따른</w>":3445,"보면</w>":3446,"정치적</w>":3447,"파이낸":3448,"'이":3449,"부에</w>":3450,"영입":3451,"전달":3452,"대표의</w>":3453,"시무":3454,"41":3455,"기관</w>":3456,"공화":3457,"그리고</w>":3458,"발언하는</w>":3459,"부산</w>":3460,"받았":3461,"대한상공회의":3462,"는데,</w>":3463,"포인트</w>":3464,"파이낸셜":3465,"사태</w>":3466,"4월</w>":3467,":10":3468,"새해":3469,"식에서</w>":3470,"’을</w>":3471,"고도</w>":3472,"민식":3473,"보호":3474,"파이낸셜뉴스":3475,"소에서</w>":3476,"투표":3477,"결과를</w>":3478,"김형오</w>":3479,"자에</w>":3480,":36":3481,"3,,\"</w>":3482,"op":3483,"98":3484,"밝히":3485,"이제</w>":3486,"단계":3487,"수를</w>":3488,"전재</w>":3489,".c\",정치,":3490,",연합뉴스,2020.03.05.</w>":3491,"경남</w>":3492,"비판했다.</w>":3493,"경우":3494,"부정":3495,"202":3496,"05:0":3497,"전문가":3498,"방송":3499,"도가</w>":3500,"지가</w>":3501,"04:0":3502,"이해찬</w>":3503,"시간</w>":3504,"자료":3505,"회에</w>":3506,"우리의</w>":3507,"구독</w>":3508,"사회</w>":3509,"으로는</w>":3510,"@news1.,정치,0,2020-03-17</w>":3511,"주장했다.</w>":3512,"스럽":3513,"업무":3514,"활동":3515,"ww":3516,"범죄":3517,"세요":3518,"앞두고</w>":3519,"기획재":3520,"제로</w>":3521,",정치,정치일반,2020-03-01,":3522,"병원</w>":3523,"시험":3524,"인민":3525,"통합</w>":3526,"장관과</w>":3527,"원내대표</w>":3528,"중소":3529,"하자":3530,"ICB":3531,"법률":3532,"일)</w>":3533,"2020.1.2</w>":3534,"놓고</w>":3535,"응답":3536,"바로가":3537,"면,</w>":3538,"과학":3539,"지키":3540,"처음":3541,"민식이":3542,"속보</w>":3543,"임시회":3544,"긴급</w>":3545,"은행</w>":3546,"확실":3547,"으로,</w>":3548,"무단전재</w>":3549,"&oid=003&aid=0009635":3550,"2,2020-03-17</w>":3551,"그래":3552,"있다”고</w>":3553,"드러":3554,"아닌</w>":3555,"의료</w>":3556,"충분":3557,",정치,정치일반,2020-01-02,\"":3558,"진보":3559,"대한민국</w>":3560,"영등":3561,"탄도":3562,",정치,정치일반,2020-03-02,\"":3563,"금융":3564,"것도</w>":3565,"대정부":3566,"제376":3567,"하기도</w>":3568,"청와대는</w>":3569,"있다.":3570,"생산":3571,"어렵":3572,",정치,정치일반,2020-03-05,\"":3573,"나아":3574,"부결":3575,"4,,\"</w>":3576,"KB":3577,"건강":3578,"사,</w>":3579,"해양":3580,"헤럴":3581,"위협":3582,",https://news.naver.com/main/read.nhn?mode=LS2D&mid=shm&sid1=100&sid2=269&oid=003&aid=000973":3583,"대구·경북":3584,")을</w>":3585,"말을</w>":3586,"수도</w>":3587,",연합뉴스,2020.01.02.</w>":3588,"단을</w>":3589,"서비":3590,"지시":3591,"저는</w>":3592,"컷오프":3593,"08":3594,"간의</w>":3595,"정확":3596,"설치":3597,"장관,</w>":3598,"바이러스":3599,"0.0,":3600,"이번":3601,"혐의":3602,"국회(":3603,"News":3604,",https://news.naver.com/main/read.nhn?mode=LS2D&mid=shm&sid1=100&sid2=269&oid=05":3605,"클릭)',</w>":3606,"문화":3607,"량을</w>":3608,"포토":3609,"군의</w>":3610,"무엇":3611,"\",뉴스1":3612,"무리":3613,"비행":3614,",https://news.naver.com/main/read.nhn?mode=LS2D&mid=shm&sid1=100&sid2=264&oid=001&aid=0011":3615,"임시회)</w>":3616,"기',</w>":3617,"못한</w>":3618,"심사":3619,"인의</w>":3620,",2020-03-02,":3621,"알려졌다.</w>":3622,"국회(임시회)</w>":3623,"강력":3624,"향후</w>":3625,"한국당은</w>":3626,"2020.3.5</w>":3627,"나는</w>":3628,"탄도미사":3629,"앞으로</w>":3630,"전해":3631,"수사</w>":3632,"인을</w>":3633,"자로</w>":3634,"비롯한</w>":3635,"공개</w>":3636,"한다":3637,"right":3638,"News1</w>":3639,".1":3640,"공식</w>":3641,"배제":3642,"사진=":3643,"2020</w>":3644,"충북</w>":3645,"야당":3646,"상황에서</w>":3647,"민생당</w>":3648,"는지</w>":3649,"의혹":3650,"들에</w>":3651,"수가</w>":3652,"판매":3653,"했다며</w>":3654,"지속":3655,"간호사":3656,"법에</w>":3657,"않았다.</w>":3658,"일이</w>":3659,"인사를</w>":3660,"29일</w>":3661,"공공":3662,"교통":3663,"여상":3664,"와의</w>":3665,":00</w>":3666,"프리미":3667,"18&aid=0004":3668,"&oid=018&aid=0004":3669,"베트남</w>":3670,"2018년</w>":3671,"55":3672,"개발":3673,"방위":3674,"원칙":3675,"기획재정부</w>":3676,"시점":3677,"’를</w>":3678,"있다.',</w>":3679,"졸업":3680,"총선을</w>":3681,"협조":3682,"영등포":3683,"기존</w>":3684,"제공)</w>":3685,"명으로</w>":3686,"전투":3687,"해야":3688,"국회의":3689,"대응을</w>":3690,"공약":3691,"심상":3692,"확인은</w>":3693,"프리미엄</w>":3694,"&]</w>":3695,"'\\t',</w>":3696,"7기</w>":3697,"[한반도":3698,"[구독</w>":3699,"마친</w>":3700,"만들어":3701,"북한뉴스</w>":3702,"연합뉴스에서</w>":3703,"클릭]',</w>":3704,"구독(클릭)',</w>":3705,"[한반도&]</w>":3706,"2,,,,,</w>":3707,"경남":3708,"시정":3709,"크게</w>":3710,"김여정</w>":3711,"나갈</w>":3712,"지도</w>":3713,"발사체":3714,"성과":3715,"앞에서</w>":3716,"'[서울=뉴시스]</w>":3717,"아야</w>":3718,"연동":3719,"고자</w>":3720,"관광":3721,"단거리</w>":3722,"사법":3723,"조치</w>":3724,"국회의원":3725,"자원":3726,"한국당이</w>":3727,"미국의</w>":3728,"\"\"</w>":3729,",뉴스1,2020.03.05.</w>":3730,"메시지를</w>":3731,"기대":3732,"받는</w>":3733,"국회에</w>":3734,")를</w>":3735,"7,,,,,</w>":3736,"해도</w>":3737,"(종합":3738,"그렇":3739,"정치를</w>":3740,"인터넷전문":3741,"2.0</w>":3742,"내려":3743,"분야":3744,"인이</w>":3745,"보여":3746,"심각":3747,"으며,</w>":3748,"예산</w>":3749,"더불어민주당":3750,"가지</w>":3751,"력이</w>":3752,"불출마를</w>":3753,"주목":3754,"타격":3755,"냈다.</w>":3756,"주는</w>":3757,"국민들":3758,"도,</w>":3759,"수는</w>":3760,"야당</w>":3761,"추천":3762,"정한</w>":3763,"행동":3764,"5,,\"</w>":3765,"각각</w>":3766,"까?</w>":3767,"전략공천":3768,"통한</w>":3769,"77":3770,"거론":3771,"청문":3772,"총회":3773,"출신":3774,"\",정치,1,2020-03-17</w>":3775,"진행자</w>":3776,"어려운</w>":3777,"4.0,":3778,"8,,,,,</w>":3779,"찾아</w>":3780,"당,</w>":3781,"동의":3782,"핵심</w>":3783,",정치,청와대,2020-01-02,":3784,"opy":3785,"이와</w>":3786,"밝혔다.',</w>":3787,"무소속</w>":3788,"상임":3789,"한다\"\"고</w>":3790,"Copy":3791,"이겨":3792,"신문은</w>":3793,")과</w>":3794,"·이":3795,"김현":3796,"정책</w>":3797,"동작":3798,"있다":3799,"활용":3800,"��</w>":3801,"수도":3802,"위반":3803,"유성":3804,"20대</w>":3805,"금지\\n\\t',</w>":3806,"담화":3807,"주의":3808,":29":3809,"참석하고</w>":3810,"신속대응":3811,"법과</w>":3812,"시설</w>":3813,"검찰이</w>":3814,"3,2020-03-17</w>":3815,"당정":3816,"주한미":3817,"처리</w>":3818,"보건복지":3819,"군은</w>":3820,"공관위":3821,"년을</w>":3822,"약속":3823,"원은</w>":3824,"홍준":3825,"추가경":3826,"중앙위원회</w>":3827,"42":3828,"4:0":3829,"안보</w>":3830,"환자</w>":3831,"3.1":3832,"서울=연합뉴스)</w>":3833,")에</w>":3834,"정면":3835,"먼저</w>":3836,"우선":3837,"임을</w>":3838,"so":3839,"보좌":3840,"있게</w>":3841,"다양":3842,"언론":3843,"일부":3844,"일보</w>":3845,"헤럴드":3846,"발사</w>":3847,"최소":3848,"홈페이":3849,"대해선</w>":3850,"MBC":3851,"결국</w>":3852,"예정이다.</w>":3853,"지,</w>":3854,"홈에서</w>":3855,"대표,</w>":3856,",2020-01-01,":3857,"스스":3858,"에게":3859,"함께":3860,"1.0,</w>":3861,"예비후보는</w>":3862,"51":3863,"ky":3864,"기록":3865,"위기":3866,"길을</w>":3867,"22:4":3868,"머니투":3869,"내고</w>":3870,"시는</w>":3871,"봉사":3872,"부총리":3873,"이만":3874,"역할을</w>":3875,"추가경정":3876,"개선":3877,"렸다.</w>":3878,"제외":3879,"거리":3880,"구매":3881,"연기":3882,"TV</w>":3883,"세영</w>":3884,"것이라는</w>":3885,"밝힌</w>":3886,"성공":3887,"자가":3888,"표명":3889,",https://news.naver.com/main/read.nhn?mode=LS2D&mid=shm&sid1=100&sid2=265&oid=003&aid=00097":3890,"시스":3891,"외교부는</w>":3892,"구성":3893,"그동안</w>":3894,"동원":3895,"중대":3896,"지로</w>":3897,"국무위원":3898,"관측":3899,"2,,\"</w>":3900,"공무":3901,"문희":3902,"행사":3903,":16":3904,"66":3905,"도는</w>":3906,"제5차</w>":3907,":31":3908,"57":3909,"마이":3910,"물론</w>":3911,"방향":3912,"아니냐":3913,"법안을</w>":3914,"응원":3915,"후보를</w>":3916,".0,,,,</w>":3917,"께서</w>":3918,"도한</w>":3919,"&aid=0003":3920,"심상정</w>":3921,"5/뉴스1</w>":3922,"경선을</w>":3923,"보이":3924,"분명":3925,"미국이</w>":3926,"대법":3927,"들도</w>":3928,"점검":3929,"토론":3930,"호소":3931,"국방부</w>":3932,"대북":3933,"없다.</w>":3934,"위원회에서</w>":3935,"가족":3936,"고발":3937,"공군사":3938,":50":3939,"경자":3940,"기준</w>":3941,"번째</w>":3942,"움이</w>":3943,"리스</w>":3944,"훈련</w>":3945,"12월</w>":3946,"국가</w>":3947,"3.0,,</w>":3948,"온라":3949,"2020.3.5/뉴스1</w>":3950,"받을</w>":3951,"상으로</w>":3952,"청주</w>":3953,"효과":3954,"문제</w>":3955,"하거나</w>":3956,"조선중앙통신":3957,"(종합)":3958,"격을</w>":3959,"라이":3960,"환자":3961,"생활치료":3962,"관계를</w>":3963,"文대통령</w>":3964,"프로":3965,"\"\"이라며</w>":3966,"것\"\"이라고</w>":3967,"====":3968,"당직":3969,":12":3970,"세계</w>":3971,"한다면</w>":3972,"대책을</w>":3973,"경북":3974,"법이</w>":3975,",https://news.naver.com/main/read.nhn?mode=LS2D&mid=shm&sid1=100&sid2=269&oid=00":3976,"으로서</w>":3977,"나,</w>":3978,"발전":3979,"통일부</w>":3980,"그렇게</w>":3981,"손학":3982,"의지를</w>":3983,"입니다.',</w>":3984,"개정안":3985,"2/뉴스1</w>":3986,"안건":3987,"277":3988,"1월</w>":3989,"질의":3990,"학생":3991,"\\r\\n\\t":3992,"어야</w>":3993,"현재":3994,"계속":3995,"한국인</w>":3996,"방문해</w>":3997,"KBS":3998,"항을</w>":3999,"후보자</w>":4000,"신년사를</w>":4001,"노력을</w>":4002,"동해":4003,"등록":4004,"집행":4005,"2020.03.04.</w>":4006,"개최":4007,"불가":4008,",정치,정치일반,2019-12-01,":4009,"친서를</w>":4010,"했지만</w>":4011,"(서울=연합뉴스)</w>":4012,"제7기</w>":4013,"의원,</w>":4014,"문희상</w>":4015,"1,2020-03-16</w>":4016,"격려":4017,"고민":4018,"번째":4019,"성,</w>":4020,"전국":4021,"정권</w>":4022,"해리스</w>":4023,"문제를</w>":4024,"MBC</w>":4025,"5.0,":4026,"규정":4027,"옥중":4028,"드리":4029,"수행":4030,"한선":4031,"현장</w>":4032,"협력을</w>":4033,"비핵화</w>":4034,"()":4035,"당에</w>":4036,"있고</w>":4037,"지지</w>":4038,"없다는</w>":4039,",정치,행정,2020-03-05,":4040,"다',</w>":4041,"받았다.</w>":4042,"친서":4043,"합니":4044,"ung":4045,"아이":4046,"위반</w>":4047,"졸업</w>":4048,"기자들과</w>":4049,"추가경정예산":4050,"답변":4051,"수석부":4052,"공천관리위원회":4053,"것과</w>":4054,"겠습니다.</w>":4055,"등으로</w>":4056,"3·1절</w>":4057,"장교":4058,"장으로</w>":4059,",2020-03-01,":4060,"대비":4061,"하루</w>":4062,"네이버":4063,"유승":4064,"병원에서</w>":4065,"oo":4066,"그런":4067,"있다”며</w>":4068,"한미연합":4069,"통화에서</w>":4070,"%로</w>":4071,"수밖에</w>":4072,"원이</w>":4073,"지휘":4074,"'\\xa0',</w>":4075,"시정연설":4076,"”,":4077,"되었":4078,"인정":4079,"진영":4080,"책임을</w>":4081,"최대한</w>":4082,"지원을</w>":4083,"머니투데이":4084,"제재":4085,"미래한국당":4086,"중앙재난안전대책":4087,"늘어":4088,"창당</w>":4089,"다양한</w>":4090,"'으로</w>":4091,"없었":4092,"현역":4093,"'로</w>":4094,"3개":4095,"본회의를</w>":4096,"개혁을</w>":4097,"재판":4098,"다음":4099,"전환":4100,"반대":4101,"오신":4102,"문제가</w>":4103,"비례</w>":4104,"파견":4105,"저작권자":4106,",뉴시스,2020.03.04.</w>":4107,"교수는</w>":4108,"경기":4109,"일정":4110,"한을</w>":4111,"협상</w>":4112,")가</w>":4113,"54":4114,"최선을</w>":4115,"관련,</w>":4116,"필리버스터</w>":4117,"연동형</w>":4118,"상황이</w>":4119,"81":4120,"시사":4121,"장기":4122,"취재":4123,"하다는</w>":4124,"2,,</w>":4125,"구축":4126,"나선</w>":4127,"민간":4128,"방안":4129,"이다.',</w>":4130,"일각":4131,"검찰의</w>":4132,"����":4133,",https://news.naver.com/main/read.nhn?mode=LS2D&mid=shm&sid1=100&sid2=267&oid=421&aid=0004":4134,"김정은,</w>":4135,"니까</w>":4136,".0,,1.0</w>":4137,"69":4138,"서신":4139,"기자]</w>":4140,"한·":4141,"활동을</w>":4142,"참석한</w>":4143,"단체</w>":4144,"청원</w>":4145,"14&aid=0004":4146,"내용을</w>":4147,"오른쪽":4148,"다,</w>":4149,"신문</w>":4150,"이자</w>":4151,"지역을</w>":4152,",정치,국방/외교,2020-03-05,":4153,"넘어":4154,"누리":4155,"목표":4156,"대신</w>":4157,"된다고</w>":4158,"어느</w>":4159,"인사</w>":4160,"있다\"\"고</w>":4161,"좋은</w>":4162,"관학교</w>":4163,"서비스":4164,"'\"\"":4165,"드는</w>":4166,"심이</w>":4167,"아무":4168,"피해</w>":4169,"정당을</w>":4170,"발표했다.</w>":4171,"높은</w>":4172,"일을</w>":4173,"3:0":4174,"@news1.\",정치,":4175,"방문한</w>":4176,",2019-12-01,\"":4177,"yu":4178,"예방":4179,"주의</w>":4180,":41":4181,"지역의</w>":4182,"어려움을</w>":4183,"유치":4184,"의원들이</w>":4185,"패스트트랙":4186,"ya":4187,"재개":4188,"국회가</w>":4189,"관학교에서</w>":4190,"119":4191,"5:0":4192,"없어":4193,"김종":4194,"수산":4195,"2020.1.2/뉴스1</w>":4196,"중요한</w>":4197,"비서관":4198,"87":4199,",https://news.naver.com/main/read.nhn?mode=LS2D&mid=shm&sid1=100&sid2=269&oid=001&aid=001144":4200,"모습을</w>":4201,"막기</w>":4202,"절차를</w>":4203,"전면</w>":4204,"아시아경제":4205,"@han":4206,"제376회":4207,"배화":4208,"이었다.</w>":4209,"초대":4210,"공관위는</w>":4211,"금을</w>":4212,"연대":4213,"예고":4214,"&oid=02":4215,"행정안전":4216,"났다.</w>":4217,"도시":4218,"물을</w>":4219,"수급</w>":4220,"ong":4221,"277&aid=0004":4222,"나온</w>":4223,"보를</w>":4224,"서울시</w>":4225,"7,,\"</w>":4226,"다가</w>":4227,"발표</w>":4228,"열어</w>":4229,"조국</w>":4230,"탄핵</w>":4231,"충분히</w>":4232,"Copyright":4233,"'문</w>":4234,"8,,\"</w>":4235,"전쟁":4236,"제재</w>":4237,"2020.3.2":4238,"'의</w>":4239,"무를</w>":4240,"센터</w>":4241,"않아</w>":4242,"우는</w>":4243,"시키는</w>":4244,"차원에서</w>":4245,"정부서울청사에서</w>":4246,"중에</w>":4247,",정치,국방/외교,2020-03-04,":4248,"경례":4249,"못하고</w>":4250,"상황</w>":4251,"인에서</w>":4252,"나누고</w>":4253,"김영":4254,"마지":4255,"네이버에서</w>":4256,"김태":4257,"올해":4258,"죠.</w>":4259,"노컷뉴스":4260,"‘이데일리":4261,"고용":4262,"움직":4263,"투쟁":4264,"하라":4265,"정치권":4266,".com',</w>":4267,"&oid=003&aid=0009636":4268,"‘이데일리’</w>":4269,"교육</w>":4270,"년도</w>":4271,"역사":4272,"증가":4273,"'에서</w>":4274,"5&aid=000":4275,"나섰":4276,"대북</w>":4277,"전체</w>":4278,"특례":4279,"했고</w>":4280,",뉴스1,2020.01.02.</w>":4281,"점에서</w>":4282,"풀이":4283,"하는데</w>":4284,",연합뉴스,2020.03.02.</w>":4285,"손학규</w>":4286,"...":4287,"공직자":4288,"방사포":4289,"90":4290,"임명장</w>":4291,"영입</w>":4292,"위로":4293,"파악":4294,"했다”고</w>":4295,"43":4296,"86":4297,"대안":4298,"얘기":4299,"주고</w>":4300,"최고위원회의에서</w>":4301,"국군간호사":4302,"규모</w>":4303,"복귀</w>":4304,"소통":4305,"자,</w>":4306,"했지만,</w>":4307,"관련한</w>":4308,"의료진":4309,"의견을</w>":4310,"제376회국회(임시회)</w>":4311,"31일</w>":4312,"소방":4313,"이탈":4314,"위원장과</w>":4315,"8&aid=0004":4316,"둘러":4317,"반응":4318,"을에</w>":4319,"이정":4320,"최대</w>":4321,"하겠다”고</w>":4322,"05:2":4323,"내놓":4324,"여성":4325,"당원":4326,"면접</w>":4327,"이름":4328,",https://news.naver.com/main/read.nhn?mode=LS2D&mid=shm&sid1=100&sid2=269&oid=02":4329,"과학기술":4330,"시스템":4331,"경자년</w>":4332,"되면서</w>":4333,"소위":4334,",https://news.naver.com/main/read.nhn?mode=LS2D&mid=shm&sid1=100&sid2=269&oid=4":4335,"%)":4336,"82":4337,"누구":4338,"도약":4339,"이사":4340,"미래를</w>":4341,".',</w>":4342,"4:5":4343,"광주":4344,"더라도</w>":4345,"명령":4346,"정무":4347,"청사</w>":4348,"그런데</w>":4349,"강제":4350,"실장은</w>":4351,"정말</w>":4352,"철저":4353,"현지":4354,"국회를</w>":4355,"르고</w>":4356,"실제</w>":4357,"회복":4358,"국군대전":4359,"브리핑을</w>":4360,"구독(클":4361,"9:5":4362,"대의</w>":4363,"제8":4364,"배화여":4365,"김성":4366,"끌어":4367,"11:0":4368,"사진은</w>":4369,"kyung":4370,"도입":4371,"소득":4372,"자력":4373,"sei":4374,"정의</w>":4375,"제는</w>":4376,"차례</w>":4377,"페이스북에</w>":4378,"do":4379,"신년사</w>":4380,"강원</w>":4381,"대체":4382,"북미":4383,"사과":4384,"이른":4385,"계획이다.</w>":4386,"메인에서</w>":4387,"박영":4388,"음을</w>":4389,"청와대에서</w>":4390,"정책을</w>":4391,"독립운동":4392,"담을</w>":4393,"부의</w>":4394,"정책위":4395,"당부했다.</w>":4396,"시계":4397,"로,</w>":4398,"상이</w>":4399,"원의</w>":4400,"친서</w>":4401,"2020.03.02.":4402,"미사일</w>":4403,"영향을</w>":4404,"ICBM":4405,"으로도</w>":4406,"2.0,,,,</w>":4407,"im":4408,"kr":4409,"”라고</w>":4410,"김용":4411,"제도":4412,"매일경제":4413,"대한상공회의소에서</w>":4414,"스스로</w>":4415,"97":4416,"것”이라며</w>":4417,"경고":4418,"사례":4419,"않겠":4420,"주도":4421,"핵심":4422,"kr',</w>":4423,"--":4424,"310":4425,"공항":4426,"관은</w>":4427,"부,</w>":4428,"리가</w>":4429,"있고,</w>":4430,",사회,":4431,"내에</w>":4432,"사고":4433,"으로부터</w>":4434,",https://news.naver.com/main/read.nhn?mode=LS2D&mid=shm&sid1=100&sid2=268&oid=003&aid=00097":4435,"헤럴드경제":4436,".3":4437,"윤석":4438,"청주":4439,"한다”며</w>":4440,"대통령을</w>":4441,"11월</w>":4442,"5,,</w>":4443,"기본":4444,"동아":4445,"성과</w>":4446,"적용":4447,"접촉":4448,"작업을</w>":4449,"정면돌파":4450,"ce</w>":4451,"로부터</w>":4452,"법은</w>":4453,"하노":4454,"101주":4455,"위원장을</w>":4456,"밝혔습니다.</w>":4457,"브리핑에서</w>":4458,"3.1절</w>":4459,"오신환</w>":4460,"’는</w>":4461,"기득":4462,"법사":4463,"의회</w>":4464,"일간</w>":4465,"충남</w>":4466,"'\\n\\t\\n\\t":4467,"정부세종":4468,"ue":4469,"착용":4470,"2019.12.01.</w>":4471,"보수당</w>":4472,"기자간담회를</w>":4473,"홍준표</w>":4474,"본회의에</w>":4475,"식품":4476,"ald":4477,"총선에</w>":4478,"(왼쪽":4479,"co":4480,"것인":4481,"근무":4482,"됐다고</w>":4483,"서,</w>":4484,"유권":4485,"지역은</w>":4486,"그래서</w>":4487,"seiyu":4488,"검사를</w>":4489,"과거":4490,"병상</w>":4491,"자세":4492,"치는</w>":4493,"태극":4494,"표현":4495,"행위":4496,"통합당은</w>":4497,"이만희</w>":4498,"5:4":4499,"극복</w>":4500,"내일</w>":4501,"당에서</w>":4502,"북미</w>":4503,"상의</w>":4504,"존재":4505,"참모":4506,"대통령에게</w>":4507,"국민을</w>":4508,"가운데":4509,"인터넷은행":4510,"erald":4511,"65":4512,"담은</w>":4513,"대에서</w>":4514,"때까지</w>":4515,"저를</w>":4516,"해,</w>":4517,"서울시":4518,"2019년</w>":4519,"이러한</w>":4520,"하려는</w>":4521,"당과</w>":4522,"들어</w>":4523,"명은</w>":4524,"임명장을</w>":4525,"”고</w>":4526,"서로</w>":4527,"위원장,</w>":4528,"민주당의</w>":4529,"명에</w>":4530,"일단</w>":4531,"잘못":4532,"2:4":4533,"도에</w>":4534,"불구":4535,"이종":4536,"합동</w>":4537,"다”면서</w>":4538,"제보하기',</w>":4539,"정책조정":4540,"4,2020-03-17</w>":4541,"검사</w>":4542,"내는</w>":4543,"마무리":4544,"전화":4545,"04:1":4546,"국민들이</w>":4547,"황교안":4548,"ang":4549,"에서의</w>":4550,"신속대응팀":4551,"정책위의":4552,"대결":4553,"옥중</w>":4554,"해왔":4555,"했을</w>":4556,"200":4557,"예비후보</w>":4558,"정상회":4559,"보장":4560,"심사</w>":4561,"상황에</w>":4562,"새로운":4563,",정치,국방/외교,2020-03-03,":4564,"지지율":4565,"'코로나19</w>":4566,"명과</w>":4567,"인해</w>":4568,"가능한</w>":4569,"SN":4570,"여전히</w>":4571,"철회":4572,"청년</w>":4573,"거부":4574,"경을</w>":4575,"맞이</w>":4576,"분열":4577,"제21대</w>":4578,"치를</w>":4579,".0,,1.0,,</w>":4580,",https://news.naver.com/main/read.nhn?mode=LS2D&mid=shm&sid1=100&sid2=265&oid=001&aid=0011":4581,"'▶제보하기',</w>":4582,"바로가기',</w>":4583,".6":4584,"공식":4585,"수출":4586,"위원</w>":4587,"하루":4588,"일보,2020.01.02.</w>":4589,")의</w>":4590,".2":4591,"반면</w>":4592,"분을</w>":4593,"선관":4594,"해를</w>":4595,",정치,1,2020-03-17</w>":4596,"\",뉴시스,2020.03.05.</w>":4597,"면접을</w>":4598,"'는</w>":4599,"2:0":4600,"4:4":4601,"당초</w>":4602,"등과</w>":4603,"있지만</w>":4604,"팩트":4605,"장병들이</w>":4606,"포토]</w>":4607,".5":4608,"311":4609,"상당":4610,"의석":4611,"3.0</w>":4612,"2020.03.02.</w>":4613,"단수":4614,"르게</w>":4615,"무력":4616,"여행</w>":4617,"출발":4618,"2017":4619,"남북관계":4620,"사령부</w>":4621,"머니S":4622,"대정부질문":4623,"과감":4624,"드린":4625,"부사령":4626,"장관의</w>":4627,"대해서</w>":4628,"'이어</w>":4629,"en":4630,"열어":4631,"하자</w>":4632,"\"\"고</w>":4633,"년간</w>":4634,"닷컴</w>":4635,"만을</w>":4636,"보세요":4637,"발표한</w>":4638,"여상규</w>":4639,"불편":4640,"소비":4641,"유은":4642,",정치,행정,2020-03-04,":4643,",https://news.naver.com/main/read.nhn?mode=LS2D&mid=shm&sid1=100&sid2=265&oid=421&aid=000438":4644,"혐의로</w>":4645,"\\r\\n\\t\\t\\t":4646,"ss":4647,"시아</w>":4648,"영을</w>":4649,"의무":4650,"대표를</w>":4651,"경제를</w>":4652,"대해서도</w>":4653,"게이":4654,"외교</w>":4655,"경찰청":4656,"가능성도</w>":4657,"필리버스터를</w>":4658,"500":4659,"글을</w>":4660,"해서는</w>":4661,"강력한</w>":4662,".7":4663,".\",정치,0,2020-03-17</w>":4664,"9:4":4665,"가고</w>":4666,"가지고</w>":4667,"감염</w>":4668,"교섭":4669,"돼야</w>":4670,"바꾸":4671,"어제</w>":4672,"기사":4673,"논평":4674,"11:4":4675,"후보로</w>":4676,"코로나19로</w>":4677,"당국자는</w>":4678,")은</w>":4679,".8":4680,"무기":4681,"있는데</w>":4682,"차단":4683,"후보가</w>":4684,"다\"\"면서</w>":4685,",정치,청와대,2020-03-04,":4686,"아니냐는</w>":4687,"이른바</w>":4688,"6,,,,,</w>":4689,"심사를</w>":4690,"의인":4691,"11:1":4692,"다'는</w>":4693,"67":4694,"순천":4695,"포항":4696,"선거관리":4697,"오늘(":4698,"과거</w>":4699,"청와대가</w>":4700,"확산을</w>":4701,"김병주</w>":4702,"고위공직자":4703,"중소기업":4704,"da":4705,"가시":4706,"선의</w>":4707,"해외":4708,"소상공인":4709,"2주":4710,"르는</w>":4711,"한편":4712,"획정</w>":4713,"덧붙였":4714,"거쳐</w>":4715,"겠다”고</w>":4716,"억원</w>":4717,"일,</w>":4718,"있다\"\"며</w>":4719,"정도</w>":4720,"최종</w>":4721,"통상":4722,")는</w>":4723,"”\",":4724,"부처</w>":4725,"완화":4726,"주셨":4727,"지급":4728,"학교":4729,"연합정당":4730,"진행된</w>":4731,"선언했다.</w>":4732,"공관위</w>":4733,"제8차</w>":4734,"의사</w>":4735,"인천</w>":4736,"평가</w>":4737,"30일</w>":4738,",https://news.naver.com/main/read.nhn?mode=LS2D&mid=shm&sid1=100&sid2=268&oid=001&aid=0011":4739,"포인트":4740,"9:0":4741,"압박":4742,"오마이":4743,"있기</w>":4744,"주문":4745,"주한":4746,"구독하기":4747,"적극적으로</w>":4748,"공급</w>":4749,"시장":4750,"이며</w>":4751,"취약":4752,"코리아":4753,"여야는</w>":4754,"구체적인</w>":4755,"배화여고":4756,"국의</w>":4757,"답했다.</w>":4758,"상생</w>":4759,"101주년</w>":4760,"89":4761,"거래":4762,"기업</w>":4763,"도발":4764,"부처":4765,"아차":4766,"특위</w>":4767,"항의":4768,"행을</w>":4769,"199":4770,"하겠습니다.</w>":4771,"국민에게</w>":4772,"남북관계</w>":4773,"\",사회,0,2020-03-17</w>":4774,"내년</w>":4775,"당선":4776,"매체":4777,"지역에서</w>":4778,",https://news.naver.com/main/read.nhn?mode=LS2D&mid=shm&sid1=100&sid2=269&oid=421&aid=0004":4779,"'그는</w>":4780,"부터":4781,"했는데</w>":4782,"향한</w>":4783,"긍정":4784,"동산":4785,"사업</w>":4786,"아닌":4787,"아주</w>":4788,"12월":4789,"경제부총리</w>":4790,"현충원</w>":4791,"한선교</w>":4792,"기반":4793,"도의</w>":4794,"올라":4795,"작년</w>":4796,",2020-01-01,\"":4797,"관계자":4798,",정치,행정,2020-01-02,":4799,".9":4800,"8:5":4801,"\\n</w>":4802,"공중":4803,"답하고</w>":4804,"법제":4805,"아,</w>":4806,"일어":4807,"투명":4808,"검찰은</w>":4809,"사람이</w>":4810,"자치":4811,"조성":4812,"지역으로</w>":4813,"신뢰를</w>":4814,"앞장":4815,"나오고</w>":4816,"2020.03.02.',</w>":4817,"것입니다.</w>":4818,"김수":4819,"동시에</w>":4820,"완전히</w>":4821,"원,</w>":4822,"평화</w>":4823,"합동인사":4824,"범죄수사":4825,"(오른쪽":4826,"5:5":4827,"기대한":4828,"반대</w>":4829,"보건</w>":4830,"채널":4831,"안전을</w>":4832,"일보,2020.03.05.</w>":4833,"53":4834,"본청</w>":4835,"소속":4836,"생활치료센터":4837,"하라고</w>":4838,"서울신문":4839,"선언한</w>":4840,"전원회의에서</w>":4841,"소상공인</w>":4842,"따라":4843,"사실</w>":4844,"조원</w>":4845,"회관에서</w>":4846,"한국경제":4847,"기념촬":4848,"여론조사":4849,"강원도</w>":4850,"선언</w>":4851,"대통령에</w>":4852,"포함해</w>":4853,"나라</w>":4854,"당사에서</w>":4855,"디지":4856,"선별":4857,"지사":4858,"26일</w>":4859,"9,,,,,</w>":4860,"받아</w>":4861,"시장은</w>":4862,"김정숙</w>":4863,"때문이다.</w>":4864,"최소화":4865,"(c":4866,"고통":4867,"기간":4868,"없다며</w>":4869,"정계":4870,"10:5":4871,"원내대표,</w>":4872,",https://news.naver.com/main/read.nhn?mode=LS2D&mid=shm&sid1=100&sid2=265&oid=0":4873,"공천관리위원회</w>":4874,"가져":4875,"개인":4876,"광주</w>":4877,"맞아</w>":4878,"사랑":4879,"전혀</w>":4880,"편성</w>":4881,"받아들":4882,"대남</w>":4883,"됐던</w>":4884,"상대":4885,"수용":4886,"일정</w>":4887,"천안":4888,"\"\"라고</w>":4889,"국회의</w>":4890,"국가안보":4891,"인터넷전문은행</w>":4892,"기소</w>":4893,"대처":4894,"도움이</w>":4895,"되어</w>":4896,"선전":4897,"중단</w>":4898,"하시":4899,"가능성을</w>":4900,"’에</w>":4901,"떨어":4902,"메르":4903,"승리를</w>":4904,"유감":4905,"적대":4906,"조금</w>":4907,"하던</w>":4908,"한미</w>":4909,"나라의</w>":4910,"6.0,":4911,"7:0":4912,"국제공":4913,"법적</w>":4914,"새누리":4915,"자동":4916,"제2":4917,"자리에서</w>":4918,"모두발언을</w>":4919,"%를</w>":4920,"로를</w>":4921,"소개":4922,"없을</w>":4923,"총괄":4924,"해군</w>":4925,"과학기술정보":4926,"고위공직자범죄수사":4927,"3월":4928,"빨리</w>":4929,"원에</w>":4930,"일로</w>":4931,"허용":4932,"정당이</w>":4933,"국무회의</w>":4934,"조정식</w>":4935,"인터뷰":4936,"&oid=003&aid=0009634":4937,"MBN":4938,"가진</w>":4939,"김명":4940,"법,</w>":4941,"운동</w>":4942,"이루":4943,"정경":4944,"진단":4945,",뉴시스,2020.03.01.</w>":4946,"꼼수":4947,"www":4948,"에게는</w>":4949,"실을</w>":4950,"집을</w>":4951,"취소":4952,"해소":4953,"10:4":4954,"참석하는</w>":4955,"1.0,,1.0,,</w>":4956,"국립서울":4957,"일부개정":4958,"질의에</w>":4959,"국토":4960,"지자체":4961,"정확한</w>":4962,"초대형</w>":4963,"들,</w>":4964,"사망":4965,"이후":4966,"인식":4967,"조사를</w>":4968,"의원도</w>":4969,",정치,정치일반,2020-03-01,\"":4970,"촉구했다.</w>":4971,"비롯해</w>":4972,"확실한</w>":4973,"4:1":4974,"7:5":4975,"로서</w>":4976,"여객":4977,"이달</w>":4978,"뉴스를</w>":4979,",정치,국회/정당,2019-12-01,":4980,"방사포</w>":4981,"(c)</w>":4982,"다라고</w>":4983,"레이":4984,"실질":4985,"여당":4986,"한국의</w>":4987,"중국인</w>":4988,"4,,</w>":4989,"연수":4990,"정부에</w>":4991,"'라는</w>":4992,"300":4993,"국내":4994,"실현":4995,"윤리":4996,"조선</w>":4997,"중이다.</w>":4998,"지사는</w>":4999,"기관지</w>":5000,"운영에</w>":5001,"%)</w>":5002,"가까":5003,"나왔":5004,"남구":5005,"추정":5006,"측은</w>":5007,"활동</w>":5008,"기자',</w>":5009,"만들어</w>":5010,"··":5011,"너무</w>":5012,"별로</w>":5013,"우체":5014,"환영":5015,"처리를</w>":5016,"체계를</w>":5017,"52":5018,"bs":5019,"동맹":5020,"려는</w>":5021,"정찰":5022,"김진아</w>":5023,"성과를</w>":5024,"관이</w>":5025,"인사청문":5026,"불가피":5027,"1월":5028,"6&aid=00":5029,"72":5030,"관을</w>":5031,"영업":5032,"음압":5033,"적이</w>":5034,"헌신":5035,"국회는</w>":5036,"장관에게</w>":5037,"선거를</w>":5038,"원내수석부":5039,"01:0":5040,",https://news.naver.com/main/read.nhn?mode=LS2D&mid=shm&sid1=100&sid2=269&oid=056&aid=00":5041,"현지시간":5042,",https://news.naver.com/main/read.nhn?mode=LS2D&mid=shm&sid1=100&sid2=269&oid=056&aid=0010":5043,"굉장":5044,"김일":5045,"로는</w>":5046,"방문</w>":5047,"스러":5048,"의결":5049,"의학":5050,"더불어민주당은</w>":5051,"평화를</w>":5052,"배화여고에서</w>":5053,"선별진료":5054,"실장</w>":5055,"&aid=00016":5056,"16&aid=00016":5057,"데이터</w>":5058,"9&aid=0004":5059,"il":5060,"가야</w>":5061,"각오":5062,"원산</w>":5063,"지와</w>":5064,"미래한국당</w>":5065,"예산안</w>":5066,"특례법</w>":5067,"5,2020-03-17</w>":5068,"8,,</w>":5069,"선정":5070,"이주":5071,"인한</w>":5072,"임대":5073,"청구":5074,"격리된</w>":5075,",https://news.naver.com/main/read.nhn?mode=LS2D&mid=shm&sid1=100&sid2=269&oid=003&aid=0009739":5076,"권고":5077,"라디":5078,"말했습니다.</w>":5079,"불출마":5080,"상정":5081,"위기</w>":5082,"확진</w>":5083,"한국과</w>":5084,"04:2":5085,"8:4":5086,"내지</w>":5087,"리지</w>":5088,"인에</w>":5089,"대화를</w>":5090,"모두가</w>":5091,"6일</w>":5092,"국이</w>":5093,"정계</w>":5094,",정치,국회/정당,2020-03-05,\"":5095,"대변인이</w>":5096,"부대</w>":5097,",https://news.naver.com/main/read.nhn?mode=LS2D&mid=shm&sid1=100&sid2=269&oid=001&aid=00114":5098,"인재영입</w>":5099,"cor":5100,"신형</w>":5101,"운영</w>":5102,"조속":5103,"질병":5104,":00,":5105,",https://news.naver.com/main/read.nhn?mode=LS2D&mid=shm&sid1=100&sid2=267&oid=001&aid=001144":5106,"온라인</w>":5107,"굉장히</w>":5108,"%),</w>":5109,"'ⓒ</w>":5110,"5:2":5111,"상품":5112,"신고":5113,"않도록</w>":5114,"업체":5115,"연합</w>":5116,"이)</w>":5117,"해온</w>":5118,"흑석":5119,"감염병":5120,"한국당의</w>":5121,"검찰개혁":5122,"3,,</w>":5123,"기간</w>":5124,"마치고</w>":5125,"수요":5126,"수사를</w>":5127,"위기를</w>":5128,"장교</w>":5129,"해달라고</w>":5130,"의원(":5131,"한국에</w>":5132,"179":5133,"지금까지</w>":5134,"2020.3.2',</w>":5135,"TB":5136,"뒷받":5137,"민정":5138,"안과</w>":5139,"위험":5140,"의원회관에서</w>":5141,"신년합동인사":5142,"'[서울=뉴시스]":5143,"바란다고</w>":5144,"전략무기</w>":5145,"목소리를</w>":5146,"대학교</w>":5147,"SNS":5148,"서초":5149,"시부터</w>":5150,"직후</w>":5151,"추진</w>":5152,"충돌</w>":5153,"14일</w>":5154,"발사한</w>":5155,"27일</w>":5156,"입국제한</w>":5157,"방식으로</w>":5158,"논란이</w>":5159,"1년</w>":5160,"1:5":5161,"대문":5162,"바람":5163,"방호":5164,"역을</w>":5165,"환경":5166,"내부":5167,"제목":5168,"대응에</w>":5169,"모습.</w>":5170,"대한민국의</w>":5171,"윤석열</w>":5172,"…'":5173,"가짜":5174,"입장</w>":5175,"전쟁</w>":5176,"정상</w>":5177,"화력":5178,"05:3":5179,"분명히</w>":5180,"6:0":5181,"74":5182,"마다</w>":5183,"오픈":5184,"편성":5185,"헌법":5186,"강조했다.',</w>":5187,"군사적</w>":5188,"이상의</w>":5189,"일(현지시간":5190,"중앙재난안전대책본부</w>":5191,".4":5192,"나왔다.</w>":5193,"분들이</w>":5194,"산을</w>":5195,"성·":5196,"인물":5197,"했다”며</w>":5198,".0,3.0,":5199,"통합의</w>":5200,"국민과</w>":5201,"=뉴시스":5202,"안타":5203,"을)</w>":5204,"주한</w>":5205,"찾아":5206,",2020-03-01,\"":5207,"공군사관학교에서</w>":5208,"관,</w>":5209,"교체":5210,"다가":5211,"단의</w>":5212,"대전</w>":5213,"이기</w>":5214,"재가":5215,"조를</w>":5216,"중·":5217,"친박":5218,"했다\"\"고</w>":5219,",https://news.naver.com/main/read.nhn?mode=LS2D&mid=shm&sid1=100&sid2=269&oid=003&aid=0009635":5220,"'\\n\\t']\",정치,1,2020-03-16</w>":5221,"확산에</w>":5222,"사태를</w>":5223,"법제사법":5224,"4.0,,</w>":5225,"당내</w>":5226,"자제":5227,"적절":5228,"평양":5229,"하고자</w>":5230,"청와대의</w>":5231,",정치,북한,2020-01-01,":5232,"14&aid=000438":5233,"등은</w>":5234,"선대":5235,"자와</w>":5236,"전담":5237,"체크":5238,".0,</w>":5239,"정치의</w>":5240,"박근혜":5241,"수석은</w>":5242,"방침이다.</w>":5243,"도전":5244,"리얼":5245,"설립</w>":5246,"연결":5247,"우고</w>":5248,"의심":5249,"코로나19와</w>":5250,"금지',</w>":5251,"산에서</w>":5252,"앞둔</w>":5253,"올랐":5254,"저희":5255,"지에서</w>":5256,"회동":5257,"후보는</w>":5258,"미국은</w>":5259,"김상":5260,"되자</w>":5261,"자들의</w>":5262,"장비":5263,"회의실에서</w>":5264,"하겠다며</w>":5265,"포함한</w>":5266,"비핵화":5267,"김진표</w>":5268,"발사체를</w>":5269,"조선중앙통신이</w>":5270,"유은혜</w>":5271,"일(현지시간)</w>":5272,"\\'</w>":5273,"군이</w>":5274,"높아":5275,"분이</w>":5276,"비공개</w>":5277,"유감을</w>":5278,"10월</w>":5279,"필요하":5280,"고위공직자범죄수사처":5281,"국면":5282,"박원":5283,"배치":5284,"보유":5285,"오히":5286,"을,</w>":5287,"이들은</w>":5288,"종교":5289,"진정":5290,"진행</w>":5291,"국가의</w>":5292,"검찰총":5293,"신년인사":5294,"정부서울청사</w>":5295,"'-</w>":5296,"2발을</w>":5297,"간부":5298,"걱정":5299,"노무":5300,"다짐":5301,"상생":5302,"창원</w>":5303,"내용의</w>":5304,"@herald":5305,"시무식에서</w>":5306,"동작구</w>":5307,"유성엽</w>":5308,"유승민</w>":5309,"corp":5310,"오히려</w>":5311,"@heraldcorp":5312,"▶',</w>":5313,"이든</w>":5314,"적이고</w>":5315,"특정</w>":5316,".0,0.0,":5317,",https://news.naver.com/main/read.nhn?mode=LS2D&mid=shm&sid1=100&sid2=268&oid=421&aid=0004":5318,"보고서</w>":5319,"위해서는</w>":5320,"TK":5321,"cho":5322,"가를</w>":5323,"부동":5324,"여사가</w>":5325,"윤건":5326,"임명</w>":5327,"지낸</w>":5328,"청에서</w>":5329,"214":5330,"국무위원장의</w>":5331,"2019.12":5332,",https://news.naver.com/main/read.nhn?mode=LS2D&mid=shm&sid1=100&sid2=264&oid=0":5333,",정치,북한,2020-03-04,":5334,"7,,</w>":5335,"겠다":5336,"공유":5337,"다음</w>":5338,"이라면서</w>":5339,"심각한</w>":5340,"277&aid=00046":5341,")와</w>":5342,"시·":5343,"확충":5344,"일부개정법률":5345,"방법":5346,"비전":5347,"사퇴":5348,"살펴":5349,"원주":5350,"합류":5351,"확대</w>":5352,"3:5":5353,"&oid=003&aid=000958":5354,"시키고</w>":5355,"권력기관</w>":5356,"되살":5357,"보낸</w>":5358,"의사를</w>":5359,"제3":5360,"자유공화":5361,",https://news.naver.com/main/read.nhn?mode=LS2D&mid=shm&sid1=100&sid2=264&oid=003&aid=00097":5362,"je":5363,"거듭</w>":5364,"나고</w>":5365,"무기</w>":5366,"시급":5367,"정치개혁":5368,"여러분,</w>":5369,"강하게</w>":5370,"담당":5371,"업무</w>":5372,"요?</w>":5373,"체육":5374,"민주평화":5375,"대구시</w>":5376,"이야기":5377,"4:3":5378,"공약</w>":5379,"대가</w>":5380,"봉쇄":5381,"선임":5382,"인철</w>":5383,"프레":5384,"법무부":5385,"돌아가":5386,"현충원을</w>":5387,"뒷받침":5388,"1년":5389,"각종</w>":5390,"강화</w>":5391,"상에</w>":5392,"선출":5393,"찾은</w>":5394,"체계</w>":5395,"의원들의</w>":5396,"내용이</w>":5397,"\",뉴시스,2020.01.02.</w>":5398,"내가</w>":5399,"만드는</w>":5400,"본격":5401,"억원":5402,"비례정당</w>":5403,"뉴스1코리아":5404,"대변인</w>":5405,"선언을</w>":5406,"JTB":5407,"김의":5408,"인데</w>":5409,"인력</w>":5410,"있지</w>":5411,",정치,국회/정당,2020-01-02,\"":5412,"행정안전부</w>":5413,"정부세종청사에서</w>":5414,"계약":5415,"민병":5416,"소를</w>":5417,"이란</w>":5418,"인력":5419,"정의당은</w>":5420,"신속처리":5421,"전망이다.</w>":5422,"김여정":5423,"속보]</w>":5424,"자료를</w>":5425,"2017년</w>":5426,"의인들과</w>":5427,"4:2":5428,"“(":5429,"강행":5430,"내부</w>":5431,"단수</w>":5432,"상은</w>":5433,"씨는</w>":5434,"전략</w>":5435,"주석":5436,"표를</w>":5437,"한번</w>":5438,"대통합":5439,"전원회의를</w>":5440,"공천관리위원장이</w>":5441,"창당준비":5442,"있다./":5443,"정경두</w>":5444,"”라며</w>":5445,"건설":5446,"널드</w>":5447,"들었":5448,"보다는</w>":5449,"부분</w>":5450,"자들은</w>":5451,"진을</w>":5452,"집권</w>":5453,"출석":5454,"2020.03.03.</w>":5455,"질병관리":5456,"504":5457,"깊은</w>":5458,"도널드</w>":5459,"명이다.</w>":5460,"북구</w>":5461,"을은</w>":5462,"\",\"['\\n\\t',</w>":5463,"입국금지</w>":5464,",이데일리":5465,"2:3":5466,"vs</w>":5467,"文대통령,</w>":5468,"공항</w>":5469,"산업</w>":5470,"행안":5471,"현장을</w>":5472,"현장에</w>":5473,"2020.3.1":5474,"패스트트랙(":5475,",사회,0,2020-03-17</w>":5476,"계명":5477,"공군</w>":5478,"백두":5479,"불러":5480,"수수":5481,"없어</w>":5482,"오른</w>":5483,"출국":5484,"포병":5485,"1000":5486,"발표하고</w>":5487,",정치,청와대,2020-03-03,":5488,"것이란</w>":5489,"위성정당":5490,"보건복지부</w>":5491,"1:4":5492,"규제":5493,"대륙":5494,"벌어":5495,"보냈":5496,"앞에</w>":5497,"우한</w>":5498,"입원":5499,"자리를</w>":5500,"노동신문은</w>":5501,"이인영":5502,"1:0":5503,"겨냥":5504,"공동</w>":5505,"소독":5506,"역량을</w>":5507,"이언":5508,"이,</w>":5509,"여론조사</w>":5510,"당정협의":5511,"주한미군</w>":5512,"85":5513,"간사":5514,"무시":5515,"박지원</w>":5516,"송구":5517,"시험</w>":5518,"않으면</w>":5519,"전반":5520,"차지":5521,"회장,</w>":5522,"국민들의</w>":5523,"필요가</w>":5524,"일보,2020.03.02.</w>":5525,"평가했다.</w>":5526,"최고위원은</w>":5527,"결심":5528,"밝혀":5529,"이지만</w>":5530,"했으나</w>":5531,"민주주의":5532,"저작권자</w>":5533,"전체회의에서</w>":5534,"73":5535,"는다.</w>":5536,"위에서</w>":5537,"장(":5538,"\",이데일리":5539,"결정을</w>":5540,"병원으로</w>":5541,"언급한</w>":5542,"미래통합당의</w>":5543,"한반도의</w>":5544,"자력갱":5545,"bo":5546,"겨레":5547,"고양":5548,"나설</w>":5549,"시도":5550,"안팎":5551,"억제":5552,"원하는</w>":5553,"임시</w>":5554,"이라도</w>":5555,",정치,국방/외교,2020-01-02,":5556,"국군대구":5557,"나누는</w>":5558,"위성정당</w>":5559,"전해졌다.</w>":5560,"'김":5561,"남은</w>":5562,"논의</w>":5563,"없다”고</w>":5564,"일으":5565,"전남</w>":5566,"하는":5567,",연합뉴스,2020.03.04.</w>":5568,"제안한</w>":5569,"hy":5570,"긴밀":5571,"시킬</w>":5572,"위가</w>":5573,"이지</w>":5574,"11:2":5575,"사회적</w>":5576,"예비역</w>":5577,"받아보세요":5578,"제목의</w>":5579,"7:4":5580,"8:0":5581,"근거":5582,"아베</w>":5583,"진료</w>":5584,"지금은</w>":5585,"자유한국당이</w>":5586,"대한상공회의소</w>":5587,"이겨낼</w>":5588,"마지막</w>":5589,"부동산</w>":5590,"2:2":5591,"th":5592,"경영":5593,"고요.</w>":5594,"데,</w>":5595,"변함":5596,"심의":5597,"앵커":5598,"해외</w>":5599,"장관을</w>":5600,"기자]',</w>":5601,"경제,":5602,",정치,청와대,2020-03-05,":5603,"추경예산</w>":5604,"국으로</w>":5605,"방해":5606,"상승":5607,"소리":5608,"입당</w>":5609,"있을":5610,"접수":5611,"진보</w>":5612,"현장":5613,"news1.":5614,"&oid=008&aid=0004":5615,"10:0":5616,"정부와</w>":5617,"언급했다.</w>":5618,"pa":5619,"개별":5620,"넘는</w>":5621,"발의":5622,"하며,</w>":5623,"화상":5624,"연합뉴스TV</w>":5625,",정치,국회/정당,2020-03-01,":5626,"@news1.\",정치,0,2020-03-17</w>":5627,"사실이</w>":5628,".co.kr)',</w>":5629,"자가격리":5630,"만든</w>":5631,"안은</w>":5632,"일에는</w>":5633,"중증":5634,"풀이된다.</w>":5635,"6,,\"</w>":5636,"감안":5637,"개입":5638,"거대</w>":5639,"방안</w>":5640,"신용":5641,"자들을</w>":5642,"청산":5643,"북한에</w>":5644,"선거에</w>":5645,"더불어민주당이</w>":5646,"미래통합당은</w>":5647,"사무총":5648,"전략무기":5649,"겼다.</w>":5650,"급증":5651,"나머":5652,"내세":5653,"내린</w>":5654,"대비</w>":5655,"등장":5656,"빠른</w>":5657,"합의를</w>":5658,"정치국</w>":5659,"의원에</w>":5660,"민주당과</w>":5661,"패스트트랙(신속처리":5662,"가격을</w>":5663,"방지를</w>":5664,"본관에서</w>":5665,"인근":5666,"일에</w>":5667,"현장에서</w>":5668,"신청한</w>":5669,"사태가</w>":5670,"우려를</w>":5671,"세력의</w>":5672,"99@newsis.com',</w>":5673,"ul":5674,"강서":5675,"결코</w>":5676,"된다는</w>":5677,"신당</w>":5678,"10:2":5679,"원내대표와</w>":5680,"한편,</w>":5681,"3호":5682,"6,2020-03-17</w>":5683,"9:2":5684,"기구":5685,"기여":5686,"벤처":5687,"상무":5688,"이들</w>":5689,"입니":5690,"뉴시스',</w>":5691,"수도권</w>":5692,",파이낸셜뉴스":5693,"5:3":5694,"당·":5695,"명의":5696,"앞으로도</w>":5697,"정치인":5698,"조치가</w>":5699,"탄도미사일(":5700,"1,,\"</w>":5701,"UA":5702,"국을</w>":5703,"대대":5704,"됩니다.</w>":5705,"바탕":5706,"불법":5707,"속에서</w>":5708,"어디":5709,"일은</w>":5710,"전날":5711,"준비</w>":5712,"2000":5713,"코로나바이러스":5714,"사람들이</w>":5715,",정치,북한,2020-03-03,":5716,"대한민국을</w>":5717,"하자고</w>":5718,"'은</w>":5719,"곳이다.</w>":5720,"다라며</w>":5721,"당연":5722,"유튜":5723,"전면":5724,"직을</w>":5725,"입국금지":5726,"시간을</w>":5727,"둘러싼</w>":5728,"리얼미":5729,"경험":5730,"끝까지</w>":5731,"당장</w>":5732,"대기":5733,"롭게</w>":5734,"복을</w>":5735,"유영":5736,"체제":5737,"투자":5738,"화상</w>":5739,"\"\"▶":5740,"12:0":5741,"희망을</w>":5742,"시정연설을</w>":5743,"%포인트":5744,"경향":5745,"김기":5746,"북도":5747,"시절</w>":5748,"이라</w>":5749,"2020년도</w>":5750,"\"\"(":5751,"통합당,</w>":5752,"2020.3.4</w>":5753,"국민들께</w>":5754,"동해상으로</w>":5755,"이탈리아":5756,"부사령관</w>":5757,"5,,\"['\\n\\t',</w>":5758,"bl":5759,"까지는</w>":5760,"내에서</w>":5761,"대폭</w>":5762,"쏟아":5763,"여기":5764,"연대</w>":5765,"한다\"\"며</w>":5766,"해선</w>":5767,"이유로</w>":5768,":30,":5769,"'…":5770,"'가</w>":5771,"'문재인</w>":5772,"8:2":5773,"MS":5774,"개편":5775,"게시":5776,"과제":5777,"대상</w>":5778,"대규모</w>":5779,"이르":5780,"연합뉴스]</w>":5781,"지난해":5782,"인사말을</w>":5783,",뉴시스,2020.03.03.</w>":5784,"국가가</w>":5785,"시간이</w>":5786,"상태다.</w>":5787,"기부":5788,"듣고</w>":5789,"말로</w>":5790,"보이고</w>":5791,"빅데이터</w>":5792,"신설":5793,"실제로</w>":5794,"쓰고</w>":5795,"양국</w>":5796,"에만</w>":5797,"학교</w>":5798,"환자를</w>":5799,"2015":5800,"지도했다고</w>":5801,"나타났다.</w>":5802,"메르스</w>":5803,"0.0</w>":5804,"결론":5805,"국기에</w>":5806,"균형":5807,"기회":5808,"만원</w>":5809,"진다.</w>":5810,"출연":5811,"전략적</w>":5812,"사태와</w>":5813,"새로운보수당</w>":5814,"(공수처":5815,",아시아경제":5816,"[뉴스":5817,"박용":5818,"방지":5819,"이같은</w>":5820,"추구":5821,"탈락":5822,"태양":5823,"협의를</w>":5824,",https://news.naver.com/main/read.nhn?mode=LS2D&mid=shm&sid1=100&sid2=267&oid=0":5825,",정치,행정,2020-03-03,":5826,"메시지</w>":5827,"사업을</w>":5828,"정권의</w>":5829,"68기</w>":5830,"'그러면서</w>":5831,"1만":5832,"K-":5833,"’의</w>":5834,"속에</w>":5835,"자기</w>":5836,"작품</w>":5837,"장거리":5838,"전선":5839,"점이</w>":5840,"조정</w>":5841,"행태":5842,"위원회는</w>":5843,"ICBM</w>":5844,"\\r\\n\\t\\t\\t\\t\\t":5845,"고속":5846,"광역시</w>":5847,"도로":5848,"어린":5849,"원에서</w>":5850,"이날":5851,"지면서</w>":5852,"최고</w>":5853,"국민들에게</w>":5854,"강원도":5855,"마음을</w>":5856,"2,2020-03-16</w>":5857,"노선":5858,"번영":5859,"알고</w>":5860,"재정":5861,"창원":5862,"해맞이</w>":5863,"국방부는</w>":5864,"시설을</w>":5865,"김병준</w>":5866,"인터넷전문은행":5867,"rtp":5868,"北,</w>":5869,"갑에</w>":5870,"군단</w>":5871,"되도록</w>":5872,"들고</w>":5873,"세력</w>":5874,"자체</w>":5875,"해왔다.</w>":5876,"15&aid=0004":5877,"위원회에</w>":5878,"합니다',</w>":5879,"84":5880,"권이</w>":5881,"부담":5882,"사항을</w>":5883,"올린</w>":5884,"위로</w>":5885,"이제는</w>":5886,"천·":5887,"탈당":5888,"11:5":5889,"����</w>":5890,"지도부":5891,"임명을</w>":5892,"메시지":5893,"\",연합뉴스,2020.01.02.</w>":5894,"있어야</w>":5895,"고려해</w>":5896,"바로가기</w>":5897,"@hankyung":5898,"검토</w>":5899,"김재":5900,"김인철</w>":5901,"눈에</w>":5902,"미술":5903,"차례":5904,"초래":5905,"노동신문":5906,"기준으로</w>":5907,"이야기를</w>":5908,"방송통신":5909,"========":5910,"패스트트랙(신속처리안건":5911,"감이</w>":5912,"깊이</w>":5913,"사에</w>":5914,"사건</w>":5915,"선동":5916,"선진":5917,"여성</w>":5918,"평양</w>":5919,"23:0":5920,"신속하게</w>":5921,"Artp":5922,"러시아":5923,"바라":5924,"세표</w>":5925,"입당":5926,"있습니다.',</w>":5927,"주가시":5928,"충돌":5929,"민주당,</w>":5930,"공개합니다',</w>":5931,"미래통합당이</w>":5932,"극복을</w>":5933,"하나로</w>":5934,"rice</w>":5935,"나서고</w>":5936,"오픈!</w>":5937,"MSI</w>":5938,"K-Artp":5939,"미술작품</w>":5940,"주가시세표</w>":5941,"K-Artprice</w>":5942,"6:5":5943,"목격":5944,"불과":5945,"장에게</w>":5946,"연합뉴스',</w>":5947,"코로나19의</w>":5948,"구독하기',</w>":5949,"비상대책":5950,"베트남에</w>":5951,"누가</w>":5952,"대에</w>":5953,"드리고</w>":5954,"분담":5955,"수급":5956,"아동":5957,"여당</w>":5958,"유엔</w>":5959,"이게</w>":5960,"주택":5961,"카드":5962,"2016":5963,"'\\n\\t\\t',</w>":5964,"1.0,,,</w>":5965,"대전광역시</w>":5966,"방향으로</w>":5967,"한미연합사</w>":5968,"5&aid=00029":5969,"나섰다.</w>":5970,"le":5971,"곳에서</w>":5972,"기울":5973,"모임</w>":5974,"얼마":5975,"정치는</w>":5976,"의원들은</w>":5977,"28일부터</w>":5978,"교육부</w>":5979,"임관식</w>":5980,"했다\",정치,":5981,"대륙간":5982,"blue":5983,"%p":5984,"2일)</w>":5985,"7000":5986,"강도</w>":5987,"겠다며</w>":5988,"능한</w>":5989,"달리</w>":5990,"등록</w>":5991,"사항":5992,"압수수":5993,"완료":5994,"유일":5995,"제68기</w>":5996,"조용":5997,"처벌":5998,"충격":5999,"하태":6000,"연구원</w>":6001,"취재진":6002,"seiyu@news1.,정치,0,2020-03-17</w>":6003,"(www":6004,"2:1":6005,"·박":6006,"건을</w>":6007,"규제</w>":6008,"발언</w>":6009,"분류":6010,"스크":6011,"실패":6012,"언제":6013,"인구":6014,"절실":6015,"집계":6016,"검찰에</w>":6017,"요청했다.</w>":6018,"국제회의":6019,",머니투데이":6020,"1,,,,,</w>":6021,"2월":6022,"TK</w>":6023,"개의</w>":6024,"관리</w>":6025,"다르":6026,"미래</w>":6027,"수원":6028,"수록</w>":6029,"체감":6030,"국회법</w>":6031,"뉴스1)</w>":6032,",연합뉴스,2020.03.01.</w>":6033,"예비후보가</w>":6034,"지역구에</w>":6035,"인천국제공":6036,"5:1":6037,"sy":6038,"‘코로나19</w>":6039,"곳으로</w>":6040,"다\",정치,":6041,"대외":6042,"민생</w>":6043,"범죄</w>":6044,"사의</w>":6045,"상반":6046,"시장이</w>":6047,"악화":6048,"완화</w>":6049,"인가":6050,"장애":6051,"정기":6052,"존경":6053,"해질</w>":6054,"청와대를</w>":6055,"생각한다고</w>":6056,"특별위원회</w>":6057,"사태로</w>":6058,"지역구인</w>":6059,"밝히고</w>":6060,"윤건영</w>":6061,"3,,\"['\\n\\t',</w>":6062,"드리는</w>":6063,"이행":6064,"해달라":6065,"대구에</w>":6066,"'김</w>":6067,"8,,\"['\\n\\t',</w>":6068,"공모":6069,"로운</w>":6070,"소식을</w>":6071,"의도":6072,"인,</w>":6073,"제101주년</w>":6074,"포기":6075,"민주통합":6076,",https://news.naver.com/main/read.nhn?mode=LS2D&mid=shm&sid1=100&sid2=269&oid=214":6077,"가능성</w>":6078,"미국을</w>":6079,"이동하고</w>":6080,",노컷뉴스":6081,"4,,\"['\\n\\t',</w>":6082,"6:4":6083,"·정":6084,"·청":6085,"경기도</w>":6086,"계가</w>":6087,"교환":6088,"희생":6089,",정치,행정,2020-03-02,":6090,",,,2.0,,</w>":6091,"실시한</w>":6092,":00,,\"</w>":6093,"페이스북</w>":6094,"영등포을</w>":6095,"soda":6096,"공중보건":6097,"bluesoda":6098,"'정</w>":6099,"'이라는</w>":6100,"고등":6101,"논의를</w>":6102,"동참":6103,"말이</w>":6104,"운동을</w>":6105,"원포인트</w>":6106,"전남":6107,"차량</w>":6108,"해병":6109,"호주":6110,":30</w>":6111,"밝혔습니다.',</w>":6112,"사실을</w>":6113,"예산을</w>":6114,"00:50":6115,"계획을</w>":6116,"주재하고</w>":6117,"하노이</w>":6118,"민병두</w>":6119,"3000":6120,"’로</w>":6121,"곳에</w>":6122,"관심을</w>":6123,"국정</w>":6124,"김미":6125,"나지</w>":6126,"도착":6127,"도발</w>":6128,"보였다.</w>":6129,"세가</w>":6130,"쉽지</w>":6131,"육군":6132,"처를</w>":6133,"하겠다\"\"고</w>":6134,"서울경제":6135,"조치에</w>":6136,"검찰개혁</w>":6137,"신청을</w>":6138,"공직선거법</w>":6139,"관측이</w>":6140,"으니</w>":6141,"친문":6142,"통보":6143,"2020.03.01.":6144,"사람은</w>":6145,",https://news.naver.com/main/read.nhn?mode=LS2D&mid=shm&sid1=100&sid2=269&oid=001&aid=001145":6146,"나머지</w>":6147,"'비례":6148,"공지":6149,"관심이</w>":6150,"리기</w>":6151,"선제":6152,"심히</w>":6153,"정리":6154,"져야</w>":6155,"질문</w>":6156,"하락":6157,"현안</w>":6158,"위원장인</w>":6159,"바탕으로</w>":6160,"%포인트</w>":6161,"63":6162,"ce":6163,"ki":6164,"경증":6165,"보이는</w>":6166,"봉사를</w>":6167,"의정부":6168,"인권":6169,"일정을</w>":6170,"하늘":6171,"하나</w>":6172,"현안":6173,",https://news.naver.com/main/read.nhn?mode=LS2D&mid=shm&sid1=100&sid2=266&oid=421&aid=0004":6174,"언급하며</w>":6175,"여야가</w>":6176,"올해는</w>":6177,"국군대전병원":6178,"민간</w>":6179,"시켜</w>":6180,"이광":6181,"주년":6182,"활성":6183,"대구동산":6184,"상황이다.</w>":6185,"으로써</w>":6186,".k\",정치,":6187,"청주시</w>":6188,"62":6189,"7.0,":6190,"[뉴스1":6191,"구조":6192,"군포":6193,"명예":6194,"못해</w>":6195,"부의":6196,"북구":6197,"불법</w>":6198,"서구":6199,"스탄":6200,"여부를</w>":6201,"역대</w>":6202,"한국,</w>":6203,",정치,정치일반,2019-12-01,\"":6204,"경선에서</w>":6205,"이언주</w>":6206,"1천":6207,"bc":6208,"jo":6209,"간에</w>":6210,"계기로</w>":6211,"넘어</w>":6212,"담화를</w>":6213,"됐다는</w>":6214,"뿐만</w>":6215,"소식":6216,"싱가":6217,"으나,</w>":6218,"저지":6219,"전자":6220,"직원":6221,"코로나19에</w>":6222,"사태에</w>":6223,"혁신을</w>":6224,"아시아경제</w>":6225,"왼쪽부터</w>":6226,"해양수산":6227,"유영하</w>":6228,"'s":6229,"'☞":6230,"그룹</w>":6231,"김경":6232,"대남":6233,"등도</w>":6234,"병역":6235,"북·":6236,"살아":6237,"악수":6238,"있지만,</w>":6239,"접근":6240,"쳤다.</w>":6241,"최재":6242,"허위":6243,"습니다.\"\",</w>":6244,"청원은</w>":6245,"합동타격":6246,"말씀을</w>":6247,"노컷뉴스</w>":6248,"스럽게</w>":6249,"bluesoda@newsis.com',</w>":6250,"'또</w>":6251,")에서</w>":6252,"개월</w>":6253,"기계":6254,"기고</w>":6255,"노웅":6256,"등에서</w>":6257,"무장":6258,"민족":6259,"스타":6260,"유통":6261,"의뢰":6262,"인도":6263,"태세를</w>":6264,"정부를</w>":6265,"선거법":6266,"인사하고</w>":6267,"법안이</w>":6268,",https://news.naver.com/main/read.nhn?mode=LS2D&mid=shm&sid1=100&sid2=264&oid=001&aid=001144":6269,"'☞공감언론</w>":6270,"공사</w>":6271,"관심":6272,"기억":6273,"대(":6274,"대선":6275,"됐다.',</w>":6276,"시,</w>":6277,"아세":6278,"으면서</w>":6279,"이고,</w>":6280,"전북</w>":6281,"진상":6282,"차량":6283,"해당":6284,"10:1":6285,"129":6286,"...</w>":6287,"경례를</w>":6288,"스러운</w>":6289,"박원순</w>":6290,"뛰어":6291,"소위</w>":6292,"시민</w>":6293,"판정을</w>":6294,"해나가":6295,"다.\\xa0":6296,"사진을</w>":6297,"국무회의를</w>":6298,"확진자는</w>":6299,"임관식에</w>":6300,"처음으로</w>":6301,"자가격리</w>":6302,"61":6303,"경청":6304,"교류":6305,"그대로</w>":6306,"라,</w>":6307,"벗어":6308,"입을</w>":6309,"중국,</w>":6310,",정치,청와대,2020-03-02,":6311,",정치,북한,2020-01-02,":6312,"2주간</w>":6313,"고위공직자범죄수사처(공수처":6314,"장거리포병":6315,"64":6316,"길이</w>":6317,"모르":6318,"성장":6319,"역에</w>":6320,"전주":6321,"종료":6322,"축하":6323,"홍범":6324,"효율":6325,"인사하는</w>":6326,"지원에</w>":6327,",https://news.naver.com/main/read.nhn?mode=LS2D&mid=shm&sid1=100&sid2=266&oid=018&aid=0004":6328,"평가가</w>":6329,"목소리가</w>":6330,"옥중서신":6331,"라디오</w>":6332,"3당</w>":6333,"et":6334,"강남":6335,"고한</w>":6336,"나서</w>":6337,"법'</w>":6338,"사와</w>":6339,"아서</w>":6340,"자리</w>":6341,"투표</w>":6342,"행보":6343,"회의(":6344,"코로나19가</w>":6345,"오마이뉴스":6346,"자력갱생":6347,"1차</w>":6348,"4+":6349,"관과</w>":6350,"능력":6351,"대주":6352,"봤다.</w>":6353,"없다":6354,"이익":6355,"일반</w>":6356,"조세영</w>":6357,"14일간</w>":6358,"17&aid=0000":6359,"방역을</w>":6360,"선거구획정":6361,"속보]":6362,"중대본</w>":6363,",https://news.naver.com/main/read.nhn?mode=LS2D&mid=shm&sid1=100&sid2=269&oid=417&aid=0000":6364,"'새로운</w>":6365,"6:1":6366,"KT":6367,"강민":6368,"내기</w>":6369,"봐야</w>":6370,"여권":6371,"인재</w>":6372,"주의를</w>":6373,"즉각</w>":6374,"해리</w>":6375,"위원회의</w>":6376,",https://news.naver.com/main/read.nhn?mode=LS2D&mid=shm&sid1=100&sid2=265&oid=018&aid=0004":6377,"270":6378,"창당을</w>":6379,"다'고</w>":6380,"제외한</w>":6381,"7,2020-03-17</w>":6382,"SB":6383,"te":6384,"과도한</w>":6385,"맞이":6386,"부족</w>":6387,"신종":6388,"위치":6389,"\",세계":6390,"공천이</w>":6391,"개혁에</w>":6392,"기념촬영을</w>":6393,"동구":6394,"막아":6395,"만이</w>":6396,"봉사</w>":6397,"비난</w>":6398,"여권</w>":6399,"자기":6400,"자발":6401,"자들과</w>":6402,"증거":6403,"합의</w>":6404,"현황":6405,"24시간</w>":6406,",정치,정치일반,2020-01-02,[":6407,"toya":6408,"yatoya":6409,",https://news.naver.com/main/read.nhn?mode=LS2D&mid=shm&sid1=100&sid2=269&oid=214&aid=000":6410,"싱가포":6411,"#흥":6412,"(',</w>":6413,".,정치,":6414,"2,,\"['\\n\\t',</w>":6415,"곳이</w>":6416,"놀까?</w>":6417,"분의</w>":6418,"셈이다.</w>":6419,"정도":6420,"'▶뭐</w>":6421,"제1부부장이</w>":6422,"움직임":6423,"디지털":6424,"#흥',</w>":6425,",\"['\\n\\t',</w>":6426,"만큼":6427,"자영업":6428,"전화</w>":6429,"전한</w>":6430,"주변":6431,"측근":6432,"표시":6433,"혁신</w>":6434,"선거에서</w>":6435,"내용은</w>":6436,"결과가</w>":6437,"ser":6438,"태극기</w>":6439,"yatoya@yna.co.kr',</w>":6440,"가족</w>":6441,"공적</w>":6442,"구분":6443,"나올</w>":6444,"년부터</w>":6445,"부와</w>":6446,"송파":6447,"일자리":6448,"지의</w>":6449,"터닝</w>":6450,"합리":6451,".com</w>":6452,"문재인":6453,"문제는</w>":6454,"비서실":6455,"이었던</w>":6456,"'마스크</w>":6457,"1인":6458,"그가</w>":6459,"무슨</w>":6460,"물러":6461,"야권</w>":6462,"조작":6463,"주호":6464,"주로</w>":6465,"회동을</w>":6466,"정치에</w>":6467,"국민들은</w>":6468,".0,,2.0,,</w>":6469,"공정한</w>":6470,"분석이</w>":6471,"469":6472,"중대본":6473,"인근에서</w>":6474,"'©</w>":6475,"·부":6476,"교회</w>":6477,"대란":6478,"배경":6479,"분구":6480,"손을</w>":6481,"이며,</w>":6482,"주재</w>":6483,"축산":6484,"춘천":6485,"측에</w>":6486,"19:3":6487,"입국한</w>":6488,"위원회가</w>":6489,"나라가</w>":6490,"정상회의":6491,"'),</w>":6492,"'news1.":6493,"2년</w>":6494,"koo":6495,"개로</w>":6496,"년에</w>":6497,"못했다.</w>":6498,"시한":6499,"안의</w>":6500,"예방</w>":6501,"인근</w>":6502,"작은</w>":6503,"줄어":6504,"지향":6505,"집중</w>":6506,"결정에</w>":6507,"3.0,1.0,":6508,"질문을</w>":6509,"비난했다.</w>":6510,"울산시장</w>":6511,"부족한</w>":6512,"구매!',</w>":6513,"구독하기!',</w>":6514,",https://news.naver.com/main/read.nhn?mode=LS2D&mid=shm&sid1=100&sid2=269&oid=421&aid=000449":6515,"뉴스1코리아(',</w>":6516,"[뉴스1]</w>":6517,"'news1.kr',</w>":6518,"(가운데":6519,"8:1":6520,"ll</w>":6521,"것\"\"이라며</w>":6522,"근본":6523,"년의</w>":6524,"단식":6525,"막는</w>":6526,"배를</w>":6527,"생산</w>":6528,"스,</w>":6529,"이미":6530,"이지":6531,"연합정당</w>":6532,"국민은</w>":6533,"총리가</w>":6534,"대응하고</w>":6535,"기념식":6536,"감사의</w>":6537,"전략무기를</w>":6538,"예상된다.</w>":6539,"규모의</w>":6540,"복귀를</w>":6541,"인터넷은행법</w>":6542,"’이</w>":6543,"개를</w>":6544,"고를</w>":6545,"매각":6546,"시켜":6547,"원장</w>":6548,"자랑":6549,"적·":6550,"지검":6551,"&aid=0002":6552,",https://news.naver.com/main/read.nhn?mode=LS2D&mid=shm&sid1=100&sid2=269&oid=003&aid=0009636":6553,",https://news.naver.com/main/read.nhn?mode=LS2D&mid=shm&sid1=100&sid2=264&oid=421&aid=0004":6554,"지지율</w>":6555,".0,1.0,1.0</w>":6556,"\",연합뉴스,2020.03.05.</w>":6557,":19,":6558,"권력기관":6559,"교섭단체</w>":6560,"홍범도</w>":6561,"명백":6562,"배포":6563,"인지</w>":6564,"직접":6565,"문제에</w>":6566,",https://news.naver.com/main/read.nhn?mode=LS2D&mid=shm&sid1=100&sid2=269&oid=016&aid=00016":6567,"세종시</w>":6568,"3·1독립운동":6569,"자원봉사":6570,"일각에서는</w>":6571,"국립서울현충원을</w>":6572,"흑석동</w>":6573,"%→":6574,"83":6575,"무산":6576,"성전":6577,"있던</w>":6578,"진출":6579,"하셨":6580,"\",파이낸셜뉴스":6581,"기자회견에서</w>":6582,"요구하는</w>":6583,"피해를</w>":6584,"방안도</w>":6585,",https://news.naver.com/main/read.nhn?mode=LS2D&mid=shm&sid1=100&sid2=269&oid=056&aid=001079":6586,"SL":6587,"개월":6588,"내외":6589,"농림":6590,"대선</w>":6591,"따로</w>":6592,"물갈":6593,"사로</w>":6594,"않을":6595,"열리는</w>":6596,"위축":6597,"유포":6598,"이끌어":6599,"자인</w>":6600,"통과</w>":6601,"통화를</w>":6602,"함을</w>":6603,"환자가</w>":6604,"필요하다고</w>":6605,"개정안</w>":6606,"노력에</w>":6607,"분석했다.</w>":6608,":11,":6609,"질병관리본부":6610,"71":6611,"감독":6612,"거주":6613,"구로":6614,"단에</w>":6615,"대장은</w>":6616,"면서,</w>":6617,"모니":6618,"민주</w>":6619,"보니</w>":6620,"신을</w>":6621,"연장":6622,"울산</w>":6623,"이집":6624,"제도</w>":6625,"제의</w>":6626,"케이":6627,"11&aid=000":6628,"서울대</w>":6629,"중앙선거관리":6630,"통합당이</w>":6631,"240":6632,"당국은</w>":6633,"오늘의</w>":6634,"공수처</w>":6635,"'\\xa0▶',</w>":6636,":21,":6637,"탄핵을</w>":6638,"4.0</w>":6639,"개발</w>":6640,"겪고</w>":6641,"기초":6642,"꼬집":6643,"멈추":6644,"비교":6645,"사전</w>":6646,"신보":6647,"어도</w>":6648,"일주":6649,"지사가</w>":6650,"차이":6651,"키로</w>":6652,"회와</w>":6653,"10만":6654,"변호사는</w>":6655,"이번에</w>":6656,"유치원</w>":6657,"아차산에서</w>":6658,"패스트트랙(신속처리안건)</w>":6659,"%가</w>":6660,"6·":6661,"군사</w>":6662,"기존":6663,"높이</w>":6664,"대부분</w>":6665,"되고,</w>":6666,"매년</w>":6667,"생활</w>":6668,"의석</w>":6669,"정도로</w>":6670,"캡처":6671,"행위를</w>":6672,"회는</w>":6673,"정치,</w>":6674,",연합뉴스,2020.03.03.</w>":6675,"@news1.kr',</w>":6676,"방역에</w>":6677,"수사권</w>":6678,"00:53:":6679,",https://news.naver.com/main/read.nhn?mode=LS2D&mid=shm&sid1=100&sid2=269&oid=079":6680,"공정사회</w>":6681,"보고를</w>":6682,"\",뉴시스,2020.03.02.</w>":6683,"seo":6684,"본회의장에서</w>":6685,"구체적</w>":6686,",https://news.naver.com/main/read.nhn?mode=LS2D&mid=shm&sid1=100&sid2=269&oid=009&aid=0004":6687,"따라서</w>":6688,"김의겸</w>":6689,"유튜브</w>":6690,"8.0,":6691,"고위</w>":6692,"군에</w>":6693,"때는</w>":6694,"문의</w>":6695,"사단</w>":6696,"시기":6697,"여파":6698,"오차":6699,"이틀":6700,"주체":6701,"하자는</w>":6702,"합참":6703,"했다\"\"며</w>":6704,"20&aid=0003":6705,"대구에서</w>":6706,"lbo":6707,"진행하고</w>":6708,"간호장교":6709,"협상의</w>":6710,"페이스북을</w>":6711,"국제회의장에서</w>":6712,"SLB":6713,"126":6714,"335":6715,"8,2020-03-17</w>":6716,"All</w>":6717,"반박":6718,"보내</w>":6719,"설립":6720,"신의</w>":6721,"올림":6722,"있었다.</w>":6723,"제조":6724,"국민에</w>":6725,"사람을</w>":6726,"중국과</w>":6727,"지도부</w>":6728,"평가를</w>":6729,"공정거래":6730,"극복할</w>":6731,"기준을</w>":6732,"’으로</w>":6733,"공격":6734,"대사는</w>":6735,"때보다</w>":6736,"말했습니다.',</w>":6737,"변경":6738,"필수":6739,"&aid=00033":6740,"조치는</w>":6741,"정보를</w>":6742,",https://news.naver.com/main/read.nhn?mode=LS2D&mid=shm&sid1=100&sid2=267&oid=001&aid=00114":6743,":20,":6744,":10,":6745,"박영태</w>":6746,"505":6747,"94":6748,"st":6749,"권과</w>":6750,"되기</w>":6751,"상당한</w>":6752,"세력을</w>":6753,"수의</w>":6754,"실망":6755,"잠시</w>":6756,"정우":6757,"지사</w>":6758,"힘든</w>":6759,"국무회의에</w>":6760,"전원회의":6761,"세력이</w>":6762,"공수처법</w>":6763,":26,":6764,"오늘(2일)</w>":6765,"가까운</w>":6766,"km":6767,"나오는</w>":6768,"대는</w>":6769,"신규</w>":6770,"인구</w>":6771,"자고</w>":6772,"하다며</w>":6773,"한국당을</w>":6774,"치료를</w>":6775,"컷오프</w>":6776,"2020.03.01.',</w>":6777,"(4":6778,"계를</w>":6779,"아니다.</w>":6780,"윤소":6781,"작용":6782,"재개</w>":6783,"제작":6784,"조금":6785,"진정한</w>":6786,"정당의</w>":6787,"경제적</w>":6788,"발표를</w>":6789,",https://news.naver.com/main/read.nhn?mode=LS2D&mid=shm&sid1=100&sid2=269&oid=003&aid=000974":6790,"국제사회":6791,"대구시청에서</w>":6792,"지키는</w>":6793,"제376회</w>":6794,"논평을</w>":6795,"탄도미사일(ICBM":6796,"(3":6797,"5.0,,</w>":6798,"7&aid=000":6799,"거의</w>":6800,"녹색":6801,"부모":6802,"승객":6803,"였던</w>":6804,"환담":6805,"후보자를</w>":6806,"예정이라고</w>":6807,"변화에</w>":6808,":40,":6809,",https://news.naver.com/main/read.nhn?mode=LS2D&mid=shm&sid1=100&sid2=269&oid=057&aid=000":6810,":50,":6811,"이름을</w>":6812,"겠다.</w>":6813,"과정을</w>":6814,"군을</w>":6815,"기회를</w>":6816,"답하는</w>":6817,"대사가</w>":6818,"동해</w>":6819,"받지</w>":6820,"의장은</w>":6821,"조차</w>":6822,"진전":6823,"취임":6824,"통제":6825,"표본":6826,"한경":6827,"형태":6828,"흥덕":6829,"20일</w>":6830,"정치·":6831,"경제부총리":6832,"뉴스1',</w>":6833,"관련해서는</w>":6834,"설명했다.',</w>":6835,"확산으로</w>":6836,"31일까지</w>":6837,"당직자</w>":6838,"신년합동인사회에서</w>":6839,"받아보세요',</w>":6840,"2016년</w>":6841,"조용히</w>":6842,"하태경</w>":6843,"25일</w>":6844,"공조":6845,"구에</w>":6846,"용인":6847,"이송":6848,"있는":6849,"조만":6850,"협상을</w>":6851,"흔들":6852,"http://":6853,"외교·":6854,"309":6855,"2020.03.01.</w>":6856,"통합당에</w>":6857,"이어서</w>":6858,"출신인</w>":6859,"대륙간탄도미사일(ICBM":6860,")으로</w>":6861,"go":6862,"권익":6863,"린다.</w>":6864,"미·":6865,"바이":6866,"방송</w>":6867,"없다”며</w>":6868,"자료</w>":6869,"하에</w>":6870,"힘이</w>":6871,"\",아시아경제":6872,"가치를</w>":6873,"307":6874,"30분":6875,"전략공천</w>":6876,"모니터":6877,"감시":6878,"김홍":6879,"박종":6880,"발열":6881,"스마":6882,"연락":6883,"위해서</w>":6884,"작전":6885,"절대</w>":6886,"종로</w>":6887,"직무":6888,"하다</w>":6889,"하지만,</w>":6890,"훨씬</w>":6891,"\"\"라며</w>":6892,"10:3":6893,"정부,</w>":6894,",뉴시스,2019.12.01.</w>":6895,"병원에</w>":6896,",뉴스1,2020.03.04.</w>":6897,"우체국":6898,"경제,0,2020-03-17</w>":6899,"축산식품":6900,"4/뉴스1</w>":6901,"9,,\"</w>":6902,"9,,</w>":6903,"kk":6904,"마포":6905,"만세":6906,"모로</w>":6907,"양보":6908,"역임":6909,"저항":6910,"찬성":6911,"청장은</w>":6912,"타다</w>":6913,"터미":6914,"폐쇄":6915,"ince":6916,"미래로</w>":6917,"\",머니투데이":6918,"조치로</w>":6919,"발생한</w>":6920,"적극적인</w>":6921,"공무원":6922,"철저히</w>":6923,"얼마나</w>":6924,"ince19":6925,"강구":6926,"다하고</w>":6927,"만나":6928,"안전</w>":6929,"외에</w>":6930,"인력을</w>":6931,"팩트</w>":6932,"협의</w>":6933,"의원총":6934,"11:3":6935,"외교부에</w>":6936,"국가는</w>":6937,",https://news.naver.com/main/read.nhn?mode=LS2D&mid=shm&sid1=100&sid2=269&oid=081":6938,"입장문을</w>":6939,"우려가</w>":6940,"진료를</w>":6941,"농림축산식품":6942,"조만간</w>":6943,"'코로나19":6944,"그간</w>":6945,"매일</w>":6946,"보훈":6947,"본부는</w>":6948,"상과</w>":6949,"상대로</w>":6950,"시대를</w>":6951,"오직</w>":6952,"위의</w>":6953,"적을</w>":6954,"제도를</w>":6955,"최기":6956,"치러":6957,"판매</w>":6958,"행사</w>":6959,"화성":6960,"통합을</w>":6961,"24일</w>":6962,"최고위원회의</w>":6963,"주목된다.</w>":6964,"7:3":6965,"·유":6966,"기지</w>":6967,"내다":6968,"맞추":6969,"못하는</w>":6970,"바랍":6971,"신청</w>":6972,"원우</w>":6973,"을에서</w>":6974,"재차</w>":6975,"정례":6976,"하면서도</w>":6977,"흥해":6978,"다”는</w>":6979,"국무회의에서</w>":6980,"민생법안</w>":6981,"세종로</w>":6982,"것이라</w>":6983,"양산을</w>":6984,"새해에는</w>":6985,"공약을</w>":6986,"'bluesoda@newsis.com',</w>":6987,"(추경":6988,"7:2":6989,"9월</w>":6990,"9:1":6991,"psy":6992,"구입":6993,"동대문":6994,"만약</w>":6995,"빛낸</w>":6996,"신당":6997,"실험":6998,"역학":6999,"이란":7000,"있겠":7001,"있다면서</w>":7002,"주기</w>":7003,"텔레":7004,"했으며,</w>":7005,"추가로</w>":7006,"입국제한":7007,"수여한</w>":7008,",정치,청와대,2020-01-02,\"":7009,"국토교통":7010,"%p</w>":7011,"5179":7012,"it":7013,"금수산":7014,"달라는</w>":7015,"미세":7016,"보기":7017,"봉오":7018,"임세영</w>":7019,"전으로</w>":7020,"종식":7021,"지정</w>":7022,"합쳐":7023,"11월":7024,"강화를</w>":7025,"메시지가</w>":7026,"신속히</w>":7027,"대화하고</w>":7028,"대한민국이</w>":7029,"건강을</w>":7030,"당연히</w>":7031,"psy5179":7032,"6,,</w>":7033,"거든":7034,"대거</w>":7035,"마저</w>":7036,"믿는":7037,"부에서</w>":7038,"이례":7039,"정해":7040,"찬성</w>":7041,"중앙당사에서</w>":7042,"지원,</w>":7043,"사회부총리</w>":7044,"차원의</w>":7045,"하려고</w>":7046,"민식이법</w>":7047,"국회의장이</w>":7048,"경남도":7049,"노무현</w>":7050,"2015년</w>":7051,"'과</w>":7052,"1:2":7053,"6:2":7054,"’라는</w>":7055,"가지":7056,"근로":7057,"당사":7058,"드라":7059,"만난</w>":7060,"명확":7061,"베이":7062,"분석</w>":7063,"설득":7064,"아산":7065,"없다\"\"고</w>":7066,"이사,</w>":7067,"정비":7068,"조건":7069,"첫날":7070,"취임</w>":7071,"홍보":7072,"대구로</w>":7073,"통합당의</w>":7074,"정의용</w>":7075,"있었던</w>":7076,"기득권</w>":7077,"김수민</w>":7078,"469&aid=0000":7079,"한경닷컴</w>":7080,"ince1999@newsis.com',</w>":7081,"4월":7082,"귀국":7083,"그램":7084,"노태":7085,"대면</w>":7086,"든지</w>":7087,"리아</w>":7088,"명도</w>":7089,"주민</w>":7090,"주길</w>":7091,"처음</w>":7092,"최초":7093,"하다":7094,"혁명":7095,"화하고</w>":7096,"국무회의":7097,",정치,국회/정당,2020-03-01,\"":7098,",정치,북한,2020-01-01,\"":7099,"자리에</w>":7100,"\\r\\n":7101,"함께하는</w>":7102,"@hankoo":7103,"반응을</w>":7104,"게이트</w>":7105,"계명대학교</w>":7106,"7:1":7107,"8:3":7108,"고는</w>":7109,"단은</w>":7110,"당협":7111,"더팩트</w>":7112,"모임":7113,"부탁":7114,"집권":7115,"하라는</w>":7116,"호흡":7117,"개혁의</w>":7118,"2.0,1.0,":7119,"추경안</w>":7120,"결과에</w>":7121,"2020.1.1</w>":7122,"차관이</w>":7123,",https://news.naver.com/main/read.nhn?mode=LS2D&mid=shm&sid1=100&sid2=266&oid=003&aid=0009739":7124,"국민들께서</w>":7125,"국군간호사관학교</w>":7126,"신속대응팀을</w>":7127,"게이트":7128,"kilbo":7129,"농협":7130,"대미</w>":7131,"말고</w>":7132,"없도록</w>":7133,"취한</w>":7134,"품을</w>":7135,"1996":7136,"공천에서</w>":7137,"김정일</w>":7138,"공개했다.</w>":7139,"최고위원회의에</w>":7140,"자체가</w>":7141,"태양궁":7142,"민주통합의원":7143,"@hankookilbo":7144,"'photo":7145,"@m":7146,"TF":7147,"검증":7148,"그의</w>":7149,"막을</w>":7150,"별관에서</w>":7151,"연석":7152,"자격":7153,"주신</w>":7154,"퇴장":7155,"향하고</w>":7156,"뉴스',</w>":7157,"3:4":7158,"서울중앙":7159,"국무총리</w>":7160,"총리,</w>":7161,"국가적</w>":7162,"지원하기</w>":7163,"지도부가</w>":7164,"평화와</w>":7165,",https://news.naver.com/main/read.nhn?mode=LS2D&mid=shm&sid1=100&sid2=269&oid=014&aid=000438":7166,"데일리안":7167,"알려졌":7168,"국정농":7169,"포토]":7170,"총회장이</w>":7171,"신속대응팀</w>":7172,"공관위의</w>":7173,"경기도":7174,"3,2020-03-16</w>":7175,"갔다.</w>":7176,"긴장</w>":7177,"돌입":7178,"말아":7179,"새로</w>":7180,"신임":7181,"아직":7182,"알아야</w>":7183,"없게</w>":7184,"유공":7185,"유재":7186,"일방":7187,"일대에서</w>":7188,"집단</w>":7189,"차게</w>":7190,"책을</w>":7191,"했으며</w>":7192,",정치,북한,2020-03-05,":7193,"합동참모":7194,"내리":7195,"대중":7196,"머물":7197,"발열</w>":7198,"부인</w>":7199,"잠수":7200,"정지":7201,"행동</w>":7202,"화,</w>":7203,"회가</w>":7204,"22:3":7205,"필요성을</w>":7206,"요구를</w>":7207,"법안은</w>":7208,"조선중앙TV":7209,"부분이</w>":7210,"처음이다.</w>":7211,"보좌진":7212,"정책조정회의에서</w>":7213,"과감한</w>":7214,"인터뷰에서</w>":7215,"'미래통합당</w>":7216,"2차</w>":7217,"곧바로</w>":7218,"과는</w>":7219,"권한":7220,"김민":7221,"동포":7222,"들과의</w>":7223,"본선":7224,"생도":7225,"었던</w>":7226,"였습니다.</w>":7227,"의견</w>":7228,"일환":7229,"입은</w>":7230,"조원":7231,"지나":7232,"체제</w>":7233,"취하고</w>":7234,"폭력</w>":7235,"핵·":7236,"확보</w>":7237,"인사들이</w>":7238,"2020.3.4/뉴스1</w>":7239,",뉴스1,2020.03.02.</w>":7240,"목소리":7241,"정확하게</w>":7242,"무엇보다</w>":7243,"119&aid=0002":7244,"경향신문":7245,",https://news.naver.com/main/read.nhn?mode=LS2D&mid=shm&sid1=100&sid2=269&oid=057&aid=00014":7246,"kim":7247,"감소":7248,"결의":7249,"결정</w>":7250,"고향":7251,"공연":7252,"기정":7253,"내각":7254,"단합":7255,"단식</w>":7256,"모양":7257,"시켰":7258,"시킨</w>":7259,"아요.</w>":7260,"약식":7261,"유리":7262,"의대</w>":7263,"통해서</w>":7264,"특공":7265,"할지</w>":7266,"연합뉴스]',</w>":7267,"경제의</w>":7268,"심재철":7269,"대사관</w>":7270,"취약계":7271,"UAE":7272,"%에</w>":7273,"2주</w>":7274,"3대</w>":7275,"547":7276,"”',</w>":7277,"것처럼</w>":7278,"대체</w>":7279,"무너":7280,"변화를</w>":7281,"분노":7282,"분간</w>":7283,"산행</w>":7284,"생도</w>":7285,"연속</w>":7286,"예측":7287,"윤상":7288,"저도</w>":7289,"정보</w>":7290,"치지</w>":7291,"향하는</w>":7292,"지역사회</w>":7293,"코로나19를</w>":7294,"신년사":7295,"처리하기로</w>":7296,"공개한</w>":7297,"청원이</w>":7298,"자유한국당의</w>":7299,"변호사가</w>":7300,"구체적으로</w>":7301,"서비스</w>":7302,"개정안은</w>":7303,"친서에서</w>":7304,"자세한</w>":7305,"과학기술정보방송통신":7306,"'이라고</w>":7307,"“코로나19</w>":7308,"가칭":7309,"김도":7310,"당원</w>":7311,"된다.',</w>":7312,"라면서</w>":7313,"려고</w>":7314,"명분":7315,"바꿔":7316,"사격":7317,"시기</w>":7318,"시장을</w>":7319,"예수":7320,"유력":7321,"의장":7322,"좋아":7323,"총동원":7324,"하느냐":7325,"현지</w>":7326,"형사":7327,"회장</w>":7328,"코로나19재난안전대책":7329,"참석했다.</w>":7330,"강화하는</w>":7331,"&oid=003&aid=000963":7332,"당국이</w>":7333,"데이터":7334,"현충탑":7335,"사건을</w>":7336,"이정현</w>":7337,"----":7338,"착용하고</w>":7339,"화력타격":7340,"'동":7341,"629":7342,"ig":7343,"·진":7344,"국에</w>":7345,"단일":7346,"대사</w>":7347,"디어":7348,"리며</w>":7349,"만한</w>":7350,"사람</w>":7351,"소에</w>":7352,"어떠":7353,"왜곡":7354,"이끌":7355,"있으며</w>":7356,"자문":7357,"제보</w>":7358,"1.0,1.0,":7359,",https://news.naver.com/main/read.nhn?mode=LS2D&mid=shm&sid1=100&sid2=269&oid=003&aid=0009740":7360,"확인할</w>":7361,"실시간</w>":7362,"3.0,,,,</w>":7363,"저작권자(c)</w>":7364,"불구속</w>":7365,"의석을</w>":7366,"금수산태양궁":7367,"7월</w>":7368,"“우리</w>":7369,"기후":7370,"김부":7371,"동의</w>":7372,"명(":7373,"미군</w>":7374,"부장":7375,"억원을</w>":7376,"연말</w>":7377,"오고</w>":7378,"인으로</w>":7379,"전통":7380,"주요":7381,"차기</w>":7382,"참가":7383,"나아가":7384,"보이지</w>":7385,"팩트체크":7386,"단수추천":7387,"노태악</w>":7388,"'네이버에서</w>":7389,"5000":7390,"가정":7391,"고수":7392,"과도</w>":7393,"관광</w>":7394,"나서는</w>":7395,"대,</w>":7396,"에,</w>":7397,"웠다.</w>":7398,"저능한</w>":7399,"전선</w>":7400,"주년을</w>":7401,"질을</w>":7402,"함에</w>":7403,"정치가</w>":7404,".c\",정치,0,2020-03-17</w>":7405,"입국자에</w>":7406,"전문가</w>":7407,",뉴스1,2020.03.01.</w>":7408,",정치,북한,2020-03-02,":7409,"임관식":7410,"말씀드":7411,"95%</w>":7412,"제1부부장은</w>":7413,"정신을</w>":7414,"공관위가</w>":7415,"약속을</w>":7416,"잘못된</w>":7417,"안타깝":7418,"상반기</w>":7419,"미세먼":7420,",매일경제":7421,"1:3":7422,"4.0,,":7423,"6:3":7424,"fn":7425,"단계</w>":7426,"되겠":7427,"마찬":7428,"사회의</w>":7429,"상의":7430,"의약":7431,"키워":7432,"특수":7433,"한국에서</w>":7434,"2019년을</w>":7435,"미국과의</w>":7436,"논의가</w>":7437,"는데요.</w>":7438,"이재민</w>":7439,"덧붙였다.',</w>":7440,"윤소하</w>":7441,"120":7442,"92":7443,"경찰</w>":7444,"김동":7445,"단히</w>":7446,"동생":7447,"문화</w>":7448,"변수":7449,"불안":7450,"생산업":7451,"서의</w>":7452,"양양":7453,"없고</w>":7454,"오후":7455,"의식":7456,"임무를</w>":7457,"조기</w>":7458,"중히</w>":7459,"처분":7460,"총력</w>":7461,"폭력":7462,"설명을</w>":7463,"ist":7464,"생각이</w>":7465,"모습이</w>":7466,"업무를</w>":7467,"공천관리위원회는</w>":7468,"남북관계에</w>":7469,"528":7470,"7,,\"['\\n\\t',</w>":7471,"dong":7472,"구속":7473,"단이</w>":7474,"더팩트":7475,"동의를</w>":7476,"됐습니다.</w>":7477,"맞는</w>":7478,"민중":7479,"보기</w>":7480,"비용":7481,"시각":7482,"않기로</w>":7483,"연기</w>":7484,"이긴":7485,"이수":7486,"작성":7487,"최악":7488,"출범":7489,"해임":7490,"험지</w>":7491,"노동신문</w>":7492,"기자회견</w>":7493,"시민들이</w>":7494,"추진할</w>":7495,"연구원은</w>":7496,"비례대표용</w>":7497,"외국인</w>":7498,"안철수계</w>":7499,"\",뉴스1,2020.03.05.</w>":7500,"MBC',</w>":7501,"유승민":7502,"현역인</w>":7503,"주한미국":7504,"2~":7505,"가중":7506,"개입</w>":7507,"굳건":7508,"나동":7509,"내놨":7510,"되새":7511,"려면</w>":7512,"면서":7513,"면에서</w>":7514,"방한":7515,"비를</w>":7516,"야당의</w>":7517,"지연":7518,"차를</w>":7519,"최우선":7520,"폐기":7521,"뉴스1,":7522,"다\"\"라고</w>":7523,"미국에</w>":7524,"미국과</w>":7525,"기념식에</w>":7526,"자신이</w>":7527,"나라를</w>":7528,"입장하고</w>":7529,"알려진</w>":7530,"간호장교</w>":7531,"있어서</w>":7532,"안철수,</w>":7533,"정상회담":7534,"김상조</w>":7535,"명백한</w>":7536,"김홍희</w>":7537,"뉴스1,2019.12.01.</w>":7538,"93":7539,"9,2020-03-17</w>":7540,"검역":7541,"곳은</w>":7542,"공평":7543,"권한을</w>":7544,"까지":7545,"대장</w>":7546,"라면</w>":7547,"말한</w>":7548,"바뀌":7549,"부상":7550,"소재":7551,"아버":7552,"애국":7553,"여기에</w>":7554,"우려</w>":7555,"원장은</w>":7556,"위,</w>":7557,"인들이</w>":7558,"적이다.</w>":7559,"증상":7560,"합니다.',</w>":7561,"&aid=00029":7562,"2020.01.01.</w>":7563,",https://news.naver.com/main/read.nhn?mode=LS2D&mid=shm&sid1=100&sid2=265&oid=":7564,"감염증(코로나19)과</w>":7565,"32&aid=00029":7566,"기자간담회에서</w>":7567,"분야의</w>":7568,"더불어민주당과</w>":7569,"3개</w>":7570,"fo":7571,"건물":7572,"방을</w>":7573,"부대변인은</w>":7574,"소위는</w>":7575,"안건</w>":7576,"않아":7577,"원내</w>":7578,"은)</w>":7579,"접경":7580,"확신":7581,"회(":7582,"한국을</w>":7583,"공천배제":7584,"발표하는</w>":7585,",연합뉴스,2019.12.01.</w>":7586,"(코로나19)</w>":7587,"@news1.,사회,0,2020-03-17</w>":7588,"대화의</w>":7589,"경쟁을</w>":7590,",https://news.naver.com/main/read.nhn?mode=LS2D&mid=shm&sid1=100&sid2=269&oid=008&aid=0004":7591,"조속히</w>":7592,"김기현</w>":7593,"1인당</w>":7594,"donga":7595,",세계":7596,"2&aid=000":7597,"6월</w>":7598,"jin":7599,"강도":7600,"공포":7601,"됐고,</w>":7602,"러시아</w>":7603,"맞붙":7604,"박능":7605,"사보":7606,"스(":7607,"연철</w>":7608,"육성":7609,"자들":7610,"존중":7611,"진중":7612,"해가</w>":7613,"헌혈":7614,"의원들과</w>":7615,"&aid=00024":7616,"국민소통":7617,"정당에</w>":7618,"2020.3.3</w>":7619,"중국에서</w>":7620,"시작한</w>":7621,"클릭!',</w>":7622,"통일부는</w>":7623,"가능성에</w>":7624,"기대한다고</w>":7625,"9.0,":7626,"감시</w>":7627,"공간":7628,"명한</w>":7629,"문구":7630,"바라는</w>":7631,"방한</w>":7632,"부인":7633,"비율":7634,"상징":7635,"선(":7636,"시대":7637,"시를</w>":7638,"아나":7639,"야권":7640,"완성":7641,"이전":7642,"저의</w>":7643,"점에</w>":7644,"채취":7645,"책임</w>":7646,"취업":7647,"폭발":7648,"하세요":7649,"했는데,</w>":7650,"한국일보":7651,"연합뉴":7652,"14:00</w>":7653,"전략을</w>":7654,"발사에</w>":7655,"정의당":7656,"시민단체":7657,"경찰청</w>":7658,"부분에</w>":7659,"불편을</w>":7660,"(www.":7661,"노웅래</w>":7662,"않을까</w>":7663,"팩트체크’</w>":7664,"per":7665,"겪는</w>":7666,"공군":7667,"김한":7668,"나리":7669,"는)</w>":7670,"된다며</w>":7671,"방법을</w>":7672,"법률</w>":7673,"복무":7674,"빠르게</w>":7675,"자금</w>":7676,"전파":7677,"지침":7678,"청소":7679,"형성":7680,"정치권</w>":7681,"위원은</w>":7682,"하겠다":7683,"국민께</w>":7684,"선거법과</w>":7685,"03:29":7686,"위원회를</w>":7687,"요구했다.</w>":7688,"일본의</w>":7689,"변화와</w>":7690,"조선중앙TV</w>":7691,"김태호</w>":7692,"과학기술정보통신":7693,"대구동산병원에서</w>":7694,"'※</w>":7695,"6개</w>":7696,"YT":7697,"’가</w>":7698,"경보를</w>":7699,"기의</w>":7700,"내용</w>":7701,"대장이</w>":7702,"맞서</w>":7703,"박정":7704,"변화</w>":7705,"부사":7706,"않다.</w>":7707,"예술":7708,"이원":7709,"일과</w>":7710,"잊지</w>":7711,"장군의</w>":7712,"제공</w>":7713,"지진</w>":7714,"차단을</w>":7715,"현직</w>":7716,"대표】":7717,"한국이</w>":7718,"3:04":7719,"국민일보":7720,"정의당,</w>":7721,"기소한</w>":7722,"2.0,,1.0,,</w>":7723,"지방자치":7724,"방침을</w>":7725,"확실하게</w>":7726,"해양경찰청":7727,"\",뉴스1,2020.01.02.</w>":7728,"영등포구</w>":7729,",https://news.naver.com/main/read.nhn?mode=LS2D&mid=shm&sid1=100&sid2=265&oid=003&aid=0009739":7730,"취재진</w>":7731,"'\\n\\t\\n\\t[":7732,"불구하고</w>":7733,",https://news.naver.com/main/read.nhn?mode=LS2D&mid=shm&sid1=100&sid2=268&oid=421&aid=000438":7734,"정치개혁연합":7735,"'앞서</w>":7736,"2일부터</w>":7737,"ic":7738,"기재":7739,"물량":7740,"발생</w>":7741,"병상":7742,"불리는</w>":7743,"비리</w>":7744,"비판</w>":7745,"빠진</w>":7746,"서고</w>":7747,"속도를</w>":7748,"신도":7749,"입법</w>":7750,"장.</w>":7751,"채택":7752,"체를</w>":7753,"트위":7754,"플랫":7755,"한다.',</w>":7756,"'\\n\\t']\",사회,":7757,",정치,정치일반,2020-03-05,[":7758,"서울=뉴스1)</w>":7759,"따르면,</w>":7760,"미래통합당에</w>":7761,"지역구를</w>":7762,"일본,</w>":7763,"자료사진":7764,"현재까지</w>":7765,"포항시</w>":7766,"의학적</w>":7767,"취재진의</w>":7768,"seoul":7769,"4·":7770,"4차</w>":7771,"Sin":7772,"tf":7773,"강제</w>":7774,"대신":7775,"동지":7776,"목적":7777,"반복":7778,"여명</w>":7779,"이던</w>":7780,"재훈</w>":7781,"함으로써</w>":7782,"화생":7783,"회원":7784,"대표도</w>":7785,"중앙당</w>":7786,"중앙일보":7787,"우리에게</w>":7788,"남북이</w>":7789,"선거구로</w>":7790,"유지하고</w>":7791,"주재로</w>":7792,"부정평가</w>":7793,"협조를</w>":7794,"국무위원들이</w>":7795,"대북제재</w>":7796,"리얼미터":7797,"압수수색":7798,"'“":7799,",한국경제":7800,"91":7801,"?',</w>":7802,"건강</w>":7803,"계획</w>":7804,"노선</w>":7805,"단에서</w>":7806,"리더":7807,"발급":7808,"방명":7809,"배정":7810,"시진":7811,"영도":7812,"음성":7813,"있음을</w>":7814,"장)</w>":7815,"전광":7816,"한시":7817,"호남":7818,"외교적</w>":7819,"강조한</w>":7820,"그러니까</w>":7821,"국민의례":7822,"신뢰수준":7823,"방식에</w>":7824,"의견이</w>":7825,"시무식</w>":7826,"방위비</w>":7827,"대법관":7828,"되었습니다.</w>":7829,"개선</w>":7830,"구호":7831,"국은</w>":7832,"글로":7833,"대목":7834,"불만을</w>":7835,"실로</w>":7836,"예결":7837,"원래</w>":7838,"입법":7839,"입원</w>":7840,"전염":7841,"코인":7842,"특단의</w>":7843,"혐의를</w>":7844,"reser":7845,"주시기</w>":7846,"03:40":7847,"대화하는</w>":7848,"바란다”고</w>":7849,"지정된</w>":7850,"rights</w>":7851,"Copyright(c)</w>":7852,"마지막":7853,"장거리포병구분":7854,"1996,</w>":7855,"Since</w>":7856,"9:3":7857,"si":7858,"’,</w>":7859,"개발을</w>":7860,"광주시":7861,"당국</w>":7862,"라인</w>":7863,"모색":7864,"병상을</w>":7865,"보기',</w>":7866,"새롭게</w>":7867,"식으로</w>":7868,"실천":7869,"아래</w>":7870,"영사":7871,"의해</w>":7872,"이태":7873,"있는지</w>":7874,"자금":7875,"참여</w>":7876,"측이</w>":7877,"해상":7878,"행복":7879,"관계부처</w>":7880,"조선노동당</w>":7881,"들어간":7882,"통일·":7883,"오른쪽</w>":7884,"관학교를</w>":7885,"시스템을</w>":7886,"서초구</w>":7887,"2019.12.":7888,"벤처기업":7889,",https://news.naver.com/main/read.nhn?mode=LS2D&mid=shm&sid1=100&sid2=269&oid=214&aid=00010":7890,"23일</w>":7891,"경악":7892,"관(":7893,"기조":7894,"다…":7895,"대정부</w>":7896,"도발을</w>":7897,"묵념":7898,"보면서</w>":7899,"이석":7900,"입학":7901,"조건</w>":7902,"초청</w>":7903,"타임":7904,"필요</w>":7905,".0,,2.0</w>":7906,"관계가</w>":7907,"국가·":7908,"획정과</w>":7909,":30,,\"</w>":7910,"김현미</w>":7911,"홍준표":7912,"이루어":7913,"민정수석":7914,"與,</w>":7915,"강력</w>":7916,"격상":7917,"그램</w>":7918,"높였다.</w>":7919,"단결":7920,"모델":7921,"박수":7922,"볼모로</w>":7923,"야당을</w>":7924,"여명이</w>":7925,"일제":7926,"자흐":7927,"전했다.',</w>":7928,"정세</w>":7929,"증상</w>":7930,"카자흐":7931,"해보":7932,"\"\"[":7933,"대구·청":7934,"03:28":7935,"03:38":7936,"03:41":7937,"신속한</w>":7938,"\",뉴시스,2020.03.01.</w>":7939,"피해자</w>":7940,"항공편":7941,"신천지예수":7942,",https://news.naver.com/main/read.nhn?mode=LS2D&mid=shm&sid1=100&sid2=267&oid=001&aid=001145":7943,"민주통합의원모임</w>":7944,"(P":7945,"5월</w>":7946,"가,</w>":7947,"국제</w>":7948,"내비":7949,"노영":7950,"다시":7951,"대리":7952,"발전을</w>":7953,"살피":7954,"수정":7955,"얘기를</w>":7956,"역량":7957,"유엔":7958,"조사에서</w>":7959,"죄송":7960,"출입":7961,"하신</w>":7962,"헌법에</w>":7963,"활력을</w>":7964,"회,</w>":7965,"\",매일경제":7966,"정의당이</w>":7967,"강화한</w>":7968,"교수가</w>":7969,"이뤄질</w>":7970,",https://news.naver.com/main/read.nhn?mode=LS2D&mid=shm&sid1=100&sid2=265&oid=421&aid=000450":7971,"전문가들은</w>":7972,"대정부질문에</w>":7973,"홈페이지</w>":7974,"위로의</w>":7975,"목격하게</w>":7976,"꼬집었다.</w>":7977,"'라고</w>":7978,"\\t</w>":7979,"개인</w>":7980,"거짓":7981,"됐다며</w>":7982,"분들":7983,"신뢰</w>":7984,"쓰는</w>":7985,"와서</w>":7986,"차관</w>":7987,"포항</w>":7988,"표결":7989,"하다”고</w>":7990,"한일</w>":7991,"북한,</w>":7992,"외교부":7993,"서울에서</w>":7994,"감염증</w>":7995,"대책이</w>":7996,"비판을</w>":7997,"어려워":7998,"어려울</w>":7999,"지적이</w>":8000,"철저한</w>":8001,"4+1":8002,"정우택</w>":8003,"대륙간탄도미사일(ICBM)</w>":8004,"'와</w>":8005,"가슴":8006,"경계":8007,"기로":8008,"내야</w>":8009,"비대":8010,"에어":8011,"운신의</w>":8012,"은평":8013,"이제":8014,"재해":8015,"평안":8016,"\",정치,0,2020-03-16</w>":8017,"장관에</w>":8018,"민주당에</w>":8019,"03:31":8020,"\\xa0</w>":8021,",https://news.naver.com/main/read.nhn?mode=LS2D&mid=shm&sid1=100&sid2=266&oid=0":8022,"수석대변인은</w>":8023,"매일신문</w>":8024,"의혹을</w>":8025,"라이엔</w>":8026,"07":8027,"1:1":8028,"5.0</w>":8029,"EU</w>":8030,"‘코로나19":8031,"곽상":8032,"국,</w>":8033,"끝에</w>":8034,"대출":8035,"맡은</w>":8036,"불참":8037,"비해</w>":8038,"성에</w>":8039,"여건":8040,"이하</w>":8041,"자도</w>":8042,"절차</w>":8043,"조사는</w>":8044,"촛불":8045,"캠프</w>":8046,"\"\"'":8047,"대표이사,</w>":8048,"대구와</w>":8049,"03:26":8050,"상황실":8051,"평화의</w>":8052,"개정안을</w>":8053,",https://news.naver.com/main/read.nhn?mode=LS2D&mid=shm&sid1=100&sid2=269&oid=001&aid=0011310":8054,"제한하는</w>":8055,"여행객":8056,"유성구</w>":8057,"···":8058,"만큼,</w>":8059,"아나운":8060,"'정":8061,"=연합뉴스)</w>":8062,"각계":8063,"그것이</w>":8064,"금강":8065,"묻는</w>":8066,"비자</w>":8067,"시고</w>":8068,"유도":8069,"이내</w>":8070,"적으로는</w>":8071,"정착":8072,"탄압":8073,"태도를</w>":8074,"판을</w>":8075,",https://news.naver.com/main/read.nhn?mode=LS2D&mid=shm&sid1=100&sid2=269&oid=277&aid=00046":8076,"18세</w>":8077,"예정된</w>":8078,"09:00</w>":8079,"인재영입":8080,"시무식":8081,"나아가</w>":8082,":16,,\"</w>":8083,"지지율이</w>":8084,"소개했다.</w>":8085,"김일성</w>":8086,"유일한</w>":8087,"미세먼지</w>":8088,"eil":8089,"ima":8090,"sp":8091,"과연</w>":8092,"권영":8093,"권에</w>":8094,"는,</w>":8095,"당분간</w>":8096,"대장":8097,"랜드":8098,"르,</w>":8099,"면을</w>":8100,"믿고</w>":8101,"보호</w>":8102,"불러</w>":8103,"요구</w>":8104,"주지</w>":8105,"지은</w>":8106,"지면</w>":8107,"진흥":8108,"참관":8109,"3&aid=00035":8110,",뉴시스,2020.01.01.</w>":8111,",https://news.naver.com/main/read.nhn?mode=LS2D&mid=shm&sid1=100&sid2=269&oid=469&aid=0000":8112,",https://news.naver.com/main/read.nhn?mode=LS2D&mid=shm&sid1=100&sid2=265&oid=008&aid=0004":8113,"입장에</w>":8114,"촉구하는</w>":8115,"민식이법을</w>":8116,"탄도미사일</w>":8117,"저희가</w>":8118,"\",세계,":8119,"'\"\",</w>":8120,"길로</w>":8121,"남부":8122,"드라이":8123,"레터</w>":8124,"만으로</w>":8125,"모아":8126,"미리</w>":8127,"수단":8128,"시행</w>":8129,"시장의</w>":8130,"언급</w>":8131,"업체</w>":8132,"오지</w>":8133,"있으면</w>":8134,"있으며,</w>":8135,"재정</w>":8136,"적,</w>":8137,"전개":8138,"한다면서</w>":8139,"한겨레":8140,"혼란":8141,"00:2":8142,".com,</w>":8143,"1958":8144,"의원들":8145,"다”라고</w>":8146,"03:30":8147,"370":8148,"결정했다.</w>":8149,"추경안을</w>":8150,"수준의</w>":8151,"여상규":8152,",https://news.naver.com/main/read.nhn?mode=LS2D&mid=shm&sid1=100&sid2=269&oid=025&aid=00029":8153,"주석의</w>":8154,"2020.3.1/뉴스1</w>":8155,"정치·외교·":8156,"imaeil":8157,"'저작권자</w>":8158,"/사진=":8159,"3선</w>":8160,"·18":8161,"’은</w>":8162,"…“":8163,"가동":8164,"같은":8165,"경과":8166,"나마</w>":8167,"눈,</w>":8168,"맞지</w>":8169,"사유":8170,"수성":8171,"체제로</w>":8172,"혐의</w>":8173,"호주</w>":8174,"환자는</w>":8175,"훼손":8176,".0,4.0,":8177,"03:36":8178,"03:39":8179,"03:25":8180,"2020.3.2</w>":8181,"시작으로</w>":8182,"이어지고</w>":8183,"본회의가</w>":8184,"헤럴드경제</w>":8185,"성공을</w>":8186,"@hankyung.c\",정치,":8187,"최재성</w>":8188,"의약품":8189,"'☏</w>":8190,"139":8191,"bi":8192,"·함":8193,"공적":8194,"발기":8195,"별도</w>":8196,"봉환":8197,"양성":8198,"이철":8199,"자위":8200,"전진":8201,"전까지</w>":8202,"주인":8203,"출범</w>":8204,"타고</w>":8205,"하려</w>":8206,"하더라도</w>":8207,"한정":8208,"해나갈</w>":8209,"호텔":8210,"힘으로</w>":8211,"\"\"\",\"['\\n\\t',</w>":8212,"의원들</w>":8213,"국민동의":8214,"03:27":8215,"재배포":8216,"00:40":8217,"본부청사에서</w>":8218,"가능성은</w>":8219,"않는다고</w>":8220,"중도보수</w>":8221,"인민군</w>":8222,"미래한국당에</w>":8223,"올랐다.</w>":8224,"'since1999@newsis.com',</w>":8225,"여파로</w>":8226,"나동연</w>":8227,"박능후</w>":8228,"정치·외교·통일·":8229,"9시</w>":8230,"@donga":8231,"ae":8232,"경증</w>":8233,"그게</w>":8234,"김연철</w>":8235,"니까?</w>":8236,"미뤄":8237,"병진":8238,"불가능":8239,"산하</w>":8240,"새보수당</w>":8241,"설이</w>":8242,"수출</w>":8243,"연령":8244,"열심히</w>":8245,"의사진":8246,"인프":8247,"최선의</w>":8248,"포착":8249,"북한과</w>":8250,"03:35":8251,"병원을</w>":8252,",https://news.naver.com/main/read.nhn?mode=LS2D&mid=shm&sid1=100&sid2=268&oid=02":8253,"보고에서</w>":8254,"브리핑룸":8255,"제안했다.</w>":8256,"중단을</w>":8257,"이번이</w>":8258,"드린다고</w>":8259,"조속한</w>":8260,"법제사법위원회</w>":8261,"JTBC":8262,"고위공직자범죄수사처(공수처)</w>":8263,"629&aid=0000":8264,"어떠한</w>":8265,")·":8266,"250":8267,"공조</w>":8268,"대회":8269,"만들</w>":8270,"맡고</w>":8271,"비슷":8272,"세제":8273,"안심":8274,"않다고</w>":8275,"여부에</w>":8276,"이틀</w>":8277,"중도</w>":8278,"청은</w>":8279,"투자</w>":8280,"했기</w>":8281,",https://news.naver.com/main/read.nhn?mode=LS2D&mid=shm&sid1=100&sid2=269&oid=003&aid=000958":8282,"03:3":8283,"지도부는</w>":8284,"훈련에</w>":8285,"<저작권자</w>":8286,"지지층":8287,"나가는</w>":8288,"제안에</w>":8289,"이낙연":8290,"새해를</w>":8291,"어렵다고</w>":8292,"유치원":8293,"오마이뉴스</w>":8294,"'2020</w>":8295,"갑·":8296,"년에는</w>":8297,"다해</w>":8298,"된다면</w>":8299,"맞춰</w>":8300,"물량을</w>":8301,"삶의</w>":8302,"생략":8303,"선)</w>":8304,"어제":8305,"영원":8306,"영환</w>":8307,"있다면</w>":8308,"전수":8309,"탑승":8310,"토리</w>":8311,"했으면</w>":8312,"향을</w>":8313,"2012":8314,"습니까?</w>":8315,"상황은</w>":8316,"처리할</w>":8317,"대상이</w>":8318,"요구에</w>":8319,"임시국회</w>":8320,"승리로</w>":8321,"효과가</w>":8322,"유권자</w>":8323,"적절한</w>":8324,"JTBC</w>":8325,"'더불어민주당</w>":8326,"국대</w>":8327,"느꼈":8328,"다소</w>":8329,"대출</w>":8330,"대사를</w>":8331,"등이다.</w>":8332,"무하":8333,"베네":8334,"선포":8335,"소수":8336,"시가</w>":8337,"워싱":8338,"유지</w>":8339,"윤도한</w>":8340,"인데,</w>":8341,"중진":8342,"지진":8343,"참으로</w>":8344,"타다":8345,"통신</w>":8346,"투쟁</w>":8347,"해줄</w>":8348,"하겠다.</w>":8349,"원내대표실에서</w>":8350,"\"[속보]</w>":8351,"한국당,</w>":8352,"국가를</w>":8353,"강조했습니다.</w>":8354,"문제로</w>":8355,"처리가</w>":8356,"신뢰가</w>":8357,"긴급명령":8358,"Copyrights</w>":8359,"생활치료센터로</w>":8360,"주호영</w>":8361,"최기영</w>":8362,"의약품안전":8363,"sun":8364,"가량</w>":8365,"겠다\"\"고</w>":8366,"격한</w>":8367,"나와</w>":8368,"발전</w>":8369,"번도</w>":8370,"보험":8371,"사상</w>":8372,"삼아</w>":8373,"세종</w>":8374,"세연</w>":8375,"심한</w>":8376,"아카":8377,"었습니다.</w>":8378,"이건":8379,"있느냐":8380,"정에</w>":8381,"지자</w>":8382,"집단":8383,"트(":8384,"하여":8385,"&aid=00022":8386,"3:3":8387,"47&aid=00022":8388,"30분</w>":8389,"03:37":8390,"03:34":8391,"그러면</w>":8392,",연합뉴스,2020.01.01.</w>":8393,",정치,정치일반,2020-03-02,[":8394,"23:1":8395,"시작했다.</w>":8396,"어려움이</w>":8397,",https://news.naver.com/main/read.nhn?mode=LS2D&mid=shm&sid1=100&sid2=269&oid=047&aid=00022":8398,"피해가</w>":8399,",https://news.naver.com/main/read.nhn?mode=LS2D&mid=shm&sid1=100&sid2=265&oid=421&aid=0004504":8400,"제시했다.</w>":8401,"시점에</w>":8402,"황교안,</w>":8403,"정상회담</w>":8404,"주문했다.</w>":8405,"6.0,,</w>":8406,"9일</w>":8407,"가격":8408,"곳을</w>":8409,"글에서</w>":8410,"끝난</w>":8411,"능력을</w>":8412,"다하겠다고</w>":8413,"득표":8414,"받으":8415,"배현":8416,"상호</w>":8417,"소집":8418,"승리</w>":8419,"시장과</w>":8420,"싸우는</w>":8421,"옳은</w>":8422,"의혹</w>":8423,"이기":8424,"일관":8425,"장도</w>":8426,"장세영</w>":8427,"재선</w>":8428,"조기에</w>":8429,"주실</w>":8430,"측의</w>":8431,"편지를</w>":8432,"한데</w>":8433,"했다</w>":8434,"행사를</w>":8435,"장관,뉴시스,2020.01.02.</w>":8436,"선거대책":8437,"국무부</w>":8438,"참석,</w>":8439,"150":8440,"비판이</w>":8441,"에서만</w>":8442,"자유한국당은</w>":8443,"이재명</w>":8444,"항공기</w>":8445,"홈페이지":8446,"선진화":8447,"이광재</w>":8448,"ay":8449,"“‘":8450,"감찰":8451,"강창":8452,"계신</w>":8453,"권성":8454,"무더":8455,"무죄":8456,"발견":8457,"산행":8458,"시나리":8459,"실효":8460,"없었다.</w>":8461,"영화</w>":8462,"올려</w>":8463,"외무":8464,"의)</w>":8465,"이기도</w>":8466,"있는데,</w>":8467,"점도</w>":8468,"지대</w>":8469,"총력":8470,"의원들을</w>":8471,"원내대표를</w>":8472,"03:32":8473,"지원이</w>":8474,"기념사를</w>":8475,"인터넷</w>":8476,",https://news.naver.com/main/read.nhn?mode=LS2D&mid=shm&sid1=100&sid2=268&oid=0":8477,"전체회의에</w>":8478,"부분을</w>":8479,"안정화</w>":8480,"영입인재</w>":8481,".1/뉴스1</w>":8482,"일부개정법률안이</w>":8483,"번영의</w>":8484,",https://news.naver.com/main/read.nhn?mode=LS2D&mid=shm&sid1=100&sid2=269&oid=081&aid=000":8485,"방명록":8486,"1,,</w>":8487,"ar":8488,"’(":8489,"거라고</w>":8490,"검색":8491,"곳의</w>":8492,"나를</w>":8493,"넓혀</w>":8494,"데어":8495,"만이다.</w>":8496,"번호":8497,"법인</w>":8498,"서로":8499,"신호":8500,"실무":8501,"역으로</w>":8502,"연습":8503,"위성</w>":8504,"이들이</w>":8505,"입당을</w>":8506,"정으로</w>":8507,"주권":8508,"폰데어":8509,"회장과</w>":8510,"대구경북</w>":8511,"중국에</w>":8512,"정세에</w>":8513,"전망이</w>":8514,"했다면서</w>":8515,"이유는</w>":8516,"해석된다.</w>":8517,"현실을</w>":8518,"상임선대":8519,"공천관리위원회가</w>":8520,"상당히</w>":8521,"채널을</w>":8522,",https://news.naver.com/main/read.nhn?mode=LS2D&mid=shm&sid1=100&sid2=269&oid=001&aid=0011439":8523,"헌법재판":8524,"존경하는</w>":8525,"SLBM":8526,"바랍니다.</w>":8527,"'특히</w>":8528,"2천":8529,"4년</w>":8530,"600":8531,"New":8532,"같다고</w>":8533,"경상":8534,"군소":8535,"남아":8536,"노력</w>":8537,"당권":8538,"박찬":8539,"발동":8540,"보지</w>":8541,"부여":8542,"부합":8543,"사라":8544,"선물":8545,"시장에</w>":8546,"아예</w>":8547,"엄중한</w>":8548,"임용":8549,"재고":8550,"정지</w>":8551,"질타":8552,"처는</w>":8553,"촉진":8554,"하길</w>":8555,"112":8556,"후보자는</w>":8557,"원내대변인은</w>":8558,"우리나라</w>":8559,"처리에</w>":8560,"1.0,,1.0</w>":8561,"중국의</w>":8562,",https://news.naver.com/main/read.nhn?mode=LS2D&mid=shm&sid1=100&sid2=266&oid=02":8563,"변호사</w>":8564,"비례대표제</w>":8565,"이용해</w>":8566,"공무원</w>":8567,"생활치료센터</w>":8568,"제재를</w>":8569,"한·미</w>":8570,"소속으로</w>":8571,"안타까":8572,"진중권</w>":8573,"News</w>":8574,"(https://":8575,"138":8576,"가야":8577,"구를</w>":8578,"노원":8579,"다행":8580,"미상</w>":8581,"본관</w>":8582,"사용</w>":8583,"씨가</w>":8584,"아파":8585,"올렸다.</w>":8586,"울먹":8587,"위안":8588,"윤후":8589,"이념":8590,"있나":8591,"적은</w>":8592,"정미":8593,"채이":8594,"체제를</w>":8595,"해제":8596,"혁명</w>":8597,"경제가</w>":8598,"여러분께</w>":8599,"22&aid=0000":8600,"국가와</w>":8601,"진행한</w>":8602,"위원회(":8603,"국무총리는</w>":8604,"는데도</w>":8605,"이야기</w>":8606,"단계로</w>":8607,"금융소비":8608,"효과를</w>":8609,"프로세":8610,"ood":8611,"������</w>":8612,",https://news.naver.com/main/read.nhn?mode=LS2D&mid=shm&sid1=100&sid2=269&oid=422&aid=0000":8613,"제도적</w>":8614,"무력화":8615,"앞장서</w>":8616,"가짜뉴스":8617,"행안부</w>":8618,"진상조사":8619,"국토교통부</w>":8620,"거든요.</w>":8621,"김부겸</w>":8622,"'코로나</w>":8623,"/라인</w>":8624,"4.0,,,,</w>":8625,"mm":8626,"·장":8627,"“김</w>":8628,"거창":8629,"관에</w>":8630,"논리":8631,"더니</w>":8632,"돌봄":8633,"말했다고</w>":8634,"무리</w>":8635,"박범":8636,"비건</w>":8637,"시절":8638,"없습니다.</w>":8639,"외에도</w>":8640,"자에게</w>":8641,"초치":8642,"취지를</w>":8643,"카톡":8644,"판문":8645,"폭을</w>":8646,"10월":8647,"외교부가</w>":8648,"공천에</w>":8649,"조선일보</w>":8650,"생각을</w>":8651,"기소된</w>":8652,"교육을</w>":8653,"시설에</w>":8654,",https://news.naver.com/main/read.nhn?mode=LS2D&mid=shm&sid1=100&sid2=265&oid=421&aid=000449":8655,"정권을</w>":8656,"중도층":8657,"마음이</w>":8658,"중소기업</w>":8659,"중소벤처기업":8660,"원칙에</w>":8661,"공군사관학교</w>":8662,"국군대전병원에서</w>":8663,"하노이":8664,"기사문의</w>":8665,"jebo":8666,"겨냥한</w>":8667,"집계됐다.</w>":8668,"신보라</w>":8669,"첫날인</w>":8670,"카톡/라인</w>":8671,"간부</w>":8672,"광명":8673,"기,</w>":8674,"긴장":8675,"꼼수</w>":8676,"돌파</w>":8677,"를,</w>":8678,"수행</w>":8679,"순간":8680,"었다고</w>":8681,"우수</w>":8682,"운용":8683,"전재-재배포</w>":8684,"제독":8685,"제일</w>":8686,"터키</w>":8687,"\",조선":8688,"주시고</w>":8689,"대응할</w>":8690,"최고위원회</w>":8691,"의료진</w>":8692,"중국발</w>":8693,"어려움":8694,"예비후보로</w>":8695,"실시하고</w>":8696,"획정안을</w>":8697,"의미를</w>":8698,"매일신문":8699,"정책위의장은</w>":8700,"새로운보수":8701,"2019.12.1/뉴스1</w>":8702,"멈추지</w>":8703,"폰데어라이엔</w>":8704,"%의</w>":8705,"'도</w>":8706,"'2일</w>":8707,"가서</w>":8708,"가)</w>":8709,"공군의</w>":8710,"교수</w>":8711,"구상":8712,"구매</w>":8713,"김대":8714,"남아</w>":8715,"단호":8716,"대조선</w>":8717,"말도</w>":8718,"매입":8719,"먹은</w>":8720,"몰아":8721,"뮤니":8722,"박수를</w>":8723,"부대":8724,"서명":8725,"안내":8726,"에)</w>":8727,"역할</w>":8728,"요.',</w>":8729,"인도</w>":8730,"쪽으로</w>":8731,"취지":8732,"커뮤니":8733,"합쳐</w>":8734,"회장이</w>":8735,"후원":8736,"00:39":8737,"news.com</w>":8738,".com)</w>":8739,"대통령도</w>":8740,"이라면</w>":8741,".0,,3.0,,</w>":8742,"중앙선거":8743,"03:5":8744,"관련된</w>":8745,".k,정치,0,2020-03-17</w>":8746,"정책에</w>":8747,"최고위원</w>":8748,"생각한다며</w>":8749,"개정안이</w>":8750,"이어질</w>":8751,"브리핑</w>":8752,"합의한</w>":8753,"정권이</w>":8754,"이유가</w>":8755,"의미가</w>":8756,"심판론":8757,"그렇지</w>":8758,"고민정</w>":8759,"대정부질문에서</w>":8760,"디지털</w>":8761,"안팎의</w>":8762,"아세안</w>":8763,"ht</w>":8764,"갑은</w>":8765,"군인":8766,"그럼":8767,"기능":8768,"달려":8769,"동양":8770,"많다.</w>":8771,"모인</w>":8772,"방지</w>":8773,"북강서":8774,"분리":8775,"서가</w>":8776,"수립":8777,"연일</w>":8778,"위기에</w>":8779,"을(":8780,"이슈":8781,"일종":8782,"지혜":8783,"징계</w>":8784,"첨단":8785,"축소":8786,"평등":8787,"한의</w>":8788,"합법적</w>":8789,"15총선</w>":8790,",정치,국방/외교,2020-03-01,":8791,",https://news.naver.com/main/read.nhn?mode=LS2D&mid=shm&sid1=100&sid2=269&oid=001&aid=0011311":8792,"입장이다.</w>":8793,"사업에</w>":8794,"이뤄진</w>":8795,"외국인의</w>":8796,"컷오프(":8797,"국군간호사관학교를</w>":8798,"=뉴시스]</w>":8799,"강민석</w>":8800,")도</w>":8801,",MBC":8802,"136":8803,"5개</w>":8804,"검체":8805,"다할</w>":8806,"매체</w>":8807,"스!":8808,"싸움":8809,"없다\"\"며</w>":8810,"요청</w>":8811,"위대한</w>":8812,"육군사":8813,"이장":8814,"인하":8815,"제안을</w>":8816,"참석</w>":8817,"충청":8818,"화와</w>":8819,"\",정치,2,2020-03-17</w>":8820,"21일</w>":8821,"위원장,뉴시스,2020.03.05.</w>":8822,"지역이</w>":8823,"기자들에게</w>":8824,"경제에</w>":8825,"기념식</w>":8826,"제1차</w>":8827,"당국의</w>":8828,"검토할</w>":8829,"국정기획":8830,"제시한</w>":8831,"KBS</w>":8832,"정면돌파전":8833,"법사위</w>":8834,"(오른쪽)</w>":8835,"여론조사심의":8836,"고통을</w>":8837,"모양새":8838,"지방자치단체":8839,"브리핑룸에서</w>":8840,"'\\t":8841,"'이에</w>":8842,"1인</w>":8843,"[헉":8844,"거듭":8845,"김지":8846,"당으로</w>":8847,"문에서</w>":8848,"미디어":8849,"민심":8850,"부응":8851,"성취":8852,"스]',</w>":8853,"실은</w>":8854,"양·":8855,"었다.',</w>":8856,"열망":8857,"절반":8858,"제안</w>":8859,"졌습니다.</w>":8860,"직원</w>":8861,"참고":8862,"초·":8863,"쿨]</w>":8864,"했다.\"\",</w>":8865,"헉!</w>":8866,"힌다.</w>":8867,"지역별</w>":8868,"민주당을</w>":8869,"306":8870,"방역과</w>":8871,"방역대책":8872,"클릭해,</w>":8873,"대화가</w>":8874,"한반도를</w>":8875,"기자간담회":8876,"파이낸셜뉴스.</w>":8877,"경우,</w>":8878,"재판에</w>":8879,"실질적</w>":8880,"=뉴시스]":8881,"긴밀히</w>":8882,"소리나는</w>":8883,"[뉴스쿨]</w>":8884,"들어간다</w>":8885,"스!토리</w>":8886,"[헉스]',</w>":8887,"%였다.</w>":8888,").</w>":8889,"2.0,</w>":8890,"@fn":8891,"me":8892,"갖추":8893,"걸고</w>":8894,"걸쳐</w>":8895,"결단":8896,"구·":8897,"군수":8898,"낡은</w>":8899,"다탄":8900,"다만,</w>":8901,"담긴</w>":8902,"대로":8903,"박한</w>":8904,"사고</w>":8905,"사항</w>":8906,"어요.</w>":8907,"위기가</w>":8908,"자들에게</w>":8909,"준호</w>":8910,"지지를</w>":8911,"착수":8912,"총력을</w>":8913,"토리":8914,"학생</w>":8915,"통합에</w>":8916,"2,1.0,,,,</w>":8917,"장관도</w>":8918,"308":8919,"한국당에</w>":8920,",정치,국회/정당,2019-12-01,\"":8921,"아니면</w>":8922,"·경남":8923,"무단복":8924,"메시지는</w>":8925,"<저작권\",사회,0,2020-03-17</w>":8926,"법안에</w>":8927,"만들고</w>":8928,"부분은</w>":8929,"right</w>":8930,":26,,,,,</w>":8931,":36,,,,,</w>":8932,"Copyright</w>":8933,"진영의</w>":8934,",https://news.naver.com/main/read.nhn?mode=LS2D&mid=shm&sid1=100&sid2=267&oid=421&aid=000449":8935,"역사적</w>":8936,"앞장서":8937,"제2차</w>":8938,"다짐했다.</w>":8939,"민주평화당</w>":8940,"최악의</w>":8941,"과학기술정보통신부</w>":8942,"@fnnews.com</w>":8943,"6,,\"['\\n\\t',</w>":8944,"[',</w>":8945,"갑(":8946,"권은":8947,"기동":8948,"발사를</w>":8949,"병실</w>":8950,"사단":8951,"여명의</w>":8952,"의한</w>":8953,"이냐":8954,"일의</w>":8955,"전력":8956,"주거":8957,"주말":8958,"중이라고</w>":8959,"촉구</w>":8960,"키우는</w>":8961,"통화</w>":8962,"특별</w>":8963,"평택":8964,"호응":8965,"ved":8966,"대표에게</w>":8967,"3:11":8968,"선거운동":8969,"인사가</w>":8970,"'\\n\\t']\",정치,2,2020-03-16</w>":8971,"신천지를</w>":8972,"중국은</w>":8973,"노력이</w>":8974,"부산시":8975,"대구·경북(":8976,"지속적으로</w>":8977,"기록했다.</w>":8978,"국무위원들과</w>":8979,"저작권자,정치,":8980,"박영선</w>":8981,"jeong":8982,"%(":8983,"'한편</w>":8984,",헤럴드경제":8985,"1호":8986,"·해":8987,"남조선":8988,"노선을</w>":8989,"느끼":8990,"동이</w>":8991,"두에</w>":8992,"려야</w>":8993,"메이":8994,"물품":8995,"박양":8996,"병실":8997,"보)":8998,"불거":8999,"순으로</w>":9000,"아냐":9001,"안에서</w>":9002,"위협</w>":9003,"이하":9004,"잠정</w>":9005,"중대한</w>":9006,"터키":9007,"특혜":9008,"폼페이":9009,"현판</w>":9010,"여러분</w>":9011,"금지하거나</w>":9012,"총선의</w>":9013,"확진자의</w>":9014,"문제와</w>":9015,"연구소</w>":9016,":30,,,,,</w>":9017,"하려면</w>":9018,"지켜지":9019,"사이버":9020,"관측도</w>":9021,"프로그램":9022,"답변을</w>":9023,"대비해</w>":9024,"원주갑</w>":9025,"출연해</w>":9026,"신종코로나바이러스</w>":9027,"무하차</w>":9028,"중앙선거여론조사심의":9029,"'안</w>":9030,"4000":9031,"거주</w>":9032,"것”":9033,"고발</w>":9034,"구의</w>":9035,"나흘":9036,"도와</w>":9037,"동일</w>":9038,"령을</w>":9039,"료를</w>":9040,"무능":9041,"발휘":9042,"세월":9043,"시기에</w>":9044,"운행":9045,"이견":9046,"젊은</w>":9047,"첫날</w>":9048,"회귀":9049,"20년</w>":9050,"선거제</w>":9051,"2020.3.1</w>":9052,"청원에</w>":9053,"않는다.</w>":9054,"건강이</w>":9055,"강제징":9056,"선별진료소":9057,"변함없는</w>":9058,"권영진</w>":9059,"정치·외교·통일·안보</w>":9060,"5&aid=0000":9061,"@kyung":9062,"개방":9063,"교착":9064,"담화</w>":9065,"대립":9066,"뚜렷":9067,"미군":9068,"사·":9069,"수많은</w>":9070,"않겠다고</w>":9071,"장병</w>":9072,"제주":9073,"주장을</w>":9074,"하시는</w>":9075,"한마":9076,"행동을</w>":9077,"행보를</w>":9078,"110":9079,"국민청원</w>":9080,"우리나라의</w>":9081,"격리를</w>":9082,"보인다고</w>":9083,"한미동맹":9084,"세계를</w>":9085,"준비하고</w>":9086,"않았다고</w>":9087,"중심의</w>":9088,":10,,,,,</w>":9089,"장기화":9090,",정치,국방/외교,2020-03-05,\"":9091,"2020.3.2/":9092,"식품의약품안전":9093,"적대시</w>":9094,"선별진료소</w>":9095,"각오로</w>":9096,"chosun":9097,"hyang":9098,"모니터링":9099,"시진핑</w>":9100,"@kyunghyang":9101,",뉴스1,2019.12.01.</w>":9102,"5·18":9103,"다수</w>":9104,"단행":9105,"된다”고</w>":9106,"벌금":9107,"보냈다.</w>":9108,"분위기":9109,"산행을</w>":9110,"시청":9111,"씨를</w>":9112,"압박</w>":9113,"완벽":9114,"음에도</w>":9115,"임무":9116,"입영":9117,"전투</w>":9118,"정유":9119,"창신":9120,"'\\n\\n\\t',</w>":9121,"\",정치,3,2020-03-17</w>":9122,"다”라며</w>":9123,"\",한국경제":9124,"우리나라":9125,"우리공화":9126,"대응이</w>":9127,"신년회에</w>":9128,"법무장관</w>":9129,"통신은</w>":9130,"349":9131,"통과한</w>":9132,"나가겠다고</w>":9133,"전체회의</w>":9134,"전망했다.</w>":9135,"하나가</w>":9136,"확보를</w>":9137,"내놓은</w>":9138,"가운데,</w>":9139,"창당준비위원회</w>":9140,"스탄,</w>":9141,"위치한</w>":9142,"채이배</w>":9143,"(사진=":9144,"4명</w>":9145,"【대표】":9146,"감옥":9147,"개가</w>":9148,"기념</w>":9149,"남녘</w>":9150,"단축":9151,"동주</w>":9152,"매각</w>":9153,"모아</w>":9154,"백원우</w>":9155,"보도</w>":9156,"사안":9157,"석을</w>":9158,"성향":9159,"여당이</w>":9160,"유학생":9161,"전액</w>":9162,"주변</w>":9163,"한국인에</w>":9164,"&oid=005&aid=000":9165,"125":9166,"판단을</w>":9167,"출마할</w>":9168,"448":9169,"1.0,,2.0,,</w>":9170,",정치,청와대,2020-01-01,":9171,"기념사에서</w>":9172,"특별위원회에서</w>":9173,"&aid=00006":9174,"질문에는</w>":9175,"검토하고</w>":9176,"면접에</w>":9177,":20,,\"</w>":9178,"'(서울=뉴스1)</w>":9179,"조직지도부":9180,"사이트</w>":9181,"동원해</w>":9182,"투쟁을</w>":9183,"경고했다.</w>":9184,"bs.co.kr)',</w>":9185,"원내수석부대표는</w>":9186,"돌아가서</w>":9187,"있을지</w>":9188,"환담장으로</w>":9189,"최초로</w>":9190,"잠수함":9191,"전광훈</w>":9192,"아카데":9193,"'민주당</w>":9194,"121":9195,"lo":9196,"건너":9197,"군단":9198,"급속":9199,"남겨":9200,"니까":9201,"보증":9202,"서면</w>":9203,"서대문":9204,"성남":9205,"순천</w>":9206,"신경":9207,"신중":9208,"왼쪽</w>":9209,"위생":9210,"이니</w>":9211,"일자리</w>":9212,"재송":9213,"전신":9214,"직한</w>":9215,"집회</w>":9216,"투기":9217,"현대":9218,"의원에게</w>":9219,"12:2":9220,"03:42":9221,"신천지에</w>":9222,"@news1.,정치,":9223,"신청자</w>":9224,"공동협력을</w>":9225,"선거구를</w>":9226,"사건에</w>":9227,"수여식</w>":9228,"않는다면</w>":9229,"88&aid=00006":9230,"나아갈</w>":9231,":29,,</w>":9232,":12,,\"</w>":9233,"Copyrights":9234,"당원권</w>":9235,"이종걸</w>":9236,"선출한</w>":9237,"'동영상</w>":9238,"글로벌</w>":9239,"'국회</w>":9240,"0시부터</w>":9241,"1,,\"['\\n\\t',</w>":9242,"2.0":9243,"강을</w>":9244,"과시":9245,"국경":9246,"귀국</w>":9247,"높이":9248,"눈물을</w>":9249,"동반":9250,"동구</w>":9251,"미루":9252,"삼성전":9253,"실행":9254,"어진</w>":9255,"원으로</w>":9256,"입영</w>":9257,"정이</w>":9258,"초청":9259,"&oid=009&aid=0004":9260,"통합이</w>":9261,"국민들</w>":9262,"외교부,</w>":9263,"4,1.0,,,,</w>":9264,"367":9265,"사람들의</w>":9266,",https://news.naver.com/main/read.nhn?mode=LS2D&mid=shm&sid1=100&sid2=264&oid=":9267,".co.kr),</w>":9268,"이해식</w>":9269,"분석도</w>":9270,"통일,</w>":9271,"방위사령부</w>":9272,",https://news.naver.com/main/read.nhn?mode=LS2D&mid=shm&sid1=100&sid2=265&oid=003&aid=000974":9273,"다음에</w>":9274,"회복을</w>":9275,"사례가</w>":9276,"하시면</w>":9277,"이르면</w>":9278,"농림축산식품해양수산":9279,"(.k\",정치,":9280,"2&aid=0003":9281,"6명</w>":9282,"EU":9283,"“문</w>":9284,"“이번</w>":9285,"권한</w>":9286,"기술</w>":9287,"도대체</w>":9288,"될지</w>":9289,"못할</w>":9290,"보복":9291,"보인</w>":9292,"상,</w>":9293,"선발":9294,"수류":9295,"여부</w>":9296,"으론</w>":9297,"을에는</w>":9298,"인과</w>":9299,"장소":9300,"전직</w>":9301,"절을</w>":9302,"줄을</w>":9303,"지만":9304,"착취":9305,"행사에서</w>":9306,"국회의원이</w>":9307,"민주주의를</w>":9308,"후보자가</w>":9309,"조선반":9310,"중국을</w>":9311,".co.kr</w>":9312,"평가는</w>":9313,".0,1.0,2.0</w>":9314,"에게도</w>":9315,"이만희":9316,"조선중앙통신은</w>":9317,"대안신당":9318,",정치,국방/외교,2020-03-03,\"":9319,"선관위</w>":9320,"청산리</w>":9321,"해병대</w>":9322,"이집트</w>":9323,"2019.12.1</w>":9324,"위안부</w>":9325,"2&aid=000344":9326,"25</w>":9327,"3·":9328,"3법</w>":9329,"han":9330,"”며</w>":9331,"검경":9332,"기와</w>":9333,"기본</w>":9334,"늘었다.</w>":9335,"대학</w>":9336,"모바":9337,"모으":9338,"목숨":9339,"비아,</w>":9340,"빠르고</w>":9341,"세우":9342,"심판</w>":9343,"않게</w>":9344,"어,</w>":9345,"역사를</w>":9346,"연대를</w>":9347,"오르":9348,"이혜":9349,"이들의</w>":9350,"인데":9351,"적합":9352,"제막":9353,"지검</w>":9354,"지지도":9355,"진솔":9356,"표준":9357,"해진</w>":9358,"행위에</w>":9359,"뉴스'</w>":9360,".0,5.0,":9361,"10일</w>":9362,"대구지역</w>":9363,"03:4":9364,"3,1.0,,,,</w>":9365,"시작하는</w>":9366,"신속하고</w>":9367,"확인됐다.</w>":9368,"간담회를</w>":9369,"선거구에</w>":9370,"김정은의</w>":9371,"안정원</w>":9372,"트럼프":9373,"수여하고</w>":9374,"새누리당</w>":9375,"3호인</w>":9376,"인터넷전문은행법</w>":9377,"친문게이트</w>":9378,"유재수</w>":9379,"2&aid=00034":9380,"그럼에도</w>":9381,"(C":9382,".\\xa0":9383,"3년</w>":9384,"400":9385,"ju":9386,"거예":9387,"게재":9388,"관해</w>":9389,"구속</w>":9390,"김승":9391,"달러":9392,"담당</w>":9393,"대미":9394,"들었다.</w>":9395,"마비":9396,"머지":9397,"민·":9398,"박태":9399,"법의</w>":9400,"봉을</w>":9401,"뿌리":9402,"세요</w>":9403,"소관</w>":9404,"완수":9405,"우의":9406,"이로":9407,"이면</w>":9408,"중진</w>":9409,"지인</w>":9410,"최근":9411,"춘추":9412,"치료</w>":9413,"패트</w>":9414,"확인</w>":9415,"환경</w>":9416,"황운":9417,"힘들":9418,"00:38":9419,"대통령으로서</w>":9420,"미래지향":9421,"신년회</w>":9422,"군사법":9423,"23:09":9424,"강화의</w>":9425,",뉴스1,2020.03.03.</w>":9426,"서울=뉴시스]</w>":9427,"\",연합뉴스,2020.01.01.</w>":9428,"센터에서</w>":9429,"CBS":9430,"제출한</w>":9431,"필리버스터(":9432,"제1부부장의</w>":9433,":12,,,,,</w>":9434,"목표로</w>":9435,"존재하는</w>":9436,"정찰기</w>":9437,"각오를</w>":9438,"백두산</w>":9439,"직접적인</w>":9440,"캡처)</w>":9441,"화생방":9442,"biz":9443,"jeong@yna.co.kr',</w>":9444,"폼페이오</w>":9445,"4.1":9446,"ra":9447,"‘상생</w>":9448,"교민":9449,"그건</w>":9450,"날치":9451,"높게</w>":9452,"단지</w>":9453,"대기업":9454,"를)</w>":9455,"박재":9456,"부총리는</w>":9457,"비상</w>":9458,"시로</w>":9459,"아무</w>":9460,"안·":9461,"엇갈":9462,"워크":9463,"임기</w>":9464,"잘못</w>":9465,"장막":9466,"재난</w>":9467,"진심":9468,"진입":9469,"친문</w>":9470,"하고":9471,"하는데,</w>":9472,"ink":9473,"\",경제,0,2020-03-17</w>":9474,"대응과</w>":9475,"374":9476,"군사훈련을</w>":9477,"민생법안을</w>":9478,"바른미래당을</w>":9479,"교수와</w>":9480,"경선이</w>":9481,"해석이</w>":9482,"무엇을</w>":9483,"근본적으로</w>":9484,"봉오동</w>":9485,"의사진행</w>":9486,"중앙선거여론조사심의위원회</w>":9487,"아카데미</w>":9488,",\\xa0":9489,"@imaeil":9490,"’에서</w>":9491,"“문재인</w>":9492,"“우리는</w>":9493,"걸림":9494,"교도":9495,"그냥</w>":9496,"김삼":9497,"당할</w>":9498,"독자":9499,"돌봄</w>":9500,"된다":9501,"드루":9502,"드립니다.</w>":9503,"론을</w>":9504,"몰디":9505,"반문":9506,"보였":9507,"보완":9508,"본부(":9509,"부패":9510,"상한":9511,"새보수":9512,"속에서도</w>":9513,"윤동주</w>":9514,"일인</w>":9515,"잖아요.</w>":9516,"재산":9517,"조종":9518,"증상이</w>":9519,"토로":9520,"펼쳐":9521,"해제</w>":9522,"회부":9523,"히는</w>":9524,"\"\"<저작권자</w>":9525,"뉴스]</w>":9526,"\",머니S":9527,"기자들의</w>":9528,"지난주</w>":9529,"2020.2.":9530,"관계자</w>":9531,"지원하는</w>":9532,"\\'을</w>":9533,"평화공동":9534,"추미애":9535,"나가야</w>":9536,"했다가</w>":9537,"에서,</w>":9538,"감사원</w>":9539,"받았다고</w>":9540,"강력히</w>":9541,"보건복지위원회</w>":9542,",https://news.naver.com/main/read.nhn?mode=LS2D&mid=shm&sid1=100&sid2=267&oid=421&aid=000438":9543,"doso":9544,"올라온</w>":9545,"정계복귀</w>":9546,"방호복</w>":9547,"@heraldcorp.c\",정치,":9548,"살펴보고</w>":9549,"북·미</w>":9550,"증거장막":9551,"케이뱅":9552,"표본오차":9553,"워싱턴":9554,"(가칭":9555,"4선</w>":9556,"8일</w>":9557,"DM":9558,"【원내대표":9559,"계급":9560,"국(":9561,"김순":9562,"꿈꾸":9563,"넘겨":9564,"당적</w>":9565,"대대</w>":9566,"도종":9567,"디어</w>":9568,"만만":9569,"무게":9570,"무제한</w>":9571,"물론":9572,"방안이</w>":9573,"성사":9574,"세,</w>":9575,"외면":9576,"자원을</w>":9577,"지출":9578,"최소</w>":9579,"항구":9580,"\"\"코로나19</w>":9581,"10시</w>":9582,"\",노컷뉴스":9583,"127":9584,"05:12":9585,"인사는</w>":9586,"비례정당":9587,"16일</w>":9588,"\\'는</w>":9589,"보도가</w>":9590,"기소에</w>":9591,"공동대표가</w>":9592,"여론을</w>":9593,"말씀드리":9594,":40,,,,,</w>":9595,"정신과</w>":9596,"홈페이지를</w>":9597,"공항에</w>":9598,"결론을</w>":9599,"합동참모본부는</w>":9600,"1~":9601,"5.0,,":9602,"6조":9603,"거운</w>":9604,"공보":9605,"배당":9606,"병무":9607,"보입니다.</w>":9608,"수위를</w>":9609,"승을</w>":9610,"시장,</w>":9611,"여수":9612,"여명을</w>":9613,"차별":9614,"차액":9615,"한계가</w>":9616,"호남</w>":9617,"2013":9618,"한국은</w>":9619,"140":9620,"사회·":9621,"4,\"":9622,"최고위</w>":9623,"보도에</w>":9624,"통과를</w>":9625,"간담회":9626,"임관식을</w>":9627,"중요하다고</w>":9628,",https://news.naver.com/main/read.nhn?mode=LS2D&mid=shm&sid1=100&sid2=265&oid=421&aid=0004335":9629,":39,,,,,</w>":9630,"규모를</w>":9631,"지시했다.</w>":9632,"문화체육":9633,",https://news.naver.com/main/read.nhn?mode=LS2D&mid=shm&sid1=100&sid2=265&oid=003&aid=0009740":9634,":31,,\"</w>":9635,"억제력</w>":9636,"SBS":9637,"일주일</w>":9638,"올림픽</w>":9639,"'조":9640,"'이날</w>":9641,"5천":9642,"7시":9643,"PK</w>":9644,"’이라는</w>":9645,"강립</w>":9646,"광화":9647,"권,</w>":9648,"남측":9649,"당시":9650,"말하는</w>":9651,"면에</w>":9652,"민경":9653,"범위</w>":9654,"불허":9655,"사우":9656,"살리":9657,"서로를</w>":9658,"설치</w>":9659,"시의회</w>":9660,"신도</w>":9661,"않겠다는</w>":9662,"어붙":9663,"외부</w>":9664,"우파":9665,"위와</w>":9666,"이건</w>":9667,"주먹":9668,"집에서</w>":9669,"착륙":9670,"충족":9671,"토록</w>":9672,"해서도</w>":9673,"허브":9674,"00:3":9675,"\"\"▶</w>":9676,"대표에</w>":9677,"의원직</w>":9678,"회의가</w>":9679,"상황실</w>":9680,"비례용</w>":9681,"17일</w>":9682,"299":9683,"발언은</w>":9684,"248":9685,"구독!',</w>":9686,"국민의당은</w>":9687,"것이다.',</w>":9688,"있었다는</w>":9689,"당국에</w>":9690,"일본에</w>":9691,"지금도</w>":9692,"협의해</w>":9693,"생활을</w>":9694,":19,,,,,</w>":9695,":38,,,,,</w>":9696,":38,,\"</w>":9697,":37,,,,,</w>":9698,"·김태":9699,"온라인":9700,"서비스(":9701,"김종민</w>":9702,"태극기를</w>":9703,"보냈다고</w>":9704,"paper":9705,"체제에</w>":9706,"박용진</w>":9707,"인천국제공항</w>":9708,"20&aid=000327":9709,"의원총회에서</w>":9710,"지진피해</w>":9711,"(속보":9712,"135":9713,"1일)</w>":9714,"강효":9715,"경산":9716,"군의":9717,"김강립</w>":9718,"두번째":9719,"로서는</w>":9720,"므로</w>":9721,"벌이고</w>":9722,"부당":9723,"부결</w>":9724,"삶을</w>":9725,"세대":9726,"아침":9727,"안정을</w>":9728,"어서</w>":9729,"여당의</w>":9730,"역설":9731,"원하시면</w>":9732,"육사</w>":9733,"을과</w>":9734,"의도가</w>":9735,"일도</w>":9736,"자세를</w>":9737,"준석</w>":9738,"즉시</w>":9739,"치가</w>":9740,"했다.":9741,",,1.0,,,</w>":9742,"\"\"\"":9743,"5,1.0,,,,</w>":9744,"금지법":9745,"전략공천을</w>":9746,"출마자</w>":9747,"출마하는</w>":9748,"아니라고</w>":9749,"총선이</w>":9750,"23:08":9751,"주장했다.',</w>":9752,"지적했다.',</w>":9753,"안보에</w>":9754,"이상이</w>":9755,"변화가</w>":9756,":21,,,,,</w>":9757,":11,,,,,</w>":9758,"활동에</w>":9759,"행사에</w>":9760,"KBS뉴스</w>":9761,"277&aid=000459":9762,"주셨던</w>":9763,",정치,북한,2020-03-03,\"":9764,"합동타격훈련을</w>":9765,"이긴다',</w>":9766,"‘코로나19’</w>":9767,"삼성전자</w>":9768,"'seiyu":9769,"'확실한</w>":9770,"(청와대</w>":9771,".,정치,1,2020-03-17</w>":9772,"502":9773,"가지로</w>":9774,"국과</w>":9775,"기차게</w>":9776,"늘리":9777,"되나":9778,"때도</w>":9779,"벨트":9780,"서에</w>":9781,"서라도</w>":9782,"시한을</w>":9783,"아프리":9784,"양천":9785,"열렸":9786,"의장</w>":9787,"이의":9788,"일)":9789,"점은</w>":9790,"치열":9791,"탄생":9792,"특정":9793,"틀을</w>":9794,"의원.</w>":9795,"117":9796,"미래의</w>":9797,"장관.</w>":9798,"금지]',</w>":9799,"상황과</w>":9800,"강조하며</w>":9801,".kr":9802,"설명이다.</w>":9803,"구독하기</w>":9804,"시민들의</w>":9805,"시민들과</w>":9806,"추진하고</w>":9807,"국무총리의</w>":9808,"분석이다.</w>":9809,"이뤄졌":9810,"마련된</w>":9811,"비상한</w>":9812,"수여식에</w>":9813,"3개월</w>":9814,"아무리</w>":9815,"과거를</w>":9816,"있다./윤동주</w>":9817,"화상면접":9818,"감안해</w>":9819,"어린이</w>":9820,"6·25</w>":9821,"윤후덕</w>":9822,"정유경</w>":9823,"'seiyu@news1.kr',</w>":9824,")'</w>":9825,"137":9826,"검역을</w>":9827,"결산":9828,"고성":9829,"공방":9830,"공백":9831,"남해":9832,"능력</w>":9833,"다운</w>":9834,"마산":9835,"발의</w>":9836,"부각":9837,"브라":9838,"서류":9839,"스탄</w>":9840,"아프":9841,"에이":9842,"유럽":9843,"응급":9844,"의지</w>":9845,"입고</w>":9846,"재심을</w>":9847,"저녁</w>":9848,"지분</w>":9849,"할지,</w>":9850,"외교,</w>":9851,"05:19":9852,"발표할</w>":9853,"정의당의</w>":9854,"개혁과</w>":9855,"의료기관":9856,"보건·":9857,"특별관리":9858,"협력이</w>":9859,"해결을</w>":9860,"제기된다.</w>":9861,"민식이법":9862,"도시락":9863,"논평에서</w>":9864,"상대적으로</w>":9865,"자동차</w>":9866,"무시한</w>":9867,"상무위원회에서</w>":9868,"싱가포르</w>":9869,"국민의례를</w>":9870,"진솔한</w>":9871,"(A":9872,"134":9873,"2조":9874,"226":9875,"318":9876,"6월":9877,"778":9878,"8월</w>":9879,"IC":9880,"’과</w>":9881,"▶]</w>":9882,"관행":9883,"권역":9884,"기사</w>":9885,"기대를</w>":9886,"길은</w>":9887,"늦게</w>":9888,"마무리</w>":9889,"법적·":9890,"상향":9891,"서면":9892,"성수</w>":9893,"수,</w>":9894,"실용":9895,"십시":9896,"아마</w>":9897,"앞당":9898,"연관":9899,"염두에</w>":9900,"용산":9901,"육성</w>":9902,"이처럼</w>":9903,"인식을</w>":9904,"잇따라</w>":9905,"있다</w>":9906,"작전</w>":9907,"카메":9908,"트워크":9909,"판에</w>":9910,"해피":9911,"현행</w>":9912,"회담":9913,"2014":9914,",https://news.naver.com/main/read.nhn?mode=LS2D&mid=shm&sid1=100&sid2=269&oid=003&aid=0009634":9915,"\",MBN":9916,"사진이</w>":9917,"다\"\"라며</w>":9918,"관계에</w>":9919,"생각한다”고</w>":9920,"결과는</w>":9921,"'▶네이버</w>":9922,"논의할</w>":9923,"요청한</w>":9924,"보고서를</w>":9925,"있었습니다.</w>":9926,"7,1.0,,,,</w>":9927,"부산일보</w>":9928,"협상에</w>":9929,"대정부질문</w>":9930,":31,,,,,</w>":9931,"구독(클,정치,0,2020-03-17</w>":9932,"착용한</w>":9933,"불가피한</w>":9934,"본격적인</w>":9935,"계약을</w>":9936,"================":9937,"현안관련</w>":9938,"대주주</w>":9939,"금수산태양궁전을</w>":9940,"노영민</w>":9941,",https://news.naver.com/main/read.nhn?mode=LS2D&mid=shm&sid1=100&sid2=269&oid=469&aid=000047":9942,"629&aid=00000":9943,"2012년</w>":9944,",https://news.naver.com/main/read.nhn?mode=LS2D&mid=shm&sid1=100&sid2=269&oid=047&aid=0002259":9945,"【원내대표】":9946,"'박근혜</w>":9947,"0.0,</w>":9948,"5,,\"":9949,"750":9950,"관으로</w>":9951,"교류</w>":9952,"권리":9953,"기권</w>":9954,"돌려":9955,"들로</w>":9956,"방안에</w>":9957,"병의</w>":9958,"세청":9959,"수석</w>":9960,"시한</w>":9961,"시청</w>":9962,"실장,</w>":9963,"앞세":9964,"온갖</w>":9965,"외부":9966,"의지도</w>":9967,"이학":9968,"자전":9969,"적지</w>":9970,"집회를</w>":9971,"째,</w>":9972,"차단</w>":9973,"최종":9974,"테크</w>":9975,"펫',</w>":9976,"하지는</w>":9977,"핵실험":9978,"형식":9979,"대통령,뉴시스,2020.01.02.</w>":9980,"국민들을</w>":9981,"경제부":9982,"가능하다.</w>":9983,"지도와</w>":9984,"대상에</w>":9985,"강화할</w>":9986,",https://news.naver.com/main/read.nhn?mode=LS2D&mid=shm&sid1=100&sid2=266&oid=003&aid=0009635":9987,"시작된</w>":9988,"시민의</w>":9989,"마스크가</w>":9990,"MBN</w>":9991,"공천관리위원회의</w>":9992,"창당에</w>":9993,":00,,,,,</w>":9994,"확정된</w>":9995,"달라진</w>":9996,"자체를</w>":9997,"조직을</w>":9998,"활용해</w>":9999,":16,,,,,</w>":10000,"ent":10001,"소상공인·":10002,"매체는</w>":10003,"김명원</w>":10004,"http://news":10005,"마지막으로</w>":10006,"세월호</w>":10007,"해피펫',</w>":10008,"-2":10009,"236":10010,"@k":10011,"“마스크</w>":10012,"가용":10013,"감사</w>":10014,"갑,</w>":10015,"겁니다.</w>":10016,"광역":10017,"그것을</w>":10018,"근무</w>":10019,"네,</w>":10020,"는가":10021,"능력이</w>":10022,"당하고</w>":10023,"동맹</w>":10024,"라토리":10025,"맞은</w>":10026,"모라토리":10027,"믿음":10028,"받게</w>":10029,"발행":10030,"번영을</w>":10031,"부활":10032,"센티":10033,"신이</w>":10034,"연계":10035,"연설</w>":10036,"영화":10037,"요건을</w>":10038,"원·":10039,"윤영":10040,"있,정치,0,2020-03-17</w>":10041,"절감":10042,"주력":10043,"착한</w>":10044,"찬우</w>":10045,"취득":10046,"테이":10047,"하였":10048,"호)</w>":10049,"환자의</w>":10050,"100%</w>":10051,"1105":10052,"서울남부":10053,"인사회에</w>":10054,"관계부처":10055,",https://news.naver.com/main/read.nhn?mode=LS2D&mid=shm&sid1=100&sid2=265&oid=003&aid=000958":10056,"249":10057,"보수의</w>":10058,",https://news.naver.com/main/read.nhn?mode=LS2D&mid=shm&sid1=100&sid2=269&oid=088&aid=00006":10059,"국제평화":10060,"8,1.0,,,,</w>":10061,"혁신과</w>":10062,"규모로</w>":10063,"반발했다.</w>":10064,"드러냈다.</w>":10065,"충분한</w>":10066,"바이러스를</w>":10067,":29,,,,,</w>":10068,"호소했다.</w>":10069,"일각에선</w>":10070,":41,,,,,</w>":10071,",정치,국방/외교,2020-03-04,\"":10072,",https://news.naver.com/main/read.nhn?mode=LS2D&mid=shm&sid1=100&sid2=268&oid=001&aid=001144":10073,"김미경</w>":10074,"모르겠":10075,",https://news.naver.com/main/read.nhn?mode=LS2D&mid=shm&sid1=100&sid2=269&oid=079&aid=00033":10076,"텔레그램</w>":10077,"내놨다.</w>":10078,"경악을</w>":10079,"배현진</w>":10080,"커뮤니티":10081,"2만":10082,"9·":10083,"y@yna.co.kr',</w>":10084,"검체</w>":10085,"고맙":10086,"광장에서</w>":10087,"남측</w>":10088,"대기</w>":10089,"동행":10090,"듯한</w>":10091,"떠나</w>":10092,"로도</w>":10093,"문대통령</w>":10094,"별도의</w>":10095,"본인":10096,"본인이</w>":10097,"분할":10098,"서신</w>":10099,"서다.</w>":10100,"소통</w>":10101,"식약":10102,"어를</w>":10103,"여일</w>":10104,"역량</w>":10105,"와는</w>":10106,"원과</w>":10107,"이지만,</w>":10108,"이내에</w>":10109,"자이":10110,"지목":10111,"체류</w>":10112,"프랑":10113,",,,,,":10114,"118":10115,"109":10116,"발언에</w>":10117,"선언하고</w>":10118,"보수통합</w>":10119,"23:02":10120,"병원,</w>":10121,".co.kr/":10122,",,,3.0,,</w>":10123,"최고위원이</w>":10124,"논의하고</w>":10125,"9,1.0,,,,</w>":10126,"경선에</w>":10127,"해결할</w>":10128,"나오지</w>":10129,"신천지가</w>":10130,"논란을</w>":10131,"3.0,,1.0,,</w>":10132,"부결되자</w>":10133,"내려놓":10134,"홈페이지에</w>":10135,"시스템</w>":10136,"예방을</w>":10137,"대안신당</w>":10138,"방법으로</w>":10139,"불러주셨던</w>":10140,"boy@yna.co.kr',</w>":10141,",정치,청와대,2020-03-05,\"":10142,"의뢰로</w>":10143,"동생인</w>":10144,"신천지예수교</w>":10145,"다시금</w>":10146,"영원히</w>":10147,"창신동</w>":10148,"3·1</w>":10149,"표본오차는</w>":10150,"문화체육관광":10151,"6.0,,":10152,"8명</w>":10153,"8군단</w>":10154,"’고</w>":10155,"ㆍ1":10156,"갖춘</w>":10157,"같다.</w>":10158,"검역</w>":10159,"공업":10160,"논란</w>":10161,"달라</w>":10162,"동계":10163,"동원</w>":10164,"되어야</w>":10165,"만족":10166,"미안":10167,"바다":10168,"밝혀</w>":10169,"부연":10170,"비무장":10171,"선에서</w>":10172,"안정</w>":10173,"요건":10174,"위헌":10175,"유의":10176,"전문</w>":10177,"차가</w>":10178,"채용":10179,"총영사":10180,"해낼</w>":10181,"헌법</w>":10182,"경제·":10183,"기다리":10184,"참석자들과</w>":10185,"감염증(코로나19)이</w>":10186,"공개적으로</w>":10187,"의사봉을</w>":10188,"09:30</w>":10189,"위해,</w>":10190,"단계인</w>":10191,"더불어민주당의</w>":10192,"대비태세를</w>":10193,"미래한국당을</w>":10194,"여성가족":10195,"정책위의장이</w>":10196,"우체국</w>":10197,"2020.3.1',</w>":10198,"겨레의</w>":10199,"변함이</w>":10200,"충격적인</w>":10201,"3·1독립운동의</w>":10202,"'아울러</w>":10203,"4,2020-03-16</w>":10204,"Good":10205,"mi":10206,"’와</w>":10207,"개최</w>":10208,"거세":10209,"것이고</w>":10210,"결집":10211,"단식을</w>":10212,"답을</w>":10213,"되기를</w>":10214,"립토":10215,"목적으로</w>":10216,"못하게</w>":10217,"별도로</w>":10218,"병호</w>":10219,"상처를</w>":10220,"선생":10221,"선열":10222,"성격":10223,"시일</w>":10224,"안착":10225,"액을</w>":10226,"연의</w>":10227,"외롭":10228,"의지가</w>":10229,"인센티":10230,"장군":10231,"정면</w>":10232,"제주</w>":10233,"주말</w>":10234,"차고</w>":10235,"체류":10236,"추천</w>":10237,"크립토":10238,"타협":10239,"행위</w>":10240,"대통합</w>":10241,"10:00</w>":10242,"위원장에게</w>":10243,"선거운동을</w>":10244,"후보자에</w>":10245,"대구를</w>":10246,"사회주의</w>":10247,"입국자</w>":10248,"민생법안":10249,"보건의료</w>":10250,"제1회</w>":10251,"여야의</w>":10252,"\",연합뉴스,2020.03.01.</w>":10253,"비난을</w>":10254,"76기</w>":10255,"위협에</w>":10256,"자원봉사</w>":10257,"행동으로</w>":10258,"수도권":10259,"프로젝":10260,",https://news.naver.com/main/read.nhn?mode=LS2D&mid=shm&sid1=100&sid2=267&oid=421&aid=000450":10261,"14&aid=000435":10262,"기반을</w>":10263,"자유공화당</w>":10264,"터미널":10265,"김도읍</w>":10266,"국가·지역은</w>":10267,"강제징용</w>":10268,"머지않아</w>":10269,"GoodNews</w>":10270,"'http://news":10271,".do":10272,"147":10273,"417":10274,"8년</w>":10275,"=1958":10276,"?ic":10277,"d=1958":10278,"herald":10279,"▶터닝</w>":10280,"겠다</w>":10281,"골자로</w>":10282,"과제를</w>":10283,"궁금":10284,"김무":10285,"나선":10286,"대단히</w>":10287,"되며</w>":10288,"마감":10289,"많았":10290,"맥락":10291,"멈춰":10292,"미칠</w>":10293,"변혁":10294,"본선</w>":10295,"봉주</w>":10296,"분께</w>":10297,"불공":10298,"사격</w>":10299,"삶이</w>":10300,"생을</w>":10301,"생명을</w>":10302,"선에</w>":10303,"손으로</w>":10304,"십자":10305,"여부":10306,"왔던</w>":10307,"우한":10308,"점으로</w>":10309,"정동":10310,"조미":10311,"존엄":10312,"줘야</w>":10313,"질책":10314,"참배</w>":10315,"초등":10316,"최태":10317,"혜영</w>":10318,"190":10319,"\",MBC":10320,"선거가</w>":10321,"더불어</w>":10322,"대응하기</w>":10323,"검찰을</w>":10324,".kbs":10325,",뉴스1,2020.01.01.</w>":10326,"기술을</w>":10327,"김정은이</w>":10328,"CBS</w>":10329,":20,,,,,</w>":10330,"경우에는</w>":10331,"목표를</w>":10332,"서비스를</w>":10333,"김성태</w>":10334,"'[서울=뉴시스]박영태</w>":10335,"choi":10336,"법무부장관</w>":10337,"개별관광":10338,"신용현</w>":10339,"이탈리아,</w>":10340,"사항은</w>":10341,"소식통":10342,"청소년":10343,"도종환</w>":10344,"허브',</w>":10345,"크립토허브',</w>":10346,"'http://news.kbs":10347,".do?ic":10348,"'http://news.kbs.co.kr/":10349,".do?icd=1958":10350,",머니S":10351,",서울경제":10352,"5,2020-03-16</w>":10353,"5.0,,,,</w>":10354,"95일</w>":10355,"F-":10356,"가르":10357,"공산":10358,"긴장을</w>":10359,"나라는</w>":10360,"낮은</w>":10361,"내렸다.</w>":10362,"됐고</w>":10363,"되어":10364,"두드리고</w>":10365,"리게</w>":10366,"배경을</w>":10367,"범정부</w>":10368,"부끄":10369,"비극":10370,"섰다.</w>":10371,"성금":10372,"성향</w>":10373,"애로":10374,"약을</w>":10375,"여당은</w>":10376,"예를</w>":10377,"요,</w>":10378,"이웃":10379,"임찬우</w>":10380,"재외":10381,"절대로</w>":10382,"철회</w>":10383,"한중":10384,"한해</w>":10385,"한다'는</w>":10386,"19대</w>":10387,"3:1":10388,"2,\"":10389,",https://news.naver.com/main/read.nhn?mode=LS2D&mid=shm&sid1=100&sid2=265&oid=003&aid=0009635":10390,"사회에</w>":10391,",https://news.naver.com/main/read.nhn?mode=LS2D&mid=shm&sid1=100&sid2=267&oid=003&aid=00097":10392,"\",뉴시스,2019.12.01.</w>":10393,"국제적</w>":10394,"독립선언":10395,"세력들이</w>":10396,"시설에서</w>":10397,"확정했다.</w>":10398,"차관과</w>":10399,"예상되는</w>":10400,"주재한</w>":10401,"위성정당을</w>":10402,"생산량":10403,"원칙을</w>":10404,"졸업·":10405,"출신으로</w>":10406,"추가경정예산안":10407,"국군간호사관학교에서</w>":10408,"김용태</w>":10409,",정치,청와대,2020-03-04,\"":10410,"아닌가</w>":10411,"기간을</w>":10412,"대처할</w>":10413,"비전통":10414,"11&aid=00037":10415,"플랫폼</w>":10416,"중소벤처기업부</w>":10417,"배당금":10418,",데일리안":10419,"7.0,,</w>":10420,"8&aid=00024":10421,"@tf":10422,"[속보]":10423,"x1105":10424,"가능</w>":10425,"공조를</w>":10426,"국익":10427,"국에서</w>":10428,"국장은</w>":10429,"권력</w>":10430,"급한</w>":10431,"느냐</w>":10432,"늘릴</w>":10433,"다면,</w>":10434,"목을</w>":10435,"미상의</w>":10436,"반성":10437,"복잡":10438,"성장</w>":10439,"세제</w>":10440,"소마</w>":10441,"소재</w>":10442,"수단을</w>":10443,"유효":10444,"유해</w>":10445,"유시민</w>":10446,"이전</w>":10447,"일이라고</w>":10448,"재,</w>":10449,"재심</w>":10450,"재확인":10451,"저소득":10452,"접한</w>":10453,"주저":10454,"주장이</w>":10455,"커지고</w>":10456,"파행":10457,"한일":10458,"형이</w>":10459,"2020년":10460,".0,1.0,</w>":10461,"민주주의</w>":10462,"인사에</w>":10463,"참석하며</w>":10464,"관계자들이</w>":10465,"국가정보":10466,"대책과</w>":10467,",https://news.naver.com/main/read.nhn?mode=LS2D&mid=shm&sid1=100&sid2=269&oid=015&aid=0004":10468,"자신을</w>":10469,"연구소":10470,"8,\"":10471,"이뤄지지</w>":10472,"6,1.0,,,,</w>":10473,"변호사":10474,"05:13:":10475,"협상이</w>":10476,"바로잡":10477,"공급을</w>":10478,"작업에</w>":10479,"구성된</w>":10480,"격려했다.</w>":10481,"추가경정예산안에</w>":10482,"시사했다.</w>":10483,"명령을</w>":10484,"리얼미터</w>":10485,"어린이":10486,"다.\\xa0',</w>":10487,"디지털타임":10488,"kmx1105":10489,"일방적으로</w>":10490,"트위터":10491,"대구·경북(TK":10492,"검경수사권</w>":10493,"@tf.co.kr',</w>":10494,".go":10495,"0.0":10496,"9,,\"['\\n\\t',</w>":10497,"공장":10498,"구\",정치,":10499,"내렸":10500,"냐는</w>":10501,"달하는</w>":10502,"독려":10503,"따뜻":10504,"망을</w>":10505,"맞춰":10506,"문성":10507,"법(":10508,"부대의</w>":10509,"빠져":10510,"성장을</w>":10511,"쉽게</w>":10512,"여명":10513,"완구</w>":10514,"을에서는</w>":10515,"졌다.',</w>":10516,"조직</w>":10517,"준연동형</w>":10518,"징계":10519,"창업":10520,"첨단</w>":10521,"침묵":10522,"카오":10523,"칼럼":10524,"탄을</w>":10525,"탑승</w>":10526,"트',</w>":10527,"판사</w>":10528,"평균</w>":10529,"하도":10530,"항상</w>":10531,"lan":10532,"후보자의</w>":10533,"우리도</w>":10534,"아니라,</w>":10535,"신년사에서</w>":10536,"위원회-":10537,"시민사회":10538,"사태의</w>":10539,"협력의</w>":10540,"임관식에서</w>":10541,"경찰이</w>":10542,"여야,</w>":10543,"상태에</w>":10544,"해결하기</w>":10545,".\",정치,1,2020-03-17</w>":10546,"외국인을</w>":10547,"안철수계":10548,"의혹에</w>":10549,"의혹이</w>":10550,"보여주":10551,":50,,\"</w>":10552,"추가경정예산(추경":10553,"바꾸는</w>":10554,"joong":10555,"SBS</w>":10556,"(가운데)</w>":10557,"우의와</w>":10558,"비전통적</w>":10559,"kmx1105@newsis.com',</w>":10560,"'전":10561,"(신종</w>":10562,",KBS":10563,"-\\n\\t',</w>":10564,"220":10565,"7.0,,":10566,"AP":10567,"감찰</w>":10568,"강훈":10569,"계산":10570,"공모</w>":10571,"구급":10572,"내외</w>":10573,"당(":10574,"동대":10575,"리서":10576,"박주":10577,"법상</w>":10578,"생명과</w>":10579,"세상을</w>":10580,"승민</w>":10581,"심은</w>":10582,"아는</w>":10583,"않다는</w>":10584,"원(":10585,"이전에</w>":10586,"인간":10587,"자연":10588,"절반</w>":10589,"정국</w>":10590,"주간":10591,"주고":10592,"지며</w>":10593,"출처</w>":10594,"타격</w>":10595,"파트":10596,"해결</w>":10597,"핵무기</w>":10598,"\"\"이</w>":10599,"\"\"우리</w>":10600,"10,2020-03-17</w>":10601,"123":10602,"공천심사</w>":10603,"청와대에</w>":10604,"금지를</w>":10605,"\"[속보]":10606,"비례정당을</w>":10607,"관련해선</w>":10608,"정책의</w>":10609,"결정이</w>":10610,"사람들을</w>":10611,"기념식에서</w>":10612,"훈련의</w>":10613,"추진하는</w>":10614,"협력해</w>":10615,"자리로</w>":10616,"지방선거</w>":10617,"리아,</w>":10618,"야당과</w>":10619,"옥중편":10620,":41,,\"</w>":10621,"김종석</w>":10622,"전쟁의</w>":10623,"김영환</w>":10624,"광주·":10625,"사고방식에</w>":10626,"총괄조정":10627,"최우선으로</w>":10628,"법적·제도적</w>":10629,"joongang":10630,"'인</w>":10631,"15일</w>":10632,"“이</w>":10633,"가로":10634,"경비":10635,"교체</w>":10636,"기금":10637,"김해":10638,"네트워크":10639,"다수":10640,"담보":10641,"답한</w>":10642,"등급":10643,"로의</w>":10644,"만의</w>":10645,"박세연</w>":10646,"반발</w>":10647,"법정</w>":10648,"산청":10649,"선·":10650,"순방</w>":10651,"알겠습니다.</w>":10652,"엄중":10653,"요란":10654,"유시민":10655,"작업</w>":10656,"제-재배포</w>":10657,"주차":10658,"지상":10659,"체포":10660,"치며</w>":10661,"학과</w>":10662,"해…":10663,"화된</w>":10664,"267":10665,"196":10666,"115":10667,"북한을</w>":10668,"12:4":10669,"후보의</w>":10670,"인사회</w>":10671,"참석자들이</w>":10672,"지원하고</w>":10673,"진행하기로</w>":10674,"대책에</w>":10675,"필요하다는</w>":10676,"들어가":10677,"비판했다.',</w>":10678,",https://news.naver.com/main/read.nhn?mode=LS2D&mid=shm&sid1=100&sid2=266&oid=003&aid=0009636":10679,"공동으로</w>":10680,"시키기</w>":10681,"전망도</w>":10682,"\",연합뉴스,2020.03.03.</w>":10683,"사건의</w>":10684,"바란다\"\"고</w>":10685,"사이버</w>":10686,"분야에서</w>":10687,"국무위원,</w>":10688,"방향을</w>":10689,"중앙재난안전대책본부":10690,"반대하는</w>":10691,"통상일정</w>":10692,"아닌가":10693,",https://news.naver.com/main/read.nhn?mode=LS2D&mid=shm&sid1=100&sid2=269&oid=001&aid=0011438":10694,"고향인</w>":10695,"무단복제-재배포</w>":10696,"서비스(SNS":10697,"9·19</w>":10698,"',뉴스1,2020.03.05.</w>":10699,",더팩트":10700,"2명</w>":10701,"4.":10702,"4,,\"":10703,"]\\n\\t',</w>":10704,"list":10705,"고승민</w>":10706,"김포":10707,"내년도</w>":10708,"눈길을</w>":10709,"대와</w>":10710,"도시</w>":10711,"되,</w>":10712,"뜻으로</w>":10713,"모금":10714,"법정":10715,"서동일</w>":10716,"설계":10717,"속도":10718,"스트</w>":10719,"어쩌":10720,"없고,</w>":10721,"예외":10722,"응원</w>":10723,"의장이</w>":10724,"의장의</w>":10725,"전력을</w>":10726,"정쟁":10727,"주가</w>":10728,"중복":10729,"중심</w>":10730,"지자체</w>":10731,"직시":10732,"참담":10733,"참전":10734,"챙겨":10735,"처분을</w>":10736,"파괴":10737,"파주":10738,"판결":10739,"하다”며</w>":10740,"한별</w>":10741,"협조</w>":10742,"19일</w>":10743,"하겠다”며</w>":10744,"12:1":10745,"대구경북":10746,"146":10747,"으로부터":10748,"아니다라고</w>":10749,"처리하자고</w>":10750,"·경제</w>":10751,"어려움</w>":10752,"특별초청</w>":10753,"기소는</w>":10754,",https://news.naver.com/main/read.nhn?mode=LS2D&mid=shm&sid1=100&sid2=269&oid=082":10755,"통과되고</w>":10756,"입장도</w>":10757,"하나의</w>":10758,"오늘은</w>":10759,"비서관</w>":10760,"참배를</w>":10761,"수도방위사령부</w>":10762,"담화에서</w>":10763,"동아일보":10764,"과거에</w>":10765,"합류한</w>":10766,"김여정이</w>":10767,"think":10768,"카드를</w>":10769,"기존의</w>":10770,"psy5179@news1.,정치,0,2020-03-17</w>":10771,"각계대표</w>":10772,"시나리오":10773,"정미경":10774,"미래지향적</w>":10775,",https://news.naver.com/main/read.nhn?mode=LS2D&mid=shm&sid1=100&sid2=269&oid=082&aid=0000":10776,"think@newsis.com',</w>":10777,",서울신문":10778,"RC":10779,"가질</w>":10780,"갑에서</w>":10781,"강경</w>":10782,"걸로</w>":10783,"공세":10784,"관여":10785,"니,</w>":10786,"당규":10787,"동생</w>":10788,"되게</w>":10789,"리면</w>":10790,"리라</w>":10791,"만원을</w>":10792,"미리":10793,"보궐":10794,"사전에</w>":10795,"상식":10796,"설명</w>":10797,"소회와</w>":10798,"승격":10799,"올렸":10800,"임관</w>":10801,"장비</w>":10802,"조율":10803,"증명":10804,"참조":10805,"천명":10806,"친구":10807,"판정":10808,"하면,</w>":10809,"험지":10810,"흘러":10811,"국회의원을</w>":10812,"5,\"":10813,"중앙방역대책":10814,"228":10815,".k,정치,":10816,"2020.3.3":10817,"선언하는</w>":10818,",https://news.naver.com/main/read.nhn?mode=LS2D&mid=shm&sid1=100&sid2=264&oid=003&aid=0009635":10819,",https://news.naver.com/main/read.nhn?mode=LS2D&mid=shm&sid1=100&sid2=264&oid=003&aid=0009634":10820,"기소했다.</w>":10821,"언급이</w>":10822,"이어가":10823,"이뤄지고</w>":10824,"정권은</w>":10825,".0,2.0,1.0</w>":10826,"강력하게</w>":10827,"배제할</w>":10828,"국회의장":10829,"표명했다.</w>":10830,"한선교":10831,"초대형":10832,"%)에서</w>":10833,"되살려":10834,"균형을</w>":10835,",https://news.naver.com/main/read.nhn?mode=LS2D&mid=shm&sid1=100&sid2=265&oid=018&aid=000459":10836,",https://news.naver.com/main/read.nhn?mode=LS2D&mid=shm&sid1=100&sid2=269&oid=079&aid=0003":10837,"민중당</w>":10838,"'윤</w>":10839,"'2020년</w>":10840,",조선":10841,"13.0,":10842,"3,,\"":10843,"@seoul":10844,"ch":10845,"jh":10846,"가격</w>":10847,"개별</w>":10848,"곳,</w>":10849,"과반":10850,"구는</w>":10851,"권력을</w>":10852,"기사를</w>":10853,"나.</w>":10854,"낭독":10855,"때마다</w>":10856,"리에</w>":10857,"물리":10858,"박성":10859,"배하는</w>":10860,"별로는</w>":10861,"본다.</w>":10862,"부위원장":10863,"분투":10864,"서산":10865,"실에</w>":10866,"안돼":10867,"않느냐":10868,"어든</w>":10869,"여지를</w>":10870,"유입</w>":10871,"을),</w>":10872,"인용":10873,"인증":10874,"있으나</w>":10875,"전화를</w>":10876,"정태":10877,"종료</w>":10878,"지속</w>":10879,"추적</w>":10880,"측근</w>":10881,"통계":10882,"트,</w>":10883,"학군단</w>":10884,"한층</w>":10885,"항공</w>":10886,"행정</w>":10887,"확충</w>":10888,"\"\"이번</w>":10889,"지역에서는</w>":10890,"인사들과의</w>":10891,"180":10892,"하기는</w>":10893,"지원할</w>":10894,"'[저작권자(c)</w>":10895,"발사했다.</w>":10896,"아니고</w>":10897,"진행됐다.</w>":10898,"확진자":10899,"의료인력</w>":10900,"���</w>":10901,"임명된</w>":10902,"마스크와</w>":10903,"자신들의</w>":10904,"국제사회의</w>":10905,"시아,</w>":10906,"세력과</w>":10907,"했다\",정치,0,2020-03-17</w>":10908,"2.9":10909,"상태로</w>":10910,"참배하고</w>":10911,"인민공화":10912,",정치,행정,2020-03-05,\"":10913,"아무런</w>":10914,"예고했다.</w>":10915,"공식적으로</w>":10916,"아차산</w>":10917,"'[서울=뉴시스]김명원</w>":10918,"전담병원으로</w>":10919,"긴밀한</w>":10920,"여기서</w>":10921,"정기국회</w>":10922,"악수하는</w>":10923,"'코로나19'</w>":10924,"일제히</w>":10925,"재배포금지\\n\\t',</w>":10926,"비슷한</w>":10927,"03:33:":10928,"무더기</w>":10929,"금융소비자":10930,"@kbs.co.kr)',</w>":10931,",,,,,1.0</w>":10932,"'-":10933,"3호</w>":10934,"4일":10935,"[속보]</w>":10936,"n번":10937,"간사가</w>":10938,"갑에는</w>":10939,"거수":10940,"걸어":10941,"계기가</w>":10942,"관건":10943,"관의</w>":10944,"긍정</w>":10945,"기원":10946,"김원장</w>":10947,"놓은</w>":10948,"대결</w>":10949,"도와":10950,"도쿄":10951,"드릴</w>":10952,"면담":10953,"면이</w>":10954,"모스크":10955,"받기</w>":10956,"배치</w>":10957,"부장</w>":10958,"빅텐":10959,"사퇴</w>":10960,"사이에</w>":10961,"세무":10962,"속을</w>":10963,"스가</w>":10964,"시작</w>":10965,"실추":10966,"않으":10967,"업을</w>":10968,"오랜</w>":10969,"자격</w>":10970,"주도한</w>":10971,"진짜</w>":10972,"청문</w>":10973,"충실":10974,"치게</w>":10975,"파적</w>":10976,"폭거":10977,"혹은</w>":10978,"100년의</w>":10979,"국민께서</w>":10980,"\",헤럴드경제":10981,"12:5":10982,"연합뉴스와의</w>":10983,"공천신청자</w>":10984,"관계의</w>":10985,"비례민주당</w>":10986,"국가혁명":10987,"출마한</w>":10988,"정책과</w>":10989,"결정할</w>":10990,"공관위에</w>":10991,"전망된다.</w>":10992,"확대,</w>":10993,"차관은</w>":10994,":40,,\"</w>":10995,":11,,\"</w>":10996,"선택을</w>":10997,"해주길</w>":10998,"지키기</w>":10999,"약속했다.</w>":11000,"대법관</w>":11001,"당직자들이</w>":11002,"서신을</w>":11003,"imnews":11004,"정책조정회의에</w>":11005,"수요를</w>":11006,"민정비서관":11007,"바람직":11008,"발의한</w>":11009,"노동신문이</w>":11010,"공중보건의사</w>":11011,"국정농단</w>":11012,"양양군</w>":11013,"연합뉴,정치,":11014,"국제평화지":11015,"2020.3.3/뉴스1</w>":11016,"국가혁명배당금":11017,");":11018,"221":11019,"[포토]</w>":11020,"us":11021,"·당직자</w>":11022,"◉김원장</w>":11023,"【서울=뉴시스":11024,"것이라":11025,"게도</w>":11026,"그걸</w>":11027,"극단":11028,"김두":11029,"는다고</w>":11030,"대형</w>":11031,"데다</w>":11032,"도려":11033,"동·":11034,"됐을</w>":11035,"뒀다.</w>":11036,"듯이</w>":11037,"말에</w>":11038,"배려":11039,"브를</w>":11040,"사표를</w>":11041,"수입":11042,"수호":11043,"실어":11044,"악용":11045,"앙골":11046,"윤창원</w>":11047,"이스":11048,"인적</w>":11049,"일이":11050,"일하는</w>":11051,"자녀":11052,"자본":11053,"정춘":11054,"처럼":11055,"평론":11056,"폭과</w>":11057,"해군":11058,"협회</w>":11059,"흐름":11060,"\"\"며</w>":11061,"19세</w>":11062,"민주,</w>":11063,"10.0,":11064,"12:3":11065,"사진]":11066,"경제활":11067,"설명하고</w>":11068,"3,\"":11069,"구독하세요":11070,"사람과</w>":11071,",https://news.naver.com/main/read.nhn?mode=LS2D&mid=shm&sid1=100&sid2=267&oid=":11072,"요구한</w>":11073,"79&aid=00033":11074,"것이고,</w>":11075,"정보통신":11076,"협의체":11077,"감사위원":11078,"김여정의</w>":11079,"절차에</w>":11080,"공급이</w>":11081,"밝히는</w>":11082,"진보·":11083,"경자년":11084,"경례하는</w>":11085,"199개</w>":11086,"임대료</w>":11087,"상품권</w>":11088,"공유하고</w>":11089,"계명대</w>":11090,"당정협의에서</w>":11091,"안타까운</w>":11092,"2020.3.2/뉴스1',</w>":11093,"@seoul.co.kr',</w>":11094,"'\\n</w>":11095,"1일":11096,"2발</w>":11097,"3천":11098,"4.0":11099,">',</w>":11100,"WH":11101,"mp":11102,"강조</w>":11103,"건의</w>":11104,"경의를</w>":11105,"공고":11106,"기까지</w>":11107,"까요?</w>":11108,"꾸준":11109,"담고</w>":11110,"대토론":11111,"률은</w>":11112,"마자</w>":11113,"보은":11114,"보며</w>":11115,"부담을</w>":11116,"불투명":11117,"수리":11118,"야말로</w>":11119,"얼굴":11120,"여서</w>":11121,"유사":11122,"유해를</w>":11123,"이가</w>":11124,"이로</w>":11125,"이끈</w>":11126,"인인</w>":11127,"자금을</w>":11128,"장·":11129,"진실":11130,"처분</w>":11131,"초기</w>":11132,"폭행":11133,"화하는</w>":11134,"108":11135,"1,1.0,,,,</w>":11136,"습니다.":11137,"참석하지</w>":11138,"안전해질</w>":11139,"수사가</w>":11140,"추경을</w>":11141,"메시지에</w>":11142,"교육·":11143,"국무총리와</w>":11144,"공정하고</w>":11145,"미사일":11146,"운영을</w>":11147,"일본은</w>":11148,"부산·":11149,"받아야</w>":11150,":37,,\"</w>":11151,"수준으로</w>":11152,"지키고</w>":11153,"부결에</w>":11154,"원칙으로</w>":11155,"보좌진</w>":11156,"대법원":11157,"전국의</w>":11158,"선임기자</w>":11159,"분담금</w>":11160,"정례브리핑에서</w>":11161,"자문위원":11162,"생산업체":11163,"신뢰수준에</w>":11164,"'임":11165,"'▲</w>":11166,"130":11167,"3명</w>":11168,"각을</w>":11169,"거대":11170,"것입니다.',</w>":11171,"경보":11172,"고령":11173,"그나마</w>":11174,"김은":11175,"끄는</w>":11176,"너무":11177,"넘지</w>":11178,"다\",정치,0,2020-03-17</w>":11179,"도입</w>":11180,"돈을</w>":11181,"마련</w>":11182,"면죄":11183,"모집":11184,"무역":11185,"민간의</w>":11186,"보급":11187,"본연의</w>":11188,"분들의</w>":11189,"수용</w>":11190,"승진":11191,"알리는</w>":11192,"야당이</w>":11193,"예정</w>":11194,"은성수</w>":11195,"을을</w>":11196,"자들</w>":11197,"적임":11198,"정체":11199,"정은</w>":11200,"정식</w>":11201,"출근":11202,"커녕</w>":11203,"태도</w>":11204,"표가</w>":11205,"한테</w>":11206,"해명":11207,",,,정치,":11208,",,1.0,":11209,"뉴스의</w>":11210,"198":11211,"한국인":11212,"한국경제</w>":11213,"정당은</w>":11214,"후보와</w>":11215,"중앙위</w>":11216,",https://news.naver.com/main/read.nhn?mode=LS2D&mid=shm&sid1=100&sid2=265&oid=02":11217,"미국행</w>":11218,"발표에</w>":11219,"확진자를</w>":11220,"사실은</w>":11221,"예비후보를</w>":11222,"극복하고</w>":11223,"준비를</w>":11224,":00,,</w>":11225,"비서실장은</w>":11226,"이재민":11227,"시험을</w>":11228,"주한미군":11229,"kysp":11230,"되었다면</w>":11231,"정치권의</w>":11232,"구독(클\",정치,":11233,"신속대응팀은</w>":11234,",https://news.naver.com/main/read.nhn?mode=LS2D&mid=shm&sid1=100&sid2=265&oid=421&aid=0004388":11235,"지사의</w>":11236,"근거가</w>":11237,"김미희</w>":11238,",정치,북한,2020-01-02,\"":11239,"자발적으로</w>":11240,"자랑스럽":11241,"'photo@newsis.com',</w>":11242,"취약계층":11243,"화력타격훈련을</w>":11244,"나아가고자</w>":11245,"다탄두</w>":11246,"날치기</w>":11247,"lanet":11248,"kysplanet":11249,"'고</w>":11250,"'진</w>":11251,"(5":11252,"(경기</w>":11253,"1위를</w>":11254,"235":11255,"2명,</w>":11256,">\\xa0":11257,"VO":11258,"el":11259,"같습니다.</w>":11260,"경로":11261,"고조":11262,"구축</w>":11263,"구,정치,0,2020-03-17</w>":11264,"길에</w>":11265,"내각</w>":11266,"데도</w>":11267,"명에게</w>":11268,"모자":11269,"묻지</w>":11270,"박탈":11271,"분들은</w>":11272,"불발":11273,"삼은</w>":11274,"았다고</w>":11275,"장진영</w>":11276,"적격":11277,"전술":11278,"제6":11279,"조7000":11280,"지킬</w>":11281,"차질":11282,"추후</w>":11283,"충북도":11284,"탈당</w>":11285,"피의":11286,"하니</w>":11287,"\\n\\t</w>":11288,"청와대와</w>":11289,"관리를</w>":11290,"'\\n\\t']\",정치,3,2020-03-16</w>":11291,"진행할</w>":11292,"구독신청":11293,"군사연습":11294,",정치,정치일반,2020-01-02,\"[":11295,"결정은</w>":11296,"예정인</w>":11297,"강화하고</w>":11298,"사업은</w>":11299,"이뤄낼</w>":11300,"면접이</w>":11301,"오늘부터</w>":11302,"선거구는</w>":11303,"사건과</w>":11304,"심판을</w>":11305,"정확히</w>":11306,"총회장의</w>":11307,":16,,</w>":11308,"분명한</w>":11309,"한미연합사령부</w>":11310,"고용노동":11311,"기본소득":11312,"것인가":11313,"자세로</w>":11314,"국가안보전략":11315,"현황을</w>":11316,"반박했다.</w>":11317,"조금씩</w>":11318,"마찬가지로</w>":11319,"국민소통수석은</w>":11320,"주권자전":11321,"Copyrights\",정치,":11322,".go.kr":11323,"위원회-최고위원회</w>":11324,"으로부터의</w>":11325,"'◉김원장</w>":11326,",매일신문":11327,"/연합뉴스</w>":11328,"5년</w>":11329,"SK":11330,"ron":11331,"‘새로운</w>":11332,"【장관":11333,"개학</w>":11334,"것”</w>":11335,"것임을</w>":11336,"고심":11337,"고향</w>":11338,"구룡":11339,"달성":11340,"드디어</w>":11341,"마치</w>":11342,"무조건</w>":11343,"비가</w>":11344,"사죄":11345,"상주":11346,"성금</w>":11347,"성금을</w>":11348,"속수":11349,"시선":11350,"신산업":11351,"신산업</w>":11352,"아쉬":11353,"에겐</w>":11354,"의안과</w>":11355,"이승":11356,"입장이</w>":11357,"잡는</w>":11358,"정하고</w>":11359,"조절":11360,"종사":11361,"채택</w>":11362,"출발</w>":11363,"취하는</w>":11364,"토대로</w>":11365,"프트":11366,"화상으로</w>":11367,"확대를</w>":11368,"회기</w>":11369,"회동</w>":11370,"후에</w>":11371,"ine":11372,"뉴스가</w>":11373,"'\\n\\t\\n\\t</w>":11374,"11:00</w>":11375,"12,2020-03-17</w>":11376,"외교통일":11377,"국무조정":11378,"원내대표의</w>":11379,"총리의</w>":11380,"금지]\\n\\t',</w>":11381,"보수대통합":11382,"예산결산":11383,"추경에</w>":11384,"시간은</w>":11385,"논의하기</w>":11386,"간담회에서</w>":11387,"일본을</w>":11388,"마련해</w>":11389,"고위당국자는</w>":11390,"해주기</w>":11391,"경우가</w>":11392,"응답은</w>":11393,"진보진영</w>":11394,",https://news.naver.com/main/read.nhn?mode=LS2D&mid=shm&sid1=100&sid2=269&oid=055&aid=0000":11395,":50,,,,,</w>":11396,"예고한</w>":11397,"파악하고</w>":11398,"(왼쪽)</w>":11399,"출발한</w>":11400,"머니S포토]</w>":11401,"구독하기]',</w>":11402,"기구(":11403,"입국금지를</w>":11404,"차이가</w>":11405,"이란,</w>":11406,"가슴에</w>":11407,"아파트</w>":11408,"4.15</w>":11409,"진심으로</w>":11410,"【장관】":11411,"속수무":11412,"!…":11413,"%는</w>":11414,"'i":11415,"'매":11416,"'\\t\\t":11417,"(경남</w>":11418,",경향신문":11419,".im":11420,"1+":11421,"336":11422,"4,,,1.0,,</w>":11423,"ji":11424,"ⓒ경제를</w>":11425,"강행</w>":11426,"거나,</w>":11427,"김남":11428,"나면</w>":11429,"나이지":11430,"남한":11431,"남조선</w>":11432,"대운</w>":11433,"대국민</w>":11434,"돌이</w>":11435,"동향을</w>":11436,"드링":11437,"랍에":11438,"면한</w>":11439,"명단을</w>":11440,"무상":11441,"문이</w>":11442,"민,</w>":11443,"반대로</w>":11444,"버렸":11445,"상에서</w>":11446,"새겨":11447,"소름</w>":11448,"송옥":11449,"시의</w>":11450,"아랍에":11451,"영어":11452,"올라</w>":11453,"와!</w>":11454,"원활":11455,"이들을</w>":11456,"입당한</w>":11457,"재테크</w>":11458,"주년</w>":11459,"중지":11460,"쫙!</w>":11461,"초당적</w>":11462,"축하</w>":11463,"킷!',</w>":11464,"판단</w>":11465,"1920년</w>":11466,"국회선진화":11467,"영상으로</w>":11468,"lass":11469,"정당으로</w>":11470,"감염이</w>":11471,"중앙교육":11472,"18일</w>":11473,"정책이</w>":11474,"생각한다\"\"고</w>":11475,"지도부에</w>":11476,"특별한</w>":11477,"주장에</w>":11478,"이어가고</w>":11479,"통과된</w>":11480,"확인하기',</w>":11481,"안보,</w>":11482,"부산시</w>":11483,"'<ⓒ경제를</w>":11484,"공직선거":11485,"발생하고</w>":11486,"비례대표를</w>":11487,"대구시당":11488,"민식이법은</w>":11489,"당정청":11490,"규정하고</w>":11491,"아이뉴스":11492,"3개월":11493,"일정으로</w>":11494,"없어…":11495,"누구를</w>":11496,"끌어들":11497,"자동차":11498,"김명섭</w>":11499,"프레시":11500,",머니투데이,2020.03.05.</w>":11501,"장애인</w>":11502,"악수하고</w>":11503,"배포금지>\\n\\t',</w>":11504,"\"\"[서울=뉴시스]</w>":11505,"드루와!</w>":11506,"드링킷!',</w>":11507,"'심</w>":11508,"'조선":11509,",MBN":11510,"404":11511,"6,2020-03-16</w>":11512,"GO":11513,"MI":11514,"mk":11515,"가평":11516,"각국의</w>":11517,"개정</w>":11518,"걸린</w>":11519,"것…":11520,"고도":11521,"기면서</w>":11522,"깨끗":11523,"넘은</w>":11524,"농업":11525,"단순":11526,"답변</w>":11527,"던진</w>":11528,"도중</w>":11529,"말아야</w>":11530,"미치는</w>":11531,"반하":11532,"변혁</w>":11533,"보태":11534,"봉쇄</w>":11535,"분수":11536,"상향</w>":11537,"생태":11538,"세웠다.</w>":11539,"실제":11540,"아름":11541,"았습니다.</w>":11542,"얘기가</w>":11543,"여는</w>":11544,"있으":11545,"자율":11546,"장군</w>":11547,"적폐":11548,"적반하":11549,"전담</w>":11550,"전부터</w>":11551,"제출</w>":11552,"조기":11553,"조세":11554,"주를</w>":11555,"준수":11556,"지냈":11557,"차트',</w>":11558,"충남":11559,"취지에</w>":11560,"카타":11561,"탑재":11562,"테러":11563,"포함</w>":11564,"학과":11565,"해경청":11566,"했었다.</w>":11567,"현황</w>":11568,"00:37":11569,"\"\"마스크</w>":11570,"\"\"지금</w>":11571,"의원인</w>":11572,"대통령,뉴시스,2020.03.03.</w>":11573,"3:02":11574,"\",서울경제":11575,"선거권이</w>":11576,"지역과</w>":11577,"중앙당":11578,"한국당과</w>":11579,"'[ⓒ</w>":11580,"관리에</w>":11581,"아니라는</w>":11582,"선언…":11583,"조선민주주의":11584,"의료기관</w>":11585,"사실과</w>":11586,",정치,청와대,2020-01-01,\"":11587,"기념식을</w>":11588,"요구하고</w>":11589,",https://news.naver.com/main/read.nhn?mode=LS2D&mid=shm&sid1=100&sid2=269&oid=003&aid=0009733":11590,"극복해</w>":11591,"세계적으로</w>":11592,"있었다고</w>":11593,"공직자</w>":11594,"과정에</w>":11595,"희망하는</w>":11596,"기준에</w>":11597,"제1부부장</w>":11598,"sow":11599,"국무위원들":11600,"장교들이</w>":11601,"”,KBS":11602,"지지율은</w>":11603,"떨어뜨":11604,"연수원</w>":11605,"추정되는</w>":11606,"방호복을</w>":11607,"시급한</w>":11608,"\",이데일리,2020.03.05.</w>":11609,"\"\"▶네이버</w>":11610,"고등군사법":11611,"선제적</w>":11612,",https://news.naver.com/main/read.nhn?mode=LS2D&mid=shm&sid1=100&sid2=266&oid=018&aid=000458":11613,",https://news.naver.com/main/read.nhn?mode=LS2D&mid=shm&sid1=100&sid2=269&oid=417&aid=000051":11614,"터미널</w>":11615,"홍준표·김태":11616,"검색!…":11617,"컷오프(공천배제":11618,"국정기획상황실":11619,"@kyunghyang.c\",정치,":11620,"조선민주주의인민공화":11621,"검색!…실시간</w>":11622,"'◎":11623,"9시":11624,"G)</w>":11625,"”…":11626,"검증</w>":11627,"격히</w>":11628,"고소":11629,"공사를</w>":11630,"관철":11631,"기(":11632,"나옵":11633,"날을</w>":11634,"년,</w>":11635,"됐다”고</w>":11636,"되는데</w>":11637,"레드라":11638,"리병":11639,"무료</w>":11640,"반면,</w>":11641,"세대</w>":11642,"수렴":11643,"에너":11644,"원인을</w>":11645,"유예":11646,"유족":11647,"윤갑":11648,"의가</w>":11649,"의도를</w>":11650,"인공지":11651,"있다.\"\",</w>":11652,"장소에서</w>":11653,"전,</w>":11654,"전원</w>":11655,"정회":11656,"정과</w>":11657,"조국":11658,"중증</w>":11659,"지분":11660,"지하":11661,"축사를</w>":11662,"출국</w>":11663,"치르":11664,"친박</w>":11665,"텃밭":11666,"한상":11667,"합참</w>":11668,"했으나,</w>":11669,"협치":11670,"한국일보</w>":11671,"위원장실에서</w>":11672,"다\"\"는</w>":11673,"판단하고</w>":11674,"03:24":11675,"조치사항을</w>":11676,"출마가</w>":11677,"진행했다.</w>":11678,"정의선</w>":11679,"중국이</w>":11680,"민생을</w>":11681,"공개된</w>":11682,"최고위원회의(":11683,"이해찬":11684,"국민의당에</w>":11685,"국군화생방":11686,"법안의</w>":11687,"않았지만</w>":11688,"단체가</w>":11689,"김형오":11690,",https://news.naver.com/main/read.nhn?mode=LS2D&mid=shm&sid1=100&sid2=266&oid=003&aid=0009736":11691,"1주일</w>":11692,"규모가</w>":11693,"TV조선":11694,"정신이</w>":11695,"마이크</w>":11696,"넘어갈</w>":11697,":41,,\"['\\n\\t',</w>":11698,"이사장은</w>":11699,"것인지</w>":11700,"ssmm":11701,"선전선동":11702,",https://news.naver.com/main/read.nhn?mode=LS2D&mid=shm&sid1=100&sid2=269&oid=056&aid=0010778":11703,"@heraldcorp.com',</w>":11704,"1년여":11705,"들었던</w>":11706,"벌어진</w>":11707,"경영안정":11708,",노컷뉴스,2020.01.02.</w>":11709,"올림픽":11710,"조선중앙TV가</w>":11711,"유리한</w>":11712,"코로나19재난안전대책위원회-최고위원회</w>":11713,"김한표</w>":11714,"보복성</w>":11715,"김순례</w>":11716,"도려내는</w>":11717,"구룡마":11718,"아랍에미리":11719,"'◎\\xa0":11720,"'강</w>":11721,"'통합당</w>":11722,"'컷오프":11723,"(재":11724,"219":11725,"3일":11726,"3차</w>":11727,"6.0</w>":11728,"“정부는</w>":11729,"靑,</w>":11730,"가로</w>":11731,"같다며</w>":11732,"거리는</w>":11733,"경영</w>":11734,"관생도</w>":11735,"교착</w>":11736,"구광":11737,"군(":11738,"군내</w>":11739,"그것은</w>":11740,"기한을</w>":11741,"김준":11742,"남긴</w>":11743,"노골":11744,"릴레":11745,"무소속으로</w>":11746,"민의</w>":11747,"민심을</w>":11748,"바도":11749,"보강":11750,"본인</w>":11751,"부위원장</w>":11752,"북핵":11753,"살바도":11754,"새벽</w>":11755,"쇄신":11756,"싸움을</w>":11757,"야당은</w>":11758,"엘살바도":11759,"요?":11760,"용서":11761,"음이</w>":11762,"일한</w>":11763,"일명</w>":11764,"장악":11765,"장인</w>":11766,"적립":11767,"제도가</w>":11768,"졌다고</w>":11769,"중간":11770,"증폭":11771,"투를</w>":11772,"하명":11773,"해주시":11774,"해군은</w>":11775,"허위</w>":11776,"혜영":11777,"회복</w>":11778,"대통령,연합뉴스,2020.03.02.</w>":11779,"서울시장</w>":11780,"국무위원장은</w>":11781,"']',</w>":11782,"지원한</w>":11783,"160":11784,"설명했습니다.</w>":11785,"\\xa0>\\xa0":11786,"처리하는</w>":11787,"의료원</w>":11788,"들어서고</w>":11789,"평화는</w>":11790,"40여일</w>":11791,"예산안을</w>":11792,"조정될</w>":11793,"훈련은</w>":11794,"재난과</w>":11795,"세계일보":11796,"전체가</w>":11797,"지금의</w>":11798,"확대하는</w>":11799,"않는다며</w>":11800,"파이낸셜뉴스]</w>":11801,"인민이</w>":11802,",https://news.naver.com/main/read.nhn?mode=LS2D&mid=shm&sid1=100&sid2=264&oid=001&aid=0011311":11803,"연동형":11804,"보여준</w>":11805,"김태형</w>":11806,"의료진과</w>":11807,",https://news.naver.com/main/read.nhn?mode=LS2D&mid=shm&sid1=100&sid2=269&oid=022&aid=00034":11808,"김용범</w>":11809,"표현을</w>":11810,"오늘(5":11811,"기반이</w>":11812,"UAE</w>":11813,"국군대전병원을</w>":11814,"bc.co.kr)',</w>":11815,"흥해읍</w>":11816,"취약계층</w>":11817,"카자흐스탄</w>":11818,"동양대</w>":11819,"일종의</w>":11820,"권은희":11821,"감옥에</w>":11822,"동반자</w>":11823,"이로써</w>":11824,"&',</w>":11825,"'안":11826,"'안철수</w>":11827,"'MBC',</w>":11828,"'Copyright(c)</w>":11829,"'&',</w>":11830,".\\n\\t',</w>":11831,"1번":11832,"2차":11833,"320":11834,"317":11835,"3,정치,정치일반,2020-03-05,":11836,"IM":11837,"U-2":11838,"[MBC":11839,"갑자기</w>":11840,"구청":11841,"그에</w>":11842,"남양":11843,"늘고</w>":11844,"당헌":11845,"돼서</w>":11846,"력과</w>":11847,"만은</w>":11848,"매를</w>":11849,"목포</w>":11850,"방식을</w>":11851,"부정부":11852,"성은</w>":11853,"세기</w>":11854,"세우고</w>":11855,"소득</w>":11856,"수습":11857,"알리":11858,"았던</w>":11859,"엠빅":11860,"용감":11861,"유예</w>":11862,"인질":11863,"임무</w>":11864,"자부":11865,"작년":11866,"전역":11867,"지구</w>":11868,"크,</w>":11869,"크다.</w>":11870,"한다</w>":11871,"혜택":11872,"후속</w>":11873,"11,2020-03-17</w>":11874,"3:2":11875,"장관,연합뉴스,2020.01.02.</w>":11876,"판단했다.</w>":11877,"보내는</w>":11878,"기다리고</w>":11879,"379":11880,"아니었":11881,"발표된</w>":11882,",연합뉴스TV":11883,"369":11884,",정치,정치일반,2020-03-02,미래통합당</w>":11885,",정치,국방/외교,2020-01-01,":11886,"예비후보자</w>":11887,"보도자료를</w>":11888,"photo@news1.,정치,0,2020-03-17</w>":11889,"지역구로</w>":11890,"전체를</w>":11891,"중단할</w>":11892,"주민들의</w>":11893,":19,,</w>":11894,"'이와</w>":11895,"탄도미사일로</w>":11896,"여상기</w>":11897,"만들어야</w>":11898,"등록한</w>":11899,"다음날</w>":11900,"이름으로</w>":11901,"이주영</w>":11902,"김의겸":11903,"김여정은</w>":11904,"경증환자</w>":11905,"bc.com)</w>":11906,"내다봤다.</w>":11907,"@hankookilbo.c\",정치,":11908,"서울중앙지검":11909,"119&aid=000238":11910,"구속영":11911,"기재부</w>":11912,"reserved":11913,"은평구</w>":11914,"(https://imnews":11915,"초치해</w>":11916,"판문점</w>":11917,"착취물</w>":11918,"(속보)":11919,"부연했다.</w>":11920,"꾸준히</w>":11921,"부산·울산":11922,"'iMBC',</w>":11923,".imbc.com)</w>":11924,"[MBC뉴스]</w>":11925,"reserved.\\n\\t',</w>":11926,"(https://imnews.imbc.com)</w>":11927,"%…":11928,"'◇</w>":11929,"327":11930,"8,,\"":11931,"</":11932,"’라고</w>":11933,"겠다”며</w>":11934,"경쟁</w>":11935,"균형</w>":11936,"그었다.</w>":11937,"론이</w>":11938,"막고</w>":11939,"방해</w>":11940,"배우":11941,"법치":11942,"분열</w>":11943,"비중":11944,"상관":11945,"상가</w>":11946,"상당</w>":11947,"수한</w>":11948,"스를</w>":11949,"시흥":11950,"열린":11951,"음에</w>":11952,"이산":11953,"전격</w>":11954,"점검</w>":11955,"정,</w>":11956,"중동":11957,"초기":11958,"촬영":11959,"추세":11960,"축의</w>":11961,"치르게</w>":11962,"특위":11963,"하는지</w>":11964,"하세요</w>":11965,"호국":11966,"정치적으로</w>":11967,"\"\"\\'":11968,"10년</w>":11969,":53,":11970,"\",KBS":11971,"기자]":11972,"여의치</w>":11973,"인사들의</w>":11974,"2020.02.":11975,"184":11976,"2019.":11977,"입국절차를</w>":11978,"들어오는</w>":11979,"예정됐던</w>":11980,"23:01":11981,"시민을</w>":11982,"훈련이</w>":11983,"기소를</w>":11984,"13,2020-03-17</w>":11985,"통과시키":11986,"지역구에서</w>":11987,"독립군</w>":11988,"간호사</w>":11989,"참여하는</w>":11990,"유지하는</w>":11991,"신천지의</w>":11992,"대사와</w>":11993,"밝히지</w>":11994,"헤럴드</w>":11995,"출신의</w>":11996,"담화에</w>":11997,":29,,\"</w>":11998,"언론에</w>":11999,"최소한의</w>":12000,"새누리당":12001,",https://news.naver.com/main/read.nhn?mode=LS2D&mid=shm&sid1=100&sid2=269&oid=001&aid=0011450":12002,"백두혈":12003,",정치,국방/외교,2020-01-02,\"":12004,"개별관광</w>":12005,"김재원</w>":12006,"절실한</w>":12007,"강남구</w>":12008,"\\r\\n\\r\\n":12009,"현충탑을</w>":12010,"인프라</w>":12011,"성취가</w>":12012,"biz.com,</w>":12013,"프로젝트":12014,"heraldbiz.com,</w>":12015,"정동영</w>":12016,"디지털타임스":12017,"'\\t\\t[',</w>":12018,"'박</w>":12019,"1차":12020,"2명이</w>":12021,"8.0,,</w>":12022,"9.0,,</w>":12023,"SO":12024,"hw":12025,"yo":12026,"가게</w>":12027,"갈등</w>":12028,"갑)</w>":12029,"강릉":12030,"갖는</w>":12031,"건의":12032,"경로를</w>":12033,"권의</w>":12034,"금리</w>":12035,"김광":12036,"까.</w>":12037,"늦어":12038,"다녀":12039,"다니":12040,"더라":12041,"동시":12042,"두려":12043,"든든":12044,"또,</w>":12045,"률을</w>":12046,"막지</w>":12047,"말라":12048,"맞춤":12049,"면밀":12050,"무력</w>":12051,"벗고</w>":12052,"보스":12053,"보시":12054,"사흘":12055,"사흘</w>":12056,"성찰":12057,"성장과</w>":12058,"실장이</w>":12059,"운명을</w>":12060,"이명":12061,"인상":12062,"잡고</w>":12063,"적십자":12064,"정진":12065,"제원</w>":12066,"조경":12067,"청이</w>":12068,"청사로</w>":12069,"투입</w>":12070,"하다가</w>":12071,"형을</w>":12072,"107":12073,"국민권익":12074,"정당과</w>":12075,"강조했습니다.',</w>":12076,"사람의</w>":12077,"지도부의</w>":12078,"대상자</w>":12079,"주장하는</w>":12080,"교육과</w>":12081,"요청할</w>":12082,"조사에</w>":12083,"데일리</w>":12084,"전체회의를</w>":12085,"상태에서</w>":12086,"합의했다.</w>":12087,"이유를</w>":12088,"달라”고</w>":12089,"중도층</w>":12090,"주재하는</w>":12091,"대사관과</w>":12092,"투표를</w>":12093,"심사에</w>":12094,"현재의</w>":12095,"등록을</w>":12096,"없었다고</w>":12097,"일각에서</w>":12098,"정부세종청사</w>":12099,"공식화":12100,"가까이</w>":12101,"화력전투":12102,"비핵화는</w>":12103,"보유하게</w>":12104,"lee":12105,"압수수색</w>":12106,"대선주":12107,",정치,청와대,2020-01-02,\"문</w>":12108,"@hankookilbo.com',</w>":12109,"@mbc.co.kr)',</w>":12110,"대법관에게</w>":12111,"에어팟</w>":12112,"금강산</w>":12113,"초·중·":12114,"꿈꾸는</w>":12115,"'ⓒ":12116,"'원":12117,"'정치,</w>":12118,"(신천지":12119,"239":12120,"328":12121,"3,,,1.0,,</w>":12122,"5명</w>":12123,"7천":12124,"8시</w>":12125,"Co":12126,"“안</w>":12127,"감수":12128,"갑에서는</w>":12129,"강성":12130,"개학":12131,"것,</w>":12132,"관할":12133,"극히</w>":12134,"기반</w>":12135,"끝날</w>":12136,"날아":12137,"노래":12138,"단,</w>":12139,"달콤":12140,"더는</w>":12141,"됨에</w>":12142,"력에</w>":12143,"말까지</w>":12144,"미흡":12145,"받는다.</w>":12146,"백악":12147,"버티":12148,"본격</w>":12149,"불과</w>":12150,"비리":12151,"비호":12152,"비교섭단체</w>":12153,"상용":12154,"생명":12155,"세상에</w>":12156,"속도가</w>":12157,"스위":12158,"스티":12159,"아침</w>":12160,"없다</w>":12161,"오차</w>":12162,"운수사":12163,"원천":12164,"유죄":12165,"인다.</w>":12166,"작전을</w>":12167,"조달":12168,"중기":12169,"중대</w>":12170,"집행</w>":12171,"최룡":12172,"품·":12173,"한-":12174,"한지</w>":12175,"합류</w>":12176,"화에</w>":12177,"활발":12178,"휴대전":12179,"266":12180,"11.0,":12181,"3:15":12182,"3:49":12183,"후보도</w>":12184,"04:40":12185,"보내왔":12186,"인사청문</w>":12187,"03:59":12188,"14F":12189,"국방부":12190,"158":12191,"168":12192,"관리가</w>":12193,"380":12194,"신년회":12195,"50%</w>":12196,"공관위원장은</w>":12197,"보건용</w>":12198,"예비후보의</w>":12199,",https://news.naver.com/main/read.nhn?mode=LS2D&mid=shm&sid1=100&sid2=268&oid=":12200,"미래통합당,</w>":12201,"있었고,</w>":12202,"임관한</w>":12203,"에서다.</w>":12204,"중요성을</w>":12205,"합의가</w>":12206,"ont":12207,"사무처":12208,"차관,</w>":12209,"중도·":12210,":21,,\"</w>":12211,"04:50":12212,":39,,\"</w>":12213,"긴급관계부처</w>":12214,"응답이</w>":12215,",정치,정치일반,2020-01-02,\"문</w>":12216,"지시한</w>":12217,"무리한</w>":12218,"야당에</w>":12219,"관광객</w>":12220,"분야를</w>":12221,"이탈리아</w>":12222,"도발에</w>":12223,"아닌지</w>":12224,"장비를</w>":12225,"높아지고</w>":12226,"국면에서</w>":12227,",정치,북한,2020-03-04,\"":12228,"움직임이</w>":12229,"입국제한을</w>":12230,"YTN</w>":12231,"리더십":12232,"김대중</w>":12233,"열망으로</w>":12234,"629&aid=0000017":12235,"금융소비자보호":12236,"ssmm99@newsis.com',</w>":12237,"오늘(5일)</w>":12238,"'황교안</w>":12239,"'민주당은</w>":12240,"'매일경제":12241,"(서울</w>":12242,"1,정치,정치일반,2020-03-05,":12243,"1일부터</w>":12244,"230":12245,"326":12246,"4.6":12247,"5월":12248,"527":12249,"800":12250,"9월":12251,"같다”고</w>":12252,"거죠.</w>":12253,"경에</w>":12254,"경보</w>":12255,"교인</w>":12256,"구역</w>":12257,"구\",정치,0,2020-03-17</w>":12258,"국방</w>":12259,"내리</w>":12260,"늦어도</w>":12261,"니아,</w>":12262,"대피":12263,"대처</w>":12264,"독일</w>":12265,"동,</w>":12266,"뚫고</w>":12267,"만원":12268,"말해</w>":12269,"매진":12270,"물품</w>":12271,"박형":12272,"봤을</w>":12273,"부모</w>":12274,"사기</w>":12275,"성실":12276,"심도는</w>":12277,"싸우고</w>":12278,"아닙":12279,"얻고</w>":12280,"업법</w>":12281,"연루":12282,"유입":12283,"을로</w>":12284,"의정":12285,"의장,</w>":12286,"의도로</w>":12287,"이것이</w>":12288,"익산":12289,"자라고</w>":12290,"작가":12291,"표했다.</w>":12292,"하면서":12293,"확고":12294,"19:21":12295,"의원님":12296,"3:21":12297,"3:09":12298,"10명</w>":12299,"정당들이</w>":12300,"04:38":12301,"04:39":12302,"04:37":12303,"287":12304,"조치와</w>":12305,"미국으로</w>":12306,"진행되는</w>":12307,"\\'를</w>":12308,"결정한</w>":12309,",https://news.naver.com/main/read.nhn?mode=LS2D&mid=shm&sid1=100&sid2=266&oid=001&aid=0011":12310,"추진하겠다고</w>":12311,"언급하지</w>":12312,"모습이다.</w>":12313,"포함된</w>":12314,"간담회</w>":12315,"2.0,,1.0</w>":12316,"참여할</w>":12317,"대구시청":12318,"검사와</w>":12319,"현실화":12320,"&oid=018&aid=000458":12321,"발전의</w>":12322,"전국에서</w>":12323,"하라”고</w>":12324,"시계를</w>":12325,"기득권을</w>":12326,"해왔던</w>":12327,"정상회담을</w>":12328,"채널에서</w>":12329,"SNS에</w>":12330,"위성정당인</w>":12331,"경험이</w>":12332,"합참은</w>":12333,"20&aid=000326":12334,"바이든":12335,"'\\n\\t']\",사회,0,2020-03-16</w>":12336,",https://news.naver.com/main/read.nhn?mode=LS2D&mid=shm&sid1=100&sid2=269&oid=214&aid=0001018":12337,"증거장막성전":12338,"'뉴":12339,"1조":12340,"1명</w>":12341,"334":12342,"간곡":12343,"갈등을</w>":12344,"거기":12345,"결단을</w>":12346,"경과</w>":12347,"계단</w>":12348,"공단</w>":12349,"광복":12350,"광산":12351,"구현":12352,"그야말로</w>":12353,"금의</w>":12354,"끊임":12355,"다수의</w>":12356,"단단":12357,"당도</w>":12358,"되길</w>":12359,"뒤늦게</w>":12360,"로이":12361,"마음</w>":12362,"만으로는</w>":12363,"못하면</w>":12364,"무거운</w>":12365,"방에</w>":12366,"부통":12367,"부정</w>":12368,"비용</w>":12369,"빈틈":12370,"사상":12371,"상세":12372,"성원":12373,"수(":12374,"수준</w>":12375,"악재":12376,"연장</w>":12377,"올리고</w>":12378,"워야</w>":12379,"원자":12380,"원정":12381,"일에도</w>":12382,"축사":12383,"치한</w>":12384,"통상</w>":12385,"트를</w>":12386,"하위</w>":12387,"하면서,</w>":12388,"함이</w>":12389,"해운":12390,"협정":12391,"화가</w>":12392,"2011":12393,"1.5":12394,"04:19":12395,"총리를</w>":12396,"03:50":12397,"03:45":12398,"148":12399,"\\'에</w>":12400,".co.kr,</w>":12401,"돌아오":12402,"경찰은</w>":12403,"3·1운동</w>":12404,"비서실장</w>":12405,"\",연합뉴스,2020.03.02.</w>":12406,"방식,</w>":12407,"본회의(":12408,"산업혁명</w>":12409,"외국인에</w>":12410,":26,,</w>":12411,"작업이</w>":12412,"해주고</w>":12413,"전달했다.</w>":12414,"스럽다고</w>":12415,"이번주</w>":12416,"활용할</w>":12417,"언론은</w>":12418,"대북제재":12419,"개정안과</w>":12420,"번째로</w>":12421,"하라\"\"고</w>":12422,"정무수석":12423,"공항에서</w>":12424,"유은혜":12425,"연합정당에</w>":12426,"회동에서</w>":12427,"보유한</w>":12428,"대대적인</w>":12429,"노동신문,</w>":12430,"'sk":12431,"측근인</w>":12432,"중앙선거관리위원회</w>":12433,"연석회의에서</w>":12434,"수성구</w>":12435,"@donga.c\",정치,":12436,"득표율":12437,"모양새다.</w>":12438,"한마디":12439,"'M":12440,"'황</w>":12441,"234":12442,"2보)":12443,"3만":12444,"4명이</w>":12445,"ne":12446,"o@":12447,"ut":12448,"’이라고</w>":12449,"간격":12450,"거래</w>":12451,"것으로,</w>":12452,"관용":12453,"관저":12454,"그때</w>":12455,"기대</w>":12456,"까지도</w>":12457,"꿈을</w>":12458,"나눠":12459,"나은</w>":12460,"남용":12461,"높다.</w>":12462,"늘리고</w>":12463,"다를</w>":12464,"동포</w>":12465,"듣는</w>":12466,"말라는</w>":12467,"말레이":12468,"모를</w>":12469,"미추":12470,"박민":12471,"배분":12472,"복무</w>":12473,"분들을</w>":12474,"불평":12475,"불확실":12476,"성일":12477,"성인</w>":12478,"신분":12479,"심의</w>":12480,"않고,</w>":12481,"언을</w>":12482,"와도</w>":12483,"이데일리</w>":12484,"인싸":12485,"인트":12486,"일축":12487,"일치":12488,"장면":12489,"저히</w>":12490,"전이</w>":12491,"전달</w>":12492,"전환</w>":12493,"중에는</w>":12494,"착취</w>":12495,"캡처</w>":12496,"콤달콤":12497,"한다\"\"면서</w>":12498,"해줬":12499,"현,</w>":12500,"화재":12501,"획기":12502,"\"\"민주당은</w>":12503,"뉴스레터</w>":12504,"선거사무":12505,"선거운동</w>":12506,"선거개입</w>":12507,"외교장관과</w>":12508,"후보자":12509,"05:37":12510,"04:11":12511,"04:16":12512,"강조하고</w>":12513,"발사는</w>":12514,"감염증(":12515,"총선은</w>":12516,"확진자들이</w>":12517,"개혁이</w>":12518,"구독\"\",</w>":12519,"평화프로세":12520,"·18</w>":12521,"공개로</w>":12522,"신청자들을</w>":12523,"최고위원회의를</w>":12524,"이어지는</w>":12525,"공동대표":12526,"\",뉴시스,2020.03.04.</w>":12527,"\",뉴시스,2020.01.01.</w>":12528,"질문'에서</w>":12529,"\",연합뉴스,2020.03.04.</w>":12530,"이재용</w>":12531,"이동섭</w>":12532,"이야말로</w>":12533,"참여한</w>":12534,"제출할</w>":12535,"매일경제</w>":12536,"제기되고</w>":12537,"여행경보를</w>":12538,"반발하고</w>":12539,"나타났":12540,"드러낸</w>":12541,"계속해서</w>":12542,"공천관리위원회에</w>":12543,"늘어난</w>":12544,"대체역</w>":12545,"것인지에</w>":12546,"존재할</w>":12547,"기사공유하고</w>":12548,"중소기업과</w>":12549,"덧붙였습니다.</w>":12550,"여당인</w>":12551,"국군대구병원":12552,"받아보세요\"\",</w>":12553,"\"\"▶뉴스레터</w>":12554,"\"\"▶기사공유하고</w>":12555,"아세안":12556,"이익을</w>":12557,"위축된</w>":12558,"기정사실":12559,"기후변화에</w>":12560,"마찬가지":12561,"사보임":12562,"코인'\"\",</w>":12563,"코인적립":12564,"거짓말":12565,"재송부</w>":12566,"'매콤달콤":12567,"mk.co.kr,</w>":12568,"'매일경제'를</w>":12569,"'M코인'\"\",</w>":12570,"코인적립하세요</w>":12571,"'매콤달콤'</w>":12572,"'상생</w>":12573,"(http://":12574,"12일</w>":12575,"2년":12576,"2시</w>":12577,"312":12578,"344":12579,"4당</w>":12580,"5선</w>":12581,"5·18</w>":12582,"6000":12583,"7시</w>":12584,"asi":12585,"ur":12586,"·무":12587,"“북한이</w>":12588,"…코로나19</w>":12589,"가입":12590,"가운</w>":12591,"거기에</w>":12592,"계층":12593,"공을</w>":12594,"구조</w>":12595,"나쁜</w>":12596,"남겼다.</w>":12597,"내딛":12598,"냐고</w>":12599,"다하겠다”고</w>":12600,"단원":12601,"단과</w>":12602,"른다.</w>":12603,"문자</w>":12604,"물꼬":12605,"물량</w>":12606,"받으며</w>":12607,"본다고</w>":12608,"부위원장은</w>":12609,"부당한</w>":12610,"세출":12611,"시범":12612,"심사가</w>":12613,"않다며</w>":12614,"양당</w>":12615,"없다면서</w>":12616,"원주시":12617,"이에":12618,"일꾼":12619,"재단</w>":12620,"전방위":12621,"주에</w>":12622,"지분을</w>":12623,"쪽에</w>":12624,"철도":12625,"탓에</w>":12626,"투기</w>":12627,"편이</w>":12628,"홍익":12629,"휴식을</w>":12630,"정치와</w>":12631,"뉴스룸</w>":12632,"국회로</w>":12633,":51,":12634,"장관급</w>":12635,"05:20":12636,"코로나19(신종</w>":12637,"04:20":12638,"03:49":12639,"03:56":12640,"비례민주당":12641,"15,2020-03-17</w>":12642,"발사가</w>":12643,"37&aid=0000":12644,"선언으로</w>":12645,",정치,정치일반,2020-03-02,코로나19</w>":12646,"생각하고</w>":12647,"보수통합":12648,"예정이라며</w>":12649,"요구가</w>":12650,",https://news.naver.com/main/read.nhn?mode=LS2D&mid=shm&sid1=100&sid2=269&oid=003&aid=0009730":12651,"지적도</w>":12652,"대화와</w>":12653,"제1부":12654,"논의하는</w>":12655,"3.0,2.0,":12656,"세계는</w>":12657,"알려져</w>":12658,"인터넷은행</w>":12659,"이뤄졌다.</w>":12660,"검토하는</w>":12661,"9,\"":12662,"대변인을</w>":12663,"60기</w>":12664,"주민들이</w>":12665,"나서야</w>":12666,"시무식에</w>":12667,"그래픽":12668,"비행기</w>":12669,"개발에</w>":12670,",https://news.naver.com/main/read.nhn?mode=LS2D&mid=shm&sid1=100&sid2=269&oid=005&aid=000":12671,"정치권이</w>":12672,"의료진이</w>":12673,",https://news.naver.com/main/read.nhn?mode=LS2D&mid=shm&sid1=100&sid2=269&oid=437&aid=0000":12674,"(왼쪽)과</w>":12675,",https://news.naver.com/main/read.nhn?mode=LS2D&mid=shm&sid1=100&sid2=268&oid=001&aid=001130":12676,"업체에</w>":12677,"국면을</w>":12678,"신년인사회":12679,",이데일리,2020.03.05.</w>":12680,"겨냥해</w>":12681,"체감할</w>":12682,"송파을</w>":12683,"이례적으로</w>":12684,",정치,북한,2020-03-05,\"":12685,"이수진</w>":12686,"드라이브</w>":12687,"베네치":12688,"한중일</w>":12689,"대구·경북(TK)</w>":12690,"파트너":12691,"부산·울산·경남":12692,"운수사업법</w>":12693,"'◎</w>":12694,"'타다</w>":12695,"'kmx1105@newsis.com',</w>":12696,"2조원</w>":12697,"3시</w>":12698,"7.0</w>":12699,"DB</w>":12700,"LG":12701,"·공":12702,"감면":12703,"고가</w>":12704,"구리":12705,"국경을</w>":12706,"그만큼</w>":12707,"극동":12708,"금천":12709,"기류":12710,"기습</w>":12711,"내내</w>":12712,"눈높":12713,"당당":12714,"된다”며</w>":12715,"로가</w>":12716,"무려</w>":12717,"무의미":12718,"문자":12719,"바보":12720,"방어":12721,"방식</w>":12722,"벤처</w>":12723,"병도</w>":12724,"비당권":12725,"상실":12726,"성명":12727,"셔서</w>":12728,"소프트":12729,"솔직":12730,"시계</w>":12731,"아래":12732,"야심":12733,"없이는</w>":12734,"영도</w>":12735,"영향</w>":12736,"오영":12737,"의왕":12738,"의미</w>":12739,"이렇":12740,"제압":12741,"직권":12742,"챙기":12743,"처사":12744,"최지은</w>":12745,"포용":12746,"확정</w>":12747,"회장은</w>":12748,"히로":12749,"한국으로부터의</w>":12750,"215":12751,"3:13":12752,"영상',</w>":12753,"서울신문</w>":12754,"대구의</w>":12755,"05:30":12756,"05:36":12757,"04:12":12758,":14,":12759,"03:44":12760,"03:55":12761,"'[대전":12762,"사회관계":12763,"조치도</w>":12764,"진행해</w>":12765,"진행하는</w>":12766,"발표가</w>":12767,"추경은</w>":12768,"내용에</w>":12769,"국민의례</w>":12770,"\",뉴시스,2020.03.03.</w>":12771,"7,\"":12772,"않았다는</w>":12773,"대변인도</w>":12774,"지정한</w>":12775,":26,,\"</w>":12776,"정신으로</w>":12777,"어렵다는</w>":12778,"대구·경북을</w>":12779,"성과가</w>":12780,"발전과</w>":12781,"한·아세안</w>":12782,"SNS</w>":12783,"과감하게</w>":12784,"검찰총장":12785,"@heraldcorp.c\",정치,0,2020-03-17</w>":12786,"일부개정법률안":12787,"코로나바이러스감염증(코로나19)</w>":12788,"행보에</w>":12789,"--------":12790,"(PK":12791,"권성동</w>":12792,"동대문을</w>":12793,"'하지만</w>":12794,",경제,0,2020-03-17</w>":12795,".,사회,0,2020-03-17</w>":12796,"1일까지</w>":12797,"305":12798,"4대</w>":12799,"6·1":12800,"7,,,1.0,,</w>":12801,"FP":12802,"Re":12803,"간사</w>":12804,"갑수</w>":12805,"개국":12806,"금요":12807,"기생":12808,"김원":12809,"내일(":12810,"넓히":12811,"니다":12812,"또다시</w>":12813,"뜻깊은</w>":12814,"령은</w>":12815,"로마":12816,"박상":12817,"발급</w>":12818,"비루":12819,"샌더":12820,"속으로</w>":12821,"송주":12822,"수상":12823,"시킨":12824,"약속</w>":12825,"여부는</w>":12826,"연예":12827,"였다.',</w>":12828,"올해도</w>":12829,"윤재":12830,"음은</w>":12831,"이다":12832,"이길</w>":12833,"접수</w>":12834,"정원</w>":12835,"졌다는</w>":12836,"중시":12837,"진,</w>":12838,"청사를</w>":12839,"체연":12840,"크로":12841,"패배":12842,"평창":12843,"정치인</w>":12844,"\"\"정부가</w>":12845,"-135":12846,"197":12847,"19:38":12848,"국민적</w>":12849,"05:21":12850,"05:39":12851,"05:29":12852,"05:31":12853,"04:36":12854,":16,":12855,"인사말</w>":12856,"03:58":12857,"03:46":12858,"1500":12859,"지원과</w>":12860,"'[최":12861,"검찰개혁을</w>":12862,"입국하는</w>":12863,"총선기획":12864,"안전보장":12865,"개혁적</w>":12866,"구독',</w>":12867,"구독해주":12868,"군사령":12869,"확산의</w>":12870,"확산되고</w>":12871,",https://news.naver.com/main/read.nhn?mode=LS2D&mid=shm&sid1=100&sid2=268&oid=003&aid=000963":12872,"입장에서</w>":12873,"논의에</w>":12874,"합의에</w>":12875,"확보에</w>":12876,"이유에</w>":12877,"있어서는</w>":12878,"비례대표제의</w>":12879,",https://news.naver.com/main/read.nhn?mode=LS2D&mid=shm&sid1=100&sid2=266&oid=003&aid=0009740":12880,"마음으로</w>":12881,"선택,</w>":12882,"한다',</w>":12883,"지속되고</w>":12884,"발사체의</w>":12885,"자원봉사를</w>":12886,"내려가</w>":12887,"행동은</w>":12888,"이겨내고</w>":12889,"담화는</w>":12890,"정면돌파</w>":12891,"토론을</w>":12892,"답변하고</w>":12893,"오신환":12894,"취약한</w>":12895,"항의하며</w>":12896,"부터는</w>":12897,"투명하게</w>":12898,"여객기</w>":12899,"김일성":12900,",https://news.naver.com/main/read.nhn?mode=LS2D&mid=shm&sid1=100&sid2=268&oid=421&aid=000449":12901,"본격적으로</w>":12902,"박용찬</w>":12903,"권력기관도</w>":12904,"물갈이</w>":12905,"아직까지</w>":12906,"특공대대</w>":12907,"공평한</w>":12908,"이태규</w>":12909,"박범준</w>":12910,"기동민</w>":12911,"몰디브":12912,"케이뱅크":12913,"RC-135":12914,"미추홀":12915,"눈높이에</w>":12916,"'고":12917,"'성공을</w>":12918,"(대구":12919,"(왼쪽</w>":12920,"1명,</w>":12921,"3,정치,정치일반,2020-01-02,":12922,"8.0</w>":12923,"ye":12924,"↑,</w>":12925,"과제</w>":12926,"관심</w>":12927,"규탄":12928,"극심한</w>":12929,"기한":12930,"난관을</w>":12931,"년까지</w>":12932,"단독":12933,"당정</w>":12934,"데이</w>":12935,"도렴":12936,"도움을</w>":12937,"돈컷":12938,"되돌아":12939,"리만":12940,"말했":12941,"명분이</w>":12942,"목표</w>":12943,"밝힐</w>":12944,"법조":12945,"병행":12946,"보류":12947,"부담</w>":12948,"비법</w>":12949,"사직":12950,"세부</w>":12951,"썼다.</w>":12952,"안장":12953,"알아":12954,"약국</w>":12955,"어머니":12956,"위기도</w>":12957,"은,</w>":12958,"의에</w>":12959,"이용</w>":12960,"이걸</w>":12961,"임기는</w>":12962,"있다”면서</w>":12963,"저희</w>":12964,"조사가</w>":12965,"주택</w>":12966,"지게</w>":12967,"지급</w>":12968,"지냈다.</w>":12969,"집계</w>":12970,"촉진</w>":12971,"취하지</w>":12972,"필터":12973,"허리":12974,"환멸":12975,"회장":12976,"후에도</w>":12977,"흥덕</w>":12978,"희칼럼":12979,"20%)</w>":12980,"116":12981,"3:46":12982,"3:01":12983,"회의장</w>":12984,"위원장.</w>":12985,"대구은행</w>":12986,"05:38":12987,"04:3":12988,"04:10":12989,":27,":12990,".0,,4.0,,</w>":12991,"참석해야</w>":12992,"03:48":12993,"03:57":12994,"170":12995,"전략선거구로</w>":12996,"조선족":12997,"생각하는</w>":12998,"23:14":12999,"특별재난":13000,"남북관계를</w>":13001,"지지도</w>":13002,"지역구는</w>":13003,"금지>\"\",</w>":13004,"교수,</w>":13005,"않았지만,</w>":13006,"획정안</w>":13007,"모두의</w>":13008,"안정적</w>":13009,"비례대표제를</w>":13010,",https://news.naver.com/main/read.nhn?mode=LS2D&mid=shm&sid1=100&sid2=266&oid=003&aid=0009737":13011,"적극적</w>":13012,"노컷이</w>":13013,"속보',</w>":13014,"반발이</w>":13015,"대구·경북에</w>":13016,"\",뉴스1,2020.03.01.</w>":13017,"시점에서</w>":13018,"청문보고서</w>":13019,"손학규":13020,"서비스',</w>":13021,"누구도</w>":13022,"정무위원회</w>":13023,",https://news.naver.com/main/read.nhn?mode=LS2D&mid=shm&sid1=100&sid2=265&oid=001&aid=001145":13024,"머니S,</w>":13025,"실질적인</w>":13026,"추정된다.</w>":13027,"관심과</w>":13028,",정치,청와대,2020-03-02,\"":13029,"kkang":13030,"고수들의</w>":13031,"정착을</w>":13032,"자위적</w>":13033,"ae.co.kr',</w>":13034,"이건희칼럼":13035,"십시오":13036,"외롭지</w>":13037,"윤갑근</w>":13038,"인싸들의</w>":13039,"asiae.co.kr',</w>":13040,"도렴동</w>":13041,"돈컷은</w>":13042,"이건희칼럼',</w>":13043,"304":13044,"3분의</w>":13045,"4.0,,1.0,,</w>":13046,"iMBC</w>":13047,"rk":13048,"’도</w>":13049,"美,</w>":13050,"가짜</w>":13051,"개선을</w>":13052,"거부</w>":13053,"건,</w>":13054,"과세":13055,"관료":13056,"국경</w>":13057,"국장,</w>":13058,"굳이</w>":13059,"근간":13060,"김갑수</w>":13061,"날짜":13062,"다져":13063,"달아</w>":13064,"도올</w>":13065,"만든":13066,"명단</w>":13067,"미치":13068,"방법</w>":13069,"법·":13070,"변수가</w>":13071,"복합":13072,"부임":13073,"부문</w>":13074,"분구</w>":13075,"불을</w>":13076,"수송":13077,"시기를</w>":13078,"싶다고</w>":13079,"아꼈":13080,"없지만</w>":13081,"엔진</w>":13082,"열었다.</w>":13083,"였다고</w>":13084,"운반":13085,"유감</w>":13086,"이기고</w>":13087,"인원을</w>":13088,"일지":13089,"자필</w>":13090,"자동</w>":13091,"자국</w>":13092,"제거":13093,"주제":13094,"직전</w>":13095,"차질</w>":13096,"처벌</w>":13097,"체결":13098,"편입":13099,"폭증":13100,"한빛":13101,"후임":13102,"203":13103,".c,정치,":13104,"268":13105,"대통령,뉴시스,2020.03.05.</w>":13106,"11조7000":13107,"10만</w>":13108,"장관,뉴시스,2020.03.05.</w>":13109,"05:26":13110,"05:10":13111,"국무위원회</w>":13112,"04:21":13113,":12,":13114,":15,":13115,"필요하다.</w>":13116,"문제점을</w>":13117,",정치,정치일반,2020-03-02,\"[":13118,"결정과</w>":13119,"보수진영":13120,"제공하는</w>":13121,"이어졌다.</w>":13122,"미래통합당을</w>":13123,"연구기관":13124,"대전환":13125,"한반도에서의</w>":13126,"여론이</w>":13127,"실시했다.</w>":13128,"만들었":13129,"에서)</w>":13130,"신천지와</w>":13131,"3.0,,1.0</w>":13132,"사용할</w>":13133,"이용한</w>":13134,"위해선</w>":13135,":36,,\"</w>":13136,":36,,</w>":13137,"어렵다.</w>":13138,",https://news.naver.com/main/read.nhn?mode=LS2D&mid=shm&sid1=100&sid2=264&oid=001&aid=0011310":13139,"공약으로</w>":13140,"합니다":13141,"노컷뉴스',</w>":13142,",https://news.naver.com/main/read.nhn?mode=LS2D&mid=shm&sid1=100&sid2=268&oid=003&aid=0009738":13143,"선관위에</w>":13144,"받아들일</w>":13145,"천안시":13146,"인력과</w>":13147,"등장한</w>":13148,"구로을</w>":13149,"역학조사</w>":13150,"말씀드릴</w>":13151,"변수로</w>":13152,"32&aid=000298":13153,"리얼미터가</w>":13154,"reserv":13155,"kysplanet@news1.,사회,0,2020-03-17</w>":13156,"VOA":13157,"제6차</w>":13158,"맞춤형</w>":13159,"'[대전=뉴시스]":13160,"'신":13161,"'4+1":13162,"2,,\"":13163,"321":13164,"450":13165,"5,,,1.0,,</w>":13166,"8,2020-03-16</w>":13167,"8000":13168,"8,,,1.0,,</w>":13169,"=뉴스1)</w>":13170,"ate":13171,"min":13172,"·소상공인</w>":13173,"“정부가</w>":13174,"“이제</w>":13175,"가축의</w>":13176,"갑),</w>":13177,"강동":13178,"개편</w>":13179,"거리를</w>":13180,"계파</w>":13181,"꼽히는</w>":13182,"남녀</w>":13183,"넘게</w>":13184,"달아":13185,"대외</w>":13186,"드렸":13187,"력은</w>":13188,"많아":13189,"많았다.</w>":13190,"맞서":13191,"무당":13192,"무기를</w>":13193,"물어":13194,"보유</w>":13195,"복무를</w>":13196,"부한</w>":13197,"비전을</w>":13198,"소송":13199,"수·":13200,"실험</w>":13201,"않기</w>":13202,"얻는</w>":13203,"얻은</w>":13204,"에…":13205,"여지는</w>":13206,"오세":13207,"외환":13208,"원인</w>":13209,"임오":13210,"임재훈</w>":13211,"장정":13212,"차출":13213,"착용</w>":13214,"크리":13215,"편집":13216,"필터</w>":13217,"해체":13218,"현상이</w>":13219,"호텔</w>":13220,"201":13221,"뉴스\"\"',</w>":13222,".0,6.0,":13223,"위원장도</w>":13224,":54,":13225,"지역경제</w>":13226,"밝혔다고</w>":13227,"기자가</w>":13228,"05:11":13229,"04:26":13230,"1.0,1.0,</w>":13231,"'[CBS":13232,"진행되고</w>":13233,"안전과</w>":13234,"정의당·":13235,"25일부터</w>":13236,"확산과</w>":13237,"확산되는</w>":13238,"기념사</w>":13239,"특별법</w>":13240,"기업과</w>":13241,"입장하는</w>":13242,"계획이라고</w>":13243,"협력에</w>":13244,"검토해야</w>":13245,"이었다고</w>":13246,"있어서도</w>":13247,"참배했다.</w>":13248,"의미다.</w>":13249,":19,,\"</w>":13250,"청년우선":13251,"베트남은</w>":13252,"탄핵의</w>":13253,"open":13254,"지시를</w>":13255,"공약에</w>":13256,"상임위</w>":13257,"당정은</w>":13258,"응원과</w>":13259,"경북도":13260,"추가경정예산안을</w>":13261,"중앙재난안전대책본부(":13262,"서울시장이</w>":13263,"대결을</w>":13264,"수용할</w>":13265,"떨어진</w>":13266,"김명수</w>":13267,"연결해</w>":13268,"장비의</w>":13269,"민주평화당":13270,"대기하고</w>":13271,"\\r\\n\\t\\t\\t\\t\\t\\t\\t":13272,"호텔에서</w>":13273,"강창일</w>":13274,"완벽하게</w>":13275,"448&aid=0000":13276,"착륙을</w>":13277,"치열한</w>":13278,"최태원</w>":13279,"WHO":13280,"'[CBS노컷뉴스</w>":13281,"'다만</w>":13282,"1200":13283,"238":13284,"2,정치,정치일반,2020-01-02,":13285,"4개</w>":13286,"5만":13287,"700":13288,"7,,\"":13289,"=\"\"":13290,"?…":13291,"@asiae.co.kr',</w>":13292,"PK":13293,"vs":13294,"±3.1":13295,"간접":13296,"것이라면서</w>":13297,"견제":13298,"계단에서</w>":13299,"공사":13300,"공존":13301,"공사가</w>":13302,"과천":13303,"교훈":13304,"군인</w>":13305,"기한</w>":13306,"납세":13307,"당대표":13308,"더이상</w>":13309,"뒷북</w>":13310,"말씀</w>":13311,"명·":13312,"바꿔</w>":13313,"반야심":13314,"보다":13315,"부장,</w>":13316,"부장관과</w>":13317,"분에</w>":13318,"사전":13319,"소수</w>":13320,"소폭</w>":13321,"않습니다.</w>":13322,"영석</w>":13323,"예상</w>":13324,"온정의</w>":13325,"원칙</w>":13326,"의존":13327,"저질":13328,"적격</w>":13329,"정민</w>":13330,"정밀</w>":13331,"주목</w>":13332,"창녕":13333,"쳐야</w>":13334,"탐험":13335,"태평양":13336,"파견</w>":13337,"퓨처":13338,"학부모":13339,"\"\"엠빅":13340,"\"\"14F":13341,"269":13342,"3:16":13343,"연합정당을</w>":13344,"101":13345,":58,":13346,"\",데일리안":13347,":31,":13348,":33,":13349,"추가됐다.</w>":13350,"185":13351,"144":13352,"14층</w>":13353,"350":13354,"@news1.\",정치,1,2020-03-17</w>":13355,"새로움을</w>":13356,"수사에</w>":13357,"격리병":13358,"방문객":13359,".co.kr)</w>":13360,"메시지로</w>":13361,"신청했다.</w>":13362,"<저작권자":13363,"<저작권\",정치,1,2020-03-17</w>":13364,"임시국회에서</w>":13365,"공천관리위는</w>":13366,"요청을</w>":13367,"준비하는</w>":13368,"전체에</w>":13369,"일본대사관</w>":13370,"않았다며</w>":13371,":00,,\"":13372,"혁신에</w>":13373,"에서부터</w>":13374,"대변인,</w>":13375,"이동하는</w>":13376,"않는다는</w>":13377,"고려한</w>":13378,"논란에</w>":13379,"여행금지":13380,"부결되고</w>":13381,"혐의가</w>":13382,"경남대</w>":13383,"그렇다고</w>":13384,"저작권자,정치,0,2020-03-17</w>":13385,"아무도</w>":13386,"경례하고</w>":13387,"마무리하고</w>":13388,".8%,</w>":13389,",https://news.naver.com/main/read.nhn?mode=LS2D&mid=shm&sid1=100&sid2=269&oid=421&aid=0004504":13390,"대처를</w>":13391,":00,\"":13392,"일으키":13393,"수원시</w>":13394,"물갈이":13395,"국제사회와</w>":13396,"만나보세요":13397,"윤상현</w>":13398,"접경지역의</w>":13399,"대신해</w>":13400,"여건이</w>":13401,",https://news.naver.com/main/read.nhn?mode=LS2D&mid=shm&sid1=100&sid2=269&oid=081&aid=00030":13402,"진상조사위원회</w>":13403,"민경욱</w>":13404,"당규에</w>":13405,"최룡해</w>":13406,"히로히":13407,"탐험하다.</w>":13408,"\"\"엠빅뉴스\"\"',</w>":13409,"\"\"14F\"\"',</w>":13410,"(오른쪽</w>":13411,",오마이뉴스":13412,"1,</w>":13413,"1차관이</w>":13414,"237":13415,"439":13416,"9일부터</w>":13417,"P4":13418,"cbs":13419,"가결":13420,"건설</w>":13421,"검경</w>":13422,"고강도</w>":13423,"공원</w>":13424,"관영</w>":13425,"그림":13426,"높이는</w>":13427,"다낭":13428,"다당":13429,"당선</w>":13430,"대덕":13431,"대가를</w>":13432,"동창":13433,"묻자</w>":13434,"박차를</w>":13435,"배제</w>":13436,"벌써</w>":13437,"범국민":13438,"보조를</w>":13439,"부르고</w>":13440,"산에</w>":13441,"성착취물</w>":13442,"소환":13443,"소비</w>":13444,"애초</w>":13445,"양극":13446,"양해":13447,"엄청":13448,"여부가</w>":13449,"요.\\xa0":13450,"용납":13451,"원색":13452,"유럽</w>":13453,"윤희</w>":13454,"젊은":13455,"정은":13456,"제76기</w>":13457,"졌던</w>":13458,"조심":13459,"죠.',</w>":13460,"진환</w>":13461,"질서를</w>":13462,"징역</w>":13463,"청에</w>":13464,"출사표를</w>":13465,"치에</w>":13466,"하강":13467,"했다면</w>":13468,"현행":13469,"호,</w>":13470,"moo@":13471,"195":13472,"대표.</w>":13473,"대통령께</w>":13474,"3:19":13475,":55,":13476,"\",오마이뉴스":13477,":38,":13478,":41,":13479,":44,":13480,"124":13481,"국무위원장</w>":13482,"166":13483,"169":13484,",https://news.naver.com/main/read.nhn?mode=LS2D&mid=shm&sid1=100&sid2=265&oid=003&aid=0009636":13485,"통합당을</w>":13486,".k\",정치,0,2020-03-17</w>":13487,"\\xa0',</w>":13488,"생각한다.</w>":13489,"보수층":13490,"253":13491,"지도자":13492,",https://news.naver.com/main/read.nhn?mode=LS2D&mid=shm&sid1=100&sid2=264&oid=008&aid=0004":13493,"강화된</w>":13494,"보건분야</w>":13495,"예비후보,</w>":13496,"추진해</w>":13497,"이어갈</w>":13498,"이해와</w>":13499,"확인하고</w>":13500,"모습에</w>":13501,"6,\"":13502,"이었습니다.</w>":13503,"모두발언하는</w>":13504,"확보할</w>":13505,"발생하지</w>":13506,"역할이</w>":13507,"고려하면</w>":13508,"ynamoo@":13509,"외국인":13510,"경쟁력</w>":13511,"방송은</w>":13512,"바이러스와</w>":13513,"방위비":13514,"사법개혁":13515,"행동에</w>":13516,"정면으로</w>":13517,"없었던</w>":13518,"구축을</w>":13519,"예방적</w>":13520,"해외에서</w>":13521,"소상공인과</w>":13522,"긍정적인</w>":13523,"제2의</w>":13524,"여객자동차":13525,"불러주시고</w>":13526,"추구한다면</w>":13527,"자발적</w>":13528,",https://news.naver.com/main/read.nhn?mode=LS2D&mid=shm&sid1=100&sid2=264&oid=421&aid=000438":13529,"권력기관이</w>":13530,"6·25":13531,"작용할</w>":13532,"스마트":13533,"만세삼":13534,"공평하게</w>":13535,"소재·부":13536,"헌혈에</w>":13537,"장거리포병구분대의</w>":13538,"재해재난과</w>":13539,"저소득층":13540,"나옵니다.</w>":13541,"'skynamoo@":13542,"성일종</w>":13543,"홍익표</w>":13544,"소프트웨":13545,"사회관계망":13546,"'[대전=뉴시스]박영태</w>":13547,"cbs.co.kr',</w>":13548,"'skynamoo@cbs.co.kr',</w>":13549,"(6":13550,"-3":13551,"3일부터</w>":13552,";을</w>":13553,"AR":13554,"·서":13555,"檢,</w>":13556,"갑작":13557,"개인의</w>":13558,"겠지만</w>":13559,"구미":13560,"그만":13561,"기사에서</w>":13562,"내일부터</w>":13563,"뉴욕":13564,"동력을</w>":13565,"되돌":13566,"물이</w>":13567,"방법이</w>":13568,"번호</w>":13569,"보장</w>":13570,"북남":13571,"분위기가</w>":13572,"사명":13573,"사천":13574,"사투를</w>":13575,"선박":13576,"소극":13577,"숭고한</w>":13578,"스피":13579,"시시</w>":13580,"식(":13581,"신속</w>":13582,"실이</w>":13583,"아픈</w>":13584,"안녕":13585,"안고</w>":13586,"여건</w>":13587,"오를</w>":13588,"옮겨</w>":13589,"우루":13590,"유통</w>":13591,"의사가</w>":13592,"이한</w>":13593,"이동</w>":13594,"이끌</w>":13595,"이다.\"\",</w>":13596,"이끄는</w>":13597,"인접한</w>":13598,"재입당</w>":13599,"적었다.</w>":13600,"전인</w>":13601,"제도,</w>":13602,"주무":13603,"지혜</w>":13604,"지어</w>":13605,"지사를</w>":13606,"창출":13607,"책무":13608,"캡쳐":13609,"포괄":13610,"하다\"\"고</w>":13611,"하다\"\"며</w>":13612,"한때</w>":13613,"항이</w>":13614,"행사는</w>":13615,"호찌":13616,"확고한</w>":13617,"회담</w>":13618,"흔들</w>":13619,"00:30":13620,"19,2020-03-17</w>":13621,"대표적인</w>":13622,"대통령,뉴시스,2020.03.04.</w>":13623,"114":13624,"11일</w>":13625,"하겠다\"\"며</w>":13626,":05,":13627,"정당,</w>":13628,"서울-":13629,":28,":13630,"03:51":13631,"금지한</w>":13632,"금지하는</w>":13633,"149":13634,"발사와</w>":13635,"검찰,</w>":13636,"257":13637,",https://news.naver.com/main/read.nhn?mode=LS2D&mid=shm&sid1=100&sid2=264&oid=02":13638,",정치,국방/외교,2020-03-01,\"":13639,"강화해야</w>":13640,"기소가</w>":13641,"남북간</w>":13642,"입장에서는</w>":13643,"'▶네이버에서</w>":13644,"것이며</w>":13645,",정치,국회/정당,2020-03-05,[":13646,"정보보호":13647,"일본이</w>":13648,"만들기</w>":13649,"이상을</w>":13650,"이재갑</w>":13651,"참여해</w>":13652,"변호사를</w>":13653,"산업통상":13654,"절차가</w>":13655,"나타냈다.</w>":13656,"점검하고</w>":13657,"시정연설하는</w>":13658,"시계는</w>":13659,"선전매체</w>":13660,"국립서울현충원</w>":13661,"검찰개혁에</w>":13662,"위험한</w>":13663,"당정협의에</w>":13664,"앵커]',</w>":13665,"기회가</w>":13666,"불과한</w>":13667,"충격적</w>":13668,"활성화</w>":13669,"선거법·":13670,"기념식은</w>":13671,"한시적으로</w>":13672,"전염병":13673,"F-35":13674,"【서울=뉴시스】":13675,"리병철":13676,"끊임없이</w>":13677,"퓨처메이":13678,"'1일</w>":13679,"'이번</w>":13680,"'\\r":13681,"'김형오</w>":13682,"'한국일보":13683,"(한국":13684,"(시민":13685,"1일(현지시간)</w>":13686,"3~":13687,"@chosun":13688,"mb":13689,"pre":13690,"가면</w>":13691,"갈무리":13692,"거취":13693,"과기정":13694,"규제를</w>":13695,"기습":13696,"기구</w>":13697,"기조를</w>":13698,"김주":13699,"노출":13700,"달라며</w>":13701,"담아</w>":13702,"대승":13703,"동은</w>":13704,"됐지만</w>":13705,"되거나</w>":13706,"드립":13707,"란히</w>":13708,"말하고</w>":13709,"명시":13710,"모여</w>":13711,"문체":13712,"문은</w>":13713,"물의를</w>":13714,"미치지</w>":13715,"민감":13716,"부직":13717,"불만이</w>":13718,"비유":13719,"사이</w>":13720,"상하":13721,"수십":13722,"신념":13723,"악수를</w>":13724,"업계":13725,"업의</w>":13726,"여동생인</w>":13727,"연출":13728,"우정":13729,"유관":13730,"의령":13731,"의지":13732,"이형":13733,"이은</w>":13734,"인권</w>":13735,"작위":13736,"재다</w>":13737,"전부</w>":13738,"전주</w>":13739,"점이다.</w>":13740,"접촉</w>":13741,"정·":13742,"제품":13743,"조에</w>":13744,"중에서</w>":13745,"증액":13746,"지배":13747,"찾는</w>":13748,"청원을</w>":13749,"캠페":13750,"켓을</w>":13751,"팀이</w>":13752,"표결</w>":13753,"풀어":13754,"풀릴</w>":13755,"하라</w>":13756,"하긴</w>":13757,"한,</w>":13758,"해지고</w>":13759,"혁명의</w>":13760,"화해":13761,"확장":13762,"회관</w>":13763,"획정을</w>":13764,"00:29":13765,"3:24":13766,"정부도</w>":13767,"선거용</w>":13768,"1.3":13769,"민주당도</w>":13770,"18대</w>":13771,"tion":13772,"국가들과</w>":13773,"'[헤럴드경제":13774,"그러면서도</w>":13775,"감염증)</w>":13776,"최고의</w>":13777,",정치,정치일반,2020-03-02,발언하는</w>":13778,"생각합니다.</w>":13779,"결정했다고</w>":13780,"격리돼</w>":13781,"비판했습니다.</w>":13782,"시민이</w>":13783,"추경의</w>":13784,"마스크로</w>":13785,"언급을</w>":13786,"133":13787,"결과,</w>":13788,"조사됐다.</w>":13789,"나경원":13790,"때문이라고</w>":13791,":30,,</w>":13792,"필리버스터가</w>":13793,",https://news.naver.com/main/read.nhn?mode=LS2D&mid=shm&sid1=100&sid2=266&oid=003&aid=0009738":13794,"공급에</w>":13795,":11,,\"['\\n\\t',</w>":13796,"새해에</w>":13797,"투표에서</w>":13798,"범죄를</w>":13799,
[...]
