#version: 0.2 - Trained by `huggingface/tokenizers`
2 0
다 .</w>
i d
0 0
. 0
' ,</w>
20 20
id =
- 0
, 2020
정 치
, ,
, 정치
에 서</w>
\ n
. n
s id
& sid
,2020 -0
,2020-0 3
으 로</w>
했 다.</w>
id= 00
,정치 ,
e w
. c
' \n
ew s
n ews
.c o
" "
\ t
r e
v e
m o
s h
2 6
하 고</w>
.co m
다 고</w>
- 1
1 00
i n
h t
t p
하 는</w>
m a
/ /
: //
ht tp
s ://
http s://
d e
a d
ve r
ma in
& a
.com /
a ver
.n aver
/ re
h n
.naver .com/
https:// news
L S
.n hn
.nhn ?
mo de
& m
& o
, https://news
1 =
2 =
2 D
= LS
m &sid
id= sh
&sid 2=
,2020-03 -1
100 &sid2=
ad .nhn?
main /re
&a id=00
.naver.com/ main/re
mode =LS
&m id=sh
,https://news .naver.com/main/re
1= 100&sid2=
2D &mid=sh
m&sid 1=100&sid2=
ad.nhn? mode=LS
,https://news.naver.com/main/re ad.nhn?mode=LS
2D&mid=sh m&sid1=100&sid2=
,https://news.naver.com/main/read.nhn?mode=LS 2D&mid=shm&sid1=100&sid2=
,https://news.naver.com/main/read.nhn?mode=LS2D&mid=shm&sid1=100&sid2= 26
코 로
니 다.</w>
3 .0
위 원
,2020 .0
뉴 시
대 통
있 다.</w>
코로 나
오 후</w>
뉴 스
1 9
대 표
.0 ,
'\n \t
,2020-03-1 7</w>
의 원
대통 령
국 회
&aid=00 0
이 라
오 전</w>
다 .
한 국
민 주
뉴시 스
" ,정치,
,2020-03 -0
,2020.0 3.0
1 1
2 1
다. ',</w>
3 :
습 니다.</w>
&o id=00
회 의
통 합
1 .0
연 합
영 상
2 ,
하 겠
1 0
국 민
다 는</w>
2 .</w>
&o id=
일 반
위원 장
미 래
- 7
0 ,2020-03-17</w>
,정치 ,정치
,https://news.naver.com/main/read.nhn?mode=LS2D&mid=shm&sid1=100&sid2=26 9
,정치,정치 일반
다 ”
: 5
1 9</w>
" ,
서 울</w>
정 부
2 일</w>
: 3
코로나 19</w>
: 4
'\n\t ',</w>
면 서</w>
이 다.</w>
,, ,</w>
북 한
청 와
장 관
,, ,,,</w>
위 한</w>
1 2
: 0
이라 고</w>
선 거
되 는</w>
지 역
대 한</w>
l a
뉴 스</w>
연합 뉴스
,, "</w>
열 린</w>
민주 당</w>
\n ',</w>
5 ,
사 진
f la
하 기</w>
정 당
있 다고</w>
기 자</w>
밝 혔
외 교
문 재
4 7
국 회</w>
이 날</w>
고 ,</w>
, ,</w>
들 이</w>
문재 인</w>
5 .</w>
있 는</w>
0 2
1 .
\n \t
공 감
3 &aid=000
서 울
후 보
다 며</w>
성 이</w>
1.0 2.</w>
언 론</w>
,정치,정치일반 ,2020-03-0
원 내
&oid=00 3&aid=000
&oid=003&aid=000 9
공감 언론</w>
다 ""
위 해</w>
제 보
1 -0
,2020-0 1-0
기 자
여 러
지 난
대 구
경 제
공 천
판 단
주 시
사 진</w>
0 5
여러 분
1 ,
서 는</w>
국 무
코로나 19
통합 당</w>
0 4
것 으로</w>
보 내
마 스
\n\t ',</w>
5 일</w>
: 1
적 으로</w>
,2020.03.0 5.</w>
&aid=000 4
까 지</w>
또 는</w>
밝혔 다.</w>
적 극</w>
뉴시 스</w>
: 2
대 해</w>
감 염
1 일</w>
더 불
반 영
라 고</w>
에 게</w>
말 했다.</w>
추 가
가 치
부 터</w>
중 한</w>
민주 당
더불 어
하 게</w>
여 의
기 다
,2020.0 1.02.</w>
인 사
다” 고</w>
1 .0,
1 .</w>
,2020-01-0 2,
2020 .0
부 (
여의 도</w>
습 니
소 중한</w>
) 로</w>
립 니다.</w>
",정치, 0,2020-03-17</w>
.0 ,,
영상 을</w>
여러분 의</w>
' ▶</w>
47 0
중 앙
화 제
독 자</w>
사진 영상
국회 에서</w>
주시 면</w>
판단 되는</w>
반영 하겠
제보 를</w>
청와 대
참 석
뉴시스 가</w>
보내 주시면</w>
화제 성이</w>
21 -7
-7 21-7
02 -721-7
가치 나</w>
기다 립니다.</w>
470 )로</w>
사진영상 부(
02-721-7 470)로</w>
u n
,2020-03-1 6</w>
원내 대표
, 뉴시스
총 리
2020 .
김 정
( )</w>
,https://news.naver.com/main/read.nhn?mode=LS2D&mid=shm&sid1=100&sid2=269 &oid=
@ news
적 인</w>
1 8
3 .
하 지</w>
20 19
3 0
관 계
통 해</w>
0 3:
우 리
한국 당</w>
금 지
1 4
" [
a l
상 황
자 유
이 러
사 를</w>
에 는</w>
비 례
지 만</w>
2 2
한국 당
&oid=003&aid=0009 7
의원 은</w>
대통령 은</w>
하 기
1 &aid=00
&oid=00 1&aid=00
&oid=001&aid=00 11
t i
장 을</w>
국 방
반영하겠 습니다.</w>
사진영상부( ,</w>
가 능
더불어 민주당</w>
회 의</w>
들 의</w>
류 를</w>
l b
미래 통합당</w>
ti o
으 로
바 이러
했 다.',</w>
대통령 이</w>
c k
도 록</w>
c tio
' ]
f un
fun ctio
우 회
뉴스 1
국 가
1 7
functio n</w>
마스 크</w>
1 5
함 께</w>
지 원
/ /</w>
a ck
{ }
re mo
remo ve
2 8
'\n ',</w>
remove C
'\n \n',</w>
al lb
오 류를</w>
allb ack
_ fla
_ removeC
s h</w>
함 수</w>
\n function</w>
'\n //</w>
sh _removeC
fla sh</w>
추가 \nfunction</w>
"[ '\n\t',</w>
우회 하기</w>
{} \n',</w>
allback ()</w>
_fla sh_removeC
_flash_removeC allback()</w>
'\n\t ']
이 어</w>
1 6
우 리</w>
정 부</w>
지 난</w>
' [
관 련
강 조
청와 대</w>
하 며</w>
관 리
이라 며</w>
그 러
2020.0 3.0
해 야</w>
/ 정당
대 응
,정치, 국회
,https://news.naver.com/main/read.nhn?mode=LS2D&mid=shm&sid1=100&sid2=26 5
,정치,국회 /정당
총 선</w>
사 회
대 한
의 원</w>
'\n\t'] ",정치,
자 는</w>
2 9
3 8
관 련</w>
행 정
3 5
전 략
조 치
출 마
발 사
3 7
발 언
검 찰
북 한</w>
2 7
아 니
,정치, 0,2020-03-17</w>
통합 당
,2020.03.0 2.</w>
대 변
대 표</w>
장 은</w>
습니 다.',</w>
한 다.</w>
미 국
위원 회</w>
됐 다.</w>
다"" 고</w>
바이러 스</w>
회의 에서</w>
진 행
. k
2 4
,, "['\n\t',</w>
신 종</w>
'\n\t \n\t',</w>
황 교
입 국
감염 증
총 선
2020. 3.
들 은</w>
발 표
, 연합뉴스
4 ,
지 를</w>
위원장 이</w>
안 전
노 동
대표 가</w>
3 6
대 책
( 코로나19
장 이</w>
] ',</w>
정 책
것 은</w>
다” 며</w>
력 을</w>
x a
\ xa
서 도</w>
,2020-03-0 5,
, 2019
설 명
예 비
대 해
대통 령</w>
인 은</w>
정 의
4 4
최 고
대표 는</w>
필 요
지난 달</w>
확 진
그 는</w>
4 21
코로나 바이러스</w>
한 다고</w>
라 는</w>
등 을</w>
3 9
선 언
i s
의원 이</w>
했 다고</w>
421 &aid=0004
\xa 0
신 년
안 을</w>
감염증 (코로나19
재 배
에 도</w>
3 ,
개 혁
이 번</w>
문 제
처 리
들 과</w>
된 다.</w>
위원 회
지난 해</w>
한 반
것 을</w>
황교 안</w>
에 서는</w>
"" ,</w>
지 역</w>
문 에</w>
저 작
조 선
저작 권
김정 은</w>
,정치,정치일반,2020-03-0 2,
기 를</w>
생 각
법 무
구 독
,정치,정치일반,2020-03-0 5,
신 천
\ '
통 신
재배 포</w>
2 .0,
3 4
5 0
1.0 ,,
대 로</w>
의 료
것 이라고</w>
군 사
네 이
뉴스 1</w>
,정치,정치일반 ,2020-01-02,
위원장 은</w>
것 이</w>
자 가</w>
) ,</w>
따 라</w>
했 습니다.</w>
&oid= 421&aid=0004
들 을</w>
@news 1.
결 정
사 람
대통령 의</w>
는 데</w>
중 국
자유 한국당</w>
었 다.</w>
전 문
같 은</w>
보 수
사 에서</w>
새 로
2 5
하 고,</w>
지 는</w>
@news is
기자 회
들 어
방 역
공 천</w>
1.0, ,</w>
감염증(코로나19 )</w>
� �
4 일</w>
지 도
하 면</w>
없 는</w>
안 철
임 명
하 면서</w>
평 화
일 보
@newsis .com
· 1
추 미
0 ,2020-03-16</w>
사 실
,정치, 청와대
,https://news.naver.com/main/read.nhn?mode=LS2D&mid=shm&sid1=100&sid2=26 4
민 생
3 일</w>
만 ,</w>
4 .</w>
수 사
/ 외교
,정치, 국방
,https://news.naver.com/main/read.nhn?mode=LS2D&mid=shm&sid1=100&sid2=26 7
,정치,국방 /외교
모 든</w>
예 정
. 12
2 3:
격 리
해 서</w>
되 고</w>
비 판
정 세
방 문
기자회 견
공 관
확 산
이라 는</w>
/ 뉴스1</w>
.co .k
였 다.</w>
대 상
· 경
강 화
코로 나</w>
,정치, 행정
,https://news.naver.com/main/read.nhn?mode=LS2D&mid=shm&sid1=100&sid2=26 6
보 다</w>
추미 애</w>
4 0
병 원
예 산
전 원
강조 했다.</w>
다 시</w>
무 단
회의 를</w>
의 를</w>
서울 =
보 건
조 정
국 민</w>
부 는</w>
시 작
h o
북한 이</w>
평 가
기 념
. 0</w>
어 려
라 며</w>
다"" 며</w>
, "</w>
장관 이</w>
관 에서</w>
시 민
.co.k r
았 다.</w>
대 응</w>
이 에</w>
t o
바 른
장 ,</w>
예비 후보
,2020.03.0 1.</w>
이 런</w>
추 경
, 뉴스1
인 터
리 고</w>
&oid= 0
보 도
특 별
이 후</w>
네이 버</w>
다 면</w>
4 9
지 만,</w>
상 공
요 구
페 이
사 가</w>
선 을</w>
훈 련
대변 인은</w>
스 트
,, ,
외교 부</w>
,정치, 북한
,https://news.naver.com/main/read.nhn?mode=LS2D&mid=shm&sid1=100&sid2=26 8
그러 면서</w>
,https://news.naver.com/main/read.nhn?mode=LS2D&mid=shm&sid1=100&sid2=269 &oid=003&aid=00097
사 는</w>
개 정
신 문
하겠 다고</w>
공 개
경 제</w>
내 용
주 장
추 진
특 히</w>
마스 크
기 소
언 급
1 3
바른 미래
앞 서</w>
.12 .0
메 시
신 청
입 니다.</w>
.12.0 1.</w>
< 저작권
무단 전
리 는</w>
성 을</w>
이 인
최고 위원
결 과
새로 운</w>
제 공
졌 다.</w>
00 :5
남 북
같 이</w>
가 운
” 이라고</w>
이 나</w>
교 육
신 속
법무 부</w>
장 관</w>
없 이</w>
장관 은</w>
&oid=003&aid=0009 6
관련 해</w>
대한 민
다 른</w>
사 태
일 부</w>
클 릭
출 마</w>
노동 당</w>
임 시
이 어
박 근
있 다는</w>
,https://news.naver.com/main/read.nhn?mode=LS2D&mid=shm&sid1=100&sid2=269&oid= 0
지 적
자 신
M B
5 8
수 석
명 이</w>
정 을</w>
명 을</w>
기 에</w>
공천 관리
대 화
요 .</w>
1, "
시 간
정세 균</w>
한 다는</w>
1. 0</w>
정 당</w>
패 스트
나 라
국무 총리
참석 해</w>
패스트 트
정부 의</w>
제 1
지 지
1 ,2020-03-17</w>
기 업
정부 가</w>
두 고</w>
따 르
이 고</w>
,2020-03-0 4,
,2020.03.0 4.</w>
회의 에</w>
하기 로</w>
오 는</w>
3 .</w>
경 우</w>
이 해
책 임
공 동
국민 의
,https://news.naver.com/main/read.nhn?mode=LS2D&mid=shm&sid1=100&sid2=269 &oid=001&aid=0011
통 과
'\n\t']",정치, 0,2020-03-16</w>
버 스
있 도록</w>
총 리</w>
입 장
대 구</w>
계 획
확 인
.0, ,</w>
이 를</w>
-1 2
정부 는</w>
국 군
리 를</w>
필 리
오 늘</w>
,2019 -12
,2019-12 -0
공 정
' ▶
미래 통합당
민주당 은</w>
세 종
연합뉴스 )</w>
보 인
새 해</w>
논 의
지 원</w>
4 5
한 미
노 력
요 청
조 사
보 고
대구 ·경
며 ,</w>
회 를</w>
때 문에</w>
국민 의</w>
브 리
원 을</w>
지 고</w>
덧 붙
동 안</w>
3 3
\t \t
극 복
모 습
데 일
현 재</w>
2020. 1.
북한 의</w>
.0, 1.0,
여 야</w>
p ho
", 뉴시스
입 국</w>
. .
기자회견 을</w>
정 상
가 장</w>
미 사
&aid=00 00
렇 게</w>
동 을</w>
3.0 ,
이인 영</w>
원내대표 는</w>
관계 자는</w>
기 관
조치 를</w>
7 9
설명 했다.</w>
필리 버스
모 두</w>
사 업
했 던</w>
치 료
것 이
베 트
연 구
당 의</w>
재 난
국 제
,정치,국회/정당 ,2020-03-05,
대 전
세 계
5 9
시 키
안철 수</w>
협 력
지 금</w>
검 찰</w>
한반 도
법 안
시 아
데일 리
8 ,
pho to
것 이다.</w>
이 는</w>
a n
출마 를</w>
알 려
일 부터</w>
있 었
' 을</w>
경 기</w>
보 고</w>
정 보
포 함
기 획
,2019 .12.01.</w>
박근 혜</w>
방 역</w>
브리 핑
분 석
겠 다고</w>
7 ,
준 비
올 해</w>
2020.03.0 5.</w>
사회 ,
신천 지</w>
되 지</w>
위 는</w>
4 6
간 담
한 국</w>
최 근</w>
자 를</w>
하 지만</w>
지역 구
우 려
00 :4
당 국
- 재배포</w>
1.0,, ,,</w>
그 런</w>
들 에게</w>
종 로
창 당
금지 >
@newsis.com ',</w>
독 립
과 의</w>
식 을</w>
가운 데</w>
소 속</w>
많 은</w>
운 영
촉 구
,뉴시스 ,2020.03.05.</w>
안 보
신 임</w>
대해 서는</w>
질 문
2 3
관 학
있 을</w>
선거 구</w>
여 론
나 가
화 를</w>
실 시
우리 는</w>
바른미래 당</w>
,2020.03.0 3.</w>
,2020-03-0 3,
한반 도</w>
<저작권 ",정치,0,2020-03-17</w>
따르 면</w>
교 수
제 가</w>
는 데
서 를</w>
어 떻
.co.kr ',</w>
않 은</w>
기 도</w>
임 관
직 접</w>
전 체
원내대표 가</w>
인터 넷
에 서도</w>
회 에서</w>
이 뤄
일 본
자 리
부 산
사 령
이 상</w>
제 안
마 련
돌 아
지 에</w>
이 낙
' <
검 토
만 들
명 의</w>
서울= 뉴시스
재 -재배포</w>
공 직
3 1
심 재
,, "
지 금
전 망
후 보</w>
) ',</w>
이 같이</w>
간 호
전 했다.</w>
대통령 과</w>
장 의</w>
청 원
하 나
협 의
과 정
당 은</w>
2020.0 1.02.</w>
총리 는</w>
면 접
6 ,
강 경
장 과</w>
21 대</w>
드 시</w>
세 력
금지> \n\t',</w>
반 드시</w>
미 국</w>
이 상
했 다
않 았
장 에서</w>
,뉴시스 ,2020.01.02.</w>
어떻 게</w>
강 원
마스크 를</w>
거 나</w>
열 고</w>
으 면</w>
정 치</w>
r i
오 늘
공 수
중 심
: 00
혁 신
당 시</w>
영 상</w>
1.0 1.</w>
2 .0,,
중 단
통 일
대 를</w>
종 합
생 활
00 0
경 찰
에 서
신 뢰
= =
감 사
청 사에서</w>
기 로</w>
다 만</w>
중 요
획 정
자 의</w>
,정치,국회/정당 ,2020-01-02,
포 인
위원장 의</w>
이 데일리
정의 당</w>
패스트트 랙</w>
있 다며</w>
. ,정치,0,2020-03-17</w>
2 .
본 부
사 .</w>
않 고</w>
등 이</w>
시 설
s e
머 니
9 ,
도 로</w>
도 를</w>
여 야
선거 구
추 가</w>
자유 한국당
구독 (
! ',</w>
3 ·1
비 서
합 동
경 선
부 부
", 연합뉴스
법 을</w>
제 한
' 를</w>
피 해
상 을</w>
4 8
데 이
힘 을</w>
,https://news.naver.com/main/read.nhn?mode=LS2D&mid=shm&sid1=100&sid2=265 &oid=421&aid=0004
이 었
제 한</w>
모 두
만 큼</w>
상 태
점 을</w>
합 의
받 아
당 을</w>
현 충
어 떤</w>
2020 년</w>
김 여
무단전 재-재배포</w>
희 망
뉴시스 통신
뉴시스통신 사.</w>
이낙 연</w>
종로 구</w>
하겠 다는</w>
비례 대표</w>
보인 다.</w>
페이 스
확 보
'< ⓒ</w>
비 롯
덧붙 였다.</w>
비 상
장 에</w>
o n
해 결
역 시</w>
당 이</w>
변 화
발언 을</w>
단 체
중 국</w>
했 습니다.',</w>
않 을</w>
사 건
홍 남
만 에</w>
,2019-12-0 1,
개 혁</w>
북한 은</w>
공천 을</w>
사 무
정 권
조선 중앙
입 장을</w>
확 산</w>
전 날</w>
나 온
격 리</w>
센 터
감염 병</w>
다. "",</w>
통 화
밖 에</w>
9 9
부 분
정 론
위 를</w>
방 식
등 에</w>
일 본</w>
심재 철</w>
이 유
8 0
확 대
법 안</w>
있 습니다.</w>
' 이</w>
민주당 이</w>
습니 다
대한민 국
보 수</w>
확 정
이 재
나 경
명 ,</w>
당 부
. ",정치,
지 방
28 일</w>
대변 인
방 사
관 한</w>
,,, 1.0,,</w>
7 5
등 의</w>
한 편</w>
발 생
본 회의
처 럼</w>
기 준
것 ”이라고</w>
국민 이</w>
기 술
다 면서</w>
이 동
김정 은
관 계</w>
그러 나</w>
본 회의</w>
이 야
,2020.0 1.01.</w>
' 에</w>
말 씀
항 공
'[ 서울=뉴시스
니 다.',</w>
가 는</w>
금 지</w>
의원 과</w>
참 여
안 정
차 관
아니 라</w>
아 시아
운 동
질 문에</w>
달 라
홍남 기</w>
변 호
에 선</w>
김 형
유 지
트 럼
", "</w>
비 난
한 다며</w>
7 0
수 여
대통령 ,</w>
2 월</w>
김 병
산 업
선 거</w>
"" ',</w>
하 다.</w>
국 정
전 을</w>
있 어
C B
기 가</w>
본 회의에서</w>
복 지
역 할
가능 성
것 이라며</w>
때 문
라 도</w>
\t ',</w>
여 러</w>
자 들이</w>
7 6
갖 고</w>
가능 성이</w>
중 구</w>
:3 0
제 출
바 란
% ,</w>
비 핵
연합 뉴스</w>
재난 안전
왔 다.</w>
참 배
05 :1
) 이</w>
"" 이라고</w>
차 원
필리버스 터
공수 처
실 에서</w>
으 며</w>
우리 가</w>
” 이라며</w>
향 해</w>
정론 관에서</w>
7 8
\ r
하 다고</w>
강경 화</w>
나 오
다 '
많 이</w>
않 는
했 고,</w>
받 고</w>
전략 무
발 을</w>
", 사회,
y n
기 는</w>
9 5
없 다고</w>
'[ 사진</w>
전원 회의</w>
구 체
비례 대표
6 0
겠 다는</w>
대 책</w>
지역 구</w>
·1 5</w>
의원 의</w>
자 체
절 차
컷 오
시 장</w>
신천 지
느 냐
대상 으로</w>
무 단</w>
승 리
소 상공
나온 다.</w>
한 다”고</w>
재난안전 대책
문 을</w>
장 병
e r
국 내</w>
위원 장</w>
고 려
,https://news.naver.com/main/read.nhn?mode=LS2D&mid=shm&sid1=100&sid2=267 &oid=001&aid=0011
훈련 을</w>
받 은</w>
자신 의</w>
일 (
' \xa0
5 차</w>
남 북</w>
나경 원</w>
확진 자</w>
울 산
육 군</w>
계 속</w>
김 진
예 상
은 행
중 도
하 려
필요 한</w>
,https://news.naver.com/main/read.nhn?mode=LS2D&mid=shm&sid1=100&sid2=266 &oid=003&aid=00097
경 선</w>
거 리</w>
3 2
더 욱</w>
이 렇게</w>
6 8
부 족
주 민
리 아
국회 의원</w>
의 견
결 과</w>
협 상
의 미
투 입
@newsis.com ,</w>
yn a
:4 0
발사 체</w>
중 인</w>
기자 간담
나 누
.0, 2.0,
총선 에서</w>
매 우</w>
4 ·15</w>
: 21
또 한</w>
심 을</w>
국무 위원장이</w>
현 역</w>
매 일
국민의 당</w>
: 20
불 출마</w>
안 이</w>
추 경</w>
대구 시
사실 상</w>
외 국
안 에</w>
논 란
영 향
22 :5
보 는</w>
합 니다.</w>
아 울
의 사
하 도록</w>
트럼 프</w>
강 한</w>
바 로
이 미</w>
주 재
면 서도</w>
: 19
대표 와</w>
과정 에서</w>
' (
방 안을</w>
04 :5
0 9
2.0, ,</w>
일 까지</w>
있 어</w>
시 행
정부 서울
하기 ',</w>
움 을</w>
:3 8
확진 자가</w>
대구·경 북</w>
아울 러</w>
제 대로</w>
20 18
페이스 북
8 8
제1 부부
:3 9
상황 을</w>
프 리
목 소
전 히</w>
입국 을</w>
안철 수
말 했다.',</w>
지역 에</w>
파 이
상공 회의
적 극
신 년</w>
출 신</w>
대 사
제 를</w>
n -
경 쟁
고 위
공 급
노 컷
위 성
제보 받
식 에</w>
우 선</w>
반영하겠 습니다.',</w>
사진영상부( n-
photo @newsis.com,</w>
ri g
중심 으로</w>
습니다 ]',</w>
제보받 습니다]',</w>
사진영상부(n- photo@newsis.com,</w>
@ h
검 사
긴 급
3.0 ,,
: 11
뜻 을</w>
나 서
진 료
1 주
권 을</w>
만 나</w>
해 석
체 계
협 력</w>
위 에</w>
당 한</w>
마 음
발언 하고</w>
지 정
선거 법</w>
지 켜
바 로</w>
37 6
부 총리</w>
0 1
5 6
치 고</w>
인 재
3 월</w>
규 모
감 을</w>
제 기
한국 발</w>
:3 7
: 26
T V
국 립
여 행
제 시
4 ,,,,,</w>
@ yna
대 화</w>
사 용
부 를</w>
조 직
청 년
2 :5
· 김
양 산
왼 쪽
이 용
전 에</w>
복 귀
본 부</w>
선 택
속 보
정 신
방 침
오 른
조 사</w>
진 영</w>
권 력
현 실
수 준
세 를</w>
않 는</w>
작 업
해 주
경 북</w>
시 에</w>
돌 파
분 야</w>
으 나</w>
보도 했다.</w>
국무총리 가</w>
베트 남
반 발
부 가</w>
아 직</w>
사 이
심 판
인 천
의원 을</w>
@yna .co.kr',</w>
집 중
채 널</w>
탄 핵
,뉴시스 ,2020.03.02.</w>
하 여</w>
했 다는</w>
3 ,,,,,</w>
5 ,,,,,</w>
04 :4
관학 교
나 타
대 학
되 면</w>
연 설
달 라고</w>
전 국</w>
해 당</w>
위 해
9 6
주 요</w>
지적 했다.</w>
것 에</w>
따 른</w>
보 면</w>
정치 적</w>
파이 낸
' 이
부 에</w>
영 입
전 달
대표 의</w>
시 무
4 1
기 관</w>
공 화
그 리고</w>
발언 하는</w>
부 산</w>
받 았
대한 상공회의
는데 ,</w>
포인 트</w>
파이낸 셜
사 태</w>
4 월</w>
: 10
새 해
식 에서</w>
’ 을</w>
고 도</w>
민 식
보 호
파이낸셜 뉴스
소 에서</w>
투 표
결과 를</w>
김형 오</w>
자 에</w>
:3 6
3 ,,"</w>
o p
9 8
밝 히
이 제</w>
단 계
수 를</w>
전 재</w>
.c ",정치,
,연합뉴스 ,2020.03.05.</w>
경 남</w>
비판 했다.</w>
경 우
부 정
20 2
05 :0
전문 가
방 송
도 가</w>
지 가</w>
04 :0
이해 찬</w>
시 간</w>
자 료
회 에</w>
우리 의</w>
구 독</w>
사 회</w>
으로 는</w>
@news1. ,정치,0,2020-03-17</w>
주장 했다.</w>
스 럽
업 무
활 동
w w
범 죄
세 요
앞 두고</w>
기획 재
제 로</w>
,정치,정치일반,2020-03-0 1,
병 원</w>
시 험
인 민
통 합</w>
장관 과</w>
원내 대표</w>
중 소
하 자
I CB
법 률
일 )</w>
2020.1. 2</w>
놓 고</w>
응 답
바로 가
면 ,</w>
과 학
지 키
처 음
민식 이
속 보</w>
임시 회
긴 급</w>
은 행</w>
확 실
으로 ,</w>
무단전 재</w>
&oid=003&aid=00096 35
2 ,2020-03-17</w>
그 래
있 다”고</w>
드 러
아 닌</w>
의 료</w>
충 분
,정치,정치일반,2020-01-02, "
진 보
대한민 국</w>
영 등
탄 도
,정치,정치일반,2020-03-02, "
금 융
것 도</w>
대 정부
제 376
하기 도</w>
청와대 는</w>
있 다.
생 산
어 렵
,정치,정치일반,2020-03-05, "
나 아
부 결
4 ,,"</w>
K B
건 강
사 ,</w>
해 양
헤 럴
위 협
,https://news.naver.com/main/read.nhn?mode=LS2D&mid=shm&sid1=100&sid2=269&oid=003&aid=00097 3
대구·경 북
) 을</w>
말 을</w>
수 도</w>
,연합뉴스 ,2020.01.02.</w>
단 을</w>
서 비
지 시
저 는</w>
컷오 프
0 8
간 의</w>
정 확
설 치
장관 ,</w>
바이러 스
0 .0,
이 번
혐 의
국회 (
N ews
,https://news.naver.com/main/read.nhn?mode=LS2D&mid=shm&sid1=100&sid2=269&oid= 05
클릭 )',</w>
문 화
량 을</w>
포 토
군 의</w>
무 엇
", 뉴스1
무 리
비 행
,https://news.naver.com/main/read.nhn?mode=LS2D&mid=shm&sid1=100&sid2=264 &oid=001&aid=0011
임시회 )</w>
기 ',</w>
못 한</w>
심 사
인 의</w>
,2020-03-0 2,
알려 졌다.</w>
국회( 임시회)</w>
강 력
향 후</w>
한국당 은</w>
2020.3. 5</w>
나 는</w>
탄도 미사
앞 으로</w>
전 해
수 사</w>
인 을</w>
자 로</w>
비롯 한</w>
공 개</w>
한 다
rig ht
News 1</w>
. 1
공 식</w>
배 제
사진 =
202 0</w>
충 북</w>
야 당
상황 에서</w>
민생 당</w>
는 지</w>
의 혹
들 에</w>
수 가</w>
판 매
했 다며</w>
지 속
간호 사
법 에</w>
않 았다.</w>
일 이</w>
인사 를</w>
29 일</w>
공 공
교 통
여 상
와 의</w>
:0 0</w>
프리 미
18 &aid=0004
&oid=0 18&aid=0004
베트 남</w>
2018 년</w>
5 5
개 발
방 위
원 칙
기획재 정부</w>
시 점
’ 를</w>
있 다.',</w>
졸 업
총선 을</w>
협 조
영등 포
기 존</w>
제공 )</w>
명 으로</w>
전 투
해 야
국회 의
대응 을</w>
공 약
심 상
확 인은</w>
프리미 엄</w>
& ]</w>
' \t',</w>
7 기</w>
[ 한반도
[ 구독</w>
마 친</w>
만 들어
북한 뉴스</w>
연합뉴스 에서</w>
클릭 ]',</w>
구독( 클릭)',</w>
[한반도 &]</w>
2 ,,,,,</w>
경 남
시 정
크 게</w>
김여 정</w>
나 갈</w>
지 도</w>
발사 체
성 과
앞 에서</w>
'[서울=뉴시스 ]</w>
아 야</w>
연 동
고 자</w>
관 광
단 거리</w>
사 법
조 치</w>
국회 의원
자 원
한국당 이</w>
미국 의</w>
" "</w>
,뉴스1 ,2020.03.05.</w>
메시 지를</w>
기 대
받 는</w>
국회 에</w>
) 를</w>
7 ,,,,,</w>
해 도</w>
( 종합
그 렇
정치 를</w>
인터넷 전문
2 .0</w>
내 려
분 야
인 이</w>
보 여
심 각
으 며,</w>
예 산</w>
더불어 민주당
가 지</w>
력 이</w>
불 출마를</w>
주 목
타 격
냈 다.</w>
주 는</w>
국민 들
도 ,</w>
수 는</w>
야 당</w>
추 천
정 한</w>
행 동
5 ,,"</w>
각 각</w>
까 ?</w>
전략 공천
통 한</w>
7 7
거 론
청 문
총 회
출 신
",정치, 1,2020-03-17</w>
진행 자</w>
어려 운</w>
4 .0,
8 ,,,,,</w>
찾 아</w>
당 ,</w>
동 의
핵 심</w>
,정치,청와대 ,2020-01-02,
op y
이 와</w>
밝혔 다.',</w>
무 소속</w>
상 임
한 다""고</w>
C opy
이 겨
신문 은</w>
) 과</w>
· 이
김 현
정 책</w>
동 작
있 다
활 용
� �</w>
수 도
위 반
유 성
20 대</w>
금지 \n\t',</w>
담 화
주 의
:2 9
참석 하고</w>
신속 대응
법 과</w>
시 설</w>
검찰 이</w>
3 ,2020-03-17</w>
당 정
주 한미
처 리</w>
보건 복지
군 은</w>
공관 위
년 을</w>
약 속
원 은</w>
홍 준
추가 경
중앙 위원회</w>
4 2
4 :0
안 보</w>
환 자</w>
3. 1
서울= 연합뉴스)</w>
) 에</w>
정 면
먼 저</w>
우 선
임 을</w>
s o
보 좌
있 게</w>
다 양
언 론
일 부
일 보</w>
헤럴 드
발 사</w>
최 소
홈 페이
대해 선</w>
MB C
결 국</w>
예정 이다.</w>
지 ,</w>
홈 에서</w>
대표 ,</w>
,2020-01-0 1,
스 스
에 게
함 께
1.0 ,</w>
예비후보 는</w>
5 1
k y
기 록
위 기
길 을</w>
22 :4
머니 투
내 고</w>
시 는</w>
봉 사
부 총리
이 만
역할 을</w>
추가경 정
개 선
렸 다.</w>
제 외
거 리
구 매
연 기
T V</w>
세 영</w>
것 이라는</w>
밝 힌</w>
성 공
자 가
표 명
,https://news.naver.com/main/read.nhn?mode=LS2D&mid=shm&sid1=100&sid2=265 &oid=003&aid=00097
시 스
외교 부는</w>
구 성
그 동안</w>
동 원
중 대
지 로</w>
국무 위원
관 측
2 ,,"</w>
공 무
문 희
행 사
:1 6
6 6
도 는</w>
제 5차</w>
:3 1
5 7
마 이
물 론</w>
방 향
아니 냐
법 안을</w>
응 원
후보 를</w>
.0,, ,,</w>
께 서</w>
도 한</w>
&aid=000 3
심상 정</w>
5 /뉴스1</w>
경 선을</w>
보 이
분 명
미국 이</w>
대 법
들 도</w>
점 검
토 론
호 소
국방 부</w>
대 북
없 다.</w>
위원회 에서</w>
가 족
고 발
공 군사
:5 0
경 자
기 준</w>
번 째</w>
움 이</w>
리 스</w>
훈 련</w>
12 월</w>
국 가</w>
3.0 ,,</w>
온 라
2020.3. 5/뉴스1</w>
받 을</w>
상 으로</w>
청 주</w>
효 과
문 제</w>
하 거나</w>
조선중앙 통신
(종합 )
격 을</w>
라 이
환 자
생활 치료
관계 를</w>
文 대통령</w>
프 로
"" 이라며</w>
것 ""이라고</w>
== ==
당 직
: 12
세 계</w>
한 다면</w>
대책 을</w>
경 북
법 이</w>
,https://news.naver.com/main/read.nhn?mode=LS2D&mid=shm&sid1=100&sid2=269 &oid=00
으로 서</w>
나 ,</w>
발 전
통 일부</w>
그 렇게</w>
손 학
의 지를</w>
입 니다.',</w>
개정 안
2 /뉴스1</w>
안 건
27 7
1 월</w>
질 의
학 생
\r \n\t
어 야</w>
현 재
계 속
한국 인</w>
방문 해</w>
KB S
항 을</w>
후보 자</w>
신년 사를</w>
노 력을</w>
동 해
등 록
집 행
2020.03.0 4.</w>
개 최
불 가
,정치,정치일반 ,2019-12-01,
친 서를</w>
했 지만</w>
( 서울=연합뉴스)</w>
제 7기</w>
의원 ,</w>
문희 상</w>
1 ,2020-03-16</w>
격 려
고 민
번 째
성 ,</w>
전 국
정 권</w>
해 리스</w>
문제 를</w>
MB C</w>
5 .0,
규 정
옥 중
드 리
수 행
한 선
현 장</w>
협 력을</w>
비핵 화</w>
( )
당 에</w>
있 고</w>
지 지</w>
없 다는</w>
,정치,행정 ,2020-03-05,
다 ',</w>
받 았다.</w>
친 서
합 니
un g
아 이
위 반</w>
졸 업</w>
기자 들과</w>
추가경정 예산
답 변
수석 부
공천관리 위원회
것 과</w>
겠 습니다.</w>
등 으로</w>
3·1 절</w>
장 교
장 으로</w>
,2020-03-0 1,
대 비
하 루</w>
네이 버
유 승
병원 에서</w>
o o
그 런
있 다”며</w>
한미 연합
통화 에서</w>
% 로</w>
수 밖에</w>
원 이</w>
지 휘
'\xa0 ',</w>
시정 연설
” ,
되 었
인 정
진 영
책임 을</w>
최 대한</w>
지원 을</w>
머니투 데이
제 재
미래 한국당
중앙 재난안전대책
늘 어
창 당</w>
다양 한</w>
' 으로</w>
없 었
현 역
' 로</w>
3 개
본 회의를</w>
개혁 을</w>
재 판
다 음
전 환
반 대
오 신
문제 가</w>
비 례</w>
파 견
저작권 자
,뉴시스 ,2020.03.04.</w>
교수 는</w>
경 기
일 정
한 을</w>
협 상</w>
) 가</w>
5 4
최 선을</w>
관련 ,</w>
필리버스 터</w>
연동 형</w>
상황 이</w>
8 1
시 사
장 기
취 재
하 다는</w>
2, ,</w>
구 축
나 선</w>
민 간
방 안
이 다.',</w>
일 각
검찰 의</w>
�� ��
,https://news.naver.com/main/read.nhn?mode=LS2D&mid=shm&sid1=100&sid2=267 &oid=421&aid=0004
김정은 ,</w>
니 까</w>
.0,, 1.0</w>
6 9
서 신
기자 ]</w>
한 ·
활 동을</w>
참석 한</w>
단 체</w>
청 원</w>
14 &aid=0004
내용 을</w>
오른 쪽
다 ,</w>
신 문</w>
이 자</w>
지역 을</w>
,정치,국방/외교 ,2020-03-05,
넘 어
누 리
목 표
대 신</w>
된 다고</w>
어 느</w>
인 사</w>
있 다""고</w>
좋 은</w>
관학 교</w>
서비 스
' ""
드 는</w>
심 이</w>
아 무
피 해</w>
정당 을</w>
발표 했다.</w>
높 은</w>
일 을</w>
3: 0
@news1. ",정치,
방문 한</w>
,2019-12-0 1,"
y u
예 방
주 의</w>
:4 1
지역 의</w>
어려 움을</w>
유 치
의원 들이</w>
패스트트 랙
y a
재 개
국회 가</w>
관학교 에서</w>
1 19
5 :0
없 어
김 종
수 산
2020.1. 2/뉴스1</w>
중요 한</w>
비서 관
8 7
,https://news.naver.com/main/read.nhn?mode=LS2D&mid=shm&sid1=100&sid2=269&oid=001&aid=0011 44
모습 을</w>
막 기</w>
절차 를</w>
전 면</w>
아시아 경제
@h an
제376 회
배 화
이 었다.</w>
초 대
공관 위는</w>
금 을</w>
연 대
예 고
&oid= 02
행정 안전
났 다.</w>
도 시
물 을</w>
수 급</w>
on g
277 &aid=0004
나 온</w>
보 를</w>
서울 시</w>
7 ,,"</w>
다 가</w>
발 표</w>
열 어</w>
조 국</w>
탄 핵</w>
충분 히</w>
Copy right
' 문</w>
8 ,,"</w>
전 쟁
제 재</w>
2020.3. 2
' 의</w>
무 를</w>
센 터</w>
않 아</w>
우 는</w>
시키 는</w>
차원 에서</w>
정부서울 청사에서</w>
중 에</w>
,정치,국방/외교 ,2020-03-04,
경 례
못 하고</w>
상 황</w>
인 에서</w>
나누 고</w>
김 영
마 지
네이버 에서</w>
김 태
올 해
죠 .</w>
노컷 뉴스
‘ 이데일리
고 용
움 직
투 쟁
하 라
정치 권
.com ',</w>
&oid=003&aid=00096 36
‘이데일리 ’</w>
교 육</w>
년 도</w>
역 사
증 가
' 에서</w>
5 &aid=000
나 섰
대 북</w>
전 체</w>
특 례
했 고</w>
,뉴스1 ,2020.01.02.</w>
점 에서</w>
풀 이
하 는데</w>
,연합뉴스 ,2020.03.02.</w>
손학 규</w>
.. .
공직 자
방사 포
9 0
임명 장</w>
영 입</w>
위 로
파 악
했 다”고</w>
4 3
8 6
대 안
얘 기
주 고</w>
최고위원 회의에서</w>
국군 간호사
규 모</w>
복 귀</w>
소 통
자 ,</w>
했 지만,</w>
관련 한</w>
의료 진
의견 을</w>
제376회 국회(임시회)</w>
3 1일</w>
소 방
이 탈
위원장 과</w>
8 &aid=0004
둘 러
반 응
을 에</w>
이 정
최 대</w>
하겠 다”고</w>
05 :2
내 놓
여 성
당 원
면 접</w>
이 름
,https://news.naver.com/main/read.nhn?mode=LS2D&mid=shm&sid1=100&sid2=269&oid= 02
과학 기술
시스 템
경자 년</w>
되 면서</w>
소 위
,https://news.naver.com/main/read.nhn?mode=LS2D&mid=shm&sid1=100&sid2=269&oid= 4
% )
8 2
누 구
도 약
이 사
미래 를</w>
. ',</w>
4 :5
광 주
더 라도</w>
명 령
정 무
청 사</w>
그런 데</w>
강 제
실 장은</w>
정 말</w>
철 저
현 지
국회 를</w>
르 고</w>
실 제</w>
회 복
국군 대전
브리핑 을</w>
구독( 클
9 :5
대 의</w>
제 8
배화 여
김 성
끌 어
11 :0
사진 은</w>
ky ung
도 입
소 득
자 력
se i
정 의</w>
제 는</w>
차 례</w>
페이스북 에</w>
d o
신년 사</w>
강 원</w>
대 체
북 미
사 과
이 른
계획 이다.</w>
메 인에서</w>
박 영
음 을</w>
청와대 에서</w>
정책 을</w>
독립 운동
담 을</w>
부 의</w>
정책 위
당부 했다.</w>
시 계
로 ,</w>
상 이</w>
원 의</w>
친 서</w>
2020.03.0 2.
미사 일</w>
영향 을</w>
ICB M
으로 도</w>
2.0,, ,,</w>
i m
k r
” 라고</w>
김 용
제 도
매일 경제
대한상공회의 소에서</w>
스스 로</w>
9 7
것 ”이라며</w>
경 고
사 례
않 겠
주 도
핵 심
kr ',</w>
- -
3 10
공 항
관 은</w>
부 ,</w>
리 가</w>
있 고,</w>
, 사회,
내 에</w>
사 고
으로 부터</w>
,https://news.naver.com/main/read.nhn?mode=LS2D&mid=shm&sid1=100&sid2=268 &oid=003&aid=00097
헤럴드 경제
. 3
윤 석
청 주
한 다”며</w>
대통령 을</w>
11 월</w>
5, ,</w>
기 본
동 아
성 과</w>
적 용
접 촉
작업 을</w>
정면 돌파
c e</w>
로 부터</w>
법 은</w>
하 노
10 1주
위원장 을</w>
밝혔 습니다.</w>
브리핑 에서</w>
3.1 절</w>
오신 환</w>
’ 는</w>
기 득
법 사
의 회</w>
일 간</w>
충 남</w>
'\n\t \n\t
정부 세종
u e
착 용
2019 .12.01.</w>
보수 당</w>
기자간담 회를</w>
홍준 표</w>
본 회의에</w>
식 품
al d
총선 에</w>
( 왼쪽
c o
것 인
근 무
됐 다고</w>
서 ,</w>
유 권
지역 은</w>
그래 서</w>
sei yu
검 사를</w>
과 거
병 상</w>
자 세
치 는</w>
태 극
표 현
행 위
통합당 은</w>
이만 희</w>
5 :4
극 복</w>
내 일</w>
당 에서</w>
북 미</w>
상 의</w>
존 재
참 모
대통령 에게</w>
국민 을</w>
가운 데
인터넷 은행
er ald
6 5
담 은</w>
대 에서</w>
때 까지</w>
저 를</w>
해 ,</w>
서울 시
2019 년</w>
이러 한</w>
하려 는</w>
당 과</w>
들 어</w>
명 은</w>
임명 장을</w>
” 고</w>
서 로</w>
위원장 ,</w>
민주당 의</w>
명 에</w>
일 단</w>
잘 못
2 :4
도 에</w>
불 구
이 종
합 동</w>
다” 면서</w>
제보 하기',</w>
정책 조정
4 ,2020-03-17</w>
검 사</w>
내 는</w>
마 무리
전 화
04 :1
국민 들이</w>
황교 안
an g
에서 의</w>
신속대응 팀
정책위 의
대 결
옥 중</w>
해 왔
했 을</w>
20 0
예비 후보</w>
정상 회
보 장
심 사</w>
상황 에</w>
새로 운
,정치,국방/외교 ,2020-03-03,
지지 율
' 코로나19</w>
명 과</w>
인 해</w>
가능 한</w>
S N
여 전히</w>
철 회
청 년</w>
거 부
경 을</w>
맞 이</w>
분 열
제 21대</w>
치 를</w>
.0,, 1.0,,</w>
,https://news.naver.com/main/read.nhn?mode=LS2D&mid=shm&sid1=100&sid2=265 &oid=001&aid=0011
'▶ 제보하기',</w>
바로가 기',</w>
. 6
공 식
수 출
위 원</w>
하 루
일보 ,2020.01.02.</w>
) 의</w>
. 2
반 면</w>
분 을</w>
선 관
해 를</w>
,정치, 1,2020-03-17</w>
",뉴시스 ,2020.03.05.</w>
면접 을</w>
' 는</w>
2 :0
4 :4
당 초</w>
등 과</w>
있 지만</w>
팩 트
장병 들이</w>
포토 ]</w>
. 5
3 11
상 당
의 석
3. 0</w>
2020.03.0 2.</w>
단 수
르 게</w>
무 력
여 행</w>
출 발
20 17
남북 관계
사령 부</w>
머니 S
대정부 질문
과 감
드 린
부 사령
장관 의</w>
대해 서</w>
' 이어</w>
e n
열 어
하 자</w>
"" 고</w>
년 간</w>
닷 컴</w>
만 을</w>
보 세요
발표 한</w>
여상 규</w>
불 편
소 비
유 은
,정치,행정 ,2020-03-04,
,https://news.naver.com/main/read.nhn?mode=LS2D&mid=shm&sid1=100&sid2=265&oid=421&aid=0004 38
혐의 로</w>
\r\n\t \t\t
s s
시 아</w>
영 을</w>
의 무
대표 를</w>
경제 를</w>
대해 서도</w>
게 이
외 교</w>
경찰 청
가능성 도</w>
필리버스터 를</w>
5 00
글 을</w>
해 서는</w>
강력 한</w>
. 7
. ",정치,0,2020-03-17</w>
9 :4
가 고</w>
가 지고</w>
감 염</w>
교 섭
돼 야</w>
바 꾸
어 제</w>
기 사
논 평
11 :4
후보 로</w>
코로나19 로</w>
당국 자는</w>
) 은</w>
. 8
무 기
있 는데</w>
차 단
후보 가</w>
다"" 면서</w>
,정치,청와대 ,2020-03-04,
아니냐 는</w>
이른 바</w>
6 ,,,,,</w>
심 사를</w>
의 인
11 :1
다' 는</w>
6 7
순 천
포 항
선거 관리
오늘 (
과 거</w>
청와대 가</w>
확산 을</w>
김병 주</w>
고위 공직자
중소 기업
d a
가 시
선 의</w>
해 외
소상공 인
2 주
르 는</w>
한 편
획 정</w>
덧붙 였
거 쳐</w>
겠 다”고</w>
억 원</w>
일 ,</w>
있 다""며</w>
정 도</w>
최 종</w>
통 상
) 는</w>
” ",
부 처</w>
완 화
주 셨
지 급
학 교
연합 정당
진행 된</w>
선언 했다.</w>
공관 위</w>
제8 차</w>
의 사</w>
인 천</w>
평 가</w>
30 일</w>
,https://news.naver.com/main/read.nhn?mode=LS2D&mid=shm&sid1=100&sid2=268 &oid=001&aid=0011
포인 트
9 :0
압 박
오 마이
있 기</w>
주 문
주 한
구독 하기
적극 적으로</w>
공 급</w>
시 장
이 며</w>
취 약
코 리아
여야 는</w>
구체 적인</w>
배화여 고
국 의</w>
답 했다.</w>
상 생</w>
101주 년</w>
8 9
거 래
기 업</w>
도 발
부 처
아 차
특 위</w>
항 의
행 을</w>
19 9
하겠 습니다.</w>
국민 에게</w>
남북 관계</w>
",사회, 0,2020-03-17</w>
내 년</w>
당 선
매 체
지역 에서</w>
,https://news.naver.com/main/read.nhn?mode=LS2D&mid=shm&sid1=100&sid2=269&oid= 421&aid=0004
' 그는</w>
부 터
했 는데</w>
향 한</w>
긍 정
동 산
사 업</w>
아 닌
아 주</w>
12 월
경제 부총리</w>
현충 원</w>
한선 교</w>
기 반
도 의</w>
올 라
작 년</w>
,2020-01-0 1,"
관계 자
,정치,행정 ,2020-01-02,
. 9
8 :5
\ n</w>
공 중
답 하고</w>
법 제
아 ,</w>
일 어
투 명
검찰 은</w>
사람 이</w>
자 치
조 성
지역 으로</w>
신뢰 를</w>
앞 장
나오 고</w>
2020.03.02. ',</w>
것 입니다.</w>
김 수
동 시에</w>
완 전히</w>
원 ,</w>
평 화</w>
합동 인사
범죄 수사
( 오른쪽
5 :5
기 대한
반 대</w>
보 건</w>
채 널
안전 을</w>
일보 ,2020.03.05.</w>
5 3
본 청</w>
소 속
생활치료 센터
하 라고</w>
서울 신문
선언 한</w>
전원 회의에서</w>
소상공 인</w>
따 라
사 실</w>
조 원</w>
회 관에서</w>
한국 경제
기념 촬
여론 조사
강원 도</w>
선 언</w>
대통령 에</w>
포함 해</w>
나 라</w>
당 사에서</w>
디 지
선 별
지 사
26 일</w>
9 ,,,,,</w>
받 아</w>
시 장은</w>
김정 숙</w>
때문 이다.</w>
최소 화
( c
고 통
기 간
없 다며</w>
정 계
10 :5
원내대표 ,</w>
,https://news.naver.com/main/read.nhn?mode=LS2D&mid=shm&sid1=100&sid2=265 &oid=0
공천관리 위원회</w>
가 져
개 인
광 주</w>
맞 아</w>
사 랑
전 혀</w>
편 성</w>
받아 들
대 남</w>
됐 던</w>
상 대
수 용
일 정</w>
천 안
"" 라고</w>
국회 의</w>
국가 안보
인터넷전문 은행</w>
기 소</w>
대 처
도 움이</w>
되 어</w>
선 전
중 단</w>
하 시
가능 성을</w>
’ 에</w>
떨 어
메 르
승 리를</w>
유 감
적 대
조 금</w>
하 던</w>
한 미</w>
나라 의</w>
6 .0,
7 :0
국 제공
법 적</w>
새 누리
자 동
제 2
자리 에서</w>
모두 발언을</w>
% 를</w>
로 를</w>
소 개
없 을</w>
총 괄
해 군</w>
과학기술 정보
고위공직자 범죄수사
3 월
빨 리</w>
원 에</w>
일 로</w>
허 용
정당 이</w>
국무 회의</w>
조정 식</w>
인터 뷰
&oid=003&aid=00096 34
MB N
가 진</w>
김 명
법 ,</w>
운 동</w>
이 루
정 경
진 단
,뉴시스 ,2020.03.01.</w>
꼼 수
ww w
에게 는</w>
실 을</w>
집 을</w>
취 소
해 소
10 :4
참석 하는</w>
1.0,, 1.0,,</w>
국립 서울
일부 개정
질의 에</w>
국 토
지 자체
정확 한</w>
초대 형</w>
들 ,</w>
사 망
이 후
인 식
조 사를</w>
의원 도</w>
,정치,정치일반,2020-03-0 1,"
촉구 했다.</w>
비롯 해</w>
확실 한</w>
4 :1
7 :5
로 서</w>
여 객
이 달</w>
뉴스 를</w>
,정치,국회/정당 ,2019-12-01,
방사 포</w>
(c )</w>
다 라고</w>
레 이
실 질
여 당
한국 의</w>
중국 인</w>
4 ,,</w>
연 수
정부 에</w>
' 라는</w>
3 00
국 내
실 현
윤 리
조 선</w>
중 이다.</w>
지 사는</w>
기관 지</w>
운영 에</w>
% )</w>
가 까
나 왔
남 구
추 정
측 은</w>
활 동</w>
기자 ',</w>
만들 어</w>
· ·
너 무</w>
별 로</w>
우 체
환 영
처리 를</w>
체계 를</w>
5 2
b s
동 맹
려 는</w>
정 찰
김진 아</w>
성과 를</w>
관 이</w>
인사 청문
불가 피
1 월
6 &aid=00
7 2
관 을</w>
영 업
음 압
적 이</w>
헌 신
국회 는</w>
장관 에게</w>
선거 를</w>
원내 수석부
01 :0
,https://news.naver.com/main/read.nhn?mode=LS2D&mid=shm&sid1=100&sid2=269&oid=05 6&aid=00
현지 시간
,https://news.naver.com/main/read.nhn?mode=LS2D&mid=shm&sid1=100&sid2=269&oid=056&aid=00 10
굉 장
김 일
로 는</w>
방 문</w>
스 러
의 결
의 학
더불어 민주당은</w>
평화 를</w>
배화여고 에서</w>
선별 진료
실 장</w>
&aid=000 16
16 &aid=00016
데이 터</w>
9 &aid=0004
i l
가 야</w>
각 오
원 산</w>
지 와</w>
미래 한국당</w>
예산 안</w>
특례 법</w>
5 ,2020-03-17</w>
8 ,,</w>
선 정
이 주
인 한</w>
임 대
청 구
격리 된</w>
,https://news.naver.com/main/read.nhn?mode=LS2D&mid=shm&sid1=100&sid2=269&oid=003&aid=00097 39
권 고
라 디
말 했습니다.</w>
불 출마
상 정
위 기</w>
확 진</w>
한국 과</w>
04 :2
8 :4
내 지</w>
리 지</w>
인 에</w>
대화 를</w>
모두 가</w>
6 일</w>
국 이</w>
정 계</w>
,정치,국회/정당,2020-03-05, "
대변인 이</w>
부 대</w>
,https://news.naver.com/main/read.nhn?mode=LS2D&mid=shm&sid1=100&sid2=269&oid=001&aid=0011 4
인재 영입</w>
co r
신 형</w>
운 영</w>
조 속
질 병
:00 ,
,https://news.naver.com/main/read.nhn?mode=LS2D&mid=shm&sid1=100&sid2=267&oid=001&aid=0011 44
온라 인</w>
굉장 히</w>
% ),</w>
' ⓒ</w>
5 :2
상 품
신 고
않 도록</w>
업 체
연 합</w>
이 )</w>
해 온</w>
흑 석
감염 병
한국당 의</w>
검찰 개혁
3 ,,</w>
기 간</w>
마 치고</w>
수 요
수 사를</w>
위 기를</w>
장 교</w>
해 달라고</w>
의원 (
한국 에</w>
17 9
지금 까지</w>
2020.3.2 ',</w>
T B
뒷 받
민 정
안 과</w>
위 험
의원 회관에서</w>
신년 합동인사
'[서울=뉴시스 ]
바란 다고</w>
전략무 기</w>
목소 리를</w>
대학 교</w>
SN S
서 초
시 부터</w>
직 후</w>
추 진</w>
충 돌</w>
14 일</w>
발사 한</w>
27 일</w>
입국 제한</w>
방식 으로</w>
논란 이</w>
1 년</w>
1 :5
대 문
바 람
방 호
역 을</w>
환 경
내 부
제 목
대응 에</w>
모습 .</w>
대한민국 의</w>
윤석 열</w>
… '
가 짜
입 장</w>
전 쟁</w>
정 상</w>
화 력
05 :3
분명 히</w>
6 :0
7 4
마 다</w>
오 픈
편 성
헌 법
강조 했다.',</w>
군사 적</w>
이상 의</w>
일( 현지시간
중앙재난안전대책 본부</w>
. 4
나 왔다.</w>
분 들이</w>
산 을</w>
성 ·
인 물
했 다”며</w>
.0, 3.0,
통합 의</w>
국민 과</w>
= 뉴시스
안 타
을 )</w>
주 한</w>
찾 아
,2020-03-0 1,"
공군사 관학교에서</w>
관 ,</w>
교 체
다 가
단 의</w>
대 전</w>
이 기</w>
재 가
조 를</w>
중 ·
친 박
했 다""고</w>
,https://news.naver.com/main/read.nhn?mode=LS2D&mid=shm&sid1=100&sid2=269 &oid=003&aid=0009635
'\n\t']",정치, 1,2020-03-16</w>
확산 에</w>
사태 를</w>
법제 사법
4 .0,,</w>
당 내</w>
자 제
적 절
평 양
하 고자</w>
청와대 의</w>
,정치,북한 ,2020-01-01,
14&aid=0004 38
등 은</w>
선 대
자 와</w>
전 담
체 크
.0 ,</w>
정치 의</w>
박근 혜
수석 은</w>
방침 이다.</w>
도 전
리 얼
설 립</w>
연 결
우 고</w>
의 심
코로나19 와</w>
금지 ',</w>
산 에서</w>
앞 둔</w>
올 랐
저 희
지 에서</w>
회 동
후보 는</w>
미국 은</w>
김 상
되 자</w>
자 들의</w>
장 비
회의 실에서</w>
하겠 다며</w>
포함 한</w>
비핵 화
김진 표</w>
발사체 를</w>
조선중앙통신 이</w>
유은 혜</w>
일(현지시간 )</w>
\ '</w>
군 이</w>
높 아
분 이</w>
비 공개</w>
유 감을</w>
10 월</w>
필요 하
고위공직자범죄수사 처
국 면
박 원
배 치
보 유
오 히
을 ,</w>
이 들은</w>
종 교
진 정
진 행</w>
국가 의</w>
검찰 총
신년 인사
정부서울 청사</w>
' -</w>
2 발을</w>
간 부
걱 정
노 무
다 짐
상 생
창 원</w>
내용 의</w>
@h erald
시무 식에서</w>
동작 구</w>
유성 엽</w>
유승 민</w>
cor p
오히 려</w>
@herald corp
▶ ',</w>
이 든</w>
적 이고</w>
특 정</w>
.0, 0.0,
,https://news.naver.com/main/read.nhn?mode=LS2D&mid=shm&sid1=100&sid2=268 &oid=421&aid=0004
보고 서</w>
위해 서는</w>
T K
c ho
가 를</w>
부 동
여 사가</w>
윤 건
임 명</w>
지 낸</w>
청 에서</w>
21 4
국무 위원장의</w>
2019 .12
,https://news.naver.com/main/read.nhn?mode=LS2D&mid=shm&sid1=100&sid2=264 &oid=0
,정치,북한 ,2020-03-04,
7 ,,</w>
겠 다
공 유
다 음</w>
이라 면서</w>
심각 한</w>
277&aid=0004 6
) 와</w>
시 ·
확 충
일부개정 법률
방 법
비 전
사 퇴
살 펴
원 주
합 류
확 대</w>
3: 5
&oid=003&aid=0009 58
시키 고</w>
권력 기관</w>
되 살
보 낸</w>
의 사를</w>
제 3
자유 공화
,https://news.naver.com/main/read.nhn?mode=LS2D&mid=shm&sid1=100&sid2=264 &oid=003&aid=00097
j e
거 듭</w>
나 고</w>
무 기</w>
시 급
정치 개혁
여러분 ,</w>
강 하게</w>
담 당
업 무</w>
요 ?</w>
체 육
민주 평화
대구 시</w>
이야 기
4 :3
공 약</w>
대 가</w>
봉 쇄
선 임
인 철</w>
프 레
법무 부
돌아 가
현충 원을</w>
뒷받 침
1 년
각 종</w>
강 화</w>
상 에</w>
선 출
찾 은</w>
체 계</w>
의원 들의</w>
내용 이</w>
",뉴시스 ,2020.01.02.</w>
내 가</w>
만 드는</w>
본 격
억 원
비례 정당</w>
뉴스1 코리아
대변 인</w>
선언 을</w>
J TB
김 의
인 데</w>
인 력</w>
있 지</w>
,정치,국회/정당,2020-01-02, "
행정안전 부</w>
정부세종 청사에서</w>
계 약
민 병
소 를</w>
이 란</w>
인 력
정의 당은</w>
신속 처리
전망 이다.</w>
김여 정
속보 ]</w>
자료 를</w>
2017 년</w>
의인 들과</w>
4 :2
“ (
강 행
내 부</w>
단 수</w>
상 은</w>
씨 는</w>
전 략</w>
주 석
표 를</w>
한 번</w>
대통 합
전원 회의를</w>
공천관리 위원장이</w>
창당 준비
있다. /
정경 두</w>
” 라며</w>
건 설
널 드</w>
들 었
보 다는</w>
부 분</w>
자 들은</w>
진 을</w>
집 권</w>
출 석
2020.03.0 3.</w>
질병 관리
5 04
깊 은</w>
도 널드</w>
명 이다.</w>
북 구</w>
을 은</w>
", "['\n\t',</w>
입국 금지</w>
, 이데일리
2 :3
v s</w>
文 대통령,</w>
공 항</w>
산 업</w>
행 안
현 장을</w>
현 장에</w>
2020.3. 1
패스트트랙 (
,사회, 0,2020-03-17</w>
계 명
공 군</w>
백 두
불 러
수 수
없 어</w>
오 른</w>
출 국
포 병
100 0
발표 하고</w>
,정치,청와대 ,2020-03-03,
것이 란</w>
위성 정당
보건복지 부</w>
1 :4
규 제
대 륙
벌 어
보 냈
앞 에</w>
우 한</w>
입 원
자 리를</w>
노동 신문은</w>
이인 영
1 :0
겨 냥
공 동</w>
소 독
역 량을</w>
이 언
이 ,</w>
여론 조사</w>
당정 협의
주한미 군</w>
8 5
간 사
무 시
박 지원</w>
송 구
시 험</w>
않 으면</w>
전 반
차 지
회 장,</w>
국민 들의</w>
필요 가</w>
일보 ,2020.03.02.</w>
평가 했다.</w>
최고위원 은</w>
결 심
밝 혀
이 지만</w>
했 으나</w>
민주 주의
저작권 자</w>
전체 회의에서</w>
7 3
는 다.</w>
위 에서</w>
장 (
", 이데일리
결정 을</w>
병원 으로</w>
언급 한</w>
미래통합당 의</w>
한반도 의</w>
자력 갱
b o
겨 레
고 양
나 설</w>
시 도
안 팎
억 제
원 하는</w>
임 시</w>
이라 도</w>
,정치,국방/외교 ,2020-01-02,
국군 대구
나누 는</w>
위성 정당</w>
전해 졌다.</w>
' 김
남 은</w>
논 의</w>
없 다”고</w>
일 으
전 남</w>
하 는
,연합뉴스 ,2020.03.04.</w>
제안 한</w>
h y
긴 밀
시 킬</w>
위 가</w>
이 지</w>
11 :2
사회 적</w>
예비 역</w>
받아 보세요
제목 의</w>
7 :4
8 :0
근 거
아 베</w>
진 료</w>
지금 은</w>
자유한국당 이</w>
대한상공회의 소</w>
이겨 낼</w>
마지 막</w>
부동 산</w>
2 :2
t h
경 영
고 요.</w>
데 ,</w>
변 함
심 의
앵 커
해 외</w>
장관 을</w>
기자 ]',</w>
경제 ,
,정치,청와대 ,2020-03-05,
추경 예산</w>
국 으로</w>
방 해
상 승
소 리
입 당</w>
있 을
접 수
진 보</w>
현 장
news 1.
&oid=00 8&aid=0004
10 :0
정부 와</w>
언급 했다.</w>
p a
개 별
넘 는</w>
발 의
하 며,</w>
화 상
연합뉴스 TV</w>
,정치,국회/정당 ,2020-03-01,
@news1. ",정치,0,2020-03-17</w>
사실 이</w>
.co.kr )',</w>
자가 격리
만 든</w>
안 은</w>
일 에는</w>
중 증
풀이 된다.</w>
6 ,,"</w>
감 안
개 입
거 대</w>
방 안</w>
신 용
자 들을</w>
청 산
북한 에</w>
선거 에</w>
더불어 민주당이</w>
미래통합당 은</w>
사무 총
전략무 기
겼 다.</w>
급 증
나 머
내 세
내 린</w>
대 비</w>
등 장
빠 른</w>
합 의를</w>
정치 국</w>
의원 에</w>
민주당 과</w>
패스트트랙( 신속처리
가 격을</w>
방 지를</w>
본 관에서</w>
인 근
일 에</w>
현 장에서</w>
신청 한</w>
사태 가</w>
우려 를</w>
세력 의</w>
99 @newsis.com',</w>
u l
강 서
결 코</w>
된 다는</w>
신 당</w>
10 :2
원내대표 와</w>
한편 ,</w>
3 호
6 ,2020-03-17</w>
9 :2
기 구
기 여
벤 처
상 무
이 들</w>
입 니
뉴시스 ',</w>
수도 권</w>
, 파이낸셜뉴스
5 :3
당 ·
명 의
앞 으로도</w>
정치 인
조치 가</w>
탄도미사 일(
1 ,,"</w>
U A
국 을</w>
대 대
됩 니다.</w>
바 탕
불 법
속 에서</w>
어 디
일 은</w>
전 날
준 비</w>
20 00
코로나 바이러스
사람 들이</w>
,정치,북한 ,2020-03-03,
대한민국 을</w>
하자 고</w>
' 은</w>
곳 이다.</w>
다 라며</w>
당 연
유 튜
전 면
직 을</w>
입국 금지
시간 을</w>
둘러 싼</w>
리얼 미
경 험
끝 까지</w>
당 장</w>
대 기
롭 게</w>
복 을</w>
유 영
체 제
투 자
화 상</w>
"" ▶
12 :0
희망 을</w>
시정연설 을</w>
% 포인트
경 향
김 기
북 도
시 절</w>
이 라</w>
2020 년도</w>
"" (
통합당 ,</w>
2020.3. 4</w>
국민들 께</w>
동해 상으로</w>
이탈 리아
부사령 관</w>
5 ,,"['\n\t',</w>
b l
까 지는</w>
내 에서</w>
대 폭</w>
쏟 아
여 기
연 대</w>
한 다""며</w>
해 선</w>
이유 로</w>
:30 ,
' …
' 가</w>
' 문재인</w>
8 :2
M S
개 편
게 시
과 제
대 상</w>
대 규모</w>
이 르
연합뉴스 ]</w>
지난 해
인사 말을</w>
,뉴시스 ,2020.03.03.</w>
국가 가</w>
시간 이</w>
상태 다.</w>
기 부
듣 고</w>
말 로</w>
보 이고</w>
빅 데이터</w>
신 설
실 제로</w>
쓰 고</w>
양 국</w>
에 만</w>
학 교</w>
환 자를</w>
20 15
지도 했다고</w>
나타 났다.</w>
메르 스</w>
0 .0</w>
결 론
국 기에</w>
균 형
기 회
만 원</w>
진 다.</w>
출 연
전략 적</w>
사태 와</w>
새로운 보수당</w>
( 공수처
, 아시아경제
[ 뉴스
박 용
방 지
이 같은</w>
추 구
탈 락
태 양
협 의를</w>
,https://news.naver.com/main/read.nhn?mode=LS2D&mid=shm&sid1=100&sid2=267 &oid=0
,정치,행정 ,2020-03-03,
메시 지</w>
사업 을</w>
정권 의</w>
68 기</w>
' 그러면서</w>
1 만
K -
’ 의</w>
속 에</w>
자 기</w>
작 품</w>
장 거리
전 선
점 이</w>
조 정</w>
행 태
위원회 는</w>
ICB M</w>
\r\n\t\t\t \t\t
고 속
광 역시</w>
도 로
어 린
원 에서</w>
이 날
지 면서</w>
최 고</w>
국민 들에게</w>
강원 도
마음 을</w>
2 ,2020-03-16</w>
노 선
번 영
알 고</w>
재 정
창 원
해 맞이</w>
국방 부는</w>
시설 을</w>
김병 준</w>
인터넷전문 은행
r tp
北 ,</w>
갑 에</w>
군 단</w>
되 도록</w>
들 고</w>
세 력</w>
자 체</w>
해 왔다.</w>
15 &aid=0004
위원회 에</w>
합니 다',</w>
8 4
권 이</w>
부 담
사 항을</w>
올 린</w>
위 로</w>
이 제는</w>
천 ·
탈 당
11 :5
�� ��</w>
지도 부
임명 을</w>
메시 지
",연합뉴스 ,2020.01.02.</w>
있어 야</w>
고려 해</w>
바로가 기</w>
@han kyung
검 토</w>
김 재
김 인철</w>
눈 에</w>
미 술
차 례
초 래
노동 신문
기준 으로</w>
이야 기를</w>
방송 통신
==== ====
패스트트랙(신속처리 안건
감 이</w>
깊 이</w>
사 에</w>
사 건</w>
선 동
선 진
여 성</w>
평 양</w>
23: 0
신속 하게</w>
A rtp
러 시아
바 라
세 표</w>
입 당
있 습니다.',</w>
주 가시
충 돌
민주당 ,</w>
공개 합니다',</w>
미래통합당 이</w>
극복 을</w>
하나 로</w>
ri ce</w>
나서 고</w>
오픈 !</w>
MS I</w>
K- Artp
미술 작품</w>
주가시 세표</w>
K-Artp rice</w>
6 :5
목 격
불 과
장 에게</w>
연합뉴스 ',</w>
코로나19 의</w>
구독 하기',</w>
비상 대책
베트남 에</w>
누 가</w>
대 에</w>
드 리고</w>
분 담
수 급
아 동
여 당</w>
유 엔</w>
이 게</w>
주 택
카 드
20 16
'\n\t \t',</w>
1.0 ,,,</w>
대전 광역시</w>
방향 으로</w>
한미연합 사</w>
5&aid=000 29
나섰 다.</w>
l e
곳 에서</w>
기 울
모 임</w>
얼 마
정치 는</w>
의원 들은</w>
28 일부터</w>
교육 부</w>
임관 식</w>
했다 ",정치,
대륙 간
bl ue
% p
2 일)</w>
7 000
강 도</w>
겠 다며</w>
능 한</w>
달 리</w>
등 록</w>
사 항
압 수수
완 료
유 일
제 68기</w>
조 용
처 벌
충 격
하 태
연구 원</w>
취재 진
seiyu @news1.,정치,0,2020-03-17</w>
( www
2 :1
· 박
건 을</w>
규 제</w>
발 언</w>
분 류
스 크
실 패
언 제
인 구
절 실
집 계
검찰 에</w>
요청 했다.</w>
국제 회의
, 머니투데이
1 ,,,,,</w>
2 월
T K</w>
개 의</w>
관 리</w>
다 르
미 래</w>
수 원
수 록</w>
체 감
국회 법</w>
뉴스1 )</w>
,연합뉴스 ,2020.03.01.</w>
예비후보 가</w>
지역구 에</w>
인천 국제공
5 :1
s y
‘ 코로나19</w>
곳 으로</w>
다 ",정치,
대 외
민 생</w>
범 죄</w>
사 의</w>
상 반
시 장이</w>
악 화
완 화</w>
인 가
장 애
정 기
존 경
해 질</w>
청와대 를</w>
생각 한다고</w>
특별 위원회</w>
사태 로</w>
지역구 인</w>
밝히 고</w>
윤건 영</w>
3 ,,"['\n\t',</w>
드 리는</w>
이 행
해 달라
대구 에</w>
' 김</w>
8 ,,"['\n\t',</w>
공 모
로 운</w>
소 식을</w>
의 도
인 ,</w>
제 101주년</w>
포 기
민주 통합
,https://news.naver.com/main/read.nhn?mode=LS2D&mid=shm&sid1=100&sid2=269&oid= 214
가능 성</w>
미국 을</w>
이동 하고</w>
, 노컷뉴스
4 ,,"['\n\t',</w>
6 :4
· 정
· 청
경 기도</w>
계 가</w>
교 환
희 생
,정치,행정 ,2020-03-02,
,,, 2.0,,</w>
실시 한</w>
:00 ,,"</w>
페이스 북</w>
영등포 을</w>
so da
공중 보건
blue soda
' 정</w>
' 이라는</w>
고 등
논 의를</w>
동 참
말 이</w>
운 동을</w>
원 포인트</w>
전 남
차 량</w>
해 병
호 주
:3 0</w>
밝혔 습니다.',</w>
사실 을</w>
예산 을</w>
00:5 0
계획 을</w>
주재 하고</w>
하노 이</w>
민병 두</w>
3 000
’ 로</w>
곳 에</w>
관 심을</w>
국 정</w>
김 미
나 지</w>
도 착
도 발</w>
보 였다.</w>
세 가</w>
쉽 지</w>
육 군
처 를</w>
하겠 다""고</w>
서울 경제
조치 에</w>
검찰 개혁</w>
신청 을</w>
공직 선거법</w>
관측 이</w>
으 니</w>
친 문
통 보
2020.03.0 1.
사람 은</w>
,https://news.naver.com/main/read.nhn?mode=LS2D&mid=shm&sid1=100&sid2=269&oid=001&aid=0011 45
나머 지</w>
' 비례
공 지
관 심이</w>
리 기</w>
선 제
심 히</w>
정 리
져 야</w>
질 문</w>
하 락
현 안</w>
위원장 인</w>
바탕 으로</w>
% 포인트</w>
6 3
c e
k i
경 증
보 이는</w>
봉 사를</w>
의 정부
인 권
일 정을</w>
하 늘
하 나</w>
현 안
,https://news.naver.com/main/read.nhn?mode=LS2D&mid=shm&sid1=100&sid2=266 &oid=421&aid=0004
언급 하며</w>
여야 가</w>
올해 는</w>
국군대전 병원
민 간</w>
시 켜</w>
이 광
주 년
활 성
대구 동산
상황 이다.</w>
으로 써</w>
.k ",정치,
청주 시</w>
6 2
7 .0,
[ 뉴스1
구 조
군 포
명 예
못 해</w>
부 의
북 구
불 법</w>
서 구
스 탄
여 부를</w>
역 대</w>
한국 ,</w>
,정치,정치일반 ,2019-12-01,"
경선 에서</w>
이언 주</w>
1 천
b c
j o
간 에</w>
계 기로</w>
넘 어</w>
담 화를</w>
됐 다는</w>
뿐 만</w>
소 식
싱 가
으 나,</w>
저 지
전 자
직 원
코로나19 에</w>
사태 에</w>
혁신 을</w>
아시아 경제</w>
왼쪽 부터</w>
해양 수산
유영 하</w>
' s
' ☞
그 룹</w>
김 경
대 남
등 도</w>
병 역
북 ·
살 아
악 수
있 지만,</w>
접 근
쳤 다.</w>
최 재
허 위
습니 다."",</w>
청원 은</w>
합동 타격
말씀 을</w>
노컷 뉴스</w>
스럽 게</w>
bluesoda @newsis.com',</w>
' 또</w>
) 에서</w>
개 월</w>
기 계
기 고</w>
노 웅
등 에서</w>
무 장
민 족
스 타
유 통
의 뢰
인 도
태 세를</w>
정부 를</w>
선거 법
인사 하고</w>
법안 이</w>
,https://news.naver.com/main/read.nhn?mode=LS2D&mid=shm&sid1=100&sid2=264&oid=001&aid=0011 44
'☞ 공감언론</w>
공 사</w>
관 심
기 억
대 (
대 선
됐 다.',</w>
시 ,</w>
아 세
으 면서</w>
이 고,</w>
전 북</w>
진 상
차 량
해 당
10 :1
12 9
.. .</w>
경례 를</w>
스러 운</w>
박원 순</w>
뛰 어
소 위</w>
시 민</w>
판 정을</w>
해 나가
다. \xa0
사진 을</w>
국무 회의를</w>
확진 자는</w>
임관 식에</w>
처음 으로</w>
자가 격리</w>
6 1
경 청
교 류
그 대로</w>
라 ,</w>
벗 어
입 을</w>
중국 ,</w>
,정치,청와대 ,2020-03-02,
,정치,북한 ,2020-01-02,
2주 간</w>
고위공직자범죄수사처 (공수처
장거리 포병
6 4
길 이</w>
모 르
성 장
역 에</w>
전 주
종 료
축 하
홍 범
효 율
인사 하는</w>
지원 에</w>
,https://news.naver.com/main/read.nhn?mode=LS2D&mid=shm&sid1=100&sid2=266 &oid=018&aid=0004
평가 가</w>
목소 리가</w>
옥중 서신
라디 오</w>
3 당</w>
e t
강 남
고 한</w>
나 서</w>
법 '</w>
사 와</w>
아 서</w>
자 리</w>
투 표</w>
행 보
회의 (
코로나19 가</w>
오마이 뉴스
자력갱 생
1 차</w>
4 +
관 과</w>
능 력
대 주
봤 다.</w>
없 다
이 익
일 반</w>
조 세영</w>
14 일간</w>
17 &aid=0000
방역 을</w>
선거구 획정
속보 ]
중대 본</w>
,https://news.naver.com/main/read.nhn?mode=LS2D&mid=shm&sid1=100&sid2=269&oid=4 17&aid=0000
' 새로운</w>
6 :1
K T
강 민
내 기</w>
봐 야</w>
여 권
인 재</w>
주 의를</w>
즉 각</w>
해 리</w>
위원 회의</w>
,https://news.naver.com/main/read.nhn?mode=LS2D&mid=shm&sid1=100&sid2=265 &oid=018&aid=0004
27 0
창당 을</w>
다' 고</w>
제외 한</w>
7 ,2020-03-17</w>
S B
t e
과 도한</w>
맞 이
부 족</w>
신 종
위 치
", 세계
공천 이</w>
개혁 에</w>
기념촬 영을</w>
동 구
막 아
만 이</w>
봉 사</w>
비 난</w>
여 권</w>
자 기
자 발
자 들과</w>
증 거
합 의</w>
현 황
24 시간</w>
,정치,정치일반,2020-01-02, [
to ya
ya toya
,https://news.naver.com/main/read.nhn?mode=LS2D&mid=shm&sid1=100&sid2=269&oid=214 &aid=000
싱가 포
# 흥
( ',</w>
. ,정치,
2 ,,"['\n\t',</w>
곳 이</w>
놀 까?</w>
분 의</w>
셈 이다.</w>
정 도
'▶ 뭐</w>
제1부부 장이</w>
움직 임
디지 털
#흥 ',</w>
, "['\n\t',</w>
만 큼
자 영업
전 화</w>
전 한</w>
주 변
측 근
표 시
혁 신</w>
선거 에서</w>
내용 은</w>
결과 가</w>
se r
태극 기</w>
yatoya @yna.co.kr',</w>
가 족</w>
공 적</w>
구 분
나 올</w>
년 부터</w>
부 와</w>
송 파
일 자리
지 의</w>
터 닝</w>
합 리
.co m</w>
문재 인
문제 는</w>
비서 실
이었 던</w>
' 마스크</w>
1 인
그 가</w>
무 슨</w>
물 러
야 권</w>
조 작
주 호
주 로</w>
회 동을</w>
정치 에</w>
국민 들은</w>
.0,, 2.0,,</w>
공정 한</w>
분석 이</w>
46 9
중대 본
인근 에서</w>
' ©</w>
· 부
교 회</w>
대 란
배 경
분 구
손 을</w>
이 며,</w>
주 재</w>
축 산
춘 천
측 에</w>
19 :3
입국 한</w>
위원회 가</w>
나라 가</w>
정상 회의
' ),</w>
' news1.
2 년</w>
k oo
개 로</w>
년 에</w>
못 했다.</w>
시 한
안 의</w>
예 방</w>
인 근</w>
작 은</w>
줄 어
지 향
집 중</w>
결정 에</w>
3.0, 1.0,
질문 을</w>
비난 했다.</w>
울산 시장</w>
부족 한</w>
구매 !',</w>
구독하기 !',</w>
,https://news.naver.com/main/read.nhn?mode=LS2D&mid=shm&sid1=100&sid2=269&oid=421&aid=0004 49
뉴스1코리아 (',</w>
[뉴스1 ]</w>
'news1. kr',</w>
( 가운데
8 :1
l l</w>
것 ""이라며</w>
근 본
년 의</w>
단 식
막 는</w>
배 를</w>
생 산</w>
스 ,</w>
이 미
이 지
연합 정당</w>
국민 은</w>
총리 가</w>
대응 하고</w>
기념 식
감사 의</w>
전략무 기를</w>
예상 된다.</w>
규모 의</w>
복귀 를</w>
인터넷은행 법</w>
’ 이</w>
개 를</w>
고 를</w>
매 각
시 켜
원 장</w>
자 랑
적 ·
지 검
&aid=000 2
,https://news.naver.com/main/read.nhn?mode=LS2D&mid=shm&sid1=100&sid2=269 &oid=003&aid=0009636
,https://news.naver.com/main/read.nhn?mode=LS2D&mid=shm&sid1=100&sid2=264 &oid=421&aid=0004
지지 율</w>
.0,1.0, 1.0</w>
",연합뉴스 ,2020.03.05.</w>
:19 ,
권력 기관
교섭 단체</w>
홍범 도</w>
명 백
배 포
인 지</w>
직 접
문제 에</w>
,https://news.naver.com/main/read.nhn?mode=LS2D&mid=shm&sid1=100&sid2=269&oid=0 16&aid=00016
세종 시</w>
3·1 독립운동
자원 봉사
일각 에서는</w>
국립서울 현충원을</w>
흑석 동</w>
% →
8 3
무 산
성 전
있 던</w>
진 출
하 셨
", 파이낸셜뉴스
기자회견 에서</w>
요구 하는</w>
피해 를</w>
방안 도</w>
,https://news.naver.com/main/read.nhn?mode=LS2D&mid=shm&sid1=100&sid2=269&oid=056&aid=0010 79
S L
개 월
내 외
농 림
대 선</w>
따 로</w>
물 갈
사 로</w>
않 을
열 리는</w>
위 축
유 포
이 끌어
자 인</w>
통 과</w>
통 화를</w>
함 을</w>
환 자가</w>
필요 하다고</w>
개정 안</w>
노력 에</w>
분석 했다.</w>
:11 ,
질병관리 본부
7 1
감 독
거 주
구 로
단 에</w>
대 장은</w>
면 서,</w>
모 니
민 주</w>
보 니</w>
신 을</w>
연 장
울 산</w>
이 집
제 도</w>
제 의</w>
케 이
11 &aid=000
서울 대</w>
중앙 선거관리
통합당 이</w>
24 0
당국 은</w>
오늘 의</w>
공수 처</w>
'\xa0 ▶',</w>
:21 ,
탄핵 을</w>
4 .0</w>
개 발</w>
겪 고</w>
기 초
꼬 집
멈 추
비 교
사 전</w>
신 보
어 도</w>
일 주
지 사가</w>
차 이
키 로</w>
회 와</w>
10 만
변호 사는</w>
이번 에</w>
유치 원</w>
아차 산에서</w>
패스트트랙(신속처리안건 )</w>
% 가</w>
6 ·
군 사</w>
기 존
높 이</w>
대 부분</w>
되 고,</w>
매 년</w>
생 활</w>
의 석</w>
정 도로</w>
캡 처
행 위를</w>
회 는</w>
정치 ,</w>
,연합뉴스 ,2020.03.03.</w>
@news1. kr',</w>
방역 에</w>
수사 권</w>
00:5 3:
,https://news.naver.com/main/read.nhn?mode=LS2D&mid=shm&sid1=100&sid2=269&oid=0 79
공정 사회</w>
보고 를</w>
",뉴시스 ,2020.03.02.</w>
se o
본회의 장에서</w>
구체 적</w>
,https://news.naver.com/main/read.nhn?mode=LS2D&mid=shm&sid1=100&sid2=269&oid=00 9&aid=0004
따라 서</w>
김의 겸</w>
유튜 브</w>
8 .0,
고 위</w>
군 에</w>
때 는</w>
문 의</w>
사 단</w>
시 기
여 파
오 차
이 틀
주 체
하 자는</w>
합 참
했 다""며</w>
20 &aid=0003
대구 에서</w>
lb o
진행 하고</w>
간호 장교
협상 의</w>
페이스북 을</w>
국제회의 장에서</w>
SL B
1 26
3 35
8 ,2020-03-17</w>
A ll</w>
반 박
보 내</w>
설 립
신 의</w>
올 림
있 었다.</w>
제 조
국민 에</w>
사람 을</w>
중국 과</w>
지도 부</w>
평가 를</w>
공정 거래
극복 할</w>
기준 을</w>
’ 으로</w>
공 격
대 사는</w>
때 보다</w>
말 했습니다.',</w>
변 경
필 수
&aid=000 33
조치 는</w>
정보 를</w>
,https://news.naver.com/main/read.nhn?mode=LS2D&mid=shm&sid1=100&sid2=267&oid=001&aid=0011 4
:20 ,
:10 ,
박영 태</w>
5 05
9 4
s t
권 과</w>
되 기</w>
상 당한</w>
세 력을</w>
수 의</w>
실 망
잠 시</w>
정 우
지 사</w>
힘 든</w>
국무 회의에</w>
전원 회의
세력 이</w>
공수처 법</w>
:26 ,
오늘( 2일)</w>
가까 운</w>
k m
나 오는</w>
대 는</w>
신 규</w>
인 구</w>
자 고</w>
하 다며</w>
한국당 을</w>
치료 를</w>
컷오 프</w>
2020.03.01. ',</w>
( 4
계 를</w>
아 니다.</w>
윤 소
작 용
재 개</w>
제 작
조 금
진 정한</w>
정당 의</w>
경제 적</w>
발표 를</w>
,https://news.naver.com/main/read.nhn?mode=LS2D&mid=shm&sid1=100&sid2=269&oid=003&aid=00097 4
국제 사회
대구시 청에서</w>
지키 는</w>
제376 회</w>
논평 을</w>
탄도미사일( ICBM
( 3
5 .0,,</w>
7 &aid=000
거 의</w>
녹 색
부 모
승 객
였 던</w>
환 담
후보 자를</w>
예정 이라고</w>
변화 에</w>
:40 ,
,https://news.naver.com/main/read.nhn?mode=LS2D&mid=shm&sid1=100&sid2=269&oid=05 7&aid=000
:50 ,
이름 을</w>
겠 다.</w>
과 정을</w>
군 을</w>
기 회를</w>
답 하는</w>
대 사가</w>
동 해</w>
받 지</w>
의 장은</w>
조 차</w>
진 전
취 임
통 제
표 본
한 경
형 태
흥 덕
20 일</w>
정치 ·
경제 부총리
뉴스1 ',</w>
관련 해서는</w>
설명 했다.',</w>
확산 으로</w>
31 일까지</w>
당직 자</w>
신년합동인사 회에서</w>
받아보세요 ',</w>
2016 년</w>
조용 히</w>
하태 경</w>
2 5일</w>
공 조
구 에</w>
용 인
이 송
있 는
조 만
협 상을</w>
흔 들
http ://
외교 ·
30 9
2020.03.0 1.</w>
통합당 에</w>
이어 서</w>
출신 인</w>
대륙간 탄도미사일(ICBM
) 으로</w>
g o
권 익
린 다.</w>
미 ·
바 이
방 송</w>
없 다”며</w>
자 료</w>
하 에</w>
힘 이</w>
", 아시아경제
가치 를</w>
30 7
30 분
전략 공천</w>
모니 터
감 시
김 홍
박 종
발 열
스 마
연 락
위 해서</w>
작 전
절 대</w>
종 로</w>
직 무
하 다</w>
하 지만,</w>
훨 씬</w>
"" 라며</w>
10 :3
정부 ,</w>
,뉴시스 ,2019.12.01.</w>
병원 에</w>
,뉴스1 ,2020.03.04.</w>
우체 국
경제, 0,2020-03-17</w>
축산 식품
4 /뉴스1</w>
9 ,,"</w>
9 ,,</w>
k k
마 포
만 세
모 로</w>
양 보
역 임
저 항
찬 성
청 장은</w>
타 다</w>
터 미
폐 쇄
in ce
미래 로</w>
", 머니투데이
조치 로</w>
발생 한</w>
적극 적인</w>
공무 원
철저 히</w>
얼마 나</w>
ince 19
강 구
다 하고</w>
만 나
안 전</w>
외 에</w>
인 력을</w>
팩 트</w>
협 의</w>
의원 총
11 :3
외교 부에</w>
국가 는</w>
,https://news.naver.com/main/read.nhn?mode=LS2D&mid=shm&sid1=100&sid2=269&oid=0 81
입장 문을</w>
우려 가</w>
진료 를</w>
농림 축산식품
조만 간</w>
' 코로나19
그 간</w>
매 일</w>
보 훈
본 부는</w>
상 과</w>
상 대로</w>
시 대를</w>
오 직</w>
위 의</w>
적 을</w>
제 도를</w>
최 기
치 러
판 매</w>
행 사</w>
화 성
통합 을</w>
24 일</w>
최고위원 회의</w>
주목 된다.</w>
7 :3
· 유
기 지</w>
내 다
맞 추
못 하는</w>
바 랍
신 청</w>
원 우</w>
을 에서</w>
재 차</w>
정 례
하 면서도</w>
흥 해
다” 는</w>
국무 회의에서</w>
민생 법안</w>
세종 로</w>
것이 라</w>
양산 을</w>
새해 에는</w>
공약 을</w>
' bluesoda@newsis.com',</w>
( 추경
7 :2
9 월</w>
9 :1
p sy
구 입
동 대문
만 약</w>
빛 낸</w>
신 당
실 험
역 학
이 란
있 겠
있 다면서</w>
주 기</w>
텔 레
했 으며,</w>
추가 로</w>
입국 제한
수여 한</w>
,정치,청와대,2020-01-02, "
국토 교통
% p</w>
5 179
i t
금 수산
달 라는</w>
미 세
보 기
봉 오
임 세영</w>
전 으로</w>
종 식
지 정</w>
합 쳐
11 월
강화 를</w>
메시 지가</w>
신속 히</w>
대화 하고</w>
대한민국 이</w>
건강 을</w>
당연 히</w>
psy 5179
6 ,,</w>
거 든
대 거</w>
마 저</w>
믿 는
부 에서</w>
이 례
정 해
찬 성</w>
중앙 당사에서</w>
지원 ,</w>
사회 부총리</w>
차원 의</w>
하려 고</w>
민식이 법</w>
국회의 장이</w>
경남 도
노무 현</w>
2015 년</w>
' 과</w>
1 :2
6 :2
’ 라는</w>
가 지
근 로
당 사
드 라
만 난</w>
명 확
베 이
분 석</w>
설 득
아 산
없 다""고</w>
이 사,</w>
정 비
조 건
첫 날
취 임</w>
홍 보
대구 로</w>
통합당 의</w>
정의 용</w>
있었 던</w>
기득 권</w>
김수 민</w>
469 &aid=0000
한경 닷컴</w>
ince19 99@newsis.com',</w>
4 월
귀 국
그 램
노 태
대 면</w>
든 지</w>
리 아</w>
명 도</w>
주 민</w>
주 길</w>
처 음</w>
최 초
하 다
혁 명
화 하고</w>
국무 회의
,정치,국회/정당 ,2020-03-01,"
,정치,북한 ,2020-01-01,"
자리 에</w>
\r \n
함께 하는</w>
@han koo
반응 을</w>
게이 트</w>
계명 대학교</w>
7 :1
8 :3
고 는</w>
단 은</w>
당 협
더 팩트</w>
모 임
부 탁
집 권
하 라는</w>
호 흡
개혁 의</w>
2.0, 1.0,
추경 안</w>
결과 에</w>
2020.1. 1</w>
차관 이</w>
,https://news.naver.com/main/read.nhn?mode=LS2D&mid=shm&sid1=100&sid2=266&oid=003&aid=00097 39
국민들 께서</w>
국군간호사 관학교</w>
신속대응팀 을</w>
게이 트
ki lbo
농 협
대 미</w>
말 고</w>
없 도록</w>
취 한</w>
품 을</w>
19 96
공천 에서</w>
김정 일</w>
공개 했다.</w>
최고위원 회의에</w>
자체 가</w>
태양 궁
민주통합 의원
@hankoo kilbo
' photo
@ m
T F
검 증
그 의</w>
막 을</w>
별 관에서</w>
연 석
자 격
주 신</w>
퇴 장
향 하고</w>
뉴스 ',</w>
3: 4
서울 중앙
국무 총리</w>
총리 ,</w>
국가 적</w>
지원 하기</w>
지도 부가</w>
평화 와</w>
,https://news.naver.com/main/read.nhn?mode=LS2D&mid=shm&sid1=100&sid2=269&oid=0 14&aid=000438
데일리 안
알려 졌
국정 농
포토 ]
총회 장이</w>
신속대응 팀</w>
공관위 의</w>
경기 도
3 ,2020-03-16</w>
갔 다.</w>
긴 장</w>
돌 입
말 아
새 로</w>
신 임
아 직
알 아야</w>
없 게</w>
유 공
유 재
일 방
일 대에서</w>
집 단</w>
차 게</w>
책 을</w>
했 으며</w>
,정치,북한 ,2020-03-05,
합동 참모
내 리
대 중
머 물
발 열</w>
부 인</w>
잠 수
정 지
행 동</w>
화 ,</w>
회 가</w>
22 :3
필요 성을</w>
요구 를</w>
법안 은</w>
조선중앙 TV
부분 이</w>
처음 이다.</w>
보좌 진
정책조정 회의에서</w>
과감 한</w>
인터뷰 에서</w>
' 미래통합당</w>
2 차</w>
곧 바로</w>
과 는</w>
권 한
김 민
동 포
들 과의</w>
본 선
생 도
었 던</w>
였 습니다.</w>
의 견</w>
일 환
입 은</w>
조 원
지 나
체 제</w>
취 하고</w>
폭 력</w>
핵 ·
확 보</w>
인사 들이</w>
2020.3. 4/뉴스1</w>
,뉴스1 ,2020.03.02.</w>
목소 리
정확 하게</w>
무엇 보다</w>
119 &aid=0002
경향 신문
,https://news.naver.com/main/read.nhn?mode=LS2D&mid=shm&sid1=100&sid2=269&oid=057&aid=000 14
k im
감 소
결 의
결 정</w>
고 향
공 연
기 정
내 각
단 합
단 식</w>
모 양
시 켰
시 킨</w>
아 요.</w>
약 식
유 리
의 대</w>
통 해서</w>
특 공
할 지</w>
연합뉴스 ]',</w>
경제 의</w>
심재 철
대사 관</w>
취약 계
UA E
% 에</w>
2 주</w>
3 대</w>
5 47
” ',</w>
것 처럼</w>
대 체</w>
무 너
변 화를</w>
분 노
분 간</w>
산 행</w>
생 도</w>
연 속</w>
예 측
윤 상
저 도</w>
정 보</w>
치 지</w>
향 하는</w>
지역 사회</w>
코로나19 를</w>
신년 사
처리 하기로</w>
공개 한</w>
청원 이</w>
자유한국당 의</w>
변호 사가</w>
구체 적으로</w>
서비 스</w>
개정안 은</w>
친서 에서</w>
자세 한</w>
과학기술정보 방송통신
' 이라고</w>
“ 코로나19</w>
가 칭
김 도
당 원</w>
된 다.',</w>
라 면서</w>
려 고</w>
명 분
바 꿔
사 격
시 기</w>
시 장을</w>
예 수
유 력
의 장
좋 아
총 동원
하 느냐
현 지</w>
형 사
회 장</w>
코로나19 재난안전대책
참석 했다.</w>
강화 하는</w>
&oid=003&aid=00096 3
당국 이</w>
데이 터
현충 탑
사건 을</w>
이정 현</w>
-- --
착용 하고</w>
화력 타격
' 동
6 29
i g
· 진
국 에</w>
단 일
대 사</w>
디 어
리 며</w>
만 한</w>
사 람</w>
소 에</w>
어 떠
왜 곡
이 끌
있 으며</w>
자 문
제 보</w>
1.0, 1.0,
,https://news.naver.com/main/read.nhn?mode=LS2D&mid=shm&sid1=100&sid2=269&oid=003&aid=00097 40
확인 할</w>
실시 간</w>
3.0,, ,,</w>
저작권자 (c)</w>
불구 속</w>
의석 을</w>
금수산 태양궁
7 월</w>
“ 우리</w>
기 후
김 부
동 의</w>
명 (
미 군</w>
부 장
억 원을</w>
연 말</w>
오 고</w>
인 으로</w>
전 통
주 요
차 기</w>
참 가
나아 가
보이 지</w>
팩트 체크
단수 추천
노태 악</w>
' 네이버에서</w>
5 000
가 정
고 수
과 도</w>
관 광</w>
나 서는</w>
대 ,</w>
에 ,</w>
웠 다.</w>
저 능한</w>
전 선</w>
주 년을</w>
질 을</w>
함 에</w>
정치 가</w>
.c ",정치,0,2020-03-17</w>
입국 자에</w>
전문 가</w>
,뉴스1 ,2020.03.01.</w>
,정치,북한 ,2020-03-02,
임관 식
말씀 드
95 %</w>
제1부부 장은</w>
정신 을</w>
공관위 가</w>
약속 을</w>
잘못 된</w>
안타 깝
상반 기</w>
미세 먼
, 매일경제
1 :3
4 .0,,
6 :3
f n
단 계</w>
되 겠
마 찬
사 회의</w>
상 의
의 약
키 워
특 수
한국 에서</w>
2019 년을</w>
미국 과의</w>
논의 가</w>
는데 요.</w>
이재 민</w>
덧붙였 다.',</w>
윤소 하</w>
1 20
9 2
경 찰</w>
김 동
단 히</w>
동 생
문 화</w>
변 수
불 안
생 산업
서 의</w>
양 양
없 고</w>
오 후
의 식
임 무를</w>
조 기</w>
중 히</w>
처 분
총 력</w>
폭 력
설명 을</w>
is t
생각 이</w>
모습 이</w>
업무 를</w>
공천관리위원회 는</w>
남북관계 에</w>
5 28
7 ,,"['\n\t',</w>
d ong
구 속
단 이</w>
더 팩트
동 의를</w>
됐 습니다.</w>
맞 는</w>
민 중
보 기</w>
비 용
시 각
않 기로</w>
연 기</w>
이 긴
이 수
작 성
최 악
출 범
해 임
험 지</w>
노동 신문</w>
기자회 견</w>
시민 들이</w>
추진 할</w>
연구 원은</w>
비례대표 용</w>
외국 인</w>
안철수 계</w>
",뉴스1 ,2020.03.05.</w>
MBC ',</w>
유승 민
현역 인</w>
주한 미국
2 ~
가 중
개 입</w>
굳 건
나 동
내 놨
되 새
려 면</w>
면 서
면 에서</w>
방 한
비 를</w>
야 당의</w>
지 연
차 를</w>
최 우선
폐 기
뉴스 1,
다"" 라고</w>
미국 에</w>
미국 과</w>
기념 식에</w>
자신 이</w>
나라 를</w>
입장 하고</w>
알려 진</w>
간호 장교</w>
있어 서</w>
안철수 ,</w>
정상회 담
김상 조</w>
명백 한</w>
김홍 희</w>
뉴스1, 2019.12.01.</w>
9 3
9 ,2020-03-17</w>
검 역
곳 은</w>
공 평
권 한을</w>
까 지
대 장</w>
라 면</w>
말 한</w>
바 뀌
부 상
소 재
아 버
애 국
여 기에</w>
우 려</w>
원 장은</w>
위 ,</w>
인 들이</w>
적 이다.</w>
증 상
합 니다.',</w>
&aid=000 29
2020.0 1.01.</w>
,https://news.naver.com/main/read.nhn?mode=LS2D&mid=shm&sid1=100&sid2=265 &oid=
감염증(코로나19 )과</w>
32 &aid=00029
기자간담 회에서</w>
분야 의</w>
더불어민주당 과</w>
3 개</w>
f o
건 물
방 을</w>
부 대변인은</w>
소 위는</w>
안 건</w>
않 아
원 내</w>
은 )</w>
접 경
확 신
회 (
한국 을</w>
공천 배제
발표 하는</w>
,연합뉴스 ,2019.12.01.</w>
(코로나19 )</w>
@news1. ,사회,0,2020-03-17</w>
대화 의</w>
경쟁 을</w>
,https://news.naver.com/main/read.nhn?mode=LS2D&mid=shm&sid1=100&sid2=269&oid=00 8&aid=0004
조속 히</w>
김기 현</w>
1인 당</w>
dong a
, 세계
2 &aid=000
6 월</w>
j in
강 도
공 포
됐 고,</w>
러 시아</w>
맞 붙
박 능
사 보
스 (
연 철</w>
육 성
자 들
존 중
진 중
해 가</w>
헌 혈
의원 들과</w>
&aid=000 24
국민 소통
정당 에</w>
2020.3. 3</w>
중국 에서</w>
시작 한</w>
클릭 !',</w>
통일 부는</w>
가능성 에</w>
기대한 다고</w>
9 .0,
감 시</w>
공 간
명 한</w>
문 구
바 라는</w>
방 한</w>
부 인
비 율
상 징
선 (
시 대
시 를</w>
아 나
야 권
완 성
이 전
저 의</w>
점 에</w>
채 취
책 임</w>
취 업
폭 발
하 세요
했 는데,</w>
한국 일보
연합 뉴
14 :00</w>
전략 을</w>
발사 에</w>
정의 당
시민 단체
경찰 청</w>
부분 에</w>
불편 을</w>
(www .
노웅 래</w>
않을 까</w>
팩트체크 ’</w>
p er
겪 는</w>
공 군
김 한
나 리
는 )</w>
된 다며</w>
방 법을</w>
법 률</w>
복 무
빠 르게</w>
자 금</w>
전 파
지 침
청 소
형 성
정치 권</w>
위원 은</w>
하겠 다
국민 께</w>
선거 법과</w>
03: 29
위원회 를</w>
요구 했다.</w>
일본 의</w>
변화 와</w>
조선중앙 TV</w>
김태 호</w>
과학기술정보 통신
대구동산 병원에서</w>
' ※</w>
6 개</w>
Y T
’ 가</w>
경 보를</w>
기 의</w>
내 용</w>
대 장이</w>
맞 서</w>
박 정
변 화</w>
부 사
않 다.</w>
예 술
이 원
일 과</w>
잊 지</w>
장 군의</w>
제 공</w>
지 진</w>
차 단을</w>
현 직</w>
대표 】
한국 이</w>
3: 04
국민 일보
정의 당,</w>
기소 한</w>
2.0,, 1.0,,</w>
지방 자치
방침 을</w>
확실 하게</w>
해양 경찰청
",뉴스1 ,2020.01.02.</w>
영등포 구</w>
,https://news.naver.com/main/read.nhn?mode=LS2D&mid=shm&sid1=100&sid2=265&oid=003&aid=00097 39
취재 진</w>
'\n\t\n\t [
불구 하고</w>
,https://news.naver.com/main/read.nhn?mode=LS2D&mid=shm&sid1=100&sid2=268&oid=421&aid=0004 38
정치개혁 연합
' 앞서</w>
2 일부터</w>
i c
기 재
물 량
발 생</w>
병 상
불 리는</w>
비 리</w>
비 판</w>
빠 진</w>
서 고</w>
속 도를</w>
신 도
입 법</w>
장 .</w>
채 택
체 를</w>
트 위
플 랫
한 다.',</w>
'\n\t'] ",사회,
,정치,정치일반,2020-03-05, [
서울= 뉴스1)</w>
따르 면,</w>
미래통합당 에</w>
지역구 를</w>
일본 ,</w>
자료 사진
현재 까지</w>
포항 시</w>
의학 적</w>
취재진 의</w>
seo ul
4 ·
4 차</w>
S in
t f
강 제</w>
대 신
동 지
목 적
반 복
여 명</w>
이 던</w>
재 훈</w>
함 으로써</w>
화 생
회 원
대표 도</w>
중앙 당</w>
중앙 일보
우리 에게</w>
남북 이</w>
선거구 로</w>
유지 하고</w>
주재 로</w>
부정 평가</w>
협조 를</w>
국무위원 들이</w>
대북 제재</w>
리얼미 터
압수수 색
' “
, 한국경제
9 1
? ',</w>
건 강</w>
계 획</w>
노 선</w>
단 에서</w>
리 더
발 급
방 명
배 정
시 진
영 도
음 성
있 음을</w>
장 )</w>
전 광
한 시
호 남
외교 적</w>
강조 한</w>
그러 니까</w>
국민의 례
신뢰 수준
방식 에</w>
의견 이</w>
시무 식</w>
방위 비</w>
대법 관
되었 습니다.</w>
개 선</w>
구 호
국 은</w>
글 로
대 목
불 만을</w>
실 로</w>
예 결
원 래</w>
입 법
입 원</w>
전 염
코 인
특 단의</w>
혐 의를</w>
re ser
주시 기</w>
03: 40
대화 하는</w>
바란 다”고</w>
지정 된</w>
right s</w>
Copyright (c)</w>
마지 막
장거리포병 구분
1996 ,</w>
Sin ce</w>
9 :3
s i
’ ,</w>
개 발을</w>
광 주시
당 국</w>
라 인</w>
모 색
병 상을</w>
보 기',</w>
새 롭게</w>
식 으로</w>
실 천
아 래</w>
영 사
의 해</w>
이 태
있 는지</w>
자 금
참 여</w>
측 이</w>
해 상
행 복
관계 부처</w>
조선 노동당</w>
들어 간
통일 ·
오른 쪽</w>
관학교 를</w>
시스템 을</w>
서초 구</w>
2019.12 .
벤처 기업
,https://news.naver.com/main/read.nhn?mode=LS2D&mid=shm&sid1=100&sid2=269&oid=214&aid=000 10
2 3일</w>
경 악
관 (
기 조
다 …
대 정부</w>
도 발을</w>
묵 념
보 면서</w>
이 석
입 학
조 건</w>
초 청</w>
타 임
필 요</w>
.0,, 2.0</w>
관계 가</w>
국가 ·
획정 과</w>
:30 ,,"</w>
김현 미</w>
홍준 표
이루 어
민정 수석
與 ,</w>
강 력</w>
격 상
그 램</w>
높 였다.</w>
단 결
모 델
박 수
볼 모로</w>
야 당을</w>
여 명이</w>
일 제
자 흐
전 했다.',</w>
정 세</w>
증 상</w>
카 자흐
해 보
"" [
대구 ·청
03: 28
03: 38
03: 41
신속 한</w>
",뉴시스 ,2020.03.01.</w>
피해 자</w>
항공 편
신천지 예수
,https://news.naver.com/main/read.nhn?mode=LS2D&mid=shm&sid1=100&sid2=267&oid=001&aid=0011 45
민주통합의원 모임</w>
( P
5 월</w>
가 ,</w>
국 제</w>
내 비
노 영
다 시
대 리
발 전을</w>
살 피
수 정
얘 기를</w>
역 량
유 엔
조 사에서</w>
죄 송
출 입
하 신</w>
헌 법에</w>
활 력을</w>
회 ,</w>
", 매일경제
정의 당이</w>
강화 한</w>
교수 가</w>
이뤄 질</w>
,https://news.naver.com/main/read.nhn?mode=LS2D&mid=shm&sid1=100&sid2=265&oid=421&aid=0004 50
전문가 들은</w>
대정부 질문에</w>
홈페이 지</w>
위로 의</w>
목격 하게</w>
꼬집 었다.</w>
' 라고</w>
\ t</w>
개 인</w>
거 짓
됐 다며</w>
분 들
신 뢰</w>
쓰 는</w>
와 서</w>
차 관</w>
포 항</w>
표 결
하 다”고</w>
한 일</w>
북한 ,</w>
외교 부
서울 에서</w>
감염 증</w>
대책 이</w>
비판 을</w>
어려 워
어려 울</w>
지적 이</w>
철저 한</w>
4+ 1
정우 택</w>
대륙간탄도미사일(ICBM )</w>
' 와</w>
가 슴
경 계
기 로
내 야</w>
비 대
에 어
운 신의</w>
은 평
이 제
재 해
평 안
",정치, 0,2020-03-16</w>
장관 에</w>
민주당 에</w>
03: 31
\xa 0</w>
,https://news.naver.com/main/read.nhn?mode=LS2D&mid=shm&sid1=100&sid2=266 &oid=0
수석 대변인은</w>
매일 신문</w>
의혹 을</w>
라이 엔</w>
0 7
1 :1
5 .0</w>
E U</w>
‘ 코로나19
곽 상
국 ,</w>
끝 에</w>
대 출
맡 은</w>
불 참
비 해</w>
성 에</w>
여 건
이 하</w>
자 도</w>
절 차</w>
조 사는</w>
촛 불
캠 프</w>
"" '
대표 이사,</w>
대구 와</w>
03: 26
상황 실
평화 의</w>
개정 안을</w>
,https://news.naver.com/main/read.nhn?mode=LS2D&mid=shm&sid1=100&sid2=269&oid=001&aid=0011 310
제한 하는</w>
여행 객
유성 구</w>
·· ·
만큼 ,</w>
아나 운
' 정
= 연합뉴스)</w>
각 계
그 것이</w>
금 강
묻 는</w>
비 자</w>
시 고</w>
유 도
이 내</w>
적 으로는</w>
정 착
탄 압
태 도를</w>
판 을</w>
,https://news.naver.com/main/read.nhn?mode=LS2D&mid=shm&sid1=100&sid2=269&oid= 277&aid=00046
18 세</w>
예정 된</w>
09 :00</w>
인재 영입
시무 식
나아 가</w>
:16 ,,"</w>
지지율 이</w>
소개 했다.</w>
김일 성</w>
유일 한</w>
미세먼 지</w>
e il
i ma
s p
과 연</w>
권 영
권 에</w>
는 ,</w>
당 분간</w>
대 장
랜 드
르 ,</w>
면 을</w>
믿 고</w>
보 호</w>
불 러</w>
요 구</w>
주 지</w>
지 은</w>
지 면</w>
진 흥
참 관
3&aid=000 35
,뉴시스 ,2020.01.01.</w>
,https://news.naver.com/main/read.nhn?mode=LS2D&mid=shm&sid1=100&sid2=269&oid= 469&aid=0000
,https://news.naver.com/main/read.nhn?mode=LS2D&mid=shm&sid1=100&sid2=265 &oid=008&aid=0004
입장 에</w>
촉구 하는</w>
민식이 법을</w>
탄도미사 일</w>
저희 가</w>
",세계 ,
' "",</w>
길 로</w>
남 부
드 라이
레 터</w>
만 으로</w>
모 아
미 리</w>
수 단
시 행</w>
시 장의</w>
언 급</w>
업 체</w>
오 지</w>
있 으면</w>
있 으며,</w>
재 정</w>
적 ,</w>
전 개
한 다면서</w>
한 겨레
혼 란
00 :2
.com ,</w>
19 58
의원 들
다” 라고</w>
03: 30
37 0
결정 했다.</w>
추경 안을</w>
수준 의</w>
여상 규
,https://news.naver.com/main/read.nhn?mode=LS2D&mid=shm&sid1=100&sid2=269&oid=02 5&aid=00029
주석 의</w>
2020.3.1 /뉴스1</w>
정치· 외교·
ima eil
' 저작권자</w>
/ 사진=
3 선</w>
· 18
’ 은</w>
… “
가 동
같 은
경 과
나 마</w>
눈 ,</w>
맞 지</w>
사 유
수 성
체 제로</w>
혐 의</w>
호 주</w>
환 자는</w>
훼 손
.0, 4.0,
03: 36
03: 39
03: 25
2020.3. 2</w>
시작 으로</w>
이어 지고</w>
본회의 가</w>
헤럴드 경제</w>
성공 을</w>
@hankyung .c",정치,
최재 성</w>
의약 품
' ☏</w>
1 39
b i
· 함
공 적
발 기
별 도</w>
봉 환
양 성
이 철
자 위
전 진
전 까지</w>
주 인
출 범</w>
타 고</w>
하 려</w>
하 더라도</w>
한 정
해 나갈</w>
호 텔
힘 으로</w>
"" ","['\n\t',</w>
의원 들</w>
국민 동의
03: 27
재배 포
00:4 0
본부 청사에서</w>
가능성 은</w>
않는 다고</w>
중도 보수</w>
인민 군</w>
미래한국당 에</w>
올랐 다.</w>
's ince1999@newsis.com',</w>
여파 로</w>
나동 연</w>
박능 후</w>
정치·외교· 통일·
9 시</w>
@ donga
a e
경 증</w>
그 게</w>
김 연철</w>
니 까?</w>
미 뤄
병 진
불 가능
산 하</w>
새 보수당</w>
설 이</w>
수 출</w>
연 령
열 심히</w>
의 사진
인 프
최 선의</w>
포 착
북한 과</w>
03: 35
병원 을</w>
,https://news.naver.com/main/read.nhn?mode=LS2D&mid=shm&sid1=100&sid2=268 &oid=02
보고 에서</w>
브리핑 룸
제안 했다.</w>
중단 을</w>
이번 이</w>
드린 다고</w>
조속 한</w>
법제사법 위원회</w>
JTB C
고위공직자범죄수사처(공수처 )</w>
629 &aid=0000
어떠 한</w>
) ·
2 50
공 조</w>
대 회
만 들</w>
맡 고</w>
비 슷
세 제
안 심
않 다고</w>
여 부에</w>
이 틀</w>
중 도</w>
청 은</w>
투 자</w>
했 기</w>
,https://news.naver.com/main/read.nhn?mode=LS2D&mid=shm&sid1=100&sid2=269 &oid=003&aid=000958
03: 3
지도 부는</w>
훈련 에</w>
<저작권 자</w>
지지 층
나가 는</w>
제안 에</w>
이낙 연
새해 를</w>
어렵 다고</w>
유치 원
오마이 뉴스</w>
' 2020</w>
갑 ·
년 에는</w>
다 해</w>
된 다면</w>
맞 춰</w>
물 량을</w>
삶 의</w>
생 략
선 )</w>
어 제
영 원
영 환</w>
있 다면</w>
전 수
탑 승
토 리</w>
했 으면</w>
향 을</w>
20 12
습니 까?</w>
상황 은</w>
처리 할</w>
대상 이</w>
요구 에</w>
임시 국회</w>
승리 로</w>
효과 가</w>
유권 자</w>
적절 한</w>
JTB C</w>
' 더불어민주당</w>
국 대</w>
느 꼈
다 소</w>
대 출</w>
대 사를</w>
등 이다.</w>
무 하
베 네
선 포
소 수
시 가</w>
워 싱
유 지</w>
윤 도한</w>
인 데,</w>
중 진
지 진
참 으로</w>
타 다
통 신</w>
투 쟁</w>
해 줄</w>
하겠 다.</w>
원내대표 실에서</w>
"[ 속보]</w>
한국당 ,</w>
국가 를</w>
강조 했습니다.</w>
문제 로</w>
처리 가</w>
신뢰 가</w>
긴급 명령
Copyright s</w>
생활치료센터 로</w>
주호 영</w>
최기 영</w>
의약품 안전
s un
가 량</w>
겠 다""고</w>
격 한</w>
나 와</w>
발 전</w>
번 도</w>
보 험
사 상</w>
삼 아</w>
세 종</w>
세 연</w>
심 한</w>
아 카
었 습니다.</w>
이 건
있 느냐
정 에</w>
지 자</w>
집 단
트 (
하 여
&aid=000 22
3: 3
47 &aid=00022
30 분</w>
03: 37
03: 34
그러 면</w>
,연합뉴스 ,2020.01.01.</w>
,정치,정치일반,2020-03-02, [
23: 1
시작 했다.</w>
어려 움이</w>
,https://news.naver.com/main/read.nhn?mode=LS2D&mid=shm&sid1=100&sid2=269&oid=0 47&aid=00022
피해 가</w>
,https://news.naver.com/main/read.nhn?mode=LS2D&mid=shm&sid1=100&sid2=265&oid=421&aid=0004 504
제시 했다.</w>
시점 에</w>
황교안 ,</w>
정상회 담</w>
주문 했다.</w>
6 .0,,</w>
9 일</w>
가 격
곳 을</w>
글 에서</w>
끝 난</w>
능 력을</w>
다 하겠다고</w>
득 표
받 으
배 현
상 호</w>
소 집
승 리</w>
시 장과</w>
싸 우는</w>
옳 은</w>
의 혹</w>
이 기
일 관
장 도</w>
장 세영</w>
재 선</w>
조 기에</w>
주 실</w>
측 의</w>
편 지를</w>
한 데</w>
했 다</w>
행 사를</w>
장관 ,뉴시스,2020.01.02.</w>
선거 대책
국무 부</w>
참석 ,</w>
15 0
비판 이</w>
에서 만</w>
자유한국당 은</w>
이재 명</w>
항공 기</w>
홈페이 지
선진 화
이광 재</w>
a y
“ ‘
감 찰
강 창
계 신</w>
권 성
무 더
무 죄
발 견
산 행
시 나리
실 효
없 었다.</w>
영 화</w>
올 려</w>
외 무
의 )</w>
이 기도</w>
있 는데,</w>
점 도</w>
지 대</w>
총 력
의원 들을</w>
원내대표 를</w>
03: 32
지원 이</w>
기념 사를</w>
인터 넷</w>
,https://news.naver.com/main/read.nhn?mode=LS2D&mid=shm&sid1=100&sid2=268 &oid=0
전체 회의에</w>
부분 을</w>
안정 화</w>
영입 인재</w>
.1 /뉴스1</w>
일부개정법률 안이</w>
번영 의</w>
,https://news.naver.com/main/read.nhn?mode=LS2D&mid=shm&sid1=100&sid2=269&oid=081 &aid=000
방명 록
1 ,,</w>
a r
’ (
거 라고</w>
검 색
곳 의</w>
나 를</w>
넓 혀</w>
데 어
만 이다.</w>
번 호
법 인</w>
서 로
신 호
실 무
역 으로</w>
연 습
위 성</w>
이 들이</w>
입 당을</w>
정 으로</w>
주 권
폰 데어
회 장과</w>
대구 경북</w>
중국 에</w>
정세 에</w>
전망 이</w>
했다 면서</w>
이유 는</w>
해석 된다.</w>
현실 을</w>
상임 선대
공천관리위원회 가</w>
상당 히</w>
채널 을</w>
,https://news.naver.com/main/read.nhn?mode=LS2D&mid=shm&sid1=100&sid2=269&oid=001&aid=00114 39
헌법 재판
존경 하는</w>
SLB M
바랍 니다.</w>
' 특히</w>
2 천
4 년</w>
6 00
N ew
같 다고</w>
경 상
군 소
남 아
노 력</w>
당 권
박 찬
발 동
보 지</w>
부 여
부 합
사 라
선 물
시 장에</w>
아 예</w>
엄 중한</w>
임 용
재 고
정 지</w>
질 타
처 는</w>
촉 진
하 길</w>
11 2
후보 자는</w>
원내 대변인은</w>
우리 나라</w>
처리 에</w>
1.0,, 1.0</w>
중국 의</w>
,https://news.naver.com/main/read.nhn?mode=LS2D&mid=shm&sid1=100&sid2=266 &oid=02
변호 사</w>
비례대표 제</w>
이용 해</w>
공무 원</w>
생활치료 센터</w>
제재 를</w>
한· 미</w>
소속 으로</w>
안타 까
진중 권</w>
New s</w>
( https://
1 38
가 야
구 를</w>
노 원
다 행
미 상</w>
본 관</w>
사 용</w>
씨 가</w>
아 파
올 렸다.</w>
울 먹
위 안
윤 후
이 념
있 나
적 은</w>
정 미
채 이
체 제를</w>
해 제
혁 명</w>
경제 가</w>
여러분 께</w>
22 &aid=0000
국가 와</w>
진행 한</w>
위원회 (
국무총리 는</w>
는데 도</w>
이야 기</w>
단계 로</w>
금융 소비
효과 를</w>
프로 세
oo d
���� ��</w>
,https://news.naver.com/main/read.nhn?mode=LS2D&mid=shm&sid1=100&sid2=269&oid=4 22&aid=0000
제도 적</w>
무력 화
앞장 서</w>
가짜 뉴스
행안 부</w>
진상 조사
국토교통 부</w>
거든 요.</w>
김부 겸</w>
' 코로나</w>
/ 라인</w>
4 .0,,,,</w>
m m
· 장
“ 김</w>
거 창
관 에</w>
논 리
더 니</w>
돌 봄
말 했다고</w>
무 리</w>
박 범
비 건</w>
시 절
없 습니다.</w>
외 에도</w>
자 에게</w>
초 치
취 지를</w>
카 톡
판 문
폭 을</w>
10 월
외교 부가</w>
공천 에</w>
조선 일보</w>
생각 을</w>
기소 된</w>
교육 을</w>
시설 에</w>
,https://news.naver.com/main/read.nhn?mode=LS2D&mid=shm&sid1=100&sid2=265&oid=421&aid=0004 49
정권 을</w>
중도 층
마음 이</w>
중소 기업</w>
중소 벤처기업
원칙 에</w>
공군사 관학교</w>
국군대전 병원에서</w>
하노 이
기사 문의</w>
je bo
겨냥 한</w>
집계 됐다.</w>
신보 라</w>
첫날 인</w>
카톡 /라인</w>
간 부</w>
광 명
기 ,</w>
긴 장
꼼 수</w>
돌 파</w>
를 ,</w>
수 행</w>
순 간
었 다고</w>
우 수</w>
운 용
전 재-재배포</w>
제 독
제 일</w>
터 키</w>
", 조선
주시 고</w>
대응 할</w>
최고 위원회</w>
의료 진</w>
중국 발</w>
어려 움
예비후보 로</w>
실시 하고</w>
획정 안을</w>
의미 를</w>
매일 신문
정책위의 장은</w>
새로운 보수
2019.12 .1/뉴스1</w>
멈추 지</w>
폰데어 라이엔</w>
% 의</w>
' 도</w>
' 2일</w>
가 서</w>
가 )</w>
공 군의</w>
교 수</w>
구 상
구 매</w>
김 대
남 아</w>
단 호
대 조선</w>
말 도</w>
매 입
먹 은</w>
몰 아
뮤 니
박 수를</w>
부 대
서 명
안 내
에 )</w>
역 할</w>
요 .',</w>
인 도</w>
쪽 으로</w>
취 지
커 뮤니
합 쳐</w>
회 장이</w>
후 원
00 :39
news .com</w>
.com )</w>
대통령 도</w>
이라 면</w>
.0,, 3.0,,</w>
중앙 선거
03: 5
관련 된</w>
.k ,정치,0,2020-03-17</w>
정책 에</w>
최고 위원</w>
생각 한다며</w>
개정 안이</w>
이어 질</w>
브리 핑</w>
합의 한</w>
정권 이</w>
이유 가</w>
의미 가</w>
심판 론
그렇 지</w>
고민 정</w>
대정부질문 에서</w>
디지 털</w>
안팎 의</w>
아세 안</w>
h t</w>
갑 은</w>
군 인
그 럼
기 능
달 려
동 양
많 다.</w>
모 인</w>
방 지</w>
북 강서
분 리
서 가</w>
수 립
연 일</w>
위 기에</w>
을 (
이 슈
일 종
지 혜
징 계</w>
첨 단
축 소
평 등
한 의</w>
합 법적</w>
15 총선</w>
,정치,국방/외교 ,2020-03-01,
,https://news.naver.com/main/read.nhn?mode=LS2D&mid=shm&sid1=100&sid2=269&oid=001&aid=0011 311
입장 이다.</w>
사업 에</w>
이뤄 진</w>
외국 인의</w>
컷오프 (
국군간호사 관학교를</w>
=뉴시스 ]</w>
강민 석</w>
) 도</w>
, MBC
1 36
5 개</w>
검 체
다 할</w>
매 체</w>
스 !
싸 움
없 다""며</w>
요 청</w>
위 대한</w>
육 군사
이 장
인 하
제 안을</w>
참 석</w>
충 청
화 와</w>
",정치, 2,2020-03-17</w>
21 일</w>
위원장 ,뉴시스,2020.03.05.</w>
지역 이</w>
기자 들에게</w>
경제 에</w>
기념 식</w>
제1 차</w>
당국 의</w>
검토 할</w>
국정 기획
제시 한</w>
KB S</w>
정면돌파 전
법사 위</w>
(오른쪽 )</w>
여론조사 심의
고통 을</w>
모양 새
지방자치 단체
브리핑룸 에서</w>
' \t
' 이에</w>
1 인</w>
[ 헉
거 듭
김 지
당 으로</w>
문 에서</w>
미 디어
민 심
부 응
성 취
스 ]',</w>
실 은</w>
양 ·
었 다.',</w>
열 망
절 반
제 안</w>
졌 습니다.</w>
직 원</w>
참 고
초 ·
쿨 ]</w>
했 다."",</w>
헉 !</w>
힌 다.</w>
지역 별</w>
민주당 을</w>
30 6
방역 과</w>
방역 대책
클릭 해,</w>
대화 가</w>
한반도 를</w>
기자간담 회
파이낸셜뉴스 .</w>
경우 ,</w>
재판 에</w>
실질 적</w>
=뉴시스 ]
긴밀 히</w>
소리 나는</w>
[뉴스 쿨]</w>
들어간 다</w>
스! 토리</w>
[헉 스]',</w>
% 였다.</w>
) .</w>
2 .0,</w>
@ fn
m e
갖 추
걸 고</w>
걸 쳐</w>
결 단
구 ·
군 수
낡 은</w>
다 탄
다 만,</w>
담 긴</w>
대 로
박 한</w>
사 고</w>
사 항</w>
어 요.</w>
위 기가</w>
자 들에게</w>
준 호</w>
지 지를</w>
착 수
총 력을</w>
토 리
학 생</w>
통합 에</w>
2, 1.0,,,,</w>
장관 도</w>
30 8
한국당 에</w>
,정치,국회/정당 ,2019-12-01,"
아니 면</w>
·경 남
무단 복
메시 지는</w>
<저작권 ",사회,0,2020-03-17</w>
법안 에</w>
만들 고</w>
부분 은</w>
rig ht</w>
:26 ,,,,,</w>
:36 ,,,,,</w>
Copy right</w>
진영 의</w>
,https://news.naver.com/main/read.nhn?mode=LS2D&mid=shm&sid1=100&sid2=267&oid=421&aid=0004 49
역사 적</w>
앞장 서
제2 차</w>
다짐 했다.</w>
민주평화 당</w>
최악 의</w>
과학기술정보통신 부</w>
@fn news.com</w>
6 ,,"['\n\t',</w>
[ ',</w>
갑 (
권 은
기 동
발 사를</w>
병 실</w>
사 단
여 명의</w>
의 한</w>
이 냐
일 의</w>
전 력
주 거
주 말
중 이라고</w>
촉 구</w>
키 우는</w>
통 화</w>
특 별</w>
평 택
호 응
ve d
대표 에게</w>
3: 11
선거 운동
인사 가</w>
'\n\t']",정치, 2,2020-03-16</w>
신천 지를</w>
중국 은</w>
노력 이</w>
부산 시
대구·경북 (
지속 적으로</w>
기록 했다.</w>
국무위원 들과</w>
저작권자 ,정치,
박영 선</w>
je ong
% (
' 한편</w>
, 헤럴드경제
1 호
· 해
남 조선
노 선을</w>
느 끼
동 이</w>
두 에</w>
려 야</w>
메 이
물 품
박 양
병 실
보 )
불 거
순 으로</w>
아 냐
안 에서</w>
위 협</w>
이 하
잠 정</w>
중 대한</w>
터 키
특 혜
폼 페이
현 판</w>
여러 분</w>
금지 하거나</w>
총선 의</w>
확진 자의</w>
문제 와</w>
연구 소</w>
:30 ,,,,,</w>
하려 면</w>
지켜 지
사이 버
관측 도</w>
프로 그램
답변 을</w>
대비 해</w>
원주 갑</w>
출연 해</w>
신종 코로나바이러스</w>
무하 차</w>
중앙선거 여론조사심의
' 안</w>
4 000
거 주</w>
것 ”
고 발</w>
구 의</w>
나 흘
도 와</w>
동 일</w>
령 을</w>
료 를</w>
무 능
발 휘
세 월
시 기에</w>
운 행
이 견
젊 은</w>
첫 날</w>
회 귀
20 년</w>
선거 제</w>
2020.3. 1</w>
청원 에</w>
않는 다.</w>
건강 이</w>
강제 징
선별진료 소
변함 없는</w>
권영 진</w>
정치·외교·통일· 안보</w>
5 &aid=0000
@ kyung
개 방
교 착
담 화</w>
대 립
뚜 렷
미 군
사 ·
수 많은</w>
않 겠다고</w>
장 병</w>
제 주
주 장을</w>
하 시는</w>
한 마
행 동을</w>
행 보를</w>
11 0
국민 청원</w>
우리 나라의</w>
격리 를</w>
보인 다고</w>
한미 동맹
세계 를</w>
준비 하고</w>
않았 다고</w>
중심 의</w>
:10 ,,,,,</w>
장기 화
,정치,국방/외교,2020-03-05, "
2020.3.2 /
식품 의약품안전
적대 시</w>
선별진료 소</w>
각오 로</w>
cho sun
hy ang
모니터 링
시진 핑</w>
@kyung hyang
, 뉴스1,2019.12.01.</w>
5 ·18
다 수</w>
단 행
된 다”고</w>
벌 금
보 냈다.</w>
분 위기
산 행을</w>
시 청
씨 를</w>
압 박</w>
완 벽
음 에도</w>
임 무
입 영
전 투</w>
정 유
창 신
'\n \n\t',</w>
",정치, 3,2020-03-17</w>
다” 라며</w>
", 한국경제
우리 나라
우리 공화
대응 이</w>
신년 회에</w>
법무 장관</w>
통신 은</w>
34 9
통과 한</w>
나가 겠다고</w>
전체 회의</w>
전망 했다.</w>
하나 가</w>
확보 를</w>
내놓 은</w>
가운데 ,</w>
창당준비 위원회</w>
스탄 ,</w>
위치 한</w>
채이 배</w>
( 사진=
4 명</w>
【 대표】
감 옥
개 가</w>
기 념</w>
남 녘</w>
단 축
동 주</w>
매 각</w>
모 아</w>
백 원우</w>
보 도</w>
사 안
석 을</w>
성 향
여 당이</w>
유 학생
전 액</w>
주 변</w>
한국 인에</w>
&oid=00 5&aid=000
12 5
판단 을</w>
출마 할</w>
44 8
1.0,, 2.0,,</w>
,정치,청와대 ,2020-01-01,
기념 사에서</w>
특별 위원회에서</w>
&aid=0000 6
질문 에는</w>
검토 하고</w>
면접 에</w>
:20 ,,"</w>
'( 서울=뉴스1)</w>
조직 지도부
사이 트</w>
동원 해</w>
투쟁 을</w>
경고 했다.</w>
bs .co.kr)',</w>
원내수석부 대표는</w>
돌아가 서</w>
있을 지</w>
환담 장으로</w>
최초 로</w>
잠수 함
전광 훈</w>
아카 데
' 민주당</w>
1 21
l o
건 너
군 단
급 속
남 겨
니 까
보 증
서 면</w>
서 대문
성 남
순 천</w>
신 경
신 중
왼 쪽</w>
위 생
이 니</w>
일 자리</w>
재 송
전 신
직 한</w>
집 회</w>
투 기
현 대
의원 에게</w>
12 :2
03: 42
신천 지에</w>
@news1. ,정치,
신청 자</w>
공동 협력을</w>
선거구 를</w>
사건 에</w>
수여 식</w>
않는 다면</w>
88 &aid=00006
나아 갈</w>
:29 ,,</w>
:12 ,,"</w>
Copyright s
당원 권</w>
이종 걸</w>
선출 한</w>
'동 영상</w>
글로 벌</w>
' 국회</w>
0 시부터</w>
1 ,,"['\n\t',</w>
2 .0
강 을</w>
과 시
국 경
귀 국</w>
높 이
눈 물을</w>
동 반
동 구</w>
미 루
삼 성전
실 행
어 진</w>
원 으로</w>
입 영</w>
정 이</w>
초 청
&oid=00 9&aid=0004
통합 이</w>
국민 들</w>
외교 부,</w>
4, 1.0,,,,</w>
36 7
사람 들의</w>
,https://news.naver.com/main/read.nhn?mode=LS2D&mid=shm&sid1=100&sid2=264 &oid=
.co.kr ),</w>
이해 식</w>
분석 도</w>
통일 ,</w>
방위 사령부</w>
,https://news.naver.com/main/read.nhn?mode=LS2D&mid=shm&sid1=100&sid2=265&oid=003&aid=00097 4
다음 에</w>
회복 을</w>
사례 가</w>
하시 면</w>
이르 면</w>
농림축산식품 해양수산
( .k",정치,
2 &aid=0003
6 명</w>
E U
“ 문</w>
“ 이번</w>
권 한</w>
기 술</w>
도 대체</w>
될 지</w>
못 할</w>
보 복
보 인</w>
상 ,</w>
선 발
수 류
여 부</w>
으 론</w>
을 에는</w>
인 과</w>
장 소
전 직</w>
절 을</w>
줄 을</w>
지 만
착 취
행 사에서</w>
국회 의원이</w>
민주 주의를</w>
후보 자가</w>
조선 반
중국 을</w>
.co.k r</w>
평가 는</w>
.0,1.0, 2.0</w>
에게 도</w>
이만 희
조선중앙통신 은</w>
대안 신당
,정치,국방/외교,2020-03-03, "
선관 위</w>
청산 리</w>
해병 대</w>
이집 트</w>
2019.12. 1</w>
위안 부</w>
2&aid=0003 44
2 5</w>
3 ·
3 법</w>
h an
” 며</w>
검 경
기 와</w>
기 본</w>
늘 었다.</w>
대 학</w>
모 바
모 으
목 숨
비 아,</w>
빠 르고</w>
세 우
심 판</w>
않 게</w>
어 ,</w>
역 사를</w>
연 대를</w>
오 르
이 혜
이 들의</w>
인 데
적 합
제 막
지 검</w>
지 지도
진 솔
표 준
해 진</w>
행 위에</w>
뉴스 '</w>
.0, 5.0,
10 일</w>
대구 지역</w>
03: 4
3, 1.0,,,,</w>
시작 하는</w>
신속 하고</w>
확인 됐다.</w>
간담 회를</w>
선거구 에</w>
김정은 의</w>
안정 원</w>
트럼 프
수여 하고</w>
새누리 당</w>
3호 인</w>
인터넷전문은행 법</w>
친문 게이트</w>
유재 수</w>
2&aid=000 34
그럼 에도</w>
( C
. \xa0
3 년</w>
4 00
j u
거 예
게 재
관 해</w>
구 속</w>
김 승
달 러
담 당</w>
대 미
들 었다.</w>
마 비
머 지
민 ·
박 태
법 의</w>
봉 을</w>
뿌 리
세 요</w>
소 관</w>
완 수
우 의
이 로
이 면</w>
중 진</w>
지 인</w>
최 근
춘 추
치 료</w>
패 트</w>
확 인</w>
환 경</w>
황 운
힘 들
00 :38
대통령 으로서</w>
미래 지향
신년 회</w>
군사 법
23: 09
강화 의</w>
,뉴스1 ,2020.03.03.</w>
서울=뉴시스 ]</w>
",연합뉴스 ,2020.01.01.</w>
센터 에서</w>
CB S
제출 한</w>
필리버스터 (
제1부부 장의</w>
:12 ,,,,,</w>
목표 로</w>
존재 하는</w>
정찰 기</w>
각오 를</w>
백두 산</w>
직접 적인</w>
캡처 )</w>
화생 방
bi z
jeong @yna.co.kr',</w>
폼페이 오</w>
4 .1
r a
‘ 상생</w>
교 민
그 건</w>
날 치
높 게</w>
단 지</w>
대 기업
를 )</w>
박 재
부 총리는</w>
비 상</w>
시 로</w>
아 무</w>
안 ·
엇 갈
워 크
임 기</w>
잘 못</w>
장 막
재 난</w>
진 심
진 입
친 문</w>
하 고
하 는데,</w>
in k
", 경제,0,2020-03-17</w>
대응 과</w>
37 4
군사 훈련을</w>
민생 법안을</w>
바른미래 당을</w>
교수 와</w>
경선 이</w>
해석 이</w>
무엇 을</w>
근본 적으로</w>
봉오 동</w>
의사진 행</w>
중앙선거여론조사심의 위원회</w>
아카데 미</w>
, \xa0
@ imaeil
’ 에서</w>
“ 문재인</w>
“ 우리는</w>
걸 림
교 도
그 냥</w>
김 삼
당 할</w>
독 자
돌 봄</w>
된 다
드 루
드 립니다.</w>
론 을</w>
몰 디
반 문
보 였
보 완
본 부(
부 패
상 한
새 보수
속 에서도</w>
윤 동주</w>
일 인</w>
잖 아요.</w>
재 산
조 종
증 상이</w>
토 로
펼 쳐
해 제</w>
회 부
히 는</w>
"" <저작권자</w>
뉴스 ]</w>
", 머니S
기자 들의</w>
지난 주</w>
2020. 2.
관계 자</w>
지원 하는</w>
\' 을</w>
평화 공동
추미 애
나가 야</w>
했다 가</w>
에서 ,</w>
감사 원</w>
받았 다고</w>
강력 히</w>
보건복지 위원회</w>
,https://news.naver.com/main/read.nhn?mode=LS2D&mid=shm&sid1=100&sid2=267&oid=421&aid=0004 38
do so
올라 온</w>
정계 복귀</w>
방호 복</w>
@heraldcorp .c",정치,
살펴 보고</w>
북· 미</w>
증거 장막
케이 뱅
표본 오차
워싱 턴
( 가칭
4 선</w>
8 일</w>
D M
【 원내대표
계 급
국 (
김 순
꿈 꾸
넘 겨
당 적</w>
대 대</w>
도 종
디 어</w>
만 만
무 게
무 제한</w>
물 론
방 안이</w>
성 사
세 ,</w>
외 면
자 원을</w>
지 출
최 소</w>
항 구
"" 코로나19</w>
10 시</w>
", 노컷뉴스
12 7
05 :12
인사 는</w>
비례 정당
16 일</w>
\' 는</w>
보도 가</w>
기소 에</w>
공동 대표가</w>
여론 을</w>
말씀 드리
:40 ,,,,,</w>
정신 과</w>
홈페이 지를</w>
공항 에</w>
결론 을</w>
합동참모 본부는</w>
1 ~
5 .0,,
6 조
거 운</w>
공 보
배 당
병 무
보 입니다.</w>
수 위를</w>
승 을</w>
시 장,</w>
여 수
여 명을</w>
차 별
차 액
한 계가</w>
호 남</w>
20 13
한국 은</w>
14 0
사회 ·
4, "
최고 위</w>
보도 에</w>
통과 를</w>
간담 회
임관 식을</w>
중요 하다고</w>
,https://news.naver.com/main/read.nhn?mode=LS2D&mid=shm&sid1=100&sid2=265&oid=421&aid=0004 335
:39 ,,,,,</w>
규모 를</w>
지시 했다.</w>
문화 체육
,https://news.naver.com/main/read.nhn?mode=LS2D&mid=shm&sid1=100&sid2=265&oid=003&aid=00097 40
:31 ,,"</w>
억제 력</w>
SB S
일주 일</w>
올림 픽</w>
' 조
' 이날</w>
5 천
7 시
P K</w>
’ 이라는</w>
강 립</w>
광 화
권 ,</w>
남 측
당 시
말 하는</w>
면 에</w>
민 경
범 위</w>
불 허
사 우
살 리
서 로를</w>
설 치</w>
시 의회</w>
신 도</w>
않 겠다는</w>
어 붙
외 부</w>
우 파
위 와</w>
이 건</w>
주 먹
집 에서</w>
착 륙
충 족
토 록</w>
해 서도</w>
허 브
00 :3
"" ▶</w>
대표 에</w>
의원 직</w>
회의 가</w>
상황 실</w>
비례 용</w>
17 일</w>
29 9
발언 은</w>
24 8
구독 !',</w>
국민의 당은</w>
것이 다.',</w>
있었 다는</w>
당국 에</w>
일본 에</w>
지금 도</w>
협의 해</w>
생활 을</w>
:19 ,,,,,</w>
:38 ,,,,,</w>
:38 ,,"</w>
:37 ,,,,,</w>
·김 태
온라 인
서비스 (
김종 민</w>
태극 기를</w>
보냈 다고</w>
pa per
체제 에</w>
박용 진</w>
인천국제공 항</w>
20&aid=0003 27
의원총 회에서</w>
지진 피해</w>
( 속보
1 35
1 일)</w>
강 효
경 산
군 의
김 강립</w>
두 번째
로 서는</w>
므 로</w>
벌 이고</w>
부 당
부 결</w>
삶 을</w>
세 대
아 침
안 정을</w>
어 서</w>
여 당의</w>
역 설
원 하시면</w>
육 사</w>
을 과</w>
의 도가</w>
일 도</w>
자 세를</w>
준 석</w>
즉 시</w>
치 가</w>
했 다.
,, 1.0,,,</w>
"" "
5, 1.0,,,,</w>
금지 법
전략 공천을</w>
출마 자</w>
출마 하는</w>
아니 라고</w>
총선 이</w>
23: 08
주장 했다.',</w>
지적 했다.',</w>
안보 에</w>
이상 이</w>
변화 가</w>
:21 ,,,,,</w>
:11 ,,,,,</w>
활동 에</w>
행사 에</w>
KBS 뉴스</w>
277&aid=0004 59
주셨 던</w>
,정치,북한,2020-03-03, "
합동타격 훈련을</w>
이긴 다',</w>
‘코로나19 ’</w>
삼성전 자</w>
' seiyu
' 확실한</w>
( 청와대</w>
. ,정치,1,2020-03-17</w>
5 02
가 지로</w>
국 과</w>
기 차게</w>
늘 리
되 나
때 도</w>
벨 트
서 에</w>
서 라도</w>
시 한을</w>
아 프리
양 천
열 렸
의 장</w>
이 의
일 )
점 은</w>
치 열
탄 생
특 정
틀 을</w>
의원 .</w>
11 7
미래 의</w>
장관 .</w>
금지 ]',</w>
상황 과</w>
강조 하며</w>
.k r
설명 이다.</w>
구독 하기</w>
시민 들의</w>
시민 들과</w>
추진 하고</w>
국무총리 의</w>
분석 이다.</w>
이뤄 졌
마련 된</w>
비상 한</w>
수여 식에</w>
3개 월</w>
아무 리</w>
과거 를</w>
있다./ 윤동주</w>
화상 면접
감안 해</w>
어린 이</w>
6· 25</w>
윤후 덕</w>
정유 경</w>
'seiyu @news1.kr',</w>
) '</w>
1 37
검 역을</w>
결 산
고 성
공 방
공 백
남 해
능 력</w>
다 운</w>
마 산
발 의</w>
부 각
브 라
서 류
스 탄</w>
아 프
에 이
유 럽
응 급
의 지</w>
입 고</w>
재 심을</w>
저 녁</w>
지 분</w>
할 지,</w>
외교 ,</w>
05 :19
발표 할</w>
정의 당의</w>
개혁 과</w>
의료 기관
보건 ·
특별 관리
협력 이</w>
해결 을</w>
제기 된다.</w>
민식이 법
도시 락
논평 에서</w>
상대 적으로</w>
자동 차</w>
무시 한</w>
상무 위원회에서</w>
싱가포 르</w>
국민의례 를</w>
진솔 한</w>
( A
1 34
2 조
2 26
3 18
6 월
7 78
8 월</w>
I C
’ 과</w>
▶ ]</w>
관 행
권 역
기 사</w>
기 대를</w>
길 은</w>
늦 게</w>
마 무리</w>
법 적·
상 향
서 면
성 수</w>
수 ,</w>
실 용
십 시
아 마</w>
앞 당
연 관
염 두에</w>
용 산
육 성</w>
이 처럼</w>
인 식을</w>
잇 따라</w>
있 다</w>
작 전</w>
카 메
트 워크
판 에</w>
해 피
현 행</w>
회 담
20 14
,https://news.naver.com/main/read.nhn?mode=LS2D&mid=shm&sid1=100&sid2=269 &oid=003&aid=0009634
", MBN
사진 이</w>
다"" 라며</w>
관계 에</w>
생각 한다”고</w>
결과 는</w>
'▶ 네이버</w>
논의 할</w>
요청 한</w>
보고 서를</w>
있었 습니다.</w>
7, 1.0,,,,</w>
부산 일보</w>
협상 에</w>
대정부 질문</w>
:31 ,,,,,</w>
구독(클 ,정치,0,2020-03-17</w>
착용 한</w>
불가피 한</w>
본격 적인</w>
계약 을</w>
======== ========
현안 관련</w>
대주 주</w>
금수산태양궁 전을</w>
노영 민</w>
,https://news.naver.com/main/read.nhn?mode=LS2D&mid=shm&sid1=100&sid2=269&oid=469&aid=0000 47
629&aid=0000 0
2012 년</w>
,https://news.naver.com/main/read.nhn?mode=LS2D&mid=shm&sid1=100&sid2=269&oid=047&aid=00022 59
【원내대표 】
' 박근혜</w>
0 .0,</w>
5 ,,"
7 50
관 으로</w>
교 류</w>
권 리
기 권</w>
돌 려
들 로</w>
방 안에</w>
병 의</w>
세 청
수 석</w>
시 한</w>
시 청</w>
실 장,</w>
앞 세
온 갖</w>
외 부
의 지도</w>
이 학
자 전
적 지</w>
집 회를</w>
째 ,</w>
차 단</w>
최 종
테 크</w>
펫 ',</w>
하 지는</w>
핵 실험
형 식
대통령 ,뉴시스,2020.01.02.</w>
국민 들을</w>
경제 부
가능 하다.</w>
지도 와</w>
대상 에</w>
강화 할</w>
,https://news.naver.com/main/read.nhn?mode=LS2D&mid=shm&sid1=100&sid2=266 &oid=003&aid=0009635
시작 된</w>
시민 의</w>
마스크 가</w>
MB N</w>
공천관리 위원회의</w>
창당 에</w>
:00 ,,,,,</w>
확정 된</w>
달라 진</w>
자체 를</w>
조직 을</w>
활용 해</w>
:16 ,,,,,</w>
en t
소상공인 ·
매체 는</w>
김명 원</w>
http:// news
마지막 으로</w>
세월 호</w>
해피 펫',</w>
- 2
2 36
@ k
“ 마스크</w>
가 용
감 사</w>
갑 ,</w>
겁 니다.</w>
광 역
그 것을</w>
근 무</w>
네 ,</w>
는 가
능 력이</w>
당 하고</w>
동 맹</w>
라 토리
맞 은</w>
모 라토리
믿 음
받 게</w>
발 행
번 영을</w>
부 활
센 티
신 이</w>
연 계
연 설</w>
영 화
요 건을</w>
원 ·
윤 영
있 ,정치,0,2020-03-17</w>
절 감
주 력
착 한</w>
찬 우</w>
취 득
테 이
하 였
호 )</w>
환 자의</w>
100 %</w>
11 05
서울 남부
인사 회에</w>
관계 부처
,https://news.naver.com/main/read.nhn?mode=LS2D&mid=shm&sid1=100&sid2=265 &oid=003&aid=000958
24 9
보수 의</w>
,https://news.naver.com/main/read.nhn?mode=LS2D&mid=shm&sid1=100&sid2=269&oid=0 88&aid=00006
국제 평화
8, 1.0,,,,</w>
혁신 과</w>
규모 로</w>
반발 했다.</w>
드러 냈다.</w>
충분 한</w>
바이러스 를</w>
:29 ,,,,,</w>
호소 했다.</w>
일각 에선</w>
:41 ,,,,,</w>
,정치,국방/외교,2020-03-04, "
,https://news.naver.com/main/read.nhn?mode=LS2D&mid=shm&sid1=100&sid2=268&oid=001&aid=0011 44
김미 경</w>
모르 겠
,https://news.naver.com/main/read.nhn?mode=LS2D&mid=shm&sid1=100&sid2=269&oid=079 &aid=00033
텔레 그램</w>
내놨 다.</w>
경악 을</w>
배현 진</w>
커뮤니 티
2 만
9 ·
y @yna.co.kr',</w>
검 체</w>
고 맙
광 장에서</w>
남 측</w>
대 기</w>
동 행
듯 한</w>
떠 나</w>
로 도</w>
문 대통령</w>
별 도의</w>
본 인
본 인이</w>
분 할
서 신</w>
서 다.</w>
소 통</w>
식 약
어 를</w>
여 일</w>
역 량</w>
와 는</w>
원 과</w>
이 지만,</w>
이 내에</w>
자 이
지 목
체 류</w>
프 랑
,, ,,,
11 8
10 9
발언 에</w>
선언 하고</w>
보수 통합</w>
23: 02
병원 ,</w>
.co.kr /
,,, 3.0,,</w>
최고위원 이</w>
논의 하고</w>
9, 1.0,,,,</w>
경선 에</w>
해결 할</w>
나오 지</w>
신천지 가</w>
논란 을</w>
3.0,, 1.0,,</w>
부결 되자</w>
내려 놓
홈페이 지에</w>
시스 템</w>
예방 을</w>
대안 신당</w>
방법 으로</w>
불러 주셨던</w>
bo y@yna.co.kr',</w>
,정치,청와대,2020-03-05, "
의뢰 로</w>
동생 인</w>
신천지예수 교</w>
다시 금</w>
영원 히</w>
창신 동</w>
3· 1</w>
표본오차 는</w>
문화체육 관광
6 .0,,
8 명</w>
8 군단</w>
’ 고</w>
ㆍ 1
갖 춘</w>
같 다.</w>
검 역</w>
공 업
논 란</w>
달 라</w>
동 계
동 원</w>
되 어야</w>
만 족
미 안
바 다
밝 혀</w>
부 연
비 무장
선 에서</w>
안 정</w>
요 건
위 헌
유 의
전 문</w>
차 가</w>
채 용
총 영사
해 낼</w>
헌 법</w>
경제 ·
기다 리
참석 자들과</w>
감염증(코로나19 )이</w>
공개 적으로</w>
의사 봉을</w>
09 :30</w>
위해 ,</w>
단계 인</w>
더불어민주당 의</w>
대비 태세를</w>
미래한국당 을</w>
여성 가족
정책위의 장이</w>
우체 국</w>
2020.3.1 ',</w>
겨레 의</w>
변함 이</w>
충격 적인</w>
3·1독립운동 의</w>
' 아울러</w>
4 ,2020-03-16</w>
G ood
m i
’ 와</w>
개 최</w>
거 세
것 이고</w>
결 집
단 식을</w>
답 을</w>
되 기를</w>
립 토
목 적으로</w>
못 하게</w>
별 도로</w>
병 호</w>
상 처를</w>
선 생
선 열
성 격
시 일</w>
안 착
액 을</w>
연 의</w>
외 롭
의 지가</w>
인 센티
장 군
정 면</w>
제 주</w>
주 말</w>
차 고</w>
체 류
추 천</w>
크 립토
타 협
행 위</w>
대통 합</w>
10 :00</w>
위원장 에게</w>
선거 운동을</w>
후보 자에</w>
대구 를</w>
사회 주의</w>
입국 자</w>
민생 법안
보건 의료</w>
제1 회</w>
여야 의</w>
",연합뉴스 ,2020.03.01.</w>
비난 을</w>
76 기</w>
위협 에</w>
자원 봉사</w>
행동 으로</w>
수도 권
프로 젝
,https://news.naver.com/main/read.nhn?mode=LS2D&mid=shm&sid1=100&sid2=267&oid=421&aid=0004 50
14&aid=0004 35
기반 을</w>
자유공화 당</w>
터미 널
김도 읍</w>
국가· 지역은</w>
강제징 용</w>
머지 않아</w>
Good News</w>
' http://news
. do
1 47
4 17
8 년</w>
= 1958
? ic
d =1958
h erald
▶ 터닝</w>
겠 다</w>
골 자로</w>
과 제를</w>
궁 금
김 무
나 선
대 단히</w>
되 며</w>
마 감
많 았
맥 락
멈 춰
미 칠</w>
변 혁
본 선</w>
봉 주</w>
분 께</w>
불 공
사 격</w>
삶 이</w>
생 을</w>
생 명을</w>
선 에</w>
손 으로</w>
십 자
여 부
왔 던</w>
우 한
점 으로</w>
정 동
조 미
존 엄
줘 야</w>
질 책
참 배</w>
초 등
최 태
혜 영</w>
19 0
", MBC
선거 가</w>
더불 어</w>
대응 하기</w>
검찰 을</w>
.k bs
,뉴스1 ,2020.01.01.</w>
기술 을</w>
김정은 이</w>
CB S</w>
:20 ,,,,,</w>
경우 에는</w>
목표 를</w>
서비스 를</w>
김성 태</w>
'[서울=뉴시스] 박영태</w>
cho i
법무부 장관</w>
개별 관광
신용 현</w>
이탈리아 ,</w>
사항 은</w>
소식 통
청소 년
도종 환</w>
허브 ',</w>
크립토 허브',</w>
'http://news .kbs
.do ?ic
'http://news.kbs .co.kr/
.do?ic d=1958
, 머니S
, 서울경제
5 ,2020-03-16</w>
5 .0,,,,</w>
9 5일</w>
F -
가 르
공 산
긴 장을</w>
나 라는</w>
낮 은</w>
내 렸다.</w>
됐 고</w>
되 어
두 드리고</w>
리 게</w>
배 경을</w>
범 정부</w>
부 끄
비 극
섰 다.</w>
성 금
성 향</w>
애 로
약 을</w>
여 당은</w>
예 를</w>
요 ,</w>
이 웃
임 찬우</w>
재 외
절 대로</w>
철 회</w>
한 중
한 해</w>
한 다'는</w>
19 대</w>
3: 1
2, "
,https://news.naver.com/main/read.nhn?mode=LS2D&mid=shm&sid1=100&sid2=265 &oid=003&aid=0009635
사회 에</w>
,https://news.naver.com/main/read.nhn?mode=LS2D&mid=shm&sid1=100&sid2=267 &oid=003&aid=00097
",뉴시스 ,2019.12.01.</w>
국제 적</w>
독립 선언
세력 들이</w>
시설 에서</w>
확정 했다.</w>
차관 과</w>
예상 되는</w>
주재 한</w>
위성 정당을</w>
생산 량
원칙 을</w>
졸업 ·
출신 으로</w>
추가경정예산 안
국군간호사 관학교에서</w>
김용 태</w>
,정치,청와대,2020-03-04, "
아닌 가</w>
기간 을</w>
대처 할</w>
비전 통
11&aid=000 37
플랫 폼</w>
중소벤처기업 부</w>
배당 금
, 데일리안
7 .0,,</w>
8 &aid=00024
@ tf
[ 속보]
x 1105
가 능</w>
공 조를</w>
국 익
국 에서</w>
국 장은</w>
권 력</w>
급 한</w>
느 냐</w>
늘 릴</w>
다 면,</w>
목 을</w>
미 상의</w>
반 성
복 잡
성 장</w>
세 제</w>
소 마</w>
소 재</w>
수 단을</w>
유 효
유 해</w>
유 시민</w>
이 전</w>
일 이라고</w>
재 ,</w>
재 심</w>
재 확인
저 소득
접 한</w>
주 저
주 장이</w>
커 지고</w>
파 행
한 일
형 이</w>
2020 년
.0, 1.0,</w>
민주 주의</w>
인사 에</w>
참석 하며</w>
관계 자들이</w>
국가 정보
대책 과</w>
,https://news.naver.com/main/read.nhn?mode=LS2D&mid=shm&sid1=100&sid2=269&oid=0 15&aid=0004
자신 을</w>
연구 소
8, "
이뤄 지지</w>
6, 1.0,,,,</w>
변호 사
05:1 3:
협상 이</w>
바로 잡
공급 을</w>
작업 에</w>
구성 된</w>
격려 했다.</w>
추가경정예산 안에</w>
시사 했다.</w>
명령 을</w>
리얼미 터</w>
어린 이
다.\xa0 ',</w>
디지털 타임
km x1105
일방 적으로</w>
트위 터
대구·경북( TK
검경 수사권</w>
@tf .co.kr',</w>
. go
0 .0
9 ,,"['\n\t',</w>
공 장
구 ",정치,
내 렸
냐 는</w>
달 하는</w>
독 려
따 뜻
망 을</w>
맞 춰
문 성
법 (
부 대의</w>
빠 져
성 장을</w>
쉽 게</w>
여 명
완 구</w>
을 에서는</w>
졌 다.',</w>
조 직</w>
준 연동형</w>
징 계
창 업
첨 단</w>
침 묵
카 오
칼 럼
탄 을</w>
탑 승</w>
트 ',</w>
판 사</w>
평 균</w>
하 도
항 상</w>
la n
후보 자의</w>
우리 도</w>
아니 라,</w>
신년 사에서</w>
위원회 -
시민 사회
사태 의</w>
협력 의</w>
임관 식에서</w>
경찰 이</w>
여야 ,</w>
상태 에</w>
해결 하기</w>
.",정치, 1,2020-03-17</w>
외국 인을</w>
안철수 계
의혹 에</w>
의혹 이</w>
보여 주
:50 ,,"</w>
추가경정예산 (추경
바꾸 는</w>
jo ong
SB S</w>
(가운데 )</w>
우의 와</w>
비전통 적</w>
kmx1105 @newsis.com',</w>
' 전
( 신종</w>
, KBS
- \n\t',</w>
2 20
7 .0,,
A P
감 찰</w>
강 훈
계 산
공 모</w>
구 급
내 외</w>
당 (
동 대
리 서
박 주
법 상</w>
생 명과</w>
세 상을</w>
승 민</w>
심 은</w>
아 는</w>
않 다는</w>
원 (
이 전에</w>
인 간
자 연
절 반</w>
정 국</w>
주 간
주 고
지 며</w>
출 처</w>
타 격</w>
파 트
해 결</w>
핵 무기</w>
"" 이</w>
"" 우리</w>
10 ,2020-03-17</w>
12 3
공천 심사</w>
청와대 에</w>
금지 를</w>
"[ 속보]
비례 정당을</w>
관련 해선</w>
정책 의</w>
결정 이</w>
사람 들을</w>
기념 식에서</w>
훈련 의</w>
추진 하는</w>
협력 해</w>
자리 로</w>
지방 선거</w>
리아 ,</w>
야당 과</w>
옥중 편
:41 ,,"</w>
김종 석</w>
전쟁 의</w>
김영 환</w>
광주 ·
사고 방식에</w>
총괄 조정
최우선 으로</w>
법적· 제도적</w>
joong ang
' 인</w>
1 5일</w>
“ 이</w>
가 로
경 비
교 체</w>
기 금
김 해
네 트워크
다 수
담 보
답 한</w>
등 급
로 의</w>
만 의</w>
박 세연</w>
반 발</w>
법 정</w>
산 청
선 ·
순 방</w>
알 겠습니다.</w>
엄 중
요 란
유 시민
작 업</w>
제 -재배포</w>
주 차
지 상
체 포
치 며</w>
학 과</w>
해 …
화 된</w>
26 7
19 6
11 5
북한 을</w>
12 :4
후보 의</w>
인사 회</w>
참석 자들이</w>
지원 하고</w>
진행 하기로</w>
대책 에</w>
필요 하다는</w>
들어 가
비판 했다.',</w>
,https://news.naver.com/main/read.nhn?mode=LS2D&mid=shm&sid1=100&sid2=266 &oid=003&aid=0009636
공동 으로</w>
시키 기</w>
전망 도</w>
",연합뉴스 ,2020.03.03.</w>
사건 의</w>
바란 다""고</w>
사이 버</w>
분야 에서</w>
국무위원 ,</w>
방향 을</w>
중앙재난안전대책 본부
반대 하는</w>
통상 일정</w>
아닌 가
,https://news.naver.com/main/read.nhn?mode=LS2D&mid=shm&sid1=100&sid2=269&oid=001&aid=00114 38
고향 인</w>
무단복 제-재배포</w>
서비스( SNS
9· 19</w>
' ,뉴스1,2020.03.05.</w>
, 더팩트
2 명</w>
4 .
4 ,,"
] \n\t',</w>
l ist
고 승민</w>
김 포
내 년도</w>
눈 길을</w>
대 와</w>
도 시</w>
되 ,</w>
뜻 으로</w>
모 금
법 정
서 동일</w>
설 계
속 도
스 트</w>
어 쩌
없 고,</w>
예 외
응 원</w>
의 장이</w>
의 장의</w>
전 력을</w>
정 쟁
주 가</w>
중 복
중 심</w>
지 자체</w>
직 시
참 담
참 전
챙 겨
처 분을</w>
파 괴
파 주
판 결
하 다”며</w>
한 별</w>
협 조</w>
19 일</w>
하겠 다”며</w>
12 :1
대구 경북
14 6
으로 부터
아니 다라고</w>
처리 하자고</w>
·경 제</w>
어려 움</w>
특별 초청</w>
기소 는</w>
,https://news.naver.com/main/read.nhn?mode=LS2D&mid=shm&sid1=100&sid2=269&oid=0 82
통과 되고</w>
입장 도</w>
하나 의</w>
오늘 은</w>
비서 관</w>
참배 를</w>
수도 방위사령부</w>
담화 에서</w>
동아 일보
과거 에</w>
합류 한</w>
김여정 이</w>
th ink
카드 를</w>
기존 의</w>
psy5179 @news1.,정치,0,2020-03-17</w>
각계 대표</w>
시나리 오
정미 경
미래지향 적</w>
,https://news.naver.com/main/read.nhn?mode=LS2D&mid=shm&sid1=100&sid2=269&oid=082 &aid=0000
think @newsis.com',</w>
, 서울신문
R C
가 질</w>
갑 에서</w>
강 경</w>
걸 로</w>
공 세
관 여
니 ,</w>
당 규
동 생</w>
되 게</w>
리 면</w>
리 라</w>
만 원을</w>
미 리
보 궐
사 전에</w>
상 식
설 명</w>
소 회와</w>
승 격
올 렸
임 관</w>
장 비</w>
조 율
증 명
참 조
천 명
친 구
판 정
하 면,</w>
험 지
흘 러
국회 의원을</w>
5, "
중앙 방역대책
22 8
.k ,정치,
2020.3. 3
선언 하는</w>
,https://news.naver.com/main/read.nhn?mode=LS2D&mid=shm&sid1=100&sid2=264 &oid=003&aid=0009635
,https://news.naver.com/main/read.nhn?mode=LS2D&mid=shm&sid1=100&sid2=264 &oid=003&aid=0009634
기소 했다.</w>
언급 이</w>
이어 가
이뤄 지고</w>
정권 은</w>
.0,2.0, 1.0</w>
강력 하게</w>
배제 할</w>
국회의 장
표명 했다.</w>
한선 교
초대 형
%) 에서</w>
되살 려
균형 을</w>
,https://news.naver.com/main/read.nhn?mode=LS2D&mid=shm&sid1=100&sid2=265&oid=018&aid=0004 59
,https://news.naver.com/main/read.nhn?mode=LS2D&mid=shm&sid1=100&sid2=269&oid=079 &aid=0003
민중 당</w>
' 윤</w>
' 2020년</w>
, 조선
1 3.0,
3 ,,"
@ seoul
c h
j h
가 격</w>
개 별</w>
곳 ,</w>
과 반
구 는</w>
권 력을</w>
기 사를</w>
나 .</w>
낭 독
때 마다</w>
리 에</w>
물 리
박 성
배 하는</w>
별 로는</w>
본 다.</w>
부 위원장
분 투
서 산
실 에</w>
안 돼
않 느냐
어 든</w>
여 지를</w>
유 입</w>
을 ),</w>
인 용
인 증
있 으나</w>
전 화를</w>
정 태
종 료</w>
지 속</w>
추 적</w>
측 근</w>
통 계
트 ,</w>
학 군단</w>
한 층</w>
항 공</w>
행 정</w>
확 충</w>
"" 이번</w>
지역 에서는</w>
인사 들과의</w>
18 0
하기 는</w>
지원 할</w>
'[ 저작권자(c)</w>
발사 했다.</w>
아니 고</w>
진행 됐다.</w>
확진 자
의료 인력</w>
�� �</w>
임명 된</w>
마스크 와</w>
자신 들의</w>
국제 사회의</w>
시아 ,</w>
세력 과</w>
했다 ",정치,0,2020-03-17</w>
2. 9
상태 로</w>
참배 하고</w>
인민 공화
,정치,행정,2020-03-05, "
아무 런</w>
예고 했다.</w>
공식 적으로</w>
아차 산</w>
'[서울=뉴시스] 김명원</w>
전담 병원으로</w>
긴밀 한</w>
여기 서</w>
정기 국회</w>
악수 하는</w>
'코로나19 '</w>
일제 히</w>
재배포 금지\n\t',</w>
비슷 한</w>
03:3 3:
무더 기</w>
금융소비 자
@k bs.co.kr)',</w>
,,,,, 1.0</w>
' -
3 호</w>
4 일
[ 속보]</w>
n 번
간 사가</w>
갑 에는</w>
거 수
걸 어
계 기가</w>
관 건
관 의</w>
긍 정</w>
기 원
김 원장</w>
놓 은</w>
대 결</w>
도 와
도 쿄
드 릴</w>
면 담
면 이</w>
모 스크
받 기</w>
배 치</w>
부 장</w>
빅 텐
사 퇴</w>
사 이에</w>
세 무
속 을</w>
스 가</w>
시 작</w>
실 추
않 으
업 을</w>
오 랜</w>
자 격</w>
주 도한</w>
진 짜</w>
청 문</w>
충 실
치 게</w>
파 적</w>
폭 거
혹 은</w>
100 년의</w>
국민 께서</w>
", 헤럴드경제
12 :5
연합뉴스 와의</w>
공천 신청자</w>
관계 의</w>
비례 민주당</w>
국가 혁명
출마 한</w>
정책 과</w>
결정 할</w>
공관 위에</w>
전망 된다.</w>
확대 ,</w>
차관 은</w>
:40 ,,"</w>
:11 ,,"</w>
선택 을</w>
해주 길</w>
지키 기</w>
약속 했다.</w>
대법 관</w>
당직 자들이</w>
서신 을</w>
im news
정책조정 회의에</w>
수요 를</w>
민정 비서관
바람 직
발의 한</w>
노동신문 이</w>
공중보건 의사</w>
국정농 단</w>
양양 군</w>
연합뉴 ,정치,
국제평화 지
2020.3.3 /뉴스1</w>
국가혁명 배당금
) ;
2 21
[ 포토]</w>
u s
· 당직자</w>
◉ 김원장</w>
【 서울=뉴시스
것 이라
게 도</w>
그 걸</w>
극 단
김 두
는 다고</w>
대 형</w>
데 다</w>
도 려
동 ·
됐 을</w>
뒀 다.</w>
듯 이</w>
말 에</w>
배 려
브 를</w>
사 표를</w>
수 입
수 호
실 어
악 용
앙 골
윤 창원</w>
이 스
인 적</w>
일 이
일 하는</w>
자 녀
자 본
정 춘
처 럼
평 론
폭 과</w>
해 군
협 회</w>
흐 름
"" 며</w>
19 세</w>
민주 ,</w>
10 .0,
12 :3
사진 ]
경제 활
설명 하고</w>
3, "
구독 하세요
사람 과</w>
,https://news.naver.com/main/read.nhn?mode=LS2D&mid=shm&sid1=100&sid2=267 &oid=
요구 한</w>
79 &aid=00033
것이 고,</w>
정보 통신
협의 체
감사 위원
김여 정의</w>
절차 에</w>
공급 이</w>
밝히 는</w>
진보 ·
경자 년
경례 하는</w>
199 개</w>
임대 료</w>
상품 권</w>
공유 하고</w>
계명 대</w>
당정협의 에서</w>
안타까 운</w>
2020.3.2/ 뉴스1',</w>
@seoul .co.kr',</w>
' \n</w>
1 일
2 발</w>
3 천
4 .0
> ',</w>
W H
m p
강 조</w>
건 의</w>
경 의를</w>
공 고
기 까지</w>
까 요?</w>
꾸 준
담 고</w>
대 토론
률 은</w>
마 자</w>
보 은
보 며</w>
부 담을</w>
불 투명
수 리
야 말로</w>
얼 굴
여 서</w>
유 사
유 해를</w>
이 가</w>
이 로</w>
이 끈</w>
인 인</w>
자 금을</w>
장 ·
진 실
처 분</w>
초 기</w>
폭 행
화 하는</w>
10 8
1, 1.0,,,,</w>
습니 다.
참석 하지</w>
안전 해질</w>
수사 가</w>
추경 을</w>
메시 지에</w>
교육 ·
국무총리 와</w>
공정 하고</w>
미사 일
운영 을</w>
일본 은</w>
부산 ·
받아 야</w>
:37 ,,"</w>
수준 으로</w>
지키 고</w>
부결 에</w>
원칙 으로</w>
보좌 진</w>
대법 원
전국 의</w>
선임 기자</w>
분담 금</w>
정례 브리핑에서</w>
자문 위원
생산업 체
신뢰수준 에</w>
' 임
' ▲</w>
1 30
3 명</w>
각 을</w>
거 대
것 입니다.',</w>
경 보
고 령
그 나마</w>
김 은
끄 는</w>
너 무
넘 지</w>
다 ",정치,0,2020-03-17</w>
도 입</w>
돈 을</w>
마 련</w>
면 죄
모 집
무 역
민 간의</w>
보 급
본 연의</w>
분 들의</w>
수 용</w>
승 진
알 리는</w>
야 당이</w>
예 정</w>
은 성수</w>
을 을</w>
자 들</w>
적 임
정 체
정 은</w>
정 식</w>
출 근
커 녕</w>
태 도</w>
표 가</w>
한 테</w>
해 명
,, ,정치,
,, 1.0,
뉴스 의</w>
19 8
한국 인
한국 경제</w>
정당 은</w>
후보 와</w>
중앙 위</w>
,https://news.naver.com/main/read.nhn?mode=LS2D&mid=shm&sid1=100&sid2=265 &oid=02
미국 행</w>
발표 에</w>
확진 자를</w>
사실 은</w>
예비후보 를</w>
극복 하고</w>
준비 를</w>
:00 ,,</w>
비서 실장은</w>
이재 민
시험 을</w>
주한미 군
ky sp
되었 다면</w>
정치권 의</w>
구독(클 ",정치,
신속대응팀 은</w>
,https://news.naver.com/main/read.nhn?mode=LS2D&mid=shm&sid1=100&sid2=265&oid=421&aid=000438 8
지사 의</w>
근거 가</w>
김미 희</w>
,정치,북한,2020-01-02, "
자발 적으로</w>
자랑 스럽
'photo @newsis.com',</w>
취약계 층
화력타격 훈련을</w>
나아가 고자</w>
다탄 두</w>
날치 기</w>
lan et
kysp lanet
' 고</w>
' 진</w>
( 5
( 경기</w>
1 위를</w>
2 35
2 명,</w>
> \xa0
V O
e l
같 습니다.</w>
경 로
고 조
구 축</w>
구 ,정치,0,2020-03-17</w>
길 에</w>
내 각</w>
데 도</w>
명 에게</w>
모 자
묻 지</w>
박 탈
분 들은</w>
불 발
삼 은</w>
았 다고</w>
장 진영</w>
적 격
전 술
제 6
조 7000
지 킬</w>
차 질
추 후</w>
충 북도
탈 당</w>
피 의
하 니</w>
\n \t</w>
청와대 와</w>
관리 를</w>
'\n\t']",정치, 3,2020-03-16</w>
진행 할</w>
구독 신청
군사 연습
,정치,정치일반,2020-01-02, "[
결정 은</w>
예정 인</w>
강화 하고</w>
사업 은</w>
이뤄 낼</w>
면접 이</w>
오늘 부터</w>
선거구 는</w>
사건 과</w>
심판 을</w>
정확 히</w>
총회 장의</w>
:16 ,,</w>
분명 한</w>
한미연합 사령부</w>
고용 노동
기본 소득
것인 가
자세 로</w>
국가안보 전략
현황 을</w>
반박 했다.</w>
조금 씩</w>
마찬 가지로</w>
국민소통 수석은</w>
주권 자전
Copyrights ",정치,
.go .kr
위원회- 최고위원회</w>
으로부터 의</w>
' ◉김원장</w>
, 매일신문
/ 연합뉴스</w>
5 년</w>
S K
r on
‘ 새로운</w>
【 장관
개 학</w>
것 ”</w>
것 임을</w>
고 심
고 향</w>
구 룡
달 성
드 디어</w>
마 치</w>
무 조건</w>
비 가</w>
사 죄
상 주
성 금</w>
성 금을</w>
속 수
시 선
신 산업
신 산업</w>
아 쉬
에 겐</w>
의 안과</w>
이 승
입 장이</w>
잡 는</w>
정 하고</w>
조 절
종 사
채 택</w>
출 발</w>
취 하는</w>
토 대로</w>
프 트
화 상으로</w>
확 대를</w>
회 기</w>
회 동</w>
후 에</w>
in e
뉴스 가</w>
'\n\t \n\t</w>
11 :00</w>
12 ,2020-03-17</w>
외교 통일
국무 조정
원내대표 의</w>
총리 의</w>
금지 ]\n\t',</w>
보수 대통합
예산 결산
추경 에</w>
시간 은</w>
논의 하기</w>
간담 회에서</w>
일본 을</w>
마련 해</w>
고위 당국자는</w>
해주 기</w>
경우 가</w>
응답 은</w>
진보 진영</w>
,https://news.naver.com/main/read.nhn?mode=LS2D&mid=shm&sid1=100&sid2=269&oid=05 5&aid=0000
:50 ,,,,,</w>
예고 한</w>
파악 하고</w>
(왼쪽 )</w>
출발 한</w>
머니S 포토]</w>
구독하기 ]',</w>
기구 (
입국금지 를</w>
차이 가</w>
이란 ,</w>
가슴 에</w>
아파 트</w>
4.1 5</w>
진심 으로</w>
【장관 】
속수 무
! …
% 는</w>
' i
' 매
' \t\t
( 경남</w>
, 경향신문
. im
1 +
3 36
4 ,,,1.0,,</w>
j i
ⓒ 경제를</w>
강 행</w>
거 나,</w>
김 남
나 면</w>
나 이지
남 한
남 조선</w>
대 운</w>
대 국민</w>
돌 이</w>
동 향을</w>
드 링
랍 에
면 한</w>
명 단을</w>
무 상
문 이</w>
민 ,</w>
반 대로</w>
버 렸
상 에서</w>
새 겨
소 름</w>
송 옥
시 의</w>
아 랍에
영 어
올 라</w>
와 !</w>
원 활
이 들을</w>
입 당한</w>
재 테크</w>
주 년</w>
중 지
쫙 !</w>
초 당적</w>
축 하</w>
킷 !',</w>
판 단</w>
19 20년</w>
국회 선진화
영상 으로</w>
la ss
정당 으로</w>
감염 이</w>
중앙 교육
18 일</w>
정책 이</w>
생각 한다""고</w>
지도 부에</w>
특별 한</w>
주장 에</w>
이어 가고</w>
통과 된</w>
확인 하기',</w>
안보 ,</w>
부산 시</w>
'< ⓒ경제를</w>
공직 선거
발생 하고</w>
비례대표 를</w>
대구시 당
민식이 법은</w>
당정 청
규정 하고</w>
아이 뉴스
3개 월
일정 으로</w>
없어 …
누구 를</w>
끌어 들
자동 차
김명 섭</w>
프레 시
,머니투데이 ,2020.03.05.</w>
장애 인</w>
악수 하고</w>
배포 금지>\n\t',</w>
""[ 서울=뉴시스]</w>
드루 와!</w>
드링 킷!',</w>
' 심</w>
' 조선
, MBN
4 04
6 ,2020-03-16</w>
G O
M I
m k
가 평
각 국의</w>
개 정</w>
걸 린</w>
것 …
고 도
기 면서</w>
깨 끗
넘 은</w>
농 업
단 순
답 변</w>
던 진</w>
도 중</w>
말 아야</w>
미 치는</w>
반 하
변 혁</w>
보 태
봉 쇄</w>
분 수
상 향</w>
생 태
세 웠다.</w>
실 제
아 름
았 습니다.</w>
얘 기가</w>
여 는</w>
있 으
자 율
장 군</w>
적 폐
적 반하
전 담</w>
전 부터</w>
제 출</w>
조 기
조 세
주 를</w>
준 수
지 냈
차 트',</w>
충 남
취 지에</w>
카 타
탑 재
테 러
포 함</w>
학 과
해 경청
했 었다.</w>
현 황</w>
00 :37
"" 마스크</w>
"" 지금</w>
의원 인</w>
대통령 ,뉴시스,2020.03.03.</w>
3: 02
", 서울경제
선거 권이</w>
지역 과</w>
중앙 당
한국당 과</w>
'[ ⓒ</w>
관리 에</w>
아니 라는</w>
선언 …
조선 민주주의
의료 기관</w>
사실 과</w>
,정치,청와대 ,2020-01-01,"
기념 식을</w>
요구 하고</w>
,https://news.naver.com/main/read.nhn?mode=LS2D&mid=shm&sid1=100&sid2=269&oid=003&aid=00097 33
극복 해</w>
세계 적으로</w>
있었 다고</w>
공직 자</w>
과정 에</w>
희망 하는</w>
기준 에</w>
제1부부 장</w>
so w
국무위원 들
장교 들이</w>
”, KBS
지지율 은</w>
떨어 뜨
연수 원</w>
추정 되는</w>
방호 복을</w>
시급 한</w>
",이데일리 ,2020.03.05.</w>
""▶ 네이버</w>
고등 군사법
선제 적</w>
,https://news.naver.com/main/read.nhn?mode=LS2D&mid=shm&sid1=100&sid2=266&oid=018&aid=0004 58
,https://news.naver.com/main/read.nhn?mode=LS2D&mid=shm&sid1=100&sid2=269&oid=417&aid=0000 51
터미 널</w>
홍준표 ·김태
검색 !…
컷오프( 공천배제
국정기획 상황실
@kyunghyang .c",정치,
조선민주주의 인민공화
검색!… 실시간</w>
' ◎
9 시
G )</w>
” …
검 증</w>
격 히</w>
고 소
공 사를</w>
관 철
기 (
나 옵
날 을</w>
년 ,</w>
됐 다”고</w>
되 는데</w>
레 드라
리 병
무 료</w>
반 면,</w>
세 대</w>
수 렴
에 너
원 인을</w>
유 예
유 족
윤 갑
의 가</w>
의 도를</w>
인 공지
있 다."",</w>
장 소에서</w>
전 ,</w>
전 원</w>
정 회
정 과</w>
조 국
중 증</w>
지 분
지 하
축 사를</w>
출 국</w>
치 르
친 박</w>
텃 밭
한 상
합 참</w>
했 으나,</w>
협 치
한국 일보</w>
위원장 실에서</w>
다"" 는</w>
판단 하고</w>
03: 24
조치 사항을</w>
출마 가</w>
진행 했다.</w>
정의 선</w>
중국 이</w>
민생 을</w>
공개 된</w>
최고위원 회의(
이해 찬
국민의 당에</w>
국군 화생방
법안 의</w>
않았 지만</w>
단체 가</w>
김형 오
,https://news.naver.com/main/read.nhn?mode=LS2D&mid=shm&sid1=100&sid2=266&oid=003&aid=00097 36
1주 일</w>
규모 가</w>
TV 조선
정신 이</w>
마이 크</w>
넘어 갈</w>
:41 ,,"['\n\t',</w>
이사 장은</w>
것인 지</w>
ss mm
선전 선동
,https://news.naver.com/main/read.nhn?mode=LS2D&mid=shm&sid1=100&sid2=269&oid=056&aid=0010 778
@heraldcorp .com',</w>
1년 여
들었 던</w>
벌어 진</w>
경영 안정
,노컷뉴스 ,2020.01.02.</w>
올림 픽
조선중앙TV 가</w>
유리 한</w>
코로나19재난안전대책 위원회-최고위원회</w>
김한 표</w>
보복 성</w>
김순 례</w>
도려 내는</w>
구룡 마
아랍에 미리
'◎ \xa0
' 강</w>
' 통합당</w>
' 컷오프
( 재
2 19
3 일
3 차</w>
6 .0</w>
“ 정부는</w>
靑 ,</w>
가 로</w>
같 다며</w>
거 리는</w>
경 영</w>
관 생도</w>
교 착</w>
구 광
군 (
군 내</w>
그 것은</w>
기 한을</w>
김 준
남 긴</w>
노 골
릴 레
무 소속으로</w>
민 의</w>
민 심을</w>
바 도
보 강
본 인</w>
부 위원장</w>
북 핵
살 바도
새 벽</w>
쇄 신
싸 움을</w>
야 당은</w>
엘 살바도
요 ?
용 서
음 이</w>
일 한</w>
일 명</w>
장 악
장 인</w>
적 립
제 도가</w>
졌 다고</w>
중 간
증 폭
투 를</w>
하 명
해 주시
해 군은</w>
허 위</w>
혜 영
회 복</w>
대통령 ,연합뉴스,2020.03.02.</w>
서울 시장</w>
국무 위원장은</w>
'] ',</w>
지원 한</w>
16 0
설명 했습니다.</w>
\xa0 >\xa0
처리 하는</w>
의료 원</w>
들어 서고</w>
평화 는</w>
40 여일</w>
예산 안을</w>
조정 될</w>
훈련 은</w>
재난 과</w>
세계 일보
전체 가</w>
지금 의</w>
확대 하는</w>
않는 다며</w>
파이낸셜뉴스 ]</w>
인민 이</w>
,https://news.naver.com/main/read.nhn?mode=LS2D&mid=shm&sid1=100&sid2=264&oid=001&aid=0011 311
연동 형
보여 준</w>
김태 형</w>
의료진 과</w>
,https://news.naver.com/main/read.nhn?mode=LS2D&mid=shm&sid1=100&sid2=269&oid=02 2&aid=00034
김용 범</w>
표현 을</w>
오늘( 5
기반 이</w>
UA E</w>
국군대전병원 을</w>
bc .co.kr)',</w>
흥해 읍</w>
취약계 층</w>
카자흐 스탄</w>
동양 대</w>
일종 의</w>
권은 희
감옥 에</w>
동반 자</w>
이로 써</w>
& ',</w>
' 안
' 안철수</w>
' MBC',</w>
' Copyright(c)</w>
' &',</w>
. \n\t',</w>
1 번
2 차
3 20
3 17
3 ,정치,정치일반,2020-03-05,
I M
U -2
[ MBC
갑 자기</w>
구 청
그 에</w>
남 양
늘 고</w>
당 헌
돼 서</w>
력 과</w>
만 은</w>
매 를</w>
목 포</w>
방 식을</w>
부 정부
성 은</w>
세 기</w>
세 우고</w>
소 득</w>
수 습
알 리
았 던</w>
엠 빅
용 감
유 예</w>
인 질
임 무</w>
자 부
작 년
전 역
지 구</w>
크 ,</w>
크 다.</w>
한 다</w>
혜 택
후 속</w>
11 ,2020-03-17</w>
3: 2
장관 ,연합뉴스,2020.01.02.</w>
판단 했다.</w>
보내 는</w>
기다 리고</w>
37 9
아니 었
발표 된</w>
,연합뉴스 TV
36 9
,정치,정치일반,2020-03-02, 미래통합당</w>
,정치,국방/외교 ,2020-01-01,
예비후보 자</w>
보도 자료를</w>
photo @news1.,정치,0,2020-03-17</w>
지역구 로</w>
전체 를</w>
중단 할</w>
주민 들의</w>
:19 ,,</w>
'이 와</w>
탄도미사 일로</w>
여상 기</w>
만들어 야</w>
등록 한</w>
다음 날</w>
이름 으로</w>
이주 영</w>
김의 겸
김여정 은</w>
경증 환자</w>
bc .com)</w>
내다 봤다.</w>
@hankookilbo .c",정치,
서울중앙 지검
119&aid=0002 38
구속 영
기재 부</w>
reser ved
은평 구</w>
(https:// imnews
초치 해</w>
판문 점</w>
착취 물</w>
(속보 )
부연 했다.</w>
꾸준 히</w>
부산· 울산
'i MBC',</w>
.im bc.com)</w>
[MBC 뉴스]</w>
reserved .\n\t',</w>
(https://imnews .imbc.com)</w>
% …
' ◇</w>
3 27
8 ,,"
< /
’ 라고</w>
겠 다”며</w>
경 쟁</w>
균 형</w>
그 었다.</w>
론 이</w>
막 고</w>
방 해</w>
배 우
법 치
분 열</w>
비 중
상 관
상 가</w>
상 당</w>
수 한</w>
스 를</w>
시 흥
열 린
음 에</w>
이 산
전 격</w>
점 검</w>
정 ,</w>
중 동
초 기
촬 영
추 세
축 의</w>
치 르게</w>
특 위
하 는지</w>
하 세요</w>
호 국
정치 적으로</w>
"" \'
10 년</w>
:5 3,
", KBS
기자 ]
여의 치</w>
인사 들의</w>
2020.0 2.
18 4
2019 .
입국 절차를</w>
들어 오는</w>
예정 됐던</w>
23: 01
시민 을</w>
훈련 이</w>
기소 를</w>
13 ,2020-03-17</w>
통과 시키
지역구 에서</w>
독립 군</w>
간호 사</w>
참여 하는</w>
유지 하는</w>
신천지 의</w>
대사 와</w>
밝히 지</w>
헤럴 드</w>
출신 의</w>
담화 에</w>
:29 ,,"</w>
언론 에</w>
최소 한의</w>
새누리 당
,https://news.naver.com/main/read.nhn?mode=LS2D&mid=shm&sid1=100&sid2=269&oid=001&aid=00114 50
백두 혈
,정치,국방/외교,2020-01-02, "
개별 관광</w>
김재 원</w>
절실 한</w>
강남 구</w>
\r\n \r\n
현충탑 을</w>
인프 라</w>
성취 가</w>
biz .com,</w>
프로젝 트
herald biz.com,</w>
정동 영</w>
디지털타임 스
'\t\t [',</w>
' 박</w>
1 차
2 명이</w>
8 .0,,</w>
9 .0,,</w>
S O
h w
y o
가 게</w>
갈 등</w>
갑 )</w>
강 릉
갖 는</w>
건 의
경 로를</w>
권 의</w>
금 리</w>
김 광
까 .</w>
늦 어
다 녀
다 니
더 라
동 시
두 려
든 든
또 ,</w>
률 을</w>
막 지</w>
말 라
맞 춤
면 밀
무 력</w>
벗 고</w>
보 스
보 시
사 흘
사 흘</w>
성 찰
성 장과</w>
실 장이</w>
운 명을</w>
이 명
인 상
잡 고</w>
적 십자
정 진
제 원</w>
조 경
청 이</w>
청 사로</w>
투 입</w>
하 다가</w>
형 을</w>
10 7
국민 권익
정당 과</w>
강조 했습니다.',</w>
사람 의</w>
지도 부의</w>
대상 자</w>
주장 하는</w>
교육 과</w>
요청 할</w>
조사 에</w>
데일 리</w>
전체 회의를</w>
상태 에서</w>
합의 했다.</w>
이유 를</w>
달라 ”고</w>
중도 층</w>
주재 하는</w>
대사 관과</w>
투표 를</w>
심사 에</w>
현재 의</w>
등록 을</w>
없었 다고</w>
일각 에서</w>
정부세종 청사</w>
공식 화
가까 이</w>
화력 전투
비핵화 는</w>
보유 하게</w>
le e
압수수 색</w>
대선 주
,정치,청와대,2020-01-02," 문</w>
@hankookilbo .com',</w>
@m bc.co.kr)',</w>
대법관 에게</w>
에어 팟</w>
금강 산</w>
초· 중·
꿈꾸 는</w>
' ⓒ
' 원
' 정치,</w>
( 신천지
2 39
3 28
3 ,,,1.0,,</w>
5 명</w>
7 천
8 시</w>
C o
“ 안</w>
감 수
갑 에서는</w>
강 성
개 학
것 ,</w>
관 할
극 히</w>
기 반</w>
끝 날</w>
날 아
노 래
단 ,</w>
달 콤
더 는</w>
됨 에</w>
력 에</w>
말 까지</w>
미 흡
받 는다.</w>
백 악
버 티
본 격</w>
불 과</w>
비 리
비 호
비 교섭단체</w>
상 용
생 명
세 상에</w>
속 도가</w>
스 위
스 티
아 침</w>
없 다</w>
오 차</w>
운 수사
원 천
유 죄
인 다.</w>
작 전을</w>
조 달
중 기
중 대</w>
집 행</w>
최 룡
품 ·
한 -
한 지</w>
합 류</w>
화 에</w>
활 발
휴 대전
26 6
11 .0,
3: 15
3: 49
후보 도</w>
04 :40
보내 왔
인사 청문</w>
03: 59
14 F
국방 부
15 8
16 8
관리 가</w>
38 0
신년 회
50 %</w>
공관 위원장은</w>
보건 용</w>
예비후보 의</w>
,https://news.naver.com/main/read.nhn?mode=LS2D&mid=shm&sid1=100&sid2=268 &oid=
미래통합당 ,</w>
있었 고,</w>
임관 한</w>
에서 다.</w>
중요 성을</w>
합의 가</w>
on t
사무 처
차관 ,</w>
중도 ·
:21 ,,"</w>
04:5 0
:39 ,,"</w>
긴급 관계부처</w>
응답 이</w>
,정치,정치일반,2020-01-02," 문</w>
지시 한</w>
무리 한</w>
야당 에</w>
관광 객</w>
분야 를</w>
이탈 리아</w>
도발 에</w>
아닌 지</w>
장비 를</w>
높아 지고</w>
국면 에서</w>
,정치,북한,2020-03-04, "
움직임 이</w>
입국제한 을</w>
YT N</w>
리더 십
김대 중</w>
열망 으로</w>
629&aid=00000 17
금융소비자 보호
ssmm 99@newsis.com',</w>
오늘(5 일)</w>
' 황교안</w>
' 민주당은</w>
' 매일경제
( 서울</w>
1 ,정치,정치일반,2020-03-05,
1 일부터</w>
2 30
3 26
4 .6
5 월
5 27
8 00
9 월
같 다”고</w>
거 죠.</w>
경 에</w>
경 보</w>
교 인</w>
구 역</w>
구 ",정치,0,2020-03-17</w>
국 방</w>
내 리</w>
늦 어도</w>
니 아,</w>
대 피
대 처</w>
독 일</w>
동 ,</w>
뚫 고</w>
만 원
말 해</w>
매 진
물 품</w>
박 형
봤 을</w>
부 모</w>
사 기</w>
성 실
심 도는</w>
싸 우고</w>
아 닙
얻 고</w>
업 법</w>
연 루
유 입
을 로</w>
의 정
의 장,</w>
의 도로</w>
이 것이</w>
익 산
자 라고</w>
작 가
표 했다.</w>
하 면서
확 고
19 :21
의원 님
3: 21
3: 09
10 명</w>
정당 들이</w>
04 :38
04 :39
04 :37
28 7
조치 와</w>
미국 으로</w>
진행 되는</w>
\' 를</w>
결정 한</w>
,https://news.naver.com/main/read.nhn?mode=LS2D&mid=shm&sid1=100&sid2=266 &oid=001&aid=0011
추진 하겠다고</w>
언급 하지</w>
모습 이다.</w>
포함 된</w>
간담 회</w>
2.0,, 1.0</w>
참여 할</w>
대구시 청
검사 와</w>
현실 화
&oid=018&aid=0004 58
발전 의</w>
전국 에서</w>
하라 ”고</w>
시계 를</w>
기득 권을</w>
해왔 던</w>
정상회 담을</w>
채널 에서</w>
SNS 에</w>
위성정당 인</w>
경험 이</w>
합참 은</w>
20&aid=0003 26
바이 든
'\n\t']",사회, 0,2020-03-16</w>
,https://news.naver.com/main/read.nhn?mode=LS2D&mid=shm&sid1=100&sid2=269&oid=214&aid=00010 18
증거장막 성전
' 뉴
1 조
1 명</w>
3 34
간 곡
갈 등을</w>
거 기
결 단을</w>
경 과</w>
계 단</w>
공 단</w>
광 복
광 산
구 현
그 야말로</w>
금 의</w>
끊 임
다 수의</w>
단 단
당 도</w>
되 길</w>
뒤 늦게</w>
로 이
마 음</w>
만 으로는</w>
못 하면</w>
무 거운</w>
방 에</w>
부 통
부 정</w>
비 용</w>
빈 틈
사 상
상 세
성 원
수 (
수 준</w>
악 재
연 장</w>
올 리고</w>
워 야</w>
원 자
원 정
일 에도</w>
축 사
치 한</w>
통 상</w>
트 를</w>
하 위</w>
하 면서,</w>
함 이</w>
해 운
협 정
화 가</w>
20 11
1. 5
04 :19
총리 를</w>
03: 50
03: 45
14 8
\' 에</w>
.co.kr ,</w>
돌아 오
경찰 은</w>
3·1 운동</w>
비서 실장</w>
",연합뉴스 ,2020.03.02.</w>
방식 ,</w>
본회의 (
산업 혁명</w>
외국 인에</w>
:26 ,,</w>
작업 이</w>
해주 고</w>
전달 했다.</w>
스럽 다고</w>
이번 주</w>
활용 할</w>
언론 은</w>
대북 제재
개정안 과</w>
번째 로</w>
하라 ""고</w>
정무 수석
공항 에서</w>
유은 혜
연합정당 에</w>
회동 에서</w>
보유 한</w>
대대 적인</w>
노동신문 ,</w>
's k
측근 인</w>
중앙선거관리 위원회</w>
연석 회의에서</w>
수성 구</w>
@donga .c",정치,
득표 율
모양새 다.</w>
한마 디
' M
' 황</w>
2 34
2 보)
3 만
4 명이</w>
n e
o @
u t
’ 이라고</w>
간 격
거 래</w>
것 으로,</w>
관 용
관 저
그 때</w>
기 대</w>
까 지도</w>
꿈 을</w>
나 눠
나 은</w>
남 용
높 다.</w>
늘 리고</w>
다 를</w>
동 포</w>
듣 는</w>
말 라는</w>
말 레이
모 를</w>
미 추
박 민
배 분
복 무</w>
분 들을</w>
불 평
불 확실
성 일
성 인</w>
신 분
심 의</w>
않 고,</w>
언 을</w>
와 도</w>
이 데일리</w>
인 싸
인 트
일 축
일 치
장 면
저 히</w>
전 이</w>
전 달</w>
전 환</w>
중 에는</w>
착 취</w>
캡 처</w>
콤 달콤
한 다""면서</w>
해 줬
현 ,</w>
화 재
획 기
"" 민주당은</w>
뉴스 레터</w>
선거 사무
선거 운동</w>
선거 개입</w>
외교 장관과</w>
후보 자
05 :37
04 :11
04 :16
강조 하고</w>
발사 는</w>
감염증 (
총선 은</w>
확진 자들이</w>
개혁 이</w>
구독 "",</w>
평화 프로세
·1 8</w>
공개 로</w>
신청 자들을</w>
최고위원 회의를</w>
이어 지는</w>
공동 대표
",뉴시스 ,2020.03.04.</w>
",뉴시스 ,2020.01.01.</w>
질문 '에서</w>
",연합뉴스 ,2020.03.04.</w>
이재 용</w>
이동 섭</w>
이야 말로</w>
참여 한</w>
제출 할</w>
매일 경제</w>
제기 되고</w>
여행 경보를</w>
반발 하고</w>
나타 났
드러 낸</w>
계속 해서</w>
공천관리위원회 에</w>
늘어 난</w>
대체 역</w>
것인 지에</w>
존재 할</w>
기사 공유하고</w>
중소기업 과</w>
덧붙였 습니다.</w>
여당 인</w>
국군대구 병원
받아보세요 "",</w>
""▶ 뉴스레터</w>
""▶ 기사공유하고</w>
아세 안
이익 을</w>
위축 된</w>
기정 사실
기후 변화에</w>
마찬 가지
사보 임
코인 '"",</w>
코인 적립
거짓 말
재송 부</w>
'매 콤달콤
mk .co.kr,</w>
'매일경제 '를</w>
'M 코인'"",</w>
코인적립 하세요</w>
'매콤달콤 '</w>
' 상생</w>
( http://
1 2일</w>
2 년
2 시</w>
3 12
3 44
4 당</w>
5 선</w>
5 ·18</w>
6 000
7 시</w>
a si
u r
· 무
“ 북한이</w>
… 코로나19</w>
가 입
가 운</w>
거 기에</w>
계 층
공 을</w>
구 조</w>
나 쁜</w>
남 겼다.</w>
내 딛
냐 고</w>
다 하겠다”고</w>
단 원
단 과</w>
른 다.</w>
문 자</w>
물 꼬
물 량</w>
받 으며</w>
본 다고</w>
부 위원장은</w>
부 당한</w>
세 출
시 범
심 사가</w>
않 다며</w>
양 당</w>
없 다면서</w>
원 주시
이 에
일 꾼
재 단</w>
전 방위
주 에</w>
지 분을</w>
쪽 에</w>
철 도
탓 에</w>
투 기</w>
편 이</w>
홍 익
휴 식을</w>
정치 와</w>
뉴스 룸</w>
국회 로</w>
:5 1,
장관 급</w>
05 :20
코로나19 (신종</w>
04 :20
03: 49
03: 56
비례 민주당
15 ,2020-03-17</w>
발사 가</w>
37 &aid=0000
선언 으로</w>
,정치,정치일반,2020-03-02, 코로나19</w>
생각 하고</w>
보수 통합
예정 이라며</w>
요구 가</w>
,https://news.naver.com/main/read.nhn?mode=LS2D&mid=shm&sid1=100&sid2=269&oid=003&aid=00097 30
지적 도</w>
대화 와</w>
제1 부
논의 하는</w>
3.0, 2.0,
세계 는</w>
알려 져</w>
인터넷 은행</w>
이뤄 졌다.</w>
검토 하는</w>
9, "
대변인 을</w>
60 기</w>
주민 들이</w>
나서 야</w>
시무 식에</w>
그래 픽
비행 기</w>
개발 에</w>
,https://news.naver.com/main/read.nhn?mode=LS2D&mid=shm&sid1=100&sid2=269&oid=00 5&aid=000
정치권 이</w>
의료진 이</w>
,https://news.naver.com/main/read.nhn?mode=LS2D&mid=shm&sid1=100&sid2=269&oid=4 37&aid=0000
(왼쪽 )과</w>
,https://news.naver.com/main/read.nhn?mode=LS2D&mid=shm&sid1=100&sid2=268&oid=001&aid=0011 30
업체 에</w>
국면 을</w>
신년인사 회
,이데일리 ,2020.03.05.</w>
겨냥 해</w>
체감 할</w>
송파 을</w>
이례 적으로</w>
,정치,북한,2020-03-05, "
이수 진</w>
드라이 브</w>
베네 치
한중 일</w>
대구·경북(TK )</w>
파트 너
부산·울산 ·경남
운수사 업법</w>
' ◎</w>
' 타다</w>
' kmx1105@newsis.com',</w>
2 조원</w>
3 시</w>
7 .0</w>
D B</w>
L G
· 공
감 면
고 가</w>
구 리
국 경을</w>
그 만큼</w>
극 동
금 천
기 류
기 습</w>
내 내</w>
눈 높
당 당
된 다”며</w>
로 가</w>
무 려</w>
무 의미
문 자
바 보
방 어
방 식</w>
벤 처</w>
병 도</w>
비 당권
상 실
성 명
셔 서</w>
소 프트
솔 직
시 계</w>
아 래
야 심
없 이는</w>
영 도</w>
영 향</w>
오 영
의 왕
의 미</w>
이 렇
제 압
직 권
챙 기
처 사
최 지은</w>
포 용
확 정</w>
회 장은</w>
히 로
한국 으로부터의</w>
21 5
3: 13
영상 ',</w>
서울 신문</w>
대구 의</w>
05 :30
05 :36
04 :12
:1 4,
03: 44
03: 55
'[ 대전
사회 관계
조치 도</w>
진행 해</w>
진행 하는</w>
발표 가</w>
추경 은</w>
내용 에</w>
국민의 례</w>
",뉴시스 ,2020.03.03.</w>
7, "
않았 다는</w>
대변인 도</w>
지정 한</w>
:26 ,,"</w>
정신 으로</w>
어렵 다는</w>
대구·경북 을</w>
성과 가</w>
발전 과</w>
한· 아세안</w>
SN S</w>
과감 하게</w>
검찰총 장
@heraldcorp .c",정치,0,2020-03-17</w>
일부개정법률 안
코로나바이러스 감염증(코로나19)</w>
행보 에</w>
---- ----
(P K
권성 동</w>
동대 문을</w>
' 하지만</w>
, 경제,0,2020-03-17</w>
. ,사회,0,2020-03-17</w>
1 일까지</w>
3 05
4 대</w>
6 ·1
7 ,,,1.0,,</w>
F P
R e
간 사</w>
갑 수</w>
개 국
금 요
기 생
김 원
내 일(
넓 히
니 다
또 다시</w>
뜻 깊은</w>
령 은</w>
로 마
박 상
발 급</w>
비 루
샌 더
속 으로</w>
송 주
수 상
시 킨
약 속</w>
여 부는</w>
연 예
였 다.',</w>
올 해도</w>
윤 재
음 은</w>
이 다
이 길</w>
접 수</w>
정 원</w>
졌 다는</w>
중 시
진 ,</w>
청 사를</w>
체 연
크 로
패 배
평 창
정치 인</w>
"" 정부가</w>
-1 35
19 7
19 :38
국민 적</w>
05 :21
05 :39
05 :29
05 :31
04 :36
:1 6,
인사 말</w>
03: 58
03: 46
15 00
지원 과</w>
'[ 최
검찰 개혁을</w>
입국 하는</w>
총선 기획
안전 보장
개혁 적</w>
구독 ',</w>
구독 해주
군사 령
확산 의</w>
확산 되고</w>
,https://news.naver.com/main/read.nhn?mode=LS2D&mid=shm&sid1=100&sid2=268 &oid=003&aid=000963
입장 에서</w>
논의 에</w>
합의 에</w>
확보 에</w>
이유 에</w>
있어 서는</w>
비례대표 제의</w>
,https://news.naver.com/main/read.nhn?mode=LS2D&mid=shm&sid1=100&sid2=266&oid=003&aid=00097 40
마음 으로</w>
선택 ,</w>
한다 ',</w>
지속 되고</w>
발사체 의</w>
자원 봉사를</w>
내려 가</w>
행동 은</w>
이겨 내고</w>
담화 는</w>
정면 돌파</w>
토론 을</w>
답변 하고</w>
오신 환
취약 한</w>
항의 하며</w>
부터 는</w>
투명 하게</w>
여객 기</w>
김일 성
,https://news.naver.com/main/read.nhn?mode=LS2D&mid=shm&sid1=100&sid2=268&oid=421&aid=0004 49
본격 적으로</w>
박용 찬</w>
권력기관 도</w>
물갈 이</w>
아직 까지</w>
특공 대대</w>
공평 한</w>
이태 규</w>
박범 준</w>
기동 민</w>
몰디 브
케이뱅 크
RC -135
미추 홀
눈높 이에</w>
' 고
' 성공을</w>
( 대구
( 왼쪽</w>
1 명,</w>
3 ,정치,정치일반,2020-01-02,
8 .0</w>
y e
↑ ,</w>
과 제</w>
관 심</w>
규 탄
극 심한</w>
기 한
난 관을</w>
년 까지</w>
단 독
당 정</w>
데 이</w>
도 렴
도 움을</w>
돈 컷
되 돌아
리 만
말 했
명 분이</w>
목 표</w>
밝 힐</w>
법 조
병 행
보 류
부 담</w>
비 법</w>
사 직
세 부</w>
썼 다.</w>
안 장
알 아
약 국</w>
어 머니
위 기도</w>
은 ,</w>
의 에</w>
이 용</w>
이 걸</w>
임 기는</w>
있 다”면서</w>
저 희</w>
조 사가</w>
주 택</w>
지 게</w>
지 급</w>
지 냈다.</w>
집 계</w>
촉 진</w>
취 하지</w>
필 터
허 리
환 멸
회 장
후 에도</w>
흥 덕</w>
희 칼럼
20 %)</w>
11 6
3: 46
3: 01
회의 장</w>
위원장 .</w>
대구 은행</w>
05 :38
04 :3
04 :10
:2 7,
.0,, 4.0,,</w>
참석 해야</w>
03: 48
03: 57
17 0
전략 선거구로</w>
조선 족
생각 하는</w>
23: 14
특별 재난
남북 관계를</w>
지지 도</w>
지역구 는</w>
금지> "",</w>
교수 ,</w>
않았 지만,</w>
획정 안</w>
모두 의</w>
안정 적</w>
비례대표 제를</w>
,https://news.naver.com/main/read.nhn?mode=LS2D&mid=shm&sid1=100&sid2=266&oid=003&aid=00097 37
적극 적</w>
노컷 이</w>
속보 ',</w>
반발 이</w>
대구·경북 에</w>
",뉴스1 ,2020.03.01.</w>
시점 에서</w>
청문 보고서</w>
손학 규
서비스 ',</w>
누구 도</w>
정무 위원회</w>
,https://news.naver.com/main/read.nhn?mode=LS2D&mid=shm&sid1=100&sid2=265&oid=001&aid=0011 45
머니S ,</w>
실질 적인</w>
추정 된다.</w>
관심 과</w>
,정치,청와대,2020-03-02, "
kk ang
고수 들의</w>
정착 을</w>
자위 적</w>
ae .co.kr',</w>
이건 희칼럼
십시 오
외롭 지</w>
윤갑 근</w>
인싸 들의</w>
asi ae.co.kr',</w>
도렴 동</w>
돈컷 은</w>
이건희칼럼 ',</w>
3 04
3 분의</w>
4 .0,,1.0,,</w>
i MBC</w>
r k
’ 도</w>
美 ,</w>
가 짜</w>
개 선을</w>
거 부</w>
건 ,</w>
과 세
관 료
국 경</w>
국 장,</w>
굳 이</w>
근 간
김 갑수</w>
날 짜
다 져
달 아</w>
도 올</w>
만 든
명 단</w>
미 치
방 법</w>
법 ·
변 수가</w>
복 합
부 임
부 문</w>
분 구</w>
불 을</w>
수 송
시 기를</w>
싶 다고</w>
아 꼈
없 지만</w>
엔 진</w>
열 었다.</w>
였 다고</w>
운 반
유 감</w>
이 기고</w>
인 원을</w>
일 지
자 필</w>
자 동</w>
자 국</w>
제 거
주 제
직 전</w>
차 질</w>
처 벌</w>
체 결
편 입
폭 증
한 빛
후 임
20 3
.c ,정치,
26 8
대통령 ,뉴시스,2020.03.05.</w>
11 조7000
10 만</w>
장관 ,뉴시스,2020.03.05.</w>
05 :26
05 :10
국무 위원회</w>
04 :21
:1 2,
:1 5,
필요 하다.</w>
문제 점을</w>
,정치,정치일반,2020-03-02, "[
결정 과</w>
보수 진영
제공 하는</w>
이어 졌다.</w>
미래통합당 을</w>
연구 기관
대전 환
한반도 에서의</w>
여론 이</w>
실시 했다.</w>
만들 었
에서 )</w>
신천지 와</w>
3.0,, 1.0</w>
사용 할</w>
이용 한</w>
위해 선</w>
:36 ,,"</w>
:36 ,,</w>
어렵 다.</w>
,https://news.naver.com/main/read.nhn?mode=LS2D&mid=shm&sid1=100&sid2=264&oid=001&aid=0011 310
공약 으로</w>
합니 다
노컷뉴스 ',</w>
,https://news.naver.com/main/read.nhn?mode=LS2D&mid=shm&sid1=100&sid2=268&oid=003&aid=00097 38
선관 위에</w>
받아들 일</w>
천안 시
인력 과</w>
등장 한</w>
구로 을</w>
역학 조사</w>
말씀드 릴</w>
변수 로</w>
32&aid=00029 8
리얼미터 가</w>
reser v
kysplanet @news1.,사회,0,2020-03-17</w>
VO A
제6 차</w>
맞춤 형</w>
'[대전 =뉴시스]
' 신
' 4+1
2 ,,"
3 21
4 50
5 ,,,1.0,,</w>
8 ,2020-03-16</w>
8 000
8 ,,,1.0,,</w>
= 뉴스1)</w>
a te
m in
· 소상공인</w>
“ 정부가</w>
“ 이제</w>
가 축의</w>
갑 ),</w>
강 동
개 편</w>
거 리를</w>
계 파</w>
꼽 히는</w>
남 녀</w>
넘 게</w>
달 아
대 외</w>
드 렸
력 은</w>
많 아
많 았다.</w>
맞 서
무 당
무 기를</w>
물 어
보 유</w>
복 무를</w>
부 한</w>
비 전을</w>
소 송
수 ·
실 험</w>
않 기</w>
얻 는</w>
얻 은</w>
에 …
여 지는</w>
오 세
외 환
원 인</w>
임 오
임 재훈</w>
장 정
차 출
착 용</w>
크 리
편 집
필 터</w>
해 체
현 상이</w>
호 텔</w>
20 1
뉴스 ""',</w>
.0, 6.0,
위원장 도</w>
:5 4,
지역 경제</w>
밝혔 다고</w>
기자 가</w>
05 :11
04 :26
1.0, 1.0,</w>
'[ CBS
진행 되고</w>
안전 과</w>
정의 당·
25 일부터</w>
확산 과</w>
확산 되는</w>
기념 사</w>
특별 법</w>
기업 과</w>
입장 하는</w>
계획 이라고</w>
협력 에</w>
검토 해야</w>
이었 다고</w>
있어 서도</w>
참배 했다.</w>
의미 다.</w>
:19 ,,"</w>
청년 우선
베트남 은</w>
탄핵 의</w>
op en
지시 를</w>
공약 에</w>
상임 위</w>
당정 은</w>
응원 과</w>
경북 도
추가경정예산 안을</w>
중앙재난안전대책 본부(
서울시 장이</w>
대결 을</w>
수용 할</w>
떨어 진</w>
김명 수</w>
연결 해</w>
장비 의</w>
민주평화 당
대기 하고</w>
\r\n\t\t\t\t\t \t\t
호텔 에서</w>
강창 일</w>
완벽 하게</w>
448 &aid=0000
착륙 을</w>
치열 한</w>
최태 원</w>
WH O
'[CBS 노컷뉴스</w>
' 다만</w>
1 200
2 38
2 ,정치,정치일반,2020-01-02,
4 개</w>
5 만
7 00
7 ,,"
= ""
? …
@ asiae.co.kr',</w>
P K
v s
± 3.1
간 접
것 이라면서</w>
견 제
계 단에서</w>
공 사
공 존
공 사가</w>
과 천
교 훈
군 인</w>
기 한</w>
납 세
당 대표
더 이상</w>
뒷 북</w>
말 씀</w>
명 ·
바 꿔</w>
반 야심
보 다
부 장,</w>
부 장관과</w>
분 에</w>
사 전
소 수</w>
소 폭</w>
않 습니다.</w>
영 석</w>
예 상</w>
온 정의</w>
원 칙</w>
의 존
저 질
적 격</w>
정 민</w>
정 밀</w>
주 목</w>
창 녕
쳐 야</w>
탐 험
태 평양
파 견</w>
퓨 처
학 부모
"" 엠빅
"" 14F
26 9
3: 16
연합 정당을</w>
10 1
:5 8,
", 데일리안
:3 1,
:3 3,
추가 됐다.</w>
18 5
14 4
14 층</w>
35 0
@news1. ",정치,1,2020-03-17</w>
새로 움을</w>
수사 에</w>
격리 병
방문 객
.co.kr )</w>
메시 지로</w>
신청 했다.</w>
<저작권 자
<저작권 ",정치,1,2020-03-17</w>
임시 국회에서</w>
공천관리 위는</w>
요청 을</w>
준비 하는</w>
전체 에</w>
일본 대사관</w>
않았 다며</w>
:00 ,,"
혁신 에</w>
에서 부터</w>
대변인 ,</w>
이동 하는</w>
않는 다는</w>
고려 한</w>
논란 에</w>
여행 금지
부결 되고</w>
혐의 가</w>
경남 대</w>
그렇 다고</w>
저작권자 ,정치,0,2020-03-17</w>
아무 도</w>
경례 하고</w>
마무리 하고</w>
.8 %,</w>
,https://news.naver.com/main/read.nhn?mode=LS2D&mid=shm&sid1=100&sid2=269&oid=421&aid=0004 504
대처 를</w>
:00, "
일으 키
수원 시</w>
물갈 이
국제사회 와</w>
만나 보세요
윤상 현</w>
접경 지역의</w>
대신 해</w>
여건 이</w>
,https://news.naver.com/main/read.nhn?mode=LS2D&mid=shm&sid1=100&sid2=269&oid=081&aid=000 30
진상조사 위원회</w>
민경 욱</w>
당규 에</w>
최룡 해</w>
히로 히
탐험 하다.</w>
""엠빅 뉴스""',</w>
""14F ""',</w>
( 오른쪽</w>
, 오마이뉴스
1 ,</w>
1 차관이</w>
2 37
4 39
9 일부터</w>
P 4
c bs
가 결
건 설</w>
검 경</w>
고 강도</w>
공 원</w>
관 영</w>
그 림
높 이는</w>
다 낭
다 당
당 선</w>
대 덕
대 가를</w>
동 창
묻 자</w>
박 차를</w>
배 제</w>
벌 써</w>
범 국민
보 조를</w>
부 르고</w>
산 에</w>
성 착취물</w>
소 환
소 비</w>
애 초</w>
양 극
양 해
엄 청
여 부가</w>
요 .\xa0
용 납
원 색
유 럽</w>
윤 희</w>
젊 은
정 은
제 76기</w>
졌 던</w>
조 심
죠 .',</w>
진 환</w>
질 서를</w>
징 역</w>
청 에</w>
출 사표를</w>
치 에</w>
하 강
했 다면</w>
현 행
호 ,</w>
mo o@
19 5
대표 .</w>
대통령 께</w>
3: 19
:5 5,
", 오마이뉴스
:3 8,
:4 1,
:4 4,
12 4
국무 위원장</w>
16 6
16 9
,https://news.naver.com/main/read.nhn?mode=LS2D&mid=shm&sid1=100&sid2=265 &oid=003&aid=0009636
통합당 을</w>
.k ",정치,0,2020-03-17</w>
\xa0 ',</w>
생각 한다.</w>
보수 층
25 3
지도 자
,https://news.naver.com/main/read.nhn?mode=LS2D&mid=shm&sid1=100&sid2=264 &oid=008&aid=0004
강화 된</w>
보건 분야</w>
예비후보 ,</w>
추진 해</w>
이어 갈</w>
이해 와</w>
확인 하고</w>
모습 에</w>
6, "
이었 습니다.</w>
모두 발언하는</w>
확보 할</w>
발생 하지</w>
역할 이</w>
고려 하면</w>
yna moo@
외국 인
경쟁 력</w>
방송 은</w>
바이러스 와</w>
방위 비
사법 개혁
행동 에</w>
정면 으로</w>
없었 던</w>
구축 을</w>
예방 적</w>
해외 에서</w>
소상공인 과</w>
긍정 적인</w>
제2 의</w>
여객 자동차
불러 주시고</w>
추구 한다면</w>
자발 적</w>
,https://news.naver.com/main/read.nhn?mode=LS2D&mid=shm&sid1=100&sid2=264&oid=421&aid=0004 38
권력기관 이</w>
6· 25
작용 할</w>
스마 트
만세 삼
공평 하게</w>
소재 ·부
헌혈 에</w>
장거리포병구분 대의</w>
재해 재난과</w>
저소득 층
나옵 니다.</w>
'sk ynamoo@
성일 종</w>
홍익 표</w>
소프트 웨
사회관계 망
'[대전=뉴시스] 박영태</w>
cbs .co.kr',</w>
'skynamoo@ cbs.co.kr',</w>
( 6
- 3
3 일부터</w>
; 을</w>
A R
· 서
檢 ,</w>
갑 작
개 인의</w>
겠 지만</w>
구 미
그 만
기 사에서</w>
내 일부터</w>
뉴 욕
동 력을</w>
되 돌
물 이</w>
방 법이</w>
번 호</w>
보 장</w>
북 남
분 위기가</w>
사 명
사 천
사 투를</w>
선 박
소 극
숭 고한</w>
스 피
시 시</w>
식 (
신 속</w>
실 이</w>
아 픈</w>
안 녕
안 고</w>
여 건</w>
오 를</w>
옮 겨</w>
우 루
유 통</w>
의 사가</w>
이 한</w>
이 동</w>
이 끌</w>
이 다."",</w>
이 끄는</w>
인 접한</w>
재 입당</w>
적 었다.</w>
전 인</w>
제 도,</w>
주 무
지 혜</w>
지 어</w>
지 사를</w>
창 출
책 무
캡 쳐
포 괄
하 다""고</w>
하 다""며</w>
한 때</w>
항 이</w>
행 사는</w>
호 찌
확 고한</w>
회 담</w>
흔 들</w>
00 :30
19 ,2020-03-17</w>
대표 적인</w>
대통령 ,뉴시스,2020.03.04.</w>
11 4
11 일</w>
하겠 다""며</w>
:0 5,
정당 ,</w>
서울 -
:2 8,
03: 51
금지 한</w>
금지 하는</w>
14 9
발사 와</w>
검찰 ,</w>
25 7
,https://news.naver.com/main/read.nhn?mode=LS2D&mid=shm&sid1=100&sid2=264 &oid=02
,정치,국방/외교 ,2020-03-01,"
강화 해야</w>
기소 가</w>
남북 간</w>
입장 에서는</w>
'▶ 네이버에서</w>
것이 며</w>
,정치,국회/정당,2020-03-05, [
정보 보호
일본 이</w>
만들 기</w>
이상 을</w>
이재 갑</w>
참여 해</w>
변호 사를</w>
산업 통상
절차 가</w>
나타 냈다.</w>
점검 하고</w>
시정연설 하는</w>
시계 는</w>
선전 매체</w>
국립서울 현충원</w>
검찰개혁 에</w>
위험 한</w>
당정협의 에</w>
앵커 ]',</w>
기회 가</w>
불과 한</w>
충격 적</w>
활성 화</w>
선거법 ·
기념식 은</w>
한시 적으로</w>
전염 병
F- 35
【서울=뉴시스 】
리병 철
끊임 없이</w>
퓨처 메이
' 1일</w>
' 이번</w>
' \r
' 김형오</w>
' 한국일보
( 한국
( 시민
1 일(현지시간)</w>
3 ~
@ chosun
m b
p re
가 면</w>
갈 무리
거 취
과 기정
규 제를</w>
기 습
기 구</w>
기 조를</w>
김 주
노 출
달 라며</w>
담 아</w>
대 승
동 은</w>
됐 지만</w>
되 거나</w>
드 립
란 히</w>
말 하고</w>
명 시
모 여</w>
문 체
문 은</w>
물 의를</w>
미 치지</w>
민 감
부 직
불 만이</w>
비 유
사 이</w>
상 하
수 십
신 념
악 수를</w>
업 계
업 의</w>
여 동생인</w>
연 출
우 정
유 관
의 령
의 지
이 형
이 은</w>
인 권</w>
작 위
재 다</w>
전 부</w>
전 주</w>
점 이다.</w>
접 촉</w>
정 ·
제 품
조 에</w>
중 에서</w>
증 액
지 배
찾 는</w>
청 원을</w>
캠 페
켓 을</w>
팀 이</w>
표 결</w>
풀 어
풀 릴</w>
하 라</w>
하 긴</w>
한 ,</w>
해 지고</w>
혁 명의</w>
화 해
확 장
회 관</w>
획 정을</w>
00 :29
3: 24
정부 도</w>
선거 용</w>
1. 3
민주당 도</w>
18 대</w>
tio n
국가 들과</w>
'[ 헤럴드경제
그러 면서도</w>
감염증 )</w>
최고 의</w>
,정치,정치일반,2020-03-02, 발언하는</w>
생각 합니다.</w>
결정 했다고</w>
격리 돼</w>
비판 했습니다.</w>
시민 이</w>
추경 의</w>
마스크 로</w>
언급 을</w>
13 3
결과 ,</w>
조사 됐다.</w>
나경 원
때문 이라고</w>
:30 ,,</w>
필리버스터 가</w>
,https://news.naver.com/main/read.nhn?mode=LS2D&mid=shm&sid1=100&sid2=266&oid=003&aid=00097 38
공급 에</w>
:11 ,,"['\n\t',</w>
새해 에</w>
투표 에서</w>
범죄 를</w>
건강 과</w>
이번 에는</w>
거론 하며</w>
정치권 에</w>
내놓 지</w>
do l
않겠 다.</w>
동아 일보,2020.01.02.</w>
기득 권에</w>
하루 에</w>
기념촬 영</w>
꼼수 에</w>
실질 적으로</w>
국내 로</w>
윤리 위</w>
시· 도
국군대구 병원</w>
[뉴스 레터</w>
,머니투데이 ,2020.01.02.</w>
'비례 자유한국당
기계 적</w>
,https://news.naver.com/main/read.nhn?mode=LS2D&mid=shm&sid1=100&sid2=269&oid=016&aid=00016 4
이끌어 주셨
비교 적</w>
'photo think@newsis.com',</w>
유공 자</w>
핵· 미사일</w>
대구·청 도</w>
방명록 에</w>
상임선대 위원장이</w>
지켜지 기를</w>
이견 이</w>
거예 요.</w>
강효 상</w>
식약 처
여성가족 부</w>
추가경정예산안 (추경
경제활 력</w>
'뉴 ;을</w>
단단 하게</w>
'한국일보 닷컴</w>
과기정 통
' ‘
' 청
' 총선</w>
' 저작권자(c)</w>
( 북한
0 시</w>
3 명이</w>
4 38
A 씨는</w>
T E
c lass
k j
◎ 공감언론</w>
각 국</w>
갈 등이</w>
갈 수록</w>
결 합
구 로</w>
굳 게</w>
그 랜드
농 어
높 았다.</w>
느 낀
단 속
더 해</w>
동 안
땀 에</w>
랫 동안</w>
록 ,</w>
리 고,</w>
리 라고</w>
마 구</w>
메 신
목 이</w>
물 은</w>
분 쯤</w>
상 기
생 존
서 와</w>
선 배
속 초
스 는</w>
신 고</w>
아 내가</w>
양 국
여 론</w>
예 고</w>
오 랫동안</w>
외 로운</w>
원 외</w>
위 하여
일 자</w>
일 이다.</w>
자 유</w>
자 마자</w>
전 의</w>
전 에는</w>
전 역에</w>
정 황
정 신</w>
종 에</w>
진 주
진 통
짓 밟
찌 감
창 준
철 도</w>
최 신</w>
충 북
카 드</w>
탐 지
토 대</w>
튼 튼
하 에서</w>
핵 무기
했 습니다."",</w>
현 실</w>
홍 문
회 견
20 4
"" 문재인</w>
19 98
3: 26
:3 6,
지역 별로</w>
:1 3,
:1 7,
:2 4,
청와대 사진
03: 54
비례 제</w>
22 :40
35 9
27 6
24 5
생각 하지</w>
민생 ·
민생 경제</w>
수사 한</w>
예정 이었
기념 하며</w>
시민 과</w>
확인 되지</w>
세종 대로</w>
요청 이</w>
분석 하고</w>
우려 도</w>
질문 ,</w>
지금 이라도</w>
김정은 은</w>
22:5 0
사용 을</w>
나타 나고</w>
연설 을</w>
경우 는</w>
부정 적인</w>
시험 발사</w>
.1 %
더불어민주당 ,</w>
효과 적인</w>
남북관계 의</w>
무기 력
해외 안전
주한 외교
조성 욱</w>
개인 적</w>
출석 해</w>
,아시아경제 ,2020.03.05.</w>
\r\n\t\t\t\t\t \t
기울 이고</w>
%p ↑,</w>
기계 적으로</w>
,https://news.naver.com/main/read.nhn?mode=LS2D&mid=shm&sid1=100&sid2=266&oid=018&aid=0004 59
매각 을</w>
형태 로</w>
과학기술정보방송통신 위원회에서</w>
ig h
문구 완구</w>
지침 을</w>
부사 관</w>
동지 께서</w>
발기 인
분위기 다.</w>
DM Z
공백 을</w>
정춘 숙</w>
감염증( 코로나</w>
장정 숙</w>
산업통상 자원
' ◆</w>
' <</w>
' 필리버스터
, 중앙
s d
t y
“ 지금</w>
간 주
감 지
고 (
고 화
과 방
관 ·
교 통</w>
군 ,</w>
기 각
기 증
꼽 았다.</w>
끝 내</w>
더 해
령 이</w>
로 서의</w>
먹 기</w>
무 효
범 정부
보 여</w>
보 통</w>
보 려</w>
불 리
불 공정
사 립
생 필
선 이</w>
선 정</w>
순 국
숨 진</w>
승 리는</w>
시 장에서</w>
시 30분
시 30분</w>
실 내
아 들</w>
외 국</w>
요 양
우 (
윤 곽
윤 한
이 은
이 거나</w>
입 당이</w>
적 으로
전 례
전 제로</w>
점 ,</w>
조 명
좋 겠다고</w>
준 의</w>
취 지의</w>
치 명
쿠 폰
타 이
탄 이</w>
펼 치고</w>
학 군
한 나라
정치 로</w>
위원 들이</w>
민주 묘
3: 00
3: 41
:5 7,
:4 8,
:4 7,
12 .0,
외교 안보
1. 7
공감 할</w>
기자 ,</w>
:1 8,
인사 들을</w>
우리 를</w>
가능 하다는</w>
15 7
대응 으로</w>
사람 들은</w>
보건 의료
특별 히</w>
언급 은</w>
기업 을</w>
노력 하고</w>
안보 리</w>
돌아 가고</w>
확보 해</w>
확정 됐다.</w>
대변인 .</w>
본회의 장)</w>
비핵 화를</w>
김진 태</w>
해주 는</w>
베트남 으로</w>
:10 ,,</w>
부정 선거
대구·경북 은</w>
설치 된</w>
,https://news.naver.com/main/read.nhn?mode=LS2D&mid=shm&sid1=100&sid2=264&oid=001&aid=0011 30
기록 을</w>
추가경정예산 안</w>
자세 히</w>
내세 운</w>
기여 할</w>
명예 를</w>
4+ 1</w>
거주 하는</w>
@m t
퇴장 하고</w>
생도 들과</w>
시켰 다.</w>
수단 으로</w>
박찬 주</w>
황운 하</w>
총영사 관</w>
인센티 브를</w>
4. 15총선</w>
용감 하게</w>
간곡 히</w>
원정 ]</w>
'[최 원정]</w>
' 함께</w>
1 3일</w>
4 10
4 개월
5 시</w>
b us
o t
p e
‘ 함께</w>
겠 다”
겨 울
관 악
극 대화
나 도</w>
년 간의</w>
농 단</w>
당 무
도 내</w>
됐 다”며</w>
든 ,</w>
등 판
마 땅
민 심</w>
발 이</w>
버 린</w>
벌 이는</w>
봅 니다.</w>
부 평
블 라디
살 려
상 정</w>
성 산</w>
세 웠
소 는</w>
소 중히</w>
손 에</w>
수 집
수 시로</w>
순 환
슬 픈</w>
심 정을</w>
아 이를</w>
없 으면</w>
었 다며</w>
에 어</w>
열 려</w>
열 렸다.</w>
용 기를</w>
원 외
원 인
원 장이</w>
위 상을</w>
육 ·해
이 도
이 춘
이 룰</w>
인 원은</w>
재 건
저 력
전 ·
전 형
전 했다고</w>
조 롱
조 합
좌 파
지 나</w>
차 는</w>
청 사에</w>
초 부터</w>
최 우선</w>
평 생을</w>
하 고도</w>
해 소</w>
행 위는</w>
황 보
회 항
회 장을</w>
"" >
in fo
국회 서</w>
3: 10
통합 ,</w>
:5 9,
:4 2,
:4 3,
:4 6,
:4 9,
장관 들이</w>
장관 ,뉴시스,2020.03.04.</w>
:0 4,
:0 6,
여러 가지</w>
:2 5,
추가 적인</w>
민주당 ·
중앙 회</w>
통합당 과</w>
36 8
2.0, 2.0,
@news1. ,정치,1,2020-03-17</w>
들어 온</w>
방역 작업을</w>
예정 이다.',</w>
방문 ,</w>
예산 안
이어 진</w>
지지 하는</w>
노력 하겠다고</w>
전체 의</w>
마련 에</w>
마련 하고</w>
이상 민</w>
2. 5
선거구 가</w>
합동 군사연습
제한 을</w>
해결 에</w>
이재 오</w>
달라 ""고</w>
,https://news.naver.com/main/read.nhn?mode=LS2D&mid=shm&sid1=100&sid2=266&oid=003&aid=00097 34
협상 과</w>
안철수 의</w>
사이 트
전달 하고</w>
지키 지</w>
국회의 장의</w>
경남 도</w>
심각 하게</w>
머니투 데이</w>
답변 하는</w>
시사 한</w>
오른쪽 은</w>
:41 ,,</w>
,https://news.naver.com/main/read.nhn?mode=LS2D&mid=shm&sid1=100&sid2=269&oid=02 3&aid=00035
%) 와</w>
철저 하게</w>
핵심 은</w>
기본 적으로</w>
분열 을</w>
중소기업 중앙
기반 으로</w>
기대한 다”고</w>
기념촬 영
신년인사 회</w>
신년인사 회에서</w>
차례 에</w>
주택 을</w>
전자 신문
일자리 ,</w>
배경 에</w>
국제사회 에</w>
화성 -1
내리 도록</w>
일환 으로</w>
약식 기소
굳건 한</w>
곽상 도</w>
긴급명령 권</w>
트( UAE
,https://news.naver.com/main/read.nhn?mode=LS2D&mid=shm&sid1=100&sid2=269&oid=422&aid=0000 417
이혜 훈</w>
김승 희</w>
물론 ,</w>
실용 적</w>
추가경정예산(추경 )
강훈 식</w>
너무 나</w>
내딛 는</w>
class =""
부정선거 등</w>
@mt .co.kr',</w>
' 홍</w>
' 패스트트랙</w>
' 세상에</w>
( 국회</w>
( 충남</w>
2 개</w>
3 선의</w>
9 &aid=000
> \n\t',</w>
[ 연예
n g
n .co.kr)</w>
“ 현재</w>
갑 질
강 승
건 (
것 .</w>
격 려</w>
괴 산
구 ,</w>
구 에서</w>
군 과</w>
그 룹
그 지
금 할</w>
꺾 을</w>
눈 을</w>
능 을</w>
도 덕
되 는지</w>
뒷 얘기
들 에게는</w>
때 ,</w>
때 부터</w>
류 영석</w>
리 스트
마 라
매 치
맹 비난
면 담</w>
무 증상</w>
발 령
밝 은</w>
법 으로</w>
변 ·
변 경</w>
봉 진</w>
분 산
설 을</w>
성 도</w>
수 술
신 조</w>
십 니까?</w>
알 릴레
언 했다.</w>
영 남
오 영환</w>
온 에어</w>
유 증상
육 군은</w>
인 적
일 찌감
입 장은</w>
전 제
전 했습니다.</w>
정 밀
진 성
차 로</w>
창 을</w>
투 자를</w>
파 렴
편 파
하 사
합 시
했 는지</w>
활 용</w>
19 19
19 :39
19 :37
대통령 님
대통령 ,뉴시스,2020.03.02.</w>
대통령 ,연합뉴스,2020.01.02.</w>
:5 6,
:3 9,
:3 4,,,,,</w>
1. 6
기자 )</w>
기자 ),</w>
참석 자들
관련 해서</w>
29 일(현지시간)</w>
35 8
보수 를</w>
방역 의</w>
비판 한</w>
방문 을</w>
확산 하는</w>
예산 이</w>
보도 한</w>
임시 정부</w>
기업 이</w>
필리 핀
'▶ MBN</w>
기획 부</w>
교수 도</w>
자리 가</w>
하나 로마
경찰 에</w>
확보 와</w>
on dol
지방 경찰청
75 명은</w>
이야 기가</w>
아시아 나
유지 할</w>
국정 수행</w>
참배 하는</w>
투입 해</w>
영향 이</w>
:10 ,,"</w>
보호 구</w>
응답 을</w>
위협 을</w>
한다 ’는</w>
졸업 식</w>
분야 에</w>
거론 되는</w>
거론 된다.</w>
거론 되고</w>
공무 집행
환자 들을</w>
비서관 이</w>
반응 이</w>
누구 나</w>
동아 시아</w>
en i
오늘( 1일)</w>
서울신문 ]',</w>
서울신문 (www.
국가안보 실장</w>
MBN 뉴스를</w>
MBN (www.
일부개정법률 안</w>
결심 한</w>
입니 다."",</w>
,파이낸셜뉴스 ,2020.03.02.</w>
,정치,행정,2020-03-03, "
바라 본</w>
인천국제공 항
의도 적으로</w>
공중보건 의
오마이뉴스 (시민
,https://news.naver.com/main/read.nhn?mode=LS2D&mid=shm&sid1=100&sid2=269&oid=417&aid=0000 48
SLB M</w>
무너 뜨
seoul .co.kr),</w>
경과 보고서</w>
,https://news.naver.com/main/read.nhn?mode=LS2D&mid=shm&sid1=100&sid2=269&oid=003&aid=000958 5
사회· 문화</w>
일이 ',</w>
주권자전 국회의</w>
GO !',</w>
아랍에미리 트(UAE
2011 년</w>
6·1 3</w>
(대구 =연합뉴스)</w>
만나보세요 !',</w>
mb n.co.kr)</w>
고화 질</w>
[연예 계</w>
뒷얘기 ]</w>
일찌감 치</w>
ondol @yna.co.kr',</w>
서울신문(www. seoul.co.kr),</w>
MBN(www. mbn.co.kr)</w>
오마이뉴스(시민 기자),</w>
' 미
' 이낙연</w>
' 그러나</w>
( S
( 친
1 3.
3 주
4 ,정치,정치일반,2020-03-05,
< 질문</w>
@ bus
h a
i ew
가 상
가 면서</w>
갑 을</w>
강 문
건 물을</w>
과 정</w>
국 난
국 적</w>
권 리를</w>
나 와
납 득
덜 어
됩 니다.',</w>
때 가</w>
맞 물
먼 저
면 허
모 름
무 책임
문 턱
반 도
반 을</w>
법 원</w>
법 무</w>
병 상이</w>
상 담
선 ),</w>
성 신
세 우는</w>
세 상은</w>
소 셜
소 가</w>
식 ,</w>
실 전
쏠 린다.</w>
아 닐</w>
예 의
운 을</w>
운 현</w>
의 문
일 선</w>
자 격을</w>
전 산
전 북도
정 도의</w>
정 재훈</w>
정 관용
제 ,</w>
지 수
창 녕</w>
철 회를</w>
청 래</w>
체 온
최 초</w>
측 과</w>
칼 을</w>
타 워
태 어
피 력
해 수
홍 봉진</w>
00 :31
ad boy@yna.co.kr',</w>
이라 크</w>
",정치, 4,2020-03-17</w>
21 &aid=00024
국민 청원
정부 에서</w>
:3 2,
:4 2,,,,,</w>
12 8
:0 3,
:0 8,
:0 9,,,,,</w>
선거 의</w>
선거 법을</w>
다"" ',</w>
반영 된</w>
1.0, 2.0,
22 :39
가능 하다고</w>
17 대</w>
15 9
16 ,2020-03-17</w>
사회 주의
29 0
29 7
36 6
확진 환자</w>
방역 체계</w>
,정치,국방/외교 ,2020-01-01,"
23: 05
격리 조치를</w>
방문 하고</w>
기자회견 하는</w>
to adboy@yna.co.kr',</w>
훈련 과</w>
주장 하고</w>
기소 ,</w>
신청 으로</w>
00:5 1
보인 다.',</w>
연구 위원은</w>
사령 관은</w>
이상 으로</w>
,https://news.naver.com/main/read.nhn?mode=LS2D&mid=shm&sid1=100&sid2=265&oid=421&aid=0004 505
상태 를</w>
사건 으로</w>
정권 에</w>
당부 했다.',</w>
참배 한</w>
느냐 는</w>
:40 ,,</w>
시행 하고</w>
시행 하는</w>
TV 조선</w>
국립 외교
집중 할</w>
탄핵 에</w>
경우 에도</w>
사진= 연합뉴스</w>
청문 회</w>
있다 라고</w>
주한미 군사령
보좌 관
제외 하고</w>
:50 ,,</w>
안건 에</w>
친서 에</w>
소방 관</w>
국군대전 병원</w>
의무 화
사망 자가</w>
가짜 뉴스</w>
노무 현재
소독 제</w>
전반 에</w>
th is
pa rk
부담 이</w>
언제 나</w>
의정부 갑</w>
고위공직자범죄수사처(공수처 )
,https://news.naver.com/main/read.nhn?mode=LS2D&mid=shm&sid1=100&sid2=269&oid=417&aid=0000 5
정해 진</w>
당사 자
명확 히</w>
아산 ·진
TF 포토]</w>
jin do
지혜 를</w>
전신 인</w>
목숨 을</w>
토로 했다.</w>
평화공동 체
만만 치</w>
항구 적</w>
광화 문</w>
가용 한</w>
김두 관</w>
중앙교육 연수
백두혈 통
물꼬 를</w>
하사 헌</w>
@bus an
' 국민</w>
0 .3
1 ,정치,정치일반,2020-01-02,
2 ,정치,정치일반,2020-03-05,
4 47
< 이런</w>
I F
j s
m kkang
“ 모든</w>
감 동
같 이
겁 먹은</w>
고 검
관 할</w>
교 회
남 한</w>
노 인
누 락
단 속</w>
단 국대</w>
됐 다""며</w>
되 풀이
뒤 에</w>
뒤 를</w>
많 아</w>
바 른</w>
방 지에</w>
분 위기를</w>
불 순
빨 라
빼 앗
삼 지연
상 인
석 ,</w>
성 교육</w>
센 트</w>
신 형
아 내
앉 아</w>
않 으면서</w>
양 향
어 깨
열 릴</w>
열 리고</w>
였 고,</w>
영 세
영 역에</w>
이 것은</w>
일 환</w>
자 산
작 동
잡 은</w>
저 들의</w>
저 지를</w>
적 의</w>
전 망</w>
제 ·
종 합</w>
주 둔
주 ,</w>
지 대
진 단</w>
책 으로</w>
초 에</w>
춘 을</w>
출 생
침 체
침 해
코 ,</w>
탄 두
통 보를</w>
틀 에서</w>
폭 넓
표 창원</w>
하 명</w>
한 계
합 치
"" 그</w>
"" 우리는</w>
19 :40
19 :36
19 :41
의원 들에게</w>
미래 한국당은</w>
다” 면서도</w>
:5 2,
지역 도</w>
후보 에</w>
:2 9,
:2 4,,,,,</w>
인사 ,</w>
03: 47
상황 이라고</w>
15 5
진행 될</w>
총선 용</w>
44 9
처리 될</w>
위원회 와</w>
일보 ,2020.03.01.</w>
예정 입니다.</w>
대상 은</w>
예산 은</w>
평가 다.</w>
인터 뷰</w>
바른미래 당·
지적 에</w>
자신 감을</w>
제1 총괄조정
기업 의</w>
이해 할</w>
'▶ 용감하게</w>
photo @newsis.com',</w>
촉구 하고</w>
여론 의</w>
감사 드린
상태 가</w>
방식 의</w>
방사 탄
발생 할</w>
바란 다며</w>
다' 라는</w>
승리 의</w>
장병 들
주민 의</w>
:39 ,,"['\n\t',</w>
사용 하는</w>
이번 에도</w>
,https://news.naver.com/main/read.nhn?mode=LS2D&mid=shm&sid1=100&sid2=264&oid=001&aid=0011 45
간호사 관학교</w>
교통 안전
동작 동</w>
위반 으로</w>
:29 ,,"['\n\t',</w>
:16 ,,"['\n\t',</w>
:31 ,,</w>
() ;
”, 헤럴드경제
다음 은</w>
행정안전 위원회</w>
움직 임을</w>
행위 가</w>
철회 하고</w>
,https://news.naver.com/main/read.nhn?mode=LS2D&mid=shm&sid1=100&sid2=265&oid=001&aid=0011 310
수출 규제</w>
윤리 위는</w>
자제 해</w>
프레 스
본격 화
출국 하는</w>
자가격리 를</w>
추구 하는</w>
김재 룡</w>
비상대책 본부</w>
공모 를</w>
노웅 래
표본 오차</w>
kk ssmm99@newsis.com',</w>
보좌진 ·당직자</w>
예결 위</w>
이루어 지고</w>
병진 노선
되나 요?
문화체육관광 부</w>
choi 119
참조 하면</w>
바람직 하지</w>
구독하세요 ',</w>
교육· 사회·문화</w>
구광 모</w>
11조7000 억원</w>
강문 규</w>
성신 여
되나요? >',</w>
' 여행</w>
' kkssmm99@newsis.com',</w>
( 박</w>
/ 뉴시스
5 일부터</w>
R &
n al
” ,</w>
가 겠다고</w>
감 행
고 도는</w>
금 융</w>
나 무
나 흘</w>
남 윤
뉴 질
다 ”</w>
대 장의</w>
도 (
동 안의</w>
들 께</w>
떠 날</w>
룩 스</w>
말 할</w>
말 하기
모 멘
목 포
반 가운</w>
배 의</w>
번 에</w>
번 의</w>
범 철</w>
부 서</w>
성 명을</w>
수 치
시 까지</w>
실 시</w>
아 내</w>
앞 서
에 도
열 악
요 원</w>
우 호
운 송
위 인</w>
육 성,</w>
의 심</w>
이 행</w>
있 다""면서</w>
적 이며</w>
주 역
진 다는</w>
진 전을</w>
진 입을</w>
찾 았다.</w>
추 모
토 크
할 아버
해 서
현 명한</w>
회 계
흘 리는</w>
희 망</w>
00 :36
26 0
대통령 ,연합뉴스,2020.03.04.</w>
21 세기</w>
3: 20
통합 도</w>
하겠 다</w>
10 :00,,"</w>
미래 한국당이</w>
:3 5,
:4 4,,,,,</w>
12 2
:0 2,
:0 7,
후보 위원
:2 3,
:2 2,,,,,</w>
중앙 일보</w>
18 7
18 9
금지 하고</w>
22 :38
17 8
발언 이</w>
24 6
선언 에</w>
군사 력</w>
비판 에</w>
확산 이</w>
조정 을</w>
시민 들에게</w>
보도 를</w>
통과 가</w>
정상 의</w>
포함 됐다.</w>
여론 조사에서</w>
이뤄 지
만들 겠다고</w>
2.0,, 2.0,,</w>
종합 적으로</w>
자유한국당 (
사건 은</w>
정론 관</w>
기준 이</w>
참여 를</w>
승리 했다.</w>
울산 시</w>
협상 은</w>
투입 된다.</w>
'( 서울=연합뉴스)</w>
해석 했다.</w>
밝히 며</w>
전문가 로</w>
",뉴스1 ,2020.03.03.</w>
국회의 장</w>
국회의원 (
(종합 2보)
타격 을</w>
·이 종
드리 겠다고</w>
늘어 나
늘어 났다.</w>
역사 적인</w>
,https://news.naver.com/main/read.nhn?mode=LS2D&mid=shm&sid1=100&sid2=269&oid=02 2&aid=000344
소위 가</w>
강제 동원</w>
(왼쪽 부터
과감 히</w>
da y
개인 적으로</w>
www .
이주 단
전략무기 '</w>
고속 정
이날 부터</w>
초래 하는</w>
인천국제공 항을</w>
공중보건 의</w>
,https://news.naver.com/main/read.nhn?mode=LS2D&mid=shm&sid1=100&sid2=266&oid=421&aid=0004 49
해양수산 부</w>
해당 하는</w>
,https://news.naver.com/main/read.nhn?mode=LS2D&mid=shm&sid1=100&sid2=267&oid=001&aid=00114 39
동포 들의</w>
바꿔 야</w>
,정치,북한,2020-03-02, "
건물 로</w>
,https://news.naver.com/main/read.nhn?mode=LS2D&mid=shm&sid1=100&sid2=269&oid=008&aid=0004 33
국민소통 수석
YT N
발기 인</w>
가야 할</w>
박양 우</w>
(가칭 )</w>
AP /뉴시스
아름 다운</w>
증거장막성전 (신천지
여객자동차 운수사업법</w>
우정 사업
TE L
황보 승
정관용 ></w>
jindo .
남윤 호</w>
' 정세균</w>
9 .0,,
h e
k r</w>
가 득
각 별
강 점
거 절
거 친</w>
결 렬
공 익
공 항을</w>
구 나</w>
국 면</w>
권 으로</w>
귀 국을</w>
근 절
근 거</w>
기 회</w>
꼽 힌다.</w>
남 을</w>
내 역을</w>
냐 하면</w>
년 과</w>
농 단
담 겼다.</w>
당 무</w>
량 이</w>
롯 데
멘 트</w>
명 분을</w>
모 래
모 습</w>
민 원</w>
민 과</w>
박 광
발 신
봉 환</w>
분 한</w>
불 만
불 필요한</w>
상 대</w>
선 ,</w>
성 윤
스 무
승 객</w>
쏜 다',</w>
안 양
억 지</w>
얼 마</w>
여 겨
완 전한</w>
의 무를</w>
이 창
이 코
이 동을</w>
이 사회</w>
일 괄</w>
임 재
자 원</w>
자 주</w>
잡 기</w>
장 기</w>
적 용</w>
전 기
정 작</w>
조 짐
주 관</w>
중 으로</w>
최 선</w>
춘 천</w>
토 론</w>
하 실</w>
한 준호</w>
후 반
20 30
"" 이라면서</w>
의원 들도</w>
한국 인이</w>
11 3
11 :16,,"</w>
3: 33
:4 5,
:4 6,,,,,</w>
:0 1,
판단 한</w>
:2 3,,,,,</w>
2019 .0
발사 했다고</w>
27 일부터</w>
설명 하는</w>
문제 도</w>
군사 교육</w>
예정 돼</w>
비판 하는</w>
40 8
추진 한다.</w>
기업 들의</w>
'▶ 호주
'▶ 헤럴드경제</w>
노력 해</w>
노력 해나가
정상 적인</w>
79 &aid=0003
국제 기구
있었 다며</w>
00:4 9
돌아 가는</w>
청원 인은</w>
확보 한</w>
이재 용
김병 주
나오 면</w>
승리 해</w>
,https://news.naver.com/main/read.nhn?mode=LS2D&mid=shm&sid1=100&sid2=266&oid=003&aid=00097 35
지켜 보고</w>
·김 성
대학 원</w>
투표 하겠다는</w>
부정 적</w>
생산 량</w>
무엇 인지</w>
",뉴스1 ,2020.01.01.</w>
발사체 는</w>
관광 객
프로 를</w>
현재 는</w>
계속 해</w>
미래한국당 의</w>
일각 의</w>
한· 일</w>
이름 이</w>
독립운동 가</w>
사례 를</w>
전화 (
중소기업 ,</w>
주문 한</w>
매체 가</w>
매체 들은</w>
투명 하고</w>
고통 받는</w>
국립서울 현충
이후 에</w>
실현 해</w>
인사청문 회에서</w>
상품 권과</w>
되살 릴</w>
프레 임
규제 혁신을</w>
결심 했다고</w>
일으 켰
행태 를</w>
충돌 '</w>
,https://news.naver.com/main/read.nhn?mode=LS2D&mid=shm&sid1=100&sid2=269&oid=214&aid=000 100
오차 범위</w>
목소리 로</w>
,https://news.naver.com/main/read.nhn?mode=LS2D&mid=shm&sid1=100&sid2=268&oid=421&aid=000438 6
·함 양·
대회 ',</w>
서로 에게</w>
평등 하고</w>
이하 의</w>
12:2 4,,"</w>
농림축산식품해양수산 위원회</w>
이의 경</w>
화상면접 으로</w>
테이 블
박주 현</w>
영어 말하기
자부 심을</w>
관할 지역에</w>
아꼈 다.</w>
일지 라도</w>
해외안전 여행</w>
순국 선열
파렴 치한</w>
'▶호주 대사관과</w>
영어말하기 대회',</w>
' 또한</w>
( 10
( 22
( 24
) ’</w>
, ',</w>
3 19
3 22
4 성</w>
4 시</w>
7 월
7 년</w>
b s</w>
m si
v a
가 급
가 기</w>
각 한</w>
갈 등과</w>
건 물</w>
고 교</w>
곳 곳에서</w>
관 점에서</w>
교 인
궁 전
그 를</w>
김 덕
나 눠</w>
농 성을</w>
대 치</w>
듯 …
리 로</w>
맞 게</w>
먼 지
모 욕
발 굴
법 인
보 일</w>
봐 도</w>
부 지
분 들</w>
불 신
불 법에</w>
불 안과</w>
브 룩스</w>
속 히</w>
수 당</w>
스 루
신 성
신 세계</w>
언 제</w>
업 과</w>
여 지</w>
영 ·
우 파</w>
유 의</w>
을 ·
이 뤘
이 유</w>
이 기는</w>
일 고</w>
입 원을</w>
입 법을</w>
자 주
자 제</w>
재 판</w>
졌 다며</w>
조 해
죠 ?</w>
초 점을</w>
취 할</w>
캠 프
컴 퓨
패 키
폐 지
해 달라는</w>
현 지에</w>
효 과</w>
"" 현재</w>
3.0 ,</w>
19 :20
다. ”</w>
11 시</w>
3: 59
회의 는</w>
하겠 습니다.',</w>
10 5
국민 일보</w>
위원장 에</w>
공천 은</w>
판단 에</w>
:1 7,,,,,</w>
인사 혁신
우리 민족
15 6
16 5
대응 하는</w>
36 0
구독 하면</w>
군사 적으로</w>
25 6
임명 이</w>
일보 ,2019.12.01.</w>
강화 해</w>
보건 당국</w>
추진 에</w>
마스크 는</w>
클릭 !
,https://news.naver.com/main/read.nhn?mode=LS2D&mid=shm&sid1=100&sid2=269&oid=001&aid=0011 24
'▶ 채널</w>
기관 의</w>
법안 과</w>
데일리 안</w>
있었 기</w>
우려 에</w>
나가 기로</w>
일본 군</w>
통일 부
본부 를</w>
3·1 독립
이었 다며</w>
본회의 서</w>
본회의 는</w>
항공 편</w>
70 주년
복지 부</w>
의미 로</w>
긴급 경영안정
하자 ,</w>
확실 히</w>
드러 났
나아 갔
판매 를</w>
만들어 낼</w>
시정 연설</w>
기대 에</w>
총회 장은</w>
&aid=0003 05
개최 를</w>
파견 을</w>
일정 이</w>
둘러 싸
소위 로</w>
사과 를</w>
,https://news.naver.com/main/read.nhn?mode=LS2D&mid=shm&sid1=100&sid2=265&oid=421&aid=000438 9
바꾸 어야</w>
구독하기 !</w>
사랑 의</w>
여객 기의</w>
불가피 하게</w>
환경 이</w>
시급 히</w>
뉴스1코리아 (</w>
news1. kr</w>
명의 로</w>
전면 에</w>
시켜 야</w>
(4 일)</w>
베이 징
본선 에</w>
단일 화</w>
이끌 어</w>
비율 이</w>
트위 터</w>
인프 라
부응 할</w>
IC T</w>
나선 다.</w>
소식통 은</w>
부끄 러
,https://news.naver.com/main/read.nhn?mode=LS2D&mid=shm&sid1=100&sid2=269&oid=082&aid=0000 98
차질 이</w>
홍준표·김태 호</w>
조선민주주의인민공화 국이</w>
서울중앙지검 에</w>
기생 충
중앙재난안전대책본부( 중대본
히로히 사</w>
사회관계망 서비스(SNS
노무현재 단</w>
프레스 센터에서</w>
이코 노
msi ron
1 명이</w>
4 명
6 .2
9 60
S i
t bs</w>
· 하
· 합
文 대통령에</w>
가 벼
각 자</w>
걸 친</w>
경 희
공 병호</w>
광 진
교 류를</w>
구 을</w>
군 에서</w>
금 액
내 밀
느 껴
다 면서도</w>
당 대표</w>
더 욱
도 저히</w>
돕 기</w>
막 아야</w>
모 르는</w>
반 대한
발 전에</w>
부 로</w>
북 핵</w>
빙 자
뿐 이라고</w>
서 병
석 으로</w>
선 수
선 호
성 립
성 원우</w>
세 부
소 연
소 규모</w>
손 길
수 요</w>
승 인</w>
시 의
안 산
엄 중</w>
엄 중히</w>
었 지만</w>
오 피
옮 겨
완 주
운 용</w>
원 혜영
유 연
이 진
이 다</w>
인 턴
일 선에서</w>
읽 힌다.</w>
입 소
자 택
자 다.</w>
재 심
쟁 점
전 개</w>
전 례</w>
점 점</w>
정 점
정 도가</w>
조 지
주 홍</w>
중 부
진 다면</w>
질 의를</w>
징 계를</w>
찾 을</w>
채 무
초 국경
최 우수</w>
트 에서</w>
포 장
포 술</w>
폭 발사
학 사</w>
했 다”면서</w>
행 사가</w>
활 기차게</w>
20 여
20 04
,2020 년</w>
국회 의원과</w>
3: 12
3: 58
", 경향신문
경제 ,</w>
공천 했다.</w>
국무 부는</w>
:2 2,
사진영상 기획부</w>
으로 서는</w>
17 7
'[ 유시민
대응 해</w>
29 8
37 명을</w>
아니 다라며</w>
생각 에</w>
,정치,정치일반,2020-03-05, "[
보수 가</w>
25 8
들어 서는</w>
비판 도</w>
조정 이</w>
00:5 4
임시 국무회의에서</w>
이어 ,</w>
,https://news.naver.com/main/read.nhn?mode=LS2D&mid=shm&sid1=100&sid2=269&oid=0 87
한미 동맹</w>
극복 의</w>
협력 으로</w>
돌아 갈</w>
검토 해</w>
홍남 기
본회의 장</w>
나오 면서</w>
경쟁 이</w>
:11 ,,</w>
해석 도</w>
해석 을</w>
여행 을</w>
2:5 0
수준 을</w>
활동 이</w>
그래 도</w>
나아 가야</w>
고민 을</w>
규정 에</w>
현역 병</w>
저작권자 ",정치,
넘어 선</w>
도약 할</w>
독립운동 가
독립운동 의</w>
전화 면접
.6 %,</w>
\r\n\t\t\t \t
압박 을</w>
,https://news.naver.com/main/read.nhn?mode=LS2D&mid=shm&sid1=100&sid2=265&oid=0 15&aid=0004
인사청문 회
음압 병상</w>
,https://news.naver.com/main/read.nhn?mode=LS2D&mid=shm&sid1=100&sid2=267&oid=001&aid=001144 6
,https://news.naver.com/main/read.nhn?mode=LS2D&mid=shm&sid1=100&sid2=264&oid=003&aid=00097 34
담당 하는</w>
,이데일리 ,2020.01.02.</w>
송구 스럽
일으 킨</w>
하는 지에</w>
hy un
,노컷뉴스 ,2020.03.02.</w>
,정치,행정,2020-03-02, "
병역 판정
벗어 나지</w>
합리 적</w>
이틀 째</w>
it y
게이트 '</w>
목소리 도</w>
사보 임</w>
플랫 폼
식품의약품안전 처
서대문 구</w>
doso 7
2014 년</w>
앞세 워</w>
산청 ·함양·
n번 방</w>
국제평화지 대화
김남 국</w>
아이뉴스 24
3:15 ,,"</w>
범국민 투쟁
이코노 미
가벼 운</w>
'[유시민 ]</w>
,https://news.naver.com/main/read.nhn?mode=LS2D&mid=shm&sid1=100&sid2=269&oid=087 &aid=0000
산청·함양· 거창
' \xa0</w>
, 1.0,</w>
- ',</w>
1 호</w>
2 일
D U
j t
· 최
같 다""고</w>
개 ,</w>
건 에</w>
결 론</w>
결 렬</w>
경 력
계 시
고 만</w>
고 심</w>
고 체연
공 고한</w>
과 제로</w>
구 성</w>
구 상</w>
규 정을</w>
금 후</w>
급 격한</w>
기 지
김 호
남 동
남 도</w>
다 ’는</w>
도 서
됐 으나</w>
뒷 전으로</w>
멸 의</w>
명 …
명 칭
명 단에</w>
뭔 가</w>
밖 에도</w>
백 승
범 여권</w>
병 훈</w>
보 답
보 ]</w>
볼 턴</w>
분 양
분 으로</w>
비 축
사 례</w>
삼 성
서 약
선 회
설 문
세 로</w>
소 의</w>
쇄 신</w>
수 여</w>
순 이었다.</w>
시 대</w>
신 설</w>
심 하고</w>
싶 은</w>
악 수</w>
안 중
야 만</w>
약 식</w>
어 르
었 고</w>
영 ,</w>
영 호</w>
영 국</w>
요 와</w>
우 등
위 법
은 ?
읍 ·
응 답</w>
의 무</w>
전 파</w>
점 차</w>
종 교</w>
좋 지</w>
좌 우
쥐 의</w>
찌 든</w>
취 소</w>
택 시
팔 꿈
하 게
한 해
할 까
해 경
홍 콩
20 주년
,, 뉴시
sh in
국회 =
한국 리서
11 1
21 8
통합 추진
10 6
", 경제,
:3 4,
:3 7,
:4 9,,,,,</w>
북한 에서</w>
북한 과도</w>
장관 회의를</w>
12 95
지역 사랑
외교 장관
기자 (
대구 서</w>
:1 8,,,,,</w>
:2 5,,,,,</w>
인사 회
중앙 지도
원내대표 도</w>
김정 화</w>
김정 현</w>
3. 5
하기 에는</w>
16 7
'[ 오마이뉴스</w>
강조 하는</w>
군사 합의
예정 ”이라고</w>
강화 와</w>
추경 안은</w>
교육 ,</w>
이해 하고</w>
국민의 당이</w>
보인 다며</w>
노력 도</w>
미사 일을</w>
분석 된다.</w>
준비 가</w>
검토 를</w>
강경 화,</w>
",사회, 1,2020-03-17</w>
하려 던</w>
대구시 와</w>
·김 현
영입 인재
전달 할</w>
부정 평가는</w>
전문가 들</w>
대구·경북 지역</w>
사진= 서동일</w>
협조 해</w>
함께 하고</w>
효과 적으로</w>
증가 한</w>
소위 ,</w>
이사 장이</w>
이사 장,</w>
정무 위</w>
동아 닷컴</w>
참모 총
,정치,행정,2020-03-04, "
”", KBS
최소화 하는</w>
진단 했다.</w>
진단 하고</w>
임대 인</w>
,정치,청와대,2020-03-03, "
,정치,청와대,2020-03-03, 국무회의</w>
1:0 8,,"</w>
차지 했다.</w>
th e
유일 하게</w>
효율 적으로</w>
조작 된</w>
240 ㎞
,https://news.naver.com/main/read.nhn?mode=LS2D&mid=shm&sid1=100&sid2=269&oid=003&aid=000974 05
박종 진</w>
·유 의
자격 으로</w>
단합 된</w>
&oid=003&aid=000963 47
혼란 을</w>
유치원 3법</w>
실효 성</w>
이념 에</w>
육군사 관학교</w>
갖추 고</w>
아프리 카
문성 혁</w>
지상 욱</w>
초대형 방사포
sow ,정치,0,2020-03-17</w>
구룡마 을에서</w>
남양 주
맞물 려</w>
this .
' 강
' 서울</w>
' 우리</w>
' 북한이</w>
' 네이버</w>
' 새해</w>
) .
. .</w>
3 군</w>
3 30
3 ,정치,정치일반,2020-03-02,
= 연합뉴스]',</w>
a b
m ent
n ew
‘ 문재인</w>
“ 그</w>
“ 오늘</w>
가 며</w>
각 자의</w>
개 소
거 는</w>
것 ,"</w>
결 집을</w>
과 ,</w>
군 무
권 유
김 철
낙 동
눈 치
다 운
달 렸
대 동
도 에서</w>
동 남아
됐 습니다.',</w>
됐 는데</w>
듯 하다.</w>
론 에</w>
먹 잇
메 아
모 하
무 관
무 주택
무 혐의</w>
묵 과
받 고,</w>
보 낸
비 와</w>
뿐 일</w>
사 생
사 법</w>
사 의를</w>
서 훈</w>
선 고
설 맞이</w>
소 년
수 차례</w>
시 국
시 사</w>
야 …
야 합
약 화
억 울
영 천
오 래</w>
올 려
완 화를</w>
원 )</w>
유 해
의 결</w>
이 중
이 름</w>
이 밖에</w>
이 행을</w>
잇 따르
있 으니</w>
자 리는</w>
잡 을</w>
재 ·
재 미
재 석</w>
적 이지</w>
제 와</w>
제 에</w>
졸 라
주 제로</w>
중 이던</w>
착 륙</w>
찾 기</w>
철 학
청 사
초 심은</w>
촛 불</w>
탈 북
파 병
포 부를</w>
하 진</w>
하 든</w>
흔 드는</w>
히 ,</w>
정치 외교
대통령 ,뉴시스,2020.01.01.</w>
11 .0,,</w>
21 0
3: 40
정부 ·
:3 2,,,,,</w>
:4 7,,,,,</w>
12 :00,,"</w>
:0 9,
:0 2,,,,,</w>
선거 개입
:1 5,,,,,</w>
:2 8,,,,,</w>
18 3
18 6
3. 8
우리 들
14 1
14 5
으로 의</w>
17 6
15 4
지원 은</w>
관리 하는</w>
사회 가</w>
대한 항공
총선 거</w>
예비 비</w>
\' 라는</w>
,정치,청와대 ,2019-12-01,
23: 26
대상 에서</w>
40 대</w>
특별 정상회의
내용 으로</w>
남북 은</w>
58 6
시간 에</w>
국무총리 를</w>
제1 차관이</w>
지지 층</w>
책임 이</w>
국민의 당
있었 고</w>
촉구 했다.',</w>
부산 진
사령 관
돌아 가</w>
협의 할</w>
희망 의</w>
변화 ,</w>
정권 과</w>
김병 욱</w>
바란 다.</w>
공수처 법이</w>
주민 등록
.0,2.0, 2.0</w>
청년 들의</w>
복귀 에</w>
선택 한</w>
단계 를</w>
전문가 들의</w>
어렵 게</w>
무엇 이든</w>
전해 진</w>
김현 수</w>
표명 한</w>
응원 하기</w>
이정 옥</w>
관계자 들과</w>
원내수석부 대표,</w>
임대 료를</w>
감염병 에</w>
신년합동인사 회에</w>
,https://news.naver.com/main/read.nhn?mode=LS2D&mid=shm&sid1=100&sid2=264&oid=003&aid=00097 38
뒷받침 하는</w>
명의 의</w>
균형 발전
이날 까지</w>
탈당 해</w>
해달라 ""고</w>
흔들 리지</w>
호흡 기증
머물 지</w>
보좌진 들과</w>
특수 공무집행
2~ 3일</w>
행복 한</w>
,https://news.naver.com/main/read.nhn?mode=LS2D&mid=shm&sid1=100&sid2=269&oid=277&aid=00046 34
외무 성</w>
검체 채
필리버스터( 합법적</w>
걸림 돌이</w>
김삼 화</w>
상한 제</w>
병무 청은</w>
차액 은</w>
에이 브
카메 라
모라토리 엄</w>
비극 을</w>
시선 집중
원자 재</w>
무당 층
중앙지도 기관</w>
' 정부는</w>
' 연합뉴스TV</w>
, "
, 국민
1 3.0,,
2 ∼
4 개월</w>
7 일</w>
8 월
e st
i r
t v
“ 코로나</w>
… ""
檢 개혁</w>
가 .</w>
것 보다</w>
경 색
고 생
고 .</w>
공 인
교 회에서</w>
구 나
그 것도</w>
기 조</w>
김 소
낙 선
는 \xa0
달 리
대 항
데 는</w>
동 에서</w>
똑 같은</w>
렀 다.</w>
리 포
리 스크
만 인</w>
명 이나</w>
바 꿀
박 주민</w>
병 ,</w>
보 급</w>
부 시장</w>
분 은</w>
빈 센트</w>
산 ·
살 인
살 아</w>
살 리는</w>
삼 척
서 해
성 으로</w>
소 리가</w>
수 단</w>
아 끼
악 법
안 산</w>
약 간</w>
없 는데</w>
외 쳤
요 격
유 학생</w>
읍 면
이 준석</w>
인 력이</w>
일 깨
일 시</w>
자 극
재 발</w>
정 운현</w>
조 작</w>
좋 겠다는</w>
짧 은</w>
쪽 에서</w>
커 질</w>
컨 트
토 대를</w>
표 출
한 기</w>
해 오
해 졌다.</w>
헬 기로
확 립
100 주년
대표 인</w>
국회 부의
3: 14
3: 17
연합 회</w>
10 4
국민 들과</w>
:4 8,,,,,</w>
북한 연구
선거 는</w>
후보 들을</w>
보내 온</w>
인사 회에서</w>
인사 권을</w>
습니 까
30 &aid=000
14 2
14 .0,
상황 으로</w>
22 7
22 :37
17 ,2020-03-17</w>
28 6
29 일까지</w>
출마 해</w>
발언 에서</w>
27 9
50 %를</w>
·경 북도
전원 회의에</w>
보건 협력</w>
보도 에서</w>
주장 하며</w>
13 만
자신 들이</w>
기업 에</w>
'▶ 김갑수</w>
노력 할</w>
기관 이</w>
법안 ,</w>
획정 위는</w>
대한민국 은</w>
신천지 ,</w>
소상공 인을</w>
고려 할</w>
투입 된</w>
기자간담 회</w>
시행 한</w>
·김 영
왼쪽 은</w>
새해 가</w>
드러 냈
",뉴스1 ,2020.03.02.</w>
발사체 가</w>
국회의원 ,</w>
이겨 내
최소 화</w>
아이 돌</w>
늘어 나는</w>
이종 걸
정책위의 장,</w>
수출 을</w>
출발 하는</w>
.7 %로</w>
지급 된</w>
당선 된</w>
고통 과</w>
기간 에</w>
국내 외</w>
필요하 다며</w>
걱정 하며</w>
상생 형</w>
민주주의 가</w>
명의 가</w>
이르 기까지</w>
탈락 한</w>
고속 정</w>
초래 할</w>
선제 적으로</w>
허위 사실</w>
진상 규
뛰어 난</w>
강민 진</w>
움직임 에</w>
차이 나
기존 에</w>
보훈 처</w>
psy5179 @news1.,정치,
최초 의</w>
,https://news.naver.com/main/read.nhn?mode=LS2D&mid=shm&sid1=100&sid2=269&oid=057&aid=00014 08
검체 채취
운행 제한</w>
5·18 민주묘
,https://news.naver.com/main/read.nhn?mode=LS2D&mid=shm&sid1=100&sid2=264&oid= 277&aid=00046
수류 탄</w>
2013 년</w>
마산 합
용산 구</w>
취득 한</w>
국익 을</w>
mp ;
면죄 부를</w>
적반하 장의</w>
로이 터
극동 문제
솔직 히</w>
'[헤럴드경제 =
이끌어주셨 다면,</w>
블라디 보스
호흡기증 후
' 한반도</w>
' 도로</w>
' 청와대는</w>
, SBS
/ 연합뉴,정치,
5 년
8 개</w>
9 명이</w>
C ont
[ 팬
\ u
f a
l i
가 구
개 국</w>
고 재
고 개를</w>
공 관</w>
구 윤
국 세청
네 요.</w>
는 커녕</w>
님 이</w>
다 고도</w>
단 일</w>
대 다
대 부분
도 움</w>
된 다</w>
될 까
두 드리는</w>
뒤 집
라 우
명 만</w>
모 아야</w>
목 적</w>
무 죄</w>
물 자</w>
버 스</w>
법 )</w>
부 여</w>
불 안을</w>
사 망</w>
서 에서</w>
세 인트
소 미
소 영</w>
수 백
수 위</w>
수 입</w>
승 인
않 은
알 고
앤 스타
없 기</w>
여 전
영 광
오 가는</w>
올 리
요 건</w>
우 를</w>
운 전
원 들이</w>
위 장
으 니까</w>
의 문을</w>
이 강
이 양
자 (
자 ·
자 존
장 급</w>
장 으로서</w>
전 세
제 품</w>
중 순</w>
지 점
지 소미
진 과</w>
초 과
초 특
최 대
최 선
치 된</w>
특 종에</w>
판 이</w>
패 를</w>
폭 탄
표 정으로</w>
함 대</w>
했 었
혹 시</w>
희 경</w>
20 5
20 ,2020-03-17</w>
"" 신천지</w>
대통령 ,뉴시스,2020.03.01.</w>
대통령 ,연합뉴스,2020.03.03.</w>
한국 인의</w>
한국 인을</w>
11 :29,,</w>
3: 29
국민 통합의</w>
:5 4,,,,,</w>
:3 5,,,,,</w>
장관 들은</w>
12 시
12 시</w>
후보 에게</w>
공천 됐다.</w>
:1 4,,,,,</w>
반영 한</w>
가치 가</w>
인사 로</w>
원내대표 (오른쪽
총리 실</w>
,https://news.naver.com/main/read.nhn?mode=LS2D&mid=shm&sid1=100&sid2=269&oid= 629&aid=0000017
비례 자유한국당
17 5
지원 단</w>
'\n\t']",정치, 10
'\n\t']",정치, 5,2020-03-16</w>
36 5
is s
군사 훈련</w>
들어 간</w>
,https://news.naver.com/main/read.nhn?mode=LS2D&mid=shm&sid1=100&sid2=267 &oid=009&aid=0004
시작 ,</w>
어려 워</w>
요구 는</w>
공천관리 위원장은</w>
통과 했다.</w>
통과 ,뉴시스,2020.03.05.</w>
33 1
정상 이</w>
3.0, 0.0,
기관 과</w>
마련 한</w>
세력 에</w>
중단 하고</w>
비상 행동
사무 실에서</w>
통화 하고</w>
방식 이</w>
본회의 장을</w>
참여 했다.</w>
국정 운영</w>
재난안전대책 위원장이</w>
체계 가</w>
지정 했다.</w>
베트남 ,</w>
위해 서
받았 지만</w>
진보 층
보여 주는</w>
주목 을</w>
김현 정
주한미 군은</w>
보좌 관은</w>
거리 가</w>
,https://news.naver.com/main/read.nhn?mode=LS2D&mid=shm&sid1=100&sid2=265&oid=003&aid=00097 30
공군사 관생도</w>
안건 을</w>
전국 적</w>
공천관리위원회 (
다음 날
도약 을</w>
2020.03.02. "",</w>
사례 는</w>
법사 위원장
동산 병원에서</w>
최소화 하기</w>
이루 지</w>
꼼수 로</w>
지자체 가</w>
국내 에서</w>
SNS 를</w>
재가 했다.</w>
비핵화 에</w>
진정 성을</w>
김여정 ,</w>
질병관리 본부</w>
자력갱 생</w>
,아시아경제 ,2020.01.02.</w>
도착 한</w>
선제 적인</w>
벗어 나</w>
바이 오
있겠 지만</w>
ig ht
,https://news.naver.com/main/read.nhn?mode=LS2D&mid=shm&sid1=100&sid2=265&oid= 119&aid=0002
4· 15총선</w>
tf .co.kr</w>
,https://news.naver.com/main/read.nhn?mode=LS2D&mid=shm&sid1=100&sid2=266&oid=02 3&aid=00035
우리공화 당</w>
잠수함 발사
뿌리 내리도록</w>
춘추 관</w>
필리버스터( 무제한</w>
6조 2000
김무 성</w>
불공 정을</w>
어쩌 다</w>
,https://news.naver.com/main/read.nhn?mode=LS2D&mid=shm&sid1=100&sid2=269&oid=055&aid=0000 79
국회선진화 법</w>
3:02 ,,"</w>
레드라 인
해운 대
윤재 관</w>
환멸 을</w>
±3.1 %포인트
산업통상자원 부</w>
스무 살</w>
[팬 앤스타
[팬앤스타 ▶]</w>
' 청와대</w>
' 신천지</w>
, 부산
/ list
5 년간</w>
I )</w>
V iew
w el
“ 북한은</w>
” …</w>
” ,"</w>
文 ,</w>
가 깝
가 졌다.</w>
강 당에서</w>
검 사가</w>
겁 을</w>
게 임
겠 습니다.',</w>
공 주
공 장</w>
관 심사
관 세청
구 한</w>
국 내에</w>
군 대를</w>
금 주</w>
기 타</w>
김 양
꺼 내
께 서는</w>
낳 을</w>
냐 .</w>
늘 어</w>
답 답
당 면한</w>
대 회를</w>
독 재
동 에</w>
됐 으며,</w>
되 기도</w>
들 이다.</w>
뛰 고</w>
력 의</w>
로 선</w>
류 정민</w>
마 케
매 출
민 정</w>
밀 양
박 사를</w>
발 송
밝 힌
배 출
배 로</w>
변 치</w>
보 령
본 인의</w>
분 위기</w>
불 꽃
불 참</w>
비 행</w>
사 (
사 격을</w>
성 골
성 북구</w>
수 엘
신 문에</w>
신 범철</w>
쓰 지</w>
암 참</w>
압 도
애 당초</w>
억 압
연 금
위 하여</w>
유 학
을 '</w>
이 중</w>
이 른</w>
이 들에</w>
일 일</w>
일 일이</w>
입 증
재 택
저 력을</w>
전 북
전 시
전 세계</w>
제 13
준 엄
지 식
직 장에</w>
참 관한</w>
첫 해
체 제가</w>
크 래
펼 치
표 ,</w>
표 명이</w>
학 위를</w>
해 준</w>
후 베이
휴 대
20 8
re a
26 5
대표 하는</w>
대표 ,뉴스1,2020.01.02.</w>
이라 면서도</w>
:0 3,,,,,</w>
지역 에는</w>
1. 1
인사 권</w>
총리 ,뉴시스,2020.03.05.</w>
03: 23:
금지 ·
14 3
하기 를</w>
지원 한다.</w>
아니 겠
아니 다
아니 지만</w>
설명 회를</w>
정의 로운</w>
감염증(코로나19 )의</w>
문제 의</w>
신천 지는</w>
결정 적</w>
전문 기관</w>
예정 대로</w>
대상 자
13 2
결과 로</w>
공정 이</w>
79 0
준비 해</w>
운영 하는</w>
오늘 도</w>
부부 장은</w>
",연합뉴스 ,2019.12.01.</w>
단체 의</w>
사무 처</w>
조선중앙 통신</w>
.",정치, 2,2020-03-17</w>
안정 이</w>
운동 이</w>
느냐 고</w>
장병 이</w>
주민 들을</w>
:21 ,,</w>
경쟁 력을</w>
검사 ,</w>
집중 하고</w>
받았 고,</w>
업무 에</w>
업무 보고
부결 됐다.</w>
08 :30</w>
공공 시설
전투 의</w>
기대 감을</w>
그렇 다면</w>
내려 놓고</w>
:31 ,,"['\n\t',</w>
환자 에게</w>
3개 국</w>
재판 을</w>
김성 휘</w>
주도 하는</w>
관계자 로부터</w>
.9 %,</w>
국토 부</w>
내부 적으로</w>
친박 신당</w>
청산 이</w>
전날 보다</w>
지난해 에도</w>
효율 적인</w>
,https://news.naver.com/main/read.nhn?mode=LS2D&mid=shm&sid1=100&sid2=266&oid=018&aid=0004 547
자영업 자</w>
줄어 들</w>
,https://news.naver.com/main/read.nhn?mode=LS2D&mid=shm&sid1=100&sid2=264&oid=421&aid=0004 49
10만 명</w>
공정거래 법</w>
김민 석</w>
단합 과</w>
유력 한</w>
리더 십</w>
신뢰수준 에서</w>
내비 쳤다.</w>
분들 께</w>
여상규 ,</w>
한정 된</w>
,https://news.naver.com/main/read.nhn?mode=LS2D&mid=shm&sid1=100&sid2=268&oid=02 2&aid=000344
베네 수엘
타다 금지
나흘 간</w>
농림축산식품해양수산 위원회에서</w>
@imaeil .c",정치,
아프리 카</w>
권역 별</w>
,https://news.naver.com/main/read.nhn?mode=LS2D&mid=shm&sid1=100&sid2=269&oid=079&aid=00033 30
비무장 지
하도 급
대구시당 ·경북도
비당권 파</w>
임오 경</w>
소재·부 품·
육·해 ·
jt bc
' 진영</w>
' 녹색
' 정면돌파전
' 민식이법
( F
) /</w>
, 1.0,,,,</w>
/ I
0 12
1 곳
3 단계</w>
7 ,2020-03-16</w>
@ ',</w>
[ 경향
[ 포토]
“ 박</w>
“ 총선</w>
“ 일부</w>
“ 국민의</w>
㎞ 로</w>
가 속
갖 춰
개 성공
거 짓</w>
건 은</w>
고 비
고 우
고 기</w>
김 윤
남 성</w>
남 쪽</w>
내 로</w>
내 부의</w>
농 촌
농 협</w>
다 라</w>
단 배
동 력
됐 다""고</w>
뒤 로</w>
듯 ,</w>
로 버
률 이</w>
마 치
많 지</w>
무 작
무 한
무 선(
미 처</w>
바 꿀</w>
반 부패
보 지는</w>
부 문
삶 과</w>
생 방송</w>
서 두
서 민
세 연
손 목
수 감</w>
수 립</w>
스 포
시 길</w>
식 별
식 이</w>
식 의</w>
실 태
실 )</w>
심 도</w>
씨 의</w>
없 다면</w>
여 부와</w>
연 을</w>
열 에</w>
왕 세제
왜 냐하면</w>
요 충
욕 심
위 ),</w>
응 시
의 도</w>
이 뤄</w>
이 외에도</w>
작 금의</w>
재 소
저 지와</w>
정 동</w>
정 했다.</w>
종 결
좌 고우
주 장</w>
줄 기차게</w>
중 구·
지 기</w>
지 시</w>
지 방</w>
진 실을</w>
체 크</w>
최 명
침 략
태 스크
특 파
특 혜</w>
평 균
표 한</w>
풍 이</w>
하 야
함 으로</w>
해 하는</w>
헌 혈</w>
화 해</w>
희 의</w>
히 지</w>
힘 차게</w>
20 6
20 9
뉴스 공장
19 4
의원 까지</w>
민주 적</w>
3: 50
3: 51
:5 6,,,,,</w>
", 중앙
:3 3,,,,,</w>
:4 3,,,,,</w>
대구 ,</w>
경제 와</w>
주시 길</w>
주시 하고</w>
04 :00
:2 7,,,,,</w>
18 8
14 ,2020-03-17</w>
22 5
28 9
28 ,2020-03-17</w>
16 3
29 5
미국 ,</w>
미국 에서</w>
선언 하지</w>
,정치,정치일반,2020-03-05, '
중국 ·
민생 ·경제</w>
추경 이</w>
,https://news.naver.com/main/read.nhn?mode=LS2D&mid=shm&sid1=100&sid2=268 &oid=003&aid=0009634
주장 했습니다.</w>
추진 계획
기소 라고</w>
공정 할</w>
보인 다”고</w>
논의 는</w>
극복 하기</w>
모습 은</w>
정상 적으로</w>
3.0, 1.0,</w>
세계 에</w>
우려 ’</w>
2. 2
자유한국당 을</w>
3·1 절
경선 은</w>
모두 를</w>
대변인 의</w>
역할 에</w>
제출 했다.</w>
참배 (
체계 의</w>
:37 ,,</w>
대학 교
활동 으로</w>
진보 개혁
,https://news.naver.com/main/read.nhn?mode=LS2D&mid=shm&sid1=100&sid2=269&oid=003&aid=000973 00
바이러스 가</w>
전국 적으로</w>
늘어 나고</w>
구축 해</w>
패스트트랙 에</w>
얘기 다.</w>
당원 들이</w>
김용 태
표현 한</w>
en t</w>
순천 은</w>
순천 시</w>
투명 한</w>
기간 이</w>
메르 스
검찰개혁 의</w>
상생 과</w>
정치개혁 연합</w>
간사 인</w>
쏟아 냈다.</w>
%p ,</w>
분류 되는</w>
,https://news.naver.com/main/read.nhn?mode=LS2D&mid=shm&sid1=100&sid2=266&oid=421&aid=0004 50
,https://news.naver.com/main/read.nhn?mode=LS2D&mid=shm&sid1=100&sid2=269&oid=056&aid=001079 9
중앙선거관리 위원회에</w>
모니터 링</w>
역임 한</w>
",머니투데이 ,2020.01.02.</w>
농림축산식품 부</w>
연석 회의에</w>
윤상 직
맞붙 는다.</w>
선( 20%)</w>
me s
3:11 ,,"</w>
계급 장을</w>
프랑 스
조미 (
직시 할</w>
빅텐 트
송옥 주</w>
분수 대</w>
국군화생방 방호
상관 없이</w>
캡쳐 )</w>
가급 적</w>
무주택 자로</w>
바꿀 지</w>
구윤 철</w>
소재·부품· 장비의</w>
[경향 포토]
태스크 포
' 신종</w>
' 보수</w>
0 .7
2 ,,,1.0,,</w>
8 ',</w>
9 ',</w>
9 ,,,1.0,,</w>
@ et
C C
C E
K T</w>
[ 영상
h igh
p y
z eni
“ 제가</w>
故 )</w>
가 닥
강 석
개 념
건 배를</w>
고 교
고 군
고 마
고 까지</w>
구 상을</w>
권 은</w>
꼼 꼼
끝 으로</w>
나 중에</w>
날 이</w>
넘 긴</w>
높 이기</w>
눈 물
다 루
단 위로</w>
달 한다.</w>
도 모
두 는</w>
디 자
라 오
라 고도</w>
리 도</w>
마 ,</w>
먹 고</w>
메 드</w>
면 담을</w>
미 지수
받 도록</w>
받 으면</w>
보 조
보 니까</w>
복 원
복 지</w>
본 다며</w>
부 실
분 들에</w>
사 하
생 길</w>
성 숙
세 운</w>
소 유
소 유</w>
수 로</w>
았 다.',</w>
양 성</w>
었 다는</w>
역 에서</w>
연 히</w>
열 을</w>
예 과</w>
완 수를</w>
요 ?',</w>
운 항</w>
원 산
원 전</w>
위 험</w>
을 의</w>
음 성</w>
의 예과</w>
인 도,</w>
일 만에</w>
자 제를</w>
잠 재
잡 혀
재 산</w>
정 하지</w>
정 봉주</w>
중 재
진 두
집 회가</w>
찔 러</w>
초 과</w>
총 장은</w>
출 입국</w>
탄 소
파 격
편 입</w>
포 럼
품 귀</w>
필 수</w>
홍 성
화 할</w>
환 자들이</w>
회 수
후 퇴
20 09
news /list
"" 문</w>
100 만
&a mp;
코로나 (코로나19)</w>
19 2
19 3
3: 36
3: 23
10 .0,,
10 일까지</w>
정부 합동
:0 7,,,,,</w>
선거 연합</w>
감염 자가</w>
참석 자들은</w>
,https://news.naver.com/main/read.nhn?mode=LS2D&mid=shm&sid1=100&sid2=269&oid= 448&aid=0000
상황 실을</w>
22 2
17 4
지원 해</w>
28 ~
'[ 대구
강조 하면서</w>
발사 된</w>
검찰 청</w>
진행 한다.</w>
설명 했습니다.',</w>
39 6
생각 한다”며</w>
결정 하는</w>
들어 와</w>
임명 …
,https://news.naver.com/main/read.nhn?mode=LS2D&mid=shm&sid1=100&sid2=267 &oid=008&aid=0004
격리 '</w>
정세 를</w>
방문 은</w>
시작 해</w>
기념 사
예비후보 (
예비후보 와</w>
상공 에서</w>
개정 을</w>
공개 하고</w>
00:5 2
임시 국무회의</w>
공정 과</w>
요청 하는</w>
모습 으로</w>
pho nal
세계 보건
나가 고</w>
실시 된</w>
교수 의</w>
검토 한</w>
중심 에</w>
",연합뉴스 TV
센터 장</w>
발생 하는</w>
변호 사,</w>
:30 ,,"['\n\t',</w>
의견 도</w>
논란 으로</w>
제1부부 장
단계 (
방송 을</w>
",뉴스1 ,2020.03.04.</w>
공공 수사
원칙 적으로</w>
만들어 낸</w>
보여 줬
보여 주고</w>
총회 장</w>
학생 들이</w>
현역 의원</w>
전쟁 을</w>
내놓 을</w>
%) ·유
현지 에서</w>
대체 로</w>
ue View
ue /I
ss ueView
중소기업 ·소상공인</w>
덧붙였 습니다.',</w>
받아들 여
진단 검사</w>
음압 병실
검찰총 장이</w>
뒷받침 이</w>
창원 ·
천· 음성
선진 국
악화 되고</w>
군포 갑·
중대본 은</w>
·부 정</w>
3·1독립운동 과</w>
스마 스</w>
,https://news.naver.com/main/read.nhn?mode=LS2D&mid=shm&sid1=100&sid2=269&oid=081 &aid=000305
믿는 다고</w>
부장 판
이긴 다</w>
주한미국 대사가</w>
주한미국 대사와</w>
입학 식에서</w>
같은 데</w>
호응 이</w>
모바 일</w>
무게 를</w>
ㆍ1 5</w>
존엄 을</w>
'http://news.kbs.co.kr/ iss
'http://news.kbs.co.kr/ news/list
.do?icd=1958 8',</w>
.do?icd=1958 9',</w>
,데일리안 ,2020.01.02.</w>
중앙방역대책 본부
이스 라
경자년 ()</w>
U-2 S
크리 스마스</w>
보다 도</w>
이춘 석</w>
va r</w>
우리민족 끼
사생 결단
@et news
phonal ist
%)·유 선(20%)</w>
ue/I ssueView
'http://news.kbs.co.kr/iss ue/IssueView
'http://news.kbs.co.kr/news/list .do?icd=19588',</w>
'http://news.kbs.co.kr/issue/IssueView .do?icd=19589',</w>
' 우
' 정의당</w>
' 강경화</w>
' ,뉴스1,2020.01.02.</w>
' 한경닷컴</w>
' 중앙일보</w>
( G
( 육군</w>
+ 대안신당
2 47
3 02
4 05
6 천
7 명</w>
I S
P L
· 외
“ 지난해</w>
가 에서</w>
가 겠다는</w>
각 지에서</w>
강 신
거 둘</w>
계 ·
고 와</w>
공 통
관 람
구 하는</w>
국 장</w>
극 치
기 꺼
김 학
꾼 이</w>
내 에서는</w>
넘 기
넘 겼다.</w>
논 평</w>
눈 이</w>
는 ?
다 지는</w>
달 려</w>
대 권</w>
대 란</w>
데 서</w>
도 움
도 전을</w>
돈 이</w>
동 적으로</w>
러 진</w>
마 냥</w>
마 카오
말 했다",정치,
맞 선</w>
모 범
민 심이</w>
바 이</w>
보 안
부 과
부 위원장이</w>
부 회장과</w>
북 -
비 논리
빠 르
사 모
상 태</w>
순 방
신 조
실 종
싸 우
씨 ,</w>
아 까</w>
양 육</w>
어 워
억 지
얼 어붙
오 해
오 르고</w>
오 해를</w>
운 항
원 론
원 도</w>
육 박
응 하지</w>
의 회
이 채
이 해</w>
인 물</w>
인 권을</w>
인 원이</w>
일 한
일 대</w>
일 까지
절 대
점 쳐
정 용
정 기</w>
줄 곧</w>
직 에서</w>
질 의</w>
집 에</w>
최 용
최 현
최 후
최 대한
축 적
측 면이</w>
치 른다.</w>
키 워</w>
텐 데</w>
통 폐
특 감
패 트
편 지</w>
평 을</w>
표 창
표 한다고</w>
풍 부한</w>
하 였습니다.</w>
한 병도</w>
할 수</w>
합 격
해 법을</w>
했 는
했 음에도</w>
허 가
현 안에</w>
협 약
화 한</w>
회 담을</w>
효 력을</w>
20 22
"" 북한은</w>
26 일부터</w>
100 년을</w>
100 주년을</w>
의원 이다.</w>
국회 ,</w>
",정치, 5,2020-03-17</w>
21 6
21 7
3: 18
3: 22
10 2
:5 1,,,,,</w>
:4 5,,,,,</w>
1. 9
3&aid=000 349
후보 ,</w>
금지 했다.</w>
14 개</w>
22 4
22 :36
지원 도</w>
28 0
대응 체계</w>
35 6
37 5
발표 …
정책 실
정의 당을</w>
처리 는</w>
의료 봉사</w>
25 5
@newsis .c",정치,
들어 갔다.</w>
지도 부를</w>
사실 상의</w>
격리 하고</w>
비판 하고</w>
정세 균
대상 자가</w>
,정치,행정 ,2020-03-01,
시민 들은</w>
주장 이다.</w>
논의 한</w>
노력 한</w>
조사 한</w>
치료 체계를</w>
것이 기</w>
세계 은행</w>
우려 했던</w>
촉구 한</w>
협의 가</w>
않았 습니다.</w>
시설 ,</w>
선거구 에서</w>
해결 하는</w>
이동 해</w>
않는 다”고</w>
:37 ,,"['\n\t',</w>
양산 을에</w>
집중 된</w>
집중 적으로</w>
단계 에서</w>
설치 를</w>
의혹 과</w>
졸업 생도들과</w>
일부 터
최소 한</w>
함께 ,</w>
구성 해</w>
개정안 ,</w>
계속 되는</w>
개최 된</w>
옥중 서신</w>
아무 것도</w>
올해 부터</w>
구독(클 ,정치,
김용 옥</w>
접촉 을</w>
행위 와</w>
이종 배</w>
황교안 ·
하루 빨리</w>
드린 다”고</w>
,https://news.naver.com/main/read.nhn?mode=LS2D&mid=shm&sid1=100&sid2=269&oid=421&aid=0004 50
일어 나
유감 의</w>
유감 스럽
남구 을에</w>
찾아 가</w>
다가 온</w>
적절 치</w>
되살 리기</w>
이인영 -
전반 에서</w>
탄도미사일( SLBM
,아시아경제 ,2020.03.02.</w>
,https://news.naver.com/main/read.nhn?mode=LS2D&mid=shm&sid1=100&sid2=267&oid=0 16&aid=00016
,https://news.naver.com/main/read.nhn?mode=LS2D&mid=shm&sid1=100&sid2=267&oid=0 11&aid=00037
공모 에</w>
포기 한</w>
디지털 뉴스
,https://news.naver.com/main/read.nhn?mode=LS2D&mid=shm&sid1=100&sid2=269&oid=009&aid=0004 49
이틀 간</w>
진전 이</w>
형태 의</w>
미· 북</w>
스마 트</w>
",머니투데이 ,2020.03.05.</w>
역학 조사
텔레 그램
당협 위원장
금수산태양궁 전</w>
말씀드 린</w>
비율 은</w>
압수수색 을</w>
영도 자</w>
관( 보건복지부</w>
이석 연</w>
에어 크래
·함 안·
단호 한</w>
불거 진</w>
han kyung
차액 에</w>
보건· 의료</w>
모라토리 엄
멈춰 선</w>
졸업· 임관식
국가혁명배당금 당</w>
고용노동 부</w>
외교통일 위원회</w>
학과 장을</w>
1번 지
2019. 11
면밀 히</w>
휴대전 화</w>
관저 에서</w>
오세 훈</w>
반야심 경에</w>
<저작권자 ,정치,0,2020-03-17</w>
P4 G</w>
동남아 시아</w>
극동문제 연구소</w>
' 자
' 지난</w>
' 여야는</w>
' 변·
0 6
1 년간</w>
3 법
3 종</w>
3 100
3 1&aid=00
3 법,</w>
4 ㆍ15</w>
@ joongang
A )</w>
C N
D N
W FP
r o
가 계
간 사,</w>
갈 등
건 데</w>
겠 다""며</w>
겨 레</w>
고 쳐
권 순
권 준
권 역</w>
근 본</w>
나 름
날 의</w>
남 지</w>
남 의</w>
냐 ?</w>
노 관
놓 지</w>
는 다
니 다</w>
다 름
다 르게</w>
당 혹
대 면
댓 글
둥 성,</w>
드 로</w>
때 나</w>
말 았
매 도
머 무
무 겁
무 선</w>
묻 고</w>
물 에</w>
뮤 직
바 꾼</w>
박 덕
박 맹
벌 인다.</w>
범 위에서</w>
별 다른</w>
보 상
북 도</w>
붙 이
사 개
사 과</w>
사 들이</w>
살 고</w>
성 장의</w>
성 북구
세 에</w>
속 도로</w>
슈 퍼
시 각</w>
식 량
신 인
싸 움</w>
안 으로</w>
알 지
압 승
어 긋
어 지는</w>
어 준의</w>
여 유
여 당에</w>
열 고,</w>
왔 고</w>
요 일
운 운
유 형
응 징
의 식을</w>
이 현
일 상
장 한</w>
재 현
쟁 점</w>
적 이라고</w>
적 이라는</w>
적 어도</w>
전 력</w>
전 하고</w>
전 희경</w>
정 파
정 해</w>
정 하는</w>
정 적으로</w>
조 처를</w>
주 ·
주 와</w>
준 다고</w>
즈 는</w>
지 사,</w>
직 격
직 업
참 사</w>
최 형
출 입국
카 카오
키 우
태 세</w>
팔 아
패 션
퍼 부
포 를</w>
피 할</w>
피 선거
학 사
한 심하고</w>
해 산
해 안
허 경영</w>
힘 들어
"" 지난</w>
"" 정부는</w>
mo on
26 2
.0, 7.0,
다. ""',</w>
21 ,2020-03-17</w>
3: 30
하겠 지만</w>
10 .0,,</w>
다” 고도</w>
지역 ·
외교 를</w>
경제 에서</w>
경제 활력을</w>
원내대표 .</w>
총리 와</w>
우리 와</w>
상황 이라며</w>
자유 를</w>
22 9
국가 로</w>
15 1
28 5
사회 를</w>
사회 복지
대변 하는</w>
.k ",사회,
2020.3. 2/뉴스1</w>
선언 하며</w>
민생 당은</w>
확산 ,</w>
전원 책</w>
요구 할</w>
개정 안에</w>
내용 과</w>
교육 부는</w>
임시 국회를</w>
국무총리 (
책임 져야</w>
,https://news.naver.com/main/read.nhn?mode=LS2D&mid=shm&sid1=100&sid2=269&oid=001&aid=0011 31
요청 에</w>
보고 했다.</w>
3.0, 3.0,
사업 이</w>
협력 하면</w>
법안 도</w>
브리핑 하는</w>
여론 조사를</w>
사령 관</w>
마련 할</w>
공직 자의</w>
2. 7
본부 에서</w>
여야 를</w>
합의 했다고</w>
단체 ,</w>
사무 의</w>
달라 .</w>
필리버스터 의</w>
승리 할</w>
의사 협
적극 행정
경쟁 력이</w>
56 사단</w>
제기 했다.</w>
제기 되는</w>
해주 신</w>
심판 의</w>
그래 야</w>
어렵 다며</w>
해양 경찰청</w>
,https://news.naver.com/main/read.nhn?mode=LS2D&mid=shm&sid1=100&sid2=269&oid=003&aid=000973 26
08 :00</w>
,https://news.naver.com/main/read.nhn?mode=LS2D&mid=shm&sid1=100&sid2=264&oid=001&aid=0011 309
졸업 한</w>
있다 ,</w>
유성 엽
언론 이</w>
번째 )</w>
동아 일보,2020.03.05.</w>
접촉 한</w>
서울시 청</w>
공식 적인</w>
과감 하고</w>
통상 업무</w>
관계자 와</w>
사랑 을</w>
총괄 공사가</w>
헌신 을</w>
흑석 동의</w>
신년합동인사 회</w>
방호 복
상승 했다.</w>
,파이낸셜뉴스 ,2020.01.02.</w>
언제 ?</w>
인구 가</w>
다르 지</w>
하락 한</w>
합리 적인</w>
감시 하면서</w>
알려졌 다.',</w>
공연 을</w>
방한 과</w>
중앙일보 (https://
단결 의</w>
소집 해</w>
박찬 대</w>
대로 라면</w>
지켜지 길</w>
현대 차
부활 한</w>
유의 동</w>
자연 스럽게</w>
joongang .co.kr),</w>
4일 째</w>
진보· 개혁
당정청 회의에</w>
북핵 외교안보
'ⓒ 중앙일보(https://
백악 관</w>
이에 요.</w>
허리 띠
김주 영</w>
작위 적</w>
실내 체육
강승 규</w>
먼지 알지
마산합 포
김현정 ></w>
잠수함발사 탄도미사일(SLBM
대구시당·경북도 당</w>
기꺼 이</w>
어워 즈는</w>
31&aid=00 00
뮤직 어워즈는</w>
'ⓒ중앙일보(https:// joongang.co.kr),</w>
' 새</w>
' 정면돌파
3 47
4 일부터</w>
8 .0,,
9 00
A )
· 경</w>
‘ 공정사회</w>
‘ 4+1
“ 그
“ 더</w>
“ 특히</w>
“ 최근</w>
“ 한반도</w>
“ 그러나</w>
가 처분</w>
갑 과</w>
강 대
강 ,</w>
개 의
고 에</w>
교 정
구 와</w>
국 적
그 럴</w>
급 격히</w>
기 부</w>
김 천
김 평
꺾 고</w>
남 과</w>
는 다는</w>
늘 려
당 부</w>
당 명을</w>
대 고</w>
대 회</w>
도 민
동 북
동 조
동 국대</w>
됐 으면</w>
둘 러</w>
뒤 ,</w>
드 론
디 아
락 을</w>
만 원에</w>
맡 았다.</w>
메 콩</w>
모 른
모 셔
무 마</w>
물 었다.</w>
밀 어붙
바 이든</w>
밖 으로</w>
벌 인</w>
부 진
사 정을</w>
사 직을</w>
살 리기</w>
상 호
시 위
시 적으로</w>
신 중한</w>
쏠 리고</w>
아 베
아 냐</w>
었 고,</w>
영 장
옮 긴</w>
와 중에</w>
원 종
육 아
이 규
이 무
일 제</w>
자 녀</w>
저 널
정 원을</w>
정 도를</w>
조 대
좀 처럼</w>
종 호</w>
주 석</w>
지 휘</w>
창 간</w>
천 하
청 ,</w>
태 국</w>
폐 렴
품 귀
한 다”면서</w>
함 경남도</w>
화 ·
효 력
정치 공
,, ,,
"" 국민의</w>
대표 ·
의원 총회
11 :50,,"</w>
3: 27
3: 39
3: 57
10 3
북한 과의</w>
외교 관
후보 들이</w>
경제 는</w>
보내 고</w>
민주당 에서</w>
민주당 에서는</w>
참석 하기</w>
18 ,2020-03-17</w>
15 3
16 4
대한 상의
행정 관</w>
37 1
정책 으로</w>
필요 성이</w>
34 5
50 %
들어 서</w>
임명 동의
민생 당
민생 과</w>
방문 이</w>
,정치,행정 ,2020-01-01,
조정 식
시민 들</w>
시민 단체</w>
인터 폴</w>
이어 갔다.</w>
책임 은</w>
확인 한</w>
.0,1.0, 3.0</w>
당국 과</w>
나가 겠다”고</w>
전체 적으로</w>
돌아 올</w>
하나 하나</w>
종합 대책
피해 자
현충 탑</w>
센터 장은</w>
확정 돼</w>
이야 기는</w>
공수처 법
:21 ,,"['\n\t',</w>
의사 봉</w>
고위 험
인재 를</w>
제기 한</w>
전달 한</w>
새해 맞이</w>
투표 할</w>
인민 의</w>
위협 이</w>
위협 할</w>
컷오프 를</w>
비행 기를</w>
비행 거리는</w>
국회의원 선거구획정
·이 집
위반 ,</w>
보좌 관</w>
에게 만</w>
부총리 ,</w>
추가경정 예산</w>
제외 하면</w>
가족 과</w>
\r\n\t \t
수행 을</w>
연대 는</w>
방사포 를</w>
도약 은</w>
태극 기
잘못 을</w>
지지율 을</w>
거부 하고</w>
완화 하는</w>
학교 에서</w>
항의 하고</w>
긍정 적으로</w>
김수 민
적대 세력
이후 에는</w>
원내수석부 대표가</w>
권고 했다.</w>
,정치,북한,2020-01-01, 北</w>
의심 스럽
확충 하고</w>
사퇴 를</w>
건설 에</w>
,파이낸셜뉴스 ,2020.03.05.</w>
행태 에</w>
·박 범
고등 학교</w>
해병 대
북· 미
경청 하는</w>
(가운데 )가</w>
이지 은</w>
자격 이</w>
생산업 체</w>
오후 에</w>
의식 한</w>
유승민 ·
이원 욱</w>
물량 은</w>
장거리포병구분 대</w>
군의 관</w>
서울남부 지검
불공 정</w>
요란 하게</w>
최고위원회의( 본청</w>
IM F
중동 호흡기증후
조경 태</w>
튼튼 한</w>
고( 故)</w>
생필 품</w>
반도 체
바른미래당· 정의당·
강점 기</w>
컴퓨 터</w>
high 15
'[대구 =뉴시스]</w>
강신 업</w>
허리띠 를</w>
' 변화와</w>
' 영입인재</w>
( 사진
( 자료사진
. jo
0 .5
1 ·
1 명
2 명
3 선
3 ㆍ1
4 천
5 부
6 .0,,,,</w>
9 년</w>
I T
“ 당</w>
가 림
가 혹
가 치</w>
가 수</w>
간 이
갖 게</w>
걸 기</w>
겨 냥</w>
견 인
견 종호</w>
고 립
공 유</w>
구 역
국 군</w>
국 산</w>
기 '</w>
기 획</w>
길 이라고</w>
김 혜
까 다
냐 ,</w>
너 희
는 다면</w>
달 리고</w>
답 했다.',</w>
대 견
대 부분이</w>
들 이
말 하기도</w>
모 친
물 품을</w>
미 투</w>
밀 양·
박 봉주</w>
방 치
방 향</w>
배 신
백 화
벌 금</w>
보 면,</w>
부 ·
분 당
불 편</w>
비 방
뿐 이다.</w>
삭 제
산 한</w>
상 세</w>
성 범죄</w>
세 트
세 요.</w>
소 외
소 요
소 홀
수 구
순 간</w>
스 텔
실 전</w>
안 도</w>
안 에는</w>
않 다”고</w>
어 야
연 도</w>
연 결</w>
연 하게</w>
영 세</w>
올 바른</w>
왔 고,</w>
워 서</w>
윤 회
은 폐
이 영
이 럴</w>
이 르는</w>
인 지
인 원</w>
일 제의</w>
잘 사는</w>
장 담
저 지</w>
전 부
정 착</w>
조 성</w>
종 일</w>
주 승
중 요</w>
창 건</w>
첫 발을</w>
탄 은</w>
탈 세,</w>
태 도가</w>
투 박한</w>
표 집
하 되</w>
하 니까</w>
한 중</w>
합 성
행 복을</w>
현 동</w>
호 선</w>
화 려
훈 ,</w>
희 수</w>
20 %</w>
정치 인의</w>
"" 정</w>
in s
위원 ,</w>
의원 이,</w>
대통령 .</w>
민주 공화
10 시부터</w>
미래 가</w>
:5 5,,,,,</w>
", 더팩트
:0 5,,,,,</w>
:0 8,,,,,</w>
:0 1,,,,,</w>
47 7
서울 과</w>
대구 ㆍ
05 :00
국방 위원장의</w>
16 1
,https://news.naver.com/main/read.nhn?mode=LS2D&mid=shm&sid1=100&sid2=265 &oid=003&aid=0009634
'\n\t']",정치, 9
38 9
출마 하겠다고</w>
24 4
발표 하며</w>
안전 한</w>
필요 하면</w>
감염증(코로나19 )으로</w>
공관 병</w>
병원 인</w>
시작 됐다.</w>
,https://news.naver.com/main/read.nhn?mode=LS2D&mid=shm&sid1=100&sid2=269&oid=003&aid=00097 31
주장 한</w>
최고위원 회의
나라 들이</w>
공동 선대
세계 적</w>
질문 이</w>
23 2
과정 과</w>
이상 직</w>
않았 음은</w>
강원 도에</w>
통일 연구원</w>
제한 하고</w>
받아 내기</w>
변화 의</w>
사무 소를</w>
80 일</w>
확대 회의에서</w>
지방 선거를</w>
아시아 태평양
수여 하는</w>
참배 하기</w>
공수처 (
영향 력을</w>
공급 과</w>
나서 서</w>
제기 됐다.</w>
사이 의</w>
사이 에서</w>
연설 에서</w>
영등 포</w>
건강 보험
설치 ,</w>
&oid=018&aid=0004 59
활용 한</w>
함께 했다.</w>
부총리 ,뉴시스,2020.01.02.</w>
환자 들의</w>
격려 하고</w>
파견 된</w>
넘어 섰
위로 하고</w>
소위 들의</w>
북미 대화</w>
교섭 단체
차단 하기</w>
,https://news.naver.com/main/read.nhn?mode=LS2D&mid=shm&sid1=100&sid2=268&oid=001&aid=0011 308
12월 28일부터</w>
생활치료센터 를</w>
환영 의</w>
바람 을</w>
편성 한</w>
헌법 상</w>
비핵화 와</w>
제3 의</w>
주석 과</w>
1000 명</w>
전반 적인</w>
앵커 멘트</w>
상승 한</w>
상무 위원
김기 문</w>
11:5 1,,"</w>
초래 한</w>
포기 할</w>
김경 래</w>
막아 낼</w>
go d
박종 형</w>
연락 을</w>
호흡 을</w>
주요 업무</w>
,세계 ,
야권 의</w>
3:04 ,,"['\n\t',</w>
대목 이</w>
전염 병</w>
유엔 총
어려움 에</w>
남조선 에</w>
식품의약품안전 처</w>
,https://news.naver.com/main/read.nhn?mode=LS2D&mid=shm&sid1=100&sid2=265&oid=003&aid=000974 05
조선반 도</w>
진입 과</w>
카메 라</w>
이학 재</w>
바다 에서</w>
비무장 지대</w>
채용 에서</w>
가르 기에</w>
피의 자</w>
새겨 진</w>
김광 수</w>
성찰 하는</w>
한빛 부대</w>
민주평화당 +대안신당
이형 석</w>
더해 지면</w>
화성-1 5
양향 자</w>
msiron @news1.,정치,0,2020-03-17</w>
산청·함양·거창 ·합
국회= 남윤호</w>
현대차 그룹</w>
이무 열</w>
' 타
' ]</w>
' 초대형</w>
' il
' 친문
' 사진영상기획부</w>
( \'
, 강원
0 .0,,</w>
2 %
2 발
3 명의</w>
5 ~
@ se
B R
R E
[ 연합
a m
a tion
t r
· 옥
“ 김정은</w>
… 코로나</w>
가 슴</w>
감 도</w>
갔 다고</w>
강 남구
강 국으로</w>
같 아
같 아요.</w>
건 네
고 집
공 소
공 공</w>
교 민</w>
구 ,정치,
그 것
그 해</w>
기 독
기 강</w>
기 저질
길 의</w>
꼼 수를</w>
꾸 러
남 ·
내 릴</w>
내 겠다고</w>
년 이</w>
높 고</w>
늘 리는</w>
당 일</w>
당 하는</w>
대 담
대 조
대 만족
동 료
동 부
두 고
따 를</w>
로 서,</w>
마 도</w>
매 점
머 리를</w>
메 뉴
면 허</w>
바 가</w>
받 기',</w>
배 급
범 여권
병 진</w>
병 행</w>
본 질
부 르
분 도</w>
상 공</w>
소 ,</w>
소 감을</w>
손 자
수 량
수 에</w>
시 도</w>
식 민
싶 다""고</w>
안 쓰
앞 을</w>
어 질</w>
었 습니다.',</w>
엔 진
여 성이</w>
연 발</w>
우 세
우 주
유 상
이 력이</w>
일 수록</w>
임 의
임 종
임 한별</w>
자 립
잘 하고</w>
재 호</w>
전 격
전 라
접 속
정 식
정 읍
정 도는</w>
증 을</w>
집 회에서</w>
집 단의</w>
찍 지</w>
찾 지</w>
천 금</w>
철 수
청 구</w>
치 던</w>
티 켓을</w>
풍 을</w>
하 반
해 져</w>
행 보는</w>
혔 다.</w>
호 (
정치 평론
100 년</w>
.0, 8.0,
의원 들에</w>
한국 일보,2020.03.05.</w>
3: 47
:0 6,,,,,</w>
지역 인</w>
47 ,2020-03-17</w>
공천 면접
판단 이</w>
:1 3,,,,,</w>
18 2
30 1
30 3
30 대(
국가 에</w>
국가 에서</w>
국가 들이</w>
국가 균형발전
15 2
38 6
행정 관이</w>
총선 ,</w>
36 1
감염증(코로나19 )에</w>
1.0,, 3.0,,</w>
@news1. ",사회,
사람 으로서</w>
보수 대통합</w>
들어 가는</w>
23: 03:
훈련 ,</w>
,https://news.naver.com/main/read.nhn?mode=LS2D&mid=shm&sid1=100&sid2=268 &oid=009&aid=0004
내용 도</w>
교육 청</w>
임시 정부는</w>
책임 감을</w>
공동 선언</w>
계획 에</w>
논의 해</w>
치료 가</w>
photo @tf.co.kr',</w>
23 ',</w>
않았 던</w>
여야 간</w>
선거구 획정</w>
부부 장의</w>
이었 고</w>
센터 를</w>
부분 도</w>
비난 과</w>
필리버스터 는</w>
주민 등록</w>
:40 ,,"['\n\t',</w>
:20 ,,</w>
대구시 당</w>
목소 리</w>
01 :00
현실 적으로</w>
인천 공항
인천 공항</w>
대학 생
'이 광
밝히 면서</w>
단계 는</w>
민식이 법,</w>
드러 내
드러 난</w>
생산 량을</w>
그렇 지만</w>
그렇 죠.</w>
국민들 ,</w>
총회 장을</w>
동작 을</w>
위반 한</w>
연기 된</w>
점검 을</w>
환자 와</w>
수행 할</w>
장기 적인</w>
방안 과</w>
한· 미
도시 락</w>
277&aid=0004 58
남북관계 가</w>
대정부질문 을</w>
500 만원</w>
주셨 으면</w>
기간 은</w>
인식 과</w>
남구 을</w>
수요 가</w>
환경 부</w>
필요하 다”고</w>
억원 으로</w>
안팎 에서</w>
긴밀 하게</w>
근거 로</w>
어디 에</w>
투자 촉진</w>
전남 도
활성 화
직원 들이</w>
최재 형</w>
인도 네
대( DMZ
,https://news.naver.com/main/read.nhn?mode=LS2D&mid=shm&sid1=100&sid2=265&oid=018&aid=0004 547
싱가포 르
줄어 든</w>
경제부총리 가</w>
직무 교육
핵· ICBM</w>
과학기술정보방송통신 위원회</w>
대출 을</w>
jebo 23',</w>
시청 ',</w>
DM Z</w>
paper ",정치,
두번째 )</w>
되살려 냈
처럼 ,</w>
SK 그룹</w>
프레시 안
사흘 간</w>
국민권익 위원회</w>
성실 히</w>
구독해주 세요
주제 넘은</w>
동창 리</w>
엄청 난</w>
창준 위</w>
ty 012
문턱 을</w>
제1총괄조정 관(보건복지부</w>
경희 대</w>
김호 연</w>
다운 받기',</w>
모하 메드</w>
졸라 매
비무장지 대(DMZ
jtbc .jo
로버 트</w>
고군 분투
@joongang .co.kr</w>
'il ty012
손자 병
jtbc.jo ins
'ilty012 @tf.co.kr',</w>
! !</w>
' ◇
' 꼼수
' 미세먼지</w>
( 安
( 대전
2 조</w>
2 대</w>
3 29
3 39
4 만
4 .0,,1.0</w>
4 년간</w>
C )</w>
F A
s u
{ \n</w>
± 2.5
“ 지난</w>
” 이라면서</w>
… 靑</w>
… 통합당</w>
文 정부</w>
감 당
개 탄
객 관
걸 어</w>
결 혼
계 시는</w>
골 목
과 도
관 )</w>
구 도
구 도</w>
구 도를</w>
구 도가</w>
국 산
굳 은</w>
극 우</w>
기 정</w>
기 할</w>
까 지의</w>
낮 춰</w>
내 리고</w>
너 덜
높 이고</w>
눈 치를</w>
다 하겠습니다.</w>
달 여</w>
담 겼
대 진
대 치
대 내외</w>
돼 지
된 다""고</w>
드 ,</w>
디 오
만 히</w>
말 했다
망 이</w>
맡 게</w>
명 분</w>
박 물
반 응</w>
법 적
보 병
본 토
봐 야
북 ,</w>
비 도</w>
사 안에</w>
선 전화(
숙 박
승 복
시 와</w>
시 도는</w>
심 리
앞 선</w>
애 국가를</w>
얘 기도</w>
여 지가</w>
연 내</w>
연 휴</w>
연 기를</w>
열 렬
열 지</w>
영 동
예 배
예 하</w>
오 만
완 구
완 전</w>
외 부에서</w>
요 동
우 ·
의 인</w>
이 것
이 달
익 산을</w>
인 생
일 이지만</w>
있 습니
있 기에</w>
자 나</w>
장 제원</w>
전 용
전 후
제 발</w>
죽 이기
준 하는</w>
증 대
증 평
직 무</w>
진 압
질 본
찬 을</w>
철 호</w>
크 다는</w>
타 임</w>
탈 바
태 도
태 안
통 행
파 장을</w>
편 지
포 럼</w>
프 트</w>
하 러</w>
하 강</w>
함 과</w>
행 보</w>
험 지로</w>
정치 적인</w>
정치 세력들이</w>
,, ,정치,0,2020-03-17</w>
,, 1.0</w>
대표 와의</w>
국회 법상</w>
민주 화
11 ,2020-03-16</w>
3: 05
3: 34
:5 7,,,,,</w>
", 서울신문
정당 인</w>
판단 할</w>
국무 위원장
국무 2차
코로나19 와의</w>
인사 들은</w>
김정 한</w>
,https://news.naver.com/main/read.nhn?mode=LS2D&mid=shm&sid1=100&sid2=269&oid= 277&aid=000459
3. 9
관계 는</w>
'[ 기자]',</w>
'[ 더팩트</w>
'[ 앵커]',</w>
'\n\t']",정치, 4,2020-03-16</w>
행정 관(
35 5
출마 하지</w>
발언 으로</w>
군사 합의를</w>
보수 통합을</w>
들어 가고</w>
임명 한</w>
평화 도</w>
예산 안과</w>
예산 안의</w>
보건 소</w>
평가 와</w>
추경 ,</w>
마스크 의</w>
제공 할</w>
남북 협력</w>
임시 회</w>
,https://news.naver.com/main/read.nhn?mode=LS2D&mid=shm&sid1=100&sid2=269&oid=0 20&aid=000327
공동 대표,</w>
필리 핀</w>
세종 시를</w>
.0,1.0, 1.0,,</w>
an d</w>
브리핑 하고</w>
00:4 8
운영 위원장실에서</w>
어떻 게
이뤄 져야</w>
이뤄 내야</w>
확보 하고</w>
사무 소</w>
확대 하고</w>
확대 하기로</w>
참여 하지</w>
변호 인인</w>
유지 해</w>
때문 입니다.</w>
자체 적으로</w>
외국 어</w>
페이스북 에서</w>
국립 5·18민주묘
'이 란</w>
전달 하는</w>
경우 에</w>
처음 부터</w>
부결 된</w>
비행 했다.</w>
사진= 박범준</w>
추천 을</w>
우선 순
격려 하기</w>
고민 이</w>
”, 서울신문
되었 습니다.',</w>
움직 이는</w>
핵심 관계자는</w>
.3 %,</w>
정면돌파 전으로</w>
상당 수</w>
열어 둔</w>
바꾸 지</w>
.8 %
해소 하기</w>
이후 에도</w>
인물 로</w>
제3 국</w>
백두 산
이인영 ,</w>
전면 적인</w>
기부 하고</w>
차례 로</w>
실패 를</w>
활성 화를</w>
소식 이</w>
병역 ,</w>
의뢰 해</w>
차량 이</w>
교류 가</w>
배경 과</w>
역임 했다.</w>
11월 28일</w>
아직 도</w>
권한 이</w>
지나 치게</w>
분노 를</w>
주요 일정
32&aid=00029 95
3:04 ,,"</w>
기조 의</w>
비대 위</w>
경과 보고서를</w>
박범 계</w>
인데 요.</w>
적합 한</w>
독자 적으로</w>
세대 들은</w>
소상공인· 중소기업</w>
초등 학교</w>
중앙당 사</w>
1년여 간의</w>
혜택 을</w>
박형 준
거기 서</w>
상세 히</w>
오영 환
Re ser
부직 포</w>
의령 ·함안·
추가경정예산안(추경 )에</w>
'청 '으로</w>
1919 년</w>
불꽃 놀
제13 대</w>
사생결단 하며</w>
팔아 보려</w>
' 조</w>
' 북한</w>
' 국민의당</w>
( 1일)</w>
* *
, 디지털타임스
2 33
2 차관</w>
3 16
3 38
4 02
5 개
6 조</w>
< 포토
? !</w>
b y</w>
“ 신천지</w>
… ‘
거 점
걱 정</w>
게 리
격 전
고 용</w>
과 분한</w>
김 봉
끝 나고</w>
낙 하
남 구</w>
내 겠다는</w>
넓 혀
녹 록
다 중
다 '</w>
대 여
동 물
된 다""며</w>
두 지</w>
로 만</w>
리 려</w>
만 명
맞 대결
머 리</w>
모 실</w>
목 사</w>
무 료
무 색
묵 묵
밖 의</w>
반 납
발 동해</w>
밝 게</w>
배 상
백 신
버 리고</w>
법 질
병 에</w>
분 배
분 들도</w>
불 사
비 리를</w>
빠 져</w>
사 할
사 장,</w>
생 중
서 서</w>
쇄 신을</w>
승 진</w>
시 에서</w>
시 대에</w>
시 신이</w>
심 지어</w>
씨 와</w>
안 돼</w>
야 권이</w>
약 국
양 상
업 으로</w>
에 티
연 방
열 병
영 령
영 사</w>
오 신</w>
오 역으로</w>
우 수
욱 ]</w>
울 주
을 이</w>
음 모
의 향
이 슬
이 냐</w>
이 사를</w>
인 하</w>
임 정
임 금</w>
재 앙
정 청래</w>
종 식</w>
주 자
중 상
짜 리</w>
청 으로</w>
초 유의</w>
추 적
취 지로</w>
측 에서</w>
컨 벤
콘 텐
탈 환
퇴 원
특 히,</w>
패 권</w>
필 기
하 례
학 습
한 )</w>
한 식을</w>
했 는데요.</w>
허 가</w>
허 용</w>
현 판
회 ·
획 득
20 08
정치 인이</w>
"" 민주당이</w>
코로나 에</w>
19 )</w>
대표 ,연합뉴스,2020.01.02.</w>
한국 대사
한국 일보,2020.03.02.</w>
11 .0,,
21 2
3: 28
3: 38
회의 실)</w>
하겠 다면서</w>
:5 9,,,,,</w>
", 중앙일보
장관 으로서</w>
:0 4,,,,,</w>
외교 부의</w>
공천 …
코로나19 대책
인사 말하는</w>
3. 6
30 대</w>
22 3
ti mes
뉴스1 "",</w>
28 8
16 2
'[ 최</w>
'[ 파이낸셜뉴스]</w>
출마 선언을</w>
37 8
27 1
27 8
필요 할</w>
선언 했습니다.</w>
문제 라고</w>
의료 시설</w>
의료 인력을</w>
25 1
들어 오고</w>
방역 ,</w>
방역 이</w>
지도 자</w>
임명 할</w>
수사 '</w>
23: 24
격리 하는</w>
·경 남</w>
무단 결
,,, 4.0,,</w>
,정치,북한 ,2020-03-01,
주장 도</w>
언급 하면서</w>
13 1
바른미래 당
지적 이다.</w>
국무총리 ,뉴시스,2020.03.05.</w>
책임 연구원</w>
공동 선언
계획 이</w>
확인 된</w>
노력 하는</w>
것이 지</w>
재난 ,</w>
협력 과</w>
알려 지면서</w>
있었 을</w>
우려 했다.</w>
촉구 한다고</w>
23 ,2020-03-17</w>
전체 회의
전체 적인</w>
제안 서를</w>
마련 했다.</w>
만들 지</w>
세력 은</w>
시설 이</w>
센터 로</w>
.",정치, 3,2020-03-17</w>
75 7
이동 형</w>
항공 기
수여 식
나오 기</w>
60 대</w>
장병 들의</w>
예상 했다.</w>
투입 되는</w>
시행 에</w>
:39 ,,</w>
안철수 는</w>
나서 면서</w>
체계 적으로</w>
규모 와</w>
·김 수
양산 시
반발 해</w>
전투 기</w>
성과 와</w>
그렇 기</w>
전략공천 에</w>
위기 와</w>
행사 할</w>
집행 위원장과</w>
번째 다.</w>
대비 한</w>
일정 에</w>
방안 으로</w>
,https://news.naver.com/main/read.nhn?mode=LS2D&mid=shm&sid1=100&sid2=267&oid=421&aid=0004 505
14&aid=0004 336
김종 배의</w>
역사 의</w>
증가 했다.</w>
증가 하고</w>
의료진 의</w>
소위 에게</w>
(왼쪽 )와</w>
.5 %
긍정 평가가</w>
,정치,행정,2020-01-02, "
가져 주길</w>
국제공 조</w>
지자체 와</w>
7:5 3,,"</w>
인사청문 회</w>
인물 이다.</w>
회동 하고</w>
간부 들의</w>
규제 도</w>
",이데일리 ,2020.01.02.</w>
중증 환자</w>
당연 한</w>
유튜 브
기회 와</w>
전선 장거리포병
천· 영
le ment
체감 하고</w>
육군 대
살아 있는</w>
접근 이</w>
자력갱생 을</w>
비서실 장,</w>
자랑 스러운</w>
필수 적
미· 중</w>
직무 유
치러 지는</w>
국무회의 가</w>
서울중앙 지
조원 진</w>
명분 도</w>
좋아 하는</w>
비용 을</w>
묵념 하고</w>
표결 에</w>
곽상 언</w>
드라이 브
국민동의 청원에</w>
질타 했다.</w>
'\t [',</w>
박양 숙</w>
급속 히</w>
투기 꾼이</w>
EU 가</w>
핵실험 과</w>
연계 해</w>
2020년 은</w>
,https://news.naver.com/main/read.nhn?mode=LS2D&mid=shm&sid1=100&sid2=269&oid=079&aid=0003 307
보은 ·옥
기구( WHO
단순 히</w>
권은희 ·유의
당헌 ·
중도· 보수</w>
축사 하는</w>
베네치 아
리만 건</w>
방문객 의</w>
6·25 전쟁</w>
pre ss
드립 니다.',</w>
간주 하는</w>
등판 !!</w>
이도 훈</w>
알릴레 오
황보승 희</w>
중앙재난안전대책본부(중대본 )</w>
Si x</w>
전세 살
초특 급</w>
바이오 헬
조미( 북미
잡혀 있을</w>
진두 지휘
마카오 ,</w>
북- 미</w>
신조 (安
특감 반
권순 일</w>
메뉴 판</w>
times ?!</w>
보은·옥 천·영
! "",</w>
' 도
' 실
' 제
' 핵
' 홍남기</w>
' 심각
' 청주</w>
( 김</w>
( 부산</w>
( 컷오프
( VOA
, JTBC
. ,</w>
. mo
4 선의</w>
6 49
6 ·15</w>
6 번째</w>
6 112
9 급</w>
9 .0</w>
9 ,,"
A I
H u
L t
R ight
[ 연합뉴스</w>
_ list
_ info
c ity
d .</w>
e g
m y
s il
Δ 경기</w>
“ 박근혜</w>
같 아</w>
검 ·경</w>
결 속을</w>
곳 도</w>
관 영
국 세
군 부대</w>
기 지에서</w>
께 서도</w>
나 다.</w>
남 용</w>
내 리는</w>
내 에선</w>
누 적</w>
눈 물</w>
다 각
다 변화
달 랐
대 량
대 열에</w>
러 브
리 에서</w>
마 주
맞 아
모 리
모 순
몸 을</w>
무 증상
믿 어
배 상</w>
번 을</w>
벌 였다.</w>
병 철</w>
보 겠습니다.</w>
복 직</w>
북 동</w>
산 적
선 도
성 동
성 의</w>
소 중
소 독</w>
속 출
수 어
숙 여</w>
승 부를</w>
시 기는</w>
신 동
신 한반도</w>
신 경을</w>
실 없는</w>
안 치된</w>
않 나</w>
않 다”며</w>
않 되,</w>
암 담
았 다는</w>
양 승
억 원,</w>
얼 음
여 동생</w>
연 이어</w>
열 게</w>
왔 다고</w>
왔 다는</w>
우 즈
워 낙</w>
위 기는</w>
유 입을</w>
윤 호
이 메
이 대로</w>
일 부를</w>
잖 아
재 보
재 계</w>
저 금리</w>
전 임
준 다.</w>
중 ,</w>
직 원이</w>
진 전</w>
째 로</w>
차 영환</w>
청 도</w>
치 매
코 리아</w>
타 는</w>
탄 탄
탄 도</w>
태 평양</w>
통 보</w>
팀 은</w>
폐 기</w>
포 털
해 임</w>
했 ",정치,
형 식으로</w>
회 사</w>
휴 가
id e
.0 404
"" 그런</w>
26 4
26 ,2020-03-17</w>
main _info
위원 으로</w>
뉴스 룸
19 1
19 89
대표 로</w>
대표 적이다.</w>
한국 ·
10 조원</w>
미래 세대들은</w>
:5 2,,,,,</w>
", 뉴스1,2019.12.01.</w>
12 .0,,</w>
선거 법,</w>
1. 4
,2020-01-0 2
기자 입니다.</w>
코로나19 는</w>
18 1
관계 자가</w>
자유 우파
15 .0,
관리 법</w>
그러 자</w>
진행 자
의료 인력
의료 봉사를</w>
@news1. ,사회,
확산 세가</w>
강화 ,</w>
to main_info
바른 미래</w>
주장 과</w>
바른미래 당에서</w>
나라 ’의</w>
지지 자</w>
세종 시에</w>
극복 과</w>
.0,1.0, 3.0,,</w>
법안 심사
브리핑 실에서</w>
독립 의</w>
청원 의</w>
2.0,, 3.0,,</w>
중단 한</w>
신뢰 도를</w>
감사 합니다.</w>
획정 위</w>
본부 장은</w>
자유한국당 에</w>
3·1 절을</w>
모두 에게</w>
확보 가</w>
사무 실</w>
이동 식
김형 준
비난 은</w>
참배 에는</w>
주민 들에게</w>
투입 할</w>
.0,2.0, 3.0</w>
'( 가칭
:38 ,,</w>
마음 에</w>
규모 는</w>
방침 에</w>
위해 서도</w>
:10 ,,"['\n\t',</w>
하자 ""고</w>
비행 한</w>
야당 유죄
청문 회를</w>
공무 원의</w>
행사 로</w>
응원 하겠다며</w>
등록 했다.</w>
번째 는</w>
아이 디어
수석부 회장,</w>
없었 다며</w>
강제 추
접촉 해</w>
근무 하는</w>
,https://news.naver.com/main/read.nhn?mode=LS2D&mid=shm&sid1=100&sid2=265&oid=001&aid=0011 311
.5 %</w>
열어 주는</w>
해외 동포</w>
일어 설</w>
총괄 하는</w>
정찰 기가</w>
상품 권을</w>
내부 에서</w>
.4 %,</w>
인물 이</w>
박근혜 의</w>
걱정 이</w>
다짐 을</w>
겠다 …
담당 자들이</w>
있다./ 연합뉴스</w>
행안 위</w>
게시 판에</w>
지난해 부터</w>
해달라 ”고</w>
자력갱생 과</w>
KT 가</w>
,https://news.naver.com/main/read.nhn?mode=LS2D&mid=shm&sid1=100&sid2=265&oid=018&aid=0004 528
주변 에서</w>
비서실 장이</w>
질병관리본부 를</w>
보훈 처는</w>
,정치,청와대,2020-01-02," 文대통령,</w>
합쳐 주실</w>
신임 장교들이</w>
과학기술정보방송통신 위원장이</w>
데이터 로</w>
전통 시장</w>
작성 한</w>
굳건 해질</w>
정상회담 이</w>
육성 으로</w>
공간 을</w>
JTBC (http://
세제 지원</w>
민심 의</w>
ved .</w>
우리나라 에서</w>
조직지도부 로</w>
지만 …
제막 식
게재 했다.</w>
2013 년부터</w>
주간 집계</w>
가로 막는</w>
되살려 낼</w>
예산결산 특별위원회</w>
준수 하며</w>
,정치,청와대,2020-01-01," 문</w>
Co .,</w>
본회의( 본회의장)</w>
문자 메시지를</w>
성명 서를</w>
불순 한</w>
3:12 ,,"</w>
the 300
검체채 취소
에이브 럼
검체채취 소</w>
Cont ent</w>
하도급 계약
욕심 꾸러
[경향포토] ,경향신문
god 6112
jtbc.joins .com)</w>
(대전 =연합뉴스)</w>
Reser ved.</w>
컨벤 션
신조(安 )</w>
보은·옥천·영 동·
Hu b</w>
Lt d.</w>
Right s</w>
eg god6112
sil ver
.0404 .go.kr
JTBC(http:// jtbc.joins.com)</w>
' 박
' ▷</w>
' ■</w>
' 의사
' 인터넷전문은행</w>
' \t</w>
' 조선일보</w>
' 세계일보
) 이다.</w>
- 대표</w>
4 20
4 명의</w>
5 명이</w>
5 .0,,1.0,,</w>
6 시</w>
6 .0,,1.0,,</w>
6 년간의</w>
8 특공
D B
N H
R B
f re
g ye
r y
v /
“ 검찰</w>
가 난
가 산
각 계</w>
간 절
같 다”며</w>
건 배
것 ""',</w>
겸 임
경 유
과 에</w>
교 대</w>
군 ·
군 축</w>
권 분
그 럼</w>
극 장에서</w>
길 이라는</w>
나 의</w>
나 병훈</w>
난 다.</w>
논 쟁
다 하며</w>
다 졌다.</w>
다 지고</w>
단 어
당 론
대 안</w>
도 의
도 전</w>
동 일
되 며,</w>
되 리라</w>
드 를</w>
들 로부터</w>
떨 쳐
뜻 에</w>
뜻 이</w>
리 조
만 났
만 약
만 일</w>
만 장</w>
말 하다
명 령</w>
문 대통령,</w>
박 기
박 창
배 송</w>
벌 여</w>
법 원
보 충
부 회장,</w>
북 부
분 ,</w>
붙 을</w>
빠 졌다.</w>
뿐 이라며</w>
성 토
세 심히</w>
소 로</w>
속 속</w>
송 부</w>
숙 ·
신 기술
실 체
심 화
얻 어</w>
업 종
없 지</w>
연 간</w>
영 국,</w>
왼 손</w>
운 수
운 데</w>
운 항을</w>
유 력</w>
의 대
입 문
자 처
잘 한</w>
재 직
전 용</w>
정 규
주 자</w>
지 칭
직 속</w>
진 정</w>
차 적으로</w>
차 량을</w>
참 전</w>
청 장</w>
초 반</w>
초 저금리</w>
최 배
최 혜영</w>
출 석</w>
출 장</w>
측 면에서</w>
칠 곡
캐 나
커 지는</w>
콘 서
크 다고</w>
태 세
태 국,</w>
팀 장</w>
패 러
포 섭
폭 행</w>
품 질
할 수록</w>
항 에</w>
해 법</w>
헤 쳐
현 금</w>
형 제
후 배
희 (
20 01
정치 개혁</w>
"" 일부</w>
26 3
.com ]',</w>
코로나 비루
대통령 께서</w>
이라 든지</w>
3: 44
3: 56
영상 회의실에서</w>
10 :40,,"</w>
:5 3,,,,,</w>
47 6
대구 -
여러분 이</w>
보내 주셨
03: 52
우리 나라는</w>
22 ,2020-03-17</w>
가능 하도록</w>
17 1
17 3
28 명,</w>
대응 한</w>
38 2
27 만
총선 과</w>
안전 에</w>
정책 은</w>
최고 위
39 0
생각 해</w>
의료 봉사
사람 ,</w>
전문 성을</w>
25 2
특별 입국
특별 자치
요구 하며</w>
,https://news.naver.com/main/read.nhn?mode=LS2D&mid=shm&sid1=100&sid2=269&oid=003&aid=00097 29
기소 …
13 ,2020-03-16</w>
임시 국무회의에</w>
시간 으로</w>
책임 지
계획 입니다.</w>
국군 의무
미래통합당 과</w>
논의 했다.</w>
극복 에</w>
있었 지만</w>
46 .1
종로 에</w>
창당 발기인
안보 를</w>
했다 라고</w>
않았 다”고</w>
자유한국당 과</w>
부부 장이</w>
받아 보기',</w>
확보 하는</w>
해결 해</w>
소상공 인의</w>
1주 택</w>
지켜 보
여행 객</w>
오른 손을</w>
돌파 구</w>
베트남 에서</w>
드러 났다.</w>
생산 을</w>
바이러스 의</w>
문화 일보
공공 기관
공공 의료</w>
점검 했다.</w>
라이 브
계속 될</w>
동해 ·
미래한국당 과</w>
장기 화</w>
민간 과</w>
민간 인</w>
누리 꾼
전쟁 에</w>
김영 춘</w>
9:5 5,,"</w>
자력 부
.3 %
윤석 대</w>
적용 한</w>
정면돌파 전을</w>
표현 이</w>
선관 위는</w>
11:1 7,,"</w>
긍정 적</w>
받아들 이고</w>
인터뷰 를</w>
1월 부터</w>
음압 병
업체 의</w>
,정치,북한,2020-01-01, 김정은</w>
체크 를</w>
국군대구 병원에서</w>
근거 를</w>
어디 로</w>
이탈리아 에서</w>
탈당 하고</w>
대외 적</w>
,노컷뉴스 ,2020.03.05.</w>
·정 춘
민족 의</w>
인도 적</w>
성장 할</w>
효율 적</w>
싱가포 르,</w>
문재인 )</w>
이집 트,</w>
용인 병
흥해 실내체육
신임 소위들의</w>
기후 변화와</w>
상징 하는</w>
연합뉴 ",정치,
김한 표
발급 을</w>
이석 형</w>
민정수석 실</w>
대구·청 도
긴급명령 권을</w>
무더 기로</w>
부합 하지</w>
기능 을</w>
'\t -</w>
'\t \n\t',</w>
선별진료소 와</w>
chosun .com,</w>
&oid=005&aid=000 129
신중 해야</w>
,https://news.naver.com/main/read.nhn?mode=LS2D&mid=shm&sid1=100&sid2=265&oid=003&aid=000958 5
터미널 에서</w>
부끄 럽
애로 사항</w>
정미경 ·
악용 하는</w>
,https://news.naver.com/main/read.nhn?mode=LS2D&mid=shm&sid1=100&sid2=267&oid= 277&aid=00046
대토론 회</w>
구독신청 하기',</w>
'조선 닷컴</w>
가평 군</w>
초·중· 고</w>
미흡 한</w>
간격 으로</w>
불평 등과</w>
평화프로세 스</w>
LG 그룹</w>
(PK )</w>
금요 일</w>
퓨처메이 커</w>
소셜 네트워크
나아갔 고,</w>
손길 이야말로</w>
이진 욱</w>
분양 가</w>
홍콩 ,</w>
먹잇 감이</w>
우리들 병원</w>
세계보건 기구(WHO
DN A</w>
,,,, 1.0,</w>
밀양· 의령·함안·
표집 틀을</w>
화려 한</w>
에티 오피
city boy@yna.co.kr',</w>
이동식 발사
.0404.go.kr /
'세계일보 ',</w>
' 돈이</w>
( MI
, TV조선
2 11
2 명을</w>
3 조
3 자</w>
3 선을</w>
4 14
5 30
6 ,,"
7 ,정치,정치일반,2020-03-05,
7 .0,,,,</w>
8 02
8 14
9 명</w>
I n
L ay
a t
n t
y j
· 판매
‘ 여행</w>
“ 민주당</w>
“ 북한의</w>
“ 그런</w>
“ 미국이</w>
가 에</w>
가 구의</w>
감 사를</w>
것 일</w>
결 의</w>
경 고</w>
계 파
계 기를</w>
공 병
공 사는</w>
공 세를</w>
과 장</w>
구 치
구 가</w>
군 포</w>
규 정</w>
그 리</w>
근 무를</w>
끼 리</w>
나 라고</w>
낙 관
낮 아
누 르고</w>
대 )</w>
대 들의</w>
대 회에서</w>
더 구나</w>
됐 다."",</w>
되 더라도</w>
든 가</w>
들 며</w>
들 만</w>
룬 디
마 부
만 전을</w>
말 은</w>
맡 기
매 여
며 칠</w>
명 실
모 독
목 사는</w>
무 소속
문 병호</w>
미 로</w>
박 한기</w>
밖 으로는</w>
방 한을</w>
벌 이
베 키
부 위를</w>
부 르는</w>
불 어
비 밀
사 인</w>
삼 고</w>
삼 권분
석 이</w>
선 한</w>
소 모
소 집</w>
속 도</w>
쇼 핑
수 소
수 와</w>
수 교</w>
승 부
실 무</w>
아 동</w>
양 해를</w>
얻 어
업 계</w>
에 스
에 도,</w>
영 웅
오 닝
왔 습니다.</w>
웃 고</w>
원 로
원 인은</w>
위 력</w>
윤 형
이 념</w>
이 죠.</w>
이 외에</w>
인 가</w>
일 에서</w>
일 부는</w>
일 ”이라고</w>
임 실
장 외
적 폐</w>
전 락
전 시에</w>
종 류
종 이
줄 이</w>
중 지</w>
즈 음
증 오
직 후
진 력
짐 에</w>
차 이나</w>
청 도
초 대</w>
최 저
키 웠
타 결
타 지키
탐 색
폐 쇄</w>
표 정을</w>
하 다면서</w>
한 계</w>
한 류</w>
해 산</w>
핵 과</w>
향 상
허 경영
헌 정
현 금
홍 보</w>
환 경을</w>
후 진
후 폭
news is
de v/
국회 의원은</w>
이라 크
통합 ·
미래 ,</w>
:5 8,,,,,</w>
북한 도</w>
선거 연합정당
사진 과</w>
외교 장관</w>
1. 2
후보 생</w>
후보 들의</w>
공천 장을</w>
판단 해</w>
1.0, 0.0,
1.0, 1.0,,,</w>
30 년</w>
"[ 포토]
비례 후보</w>
으로 서의</w>
국가 주석의</w>
사회 ,</w>
미국 의
노동 자</w>
설명 하며</w>
최고 위에서</w>
생각 했는데</w>
결정 됐다.</w>
보수 로</w>
25 4
25 억
,정치,국방/외교 ,2019-12-01,
격리 자</w>
강화 되고</w>
시작 은</w>
예비후보 들이</w>
언급 할</w>
신청 할</w>
교육 부
제1 야당
책임 론
계획 도</w>
'▶ 이재오</w>
요청 했다고</w>
것이 며,</w>
협력 할</w>
포함 하는</w>
분석 을</w>
창당 이</w>
협의 회</w>
:00 ,,"['\n\t',</w>
본부 에</w>
3·1 운동
이었 다는</w>
합의 점을</w>
희망 으로</w>
확보 하기</w>
아시아 나</w>
달라 질</w>
있어 요.</w>
제출 해야</w>
바란 다”며</w>
신천지 교회</w>
32 ,2020-03-17</w>
부족 을</w>
경쟁 력
고위 급</w>
고위 관계자는</w>
3.0,, 2.0,,</w>
국립 묘
국립 현충원</w>
사용 하지</w>
이용 하는</w>
선택 의</w>
현실 에</w>
현실 적인</w>
심판 할</w>
영입 행사에서</w>
새해 에도</w>
보호 에</w>
밝히 기도</w>
전문가 가</w>
지시 했다고</w>
설치 법</w>
방위 사업
졸업 생</w>
약속 한</w>
보이 며</w>
프로 그램</w>
머니투데이 ,</w>
전환 을</w>
장기 적</w>
,https://news.naver.com/main/read.nhn?mode=LS2D&mid=shm&sid1=100&sid2=267&oid=421&aid=0004 500
한· 메콩</w>
투쟁 에</w>
시스템 반도체
이사 장</w>
도입 한</w>
ICBM 을</w>
접촉 자</w>
.2 %
한편 으론</w>
”", 헤럴드경제
12월 31일</w>
사망 하는</w>
리얼 타임</w>
확충 을</w>
무시 하고</w>
방해 )</w>
내세 워</w>
차례 나</w>
체감 하는</w>
인가 .</w>
군포 시</w>
선거법 상</w>
대주 주의</w>
.,정치, 2,2020-03-17</w>
진출 을</w>
정우 택
경제부총리 ,</w>
명확 한</w>
아산 정책
예측 할</w>
강도 적인</w>
형성 되고,</w>
4· 15
일제 강점기</w>
대장 ,뉴시스,2020.01.02.</w>
이건 리</w>
있느냐 는</w>
,https://news.naver.com/main/read.nhn?mode=LS2D&mid=shm&sid1=100&sid2=269&oid=081&aid=000 307
권은 희</w>
미군 기지</w>
급속 도로</w>
ju py
남측 을</w>
역설 했다.</w>
금지법 '으로</w>
돌려 놓
고맙 습니다.</w>
맥락 !</w>
여부 도</w>
존엄 과</w>
1+ 1+
프레시 안</w>
hw a
일축 했다.</w>
민주당· 바른미래당·정의당·
서병 수</w>
고체연 료</w>
new est
낙동 강</w>
이종걸 ·박범
psy5179@news1.,정치, 0,2020-03-16</w>
지소미 아
zeni ,정치,0,2020-03-17</w>
high15 @news1.,사회,0,2020-03-17</w>
탈바 꿈
_list .mo
,2020-01-02 ,2020년</w>
tomain_info _
패러 다
.0404.go.kr/ dev/
마부 뉴스</w>
newest _list.mo
.0404.go.kr/dev/ newest_list.mo
' 20
' 한국</w>
' 청년
' 패트</w>
1 만</w>
3 사</w>
3 14
4 년
4 주
4 11
5 분</w>
6 일부터</w>
9 000
9 시부터</w>
n o
u st
· 인천
“ 국민</w>
“ 이런</w>
” 는</w>
… 문</w>
가 이
가 리지</w>
간 을</w>
개 설
개 국으로</w>
거 제
거 를</w>
걸 음
고 래
공 언
구 도로</w>
그 저</w>
그 쳤다.</w>
급 파
기 보다는</w>
끝 나면</w>
남 편
내 의</w>
내 리지</w>
느 낀</w>
단 독</w>
달 을</w>
답 답한</w>
당 파적</w>
대 조선
대 선을</w>
댓 글</w>
더 해주기</w>
되 던</w>
뒤 집을</w>
드 린</w>
등 산
뜻 이다.</w>
량 의</w>
려 온</w>
루 마
리 스
면 제
모 레
모 은</w>
목 사가</w>
무 마
묶 인</w>
문 자를</w>
박 인
발 목
방 해,</w>
범 위
범 투
보 상</w>
보 험</w>
북 부</w>
분 파적</w>
불 이</w>
사 정
삼 는</w>
상 영
서 류를</w>
세 입
세 배를</w>
소 리를</w>
수 감
수 평
순 서가</w>
습 게</w>
시 에는</w>
실 습
실 현</w>
십 니까
쓸 하기</w>
안 된다고</w>
압 축
여 군</w>
여 정을</w>
연 구</w>
열 려
오 전
올 리는</w>
완 수</w>
우 습게</w>
원 혜영</w>
위 ·
이 다,</w>
인 (
읽 어
잡 힌</w>
장 성
장 씩</w>
재 입당을</w>
조 건을</w>
좌 파</w>
주 기
중 령
증 가</w>
증 액</w>
지 린
진 작
진 천
집 회에</w>
참 관</w>
충 격을</w>
취 해</w>
취 업</w>
친 다.</w>
커 다
탄 력
탑 건
테 크
통 을</w>
특 집</w>
판 정</w>
팽 개
편 을</w>
폭 로
표 기
형 의</w>
호 치
화 답
환 담</w>
환 자에</w>
정치 개혁을</w>
의원 ·
이라 고까지</w>
3: 35
미래 차</w>
장관 으로</w>
추가 돼</w>
1.0, 3.0,
.0,, 3.0</w>
청와대 ,</w>
상황 입니다.</w>
으로 선</w>
'[ 박형준
대한 상의</w>
29 ,2020-03-17</w>
36 4
필요 합니다.</w>
신년 사는</w>
신년 회에서</w>
생각 은</w>
\' 코로나19</w>
의료 인</w>
25 9
방역 하는</w>
평화 에</w>
평화 로운</w>
방문 했다.</w>
방문 하는</w>
공개 하겠다고</w>
언급 도</w>
바른미래 당,</w>
제공 하고</w>
이어 지면서</w>
기업 투자촉진</w>
공동 대표</w>
통과 되면</w>
확인 했다.</w>
독립 과</w>
23 1
나가 기</w>
부산 ·경남
돌아 온</w>
획정 안이</w>
방식 은</w>
산업 진흥
역할 과</w>
고려 하지</w>
부족 ,</w>
대구시 에</w>
체계 에</w>
현실 ,</w>
심판 이라는</w>
대학 원
영입 한</w>
받았 다.',</w>
받았 습니다.</w>
부정 선거</w>
처음 으로,</w>
위협 하는</w>
,https://news.naver.com/main/read.nhn?mode=LS2D&mid=shm&sid1=100&sid2=269&oid=003&aid=000973 17
탄도미사 일
한다 라고</w>
교통 사고
전략공천 하기로</w>
거론 한</w>
이겨 시
김현 정의</w>
활용 하는</w>
보건복지 부에</w>
언론 의</w>
스스 로의</w>
온라 인을</w>
라이 베
아이 들의</w>
3:0 6,,"</w>
yu l
정치권 은</w>
파악 됐다.</w>
내놓 았다.</w>
9:5 4,,"</w>
사례 도</w>
기득 권의</w>
(왼쪽 )이</w>
유권 자의</w>
무력 으로</w>
부사령 관을</w>
포항 의료원</w>
소상공인 ,</w>
조성 렬</w>
동맹 을</w>
선정 된</w>
흑석 동이</w>
국면 에</w>
제3 지대</w>
출국 하고</w>
억제 된</w>
신용 보증
사무총 장을</w>
급증 으로</w>
대대 장</w>
코로나바이러스 (코로나19)</w>
경험 과</w>
:30, "
김경 수</w>
기억 하고</w>
경청 하고</w>
자기 의</w>
시한 인</w>
단식 중인</w>
이미 지출
하셨 던</w>
",파이낸셜뉴스 ,2020.03.05.</w>
11&aid=000 367
기초 로</w>
,https://news.naver.com/main/read.nhn?mode=LS2D&mid=shm&sid1=100&sid2=269&oid=009&aid=0004 527
",아시아경제 ,2020.03.05.</w>
",아시아경제 ,2020.03.02.</w>
정례 브리핑을</w>
호흡 기</w>
알려졌 습니다.</w>
본선 행</w>
'\n\t\n\t[ 머니투데이</w>
주인 공
당권 파
금융소비 자</w>
단호 히</w>
미디어 오늘
(C G)</w>
몰디 브</w>
추미애 ,</w>
선생 의</w>
따뜻 하게</w>
관여 한</w>
정태 옥</w>
모스크 바</w>
극단 적인</w>
적임 자
고소 ·
'◎\xa0 진행자
하명 수사</w>
부정부 패</w>
상용 화
스위 스
근간 인</w>
reserv ",정치,
만세삼 창을</w>
당무 에</w>
부끄러 운</w>
알고 싶
phonalist @news1.,정치,0,2020-03-17</w>
에어크래 프트</w>
직격 탄을</w>
3ㆍ1 절</w>
공수처( 고위공직자범죄수사처
[연합 ]',</w>
'이광 재</w>
우즈 베키
윤호 중</w>
에이브럼 스</w>
gye .com',</w>
매여 있을</w>
'[박형준 ]</w>
이미지출 처
'◎\xa0진행자 \xa0>\xa0
' 권</w>
' 자유한국당</w>
' 공천</w>
' 현재</w>
' 우리는</w>
' 옥중</w>
' 청와대의</w>
' 백두혈통
( e
2 2일</w>
4 18
4 명을</w>
5 명을</w>
7 ~
< 앵커
A I</w>
E lement
H A
O T
\ ',</w>
b a
d i
g e
k m</w>
k hy
‘ 마스크</w>
‘ 코로나</w>
‘ 공정
‘ 확실한</w>
감 에</w>
개 시
거 머
거 고</w>
걸 릴</w>
계 '</w>
고 시
관 도</w>
교 환</w>
극 한</w>
금 고</w>
금 자리</w>
길 이다.</w>
김 문
김 원이</w>
깨 고</w>
끝 났
끝 나는</w>
끝 내고</w>
나 …
남 는</w>
내 면서</w>
내 놓고</w>
노 린</w>
다 섯
단 양
단 순</w>
단 상으로</w>
대 방
대 안을</w>
대 병원</w>
도 리
도 쿄</w>
됐 지만,</w>
들 면</w>
라 면서도</w>
로 지</w>
마 당
만 명</w>
말 이다.</w>
말 라고</w>
맹 비난했다.</w>
못 해
무 기로</w>
물 음에</w>
미 만</w>
범 위를</w>
변 동</w>
보 가</w>
보 금자리</w>
부 재
분 출
불 렀
비 아
비 협조
빌 리
빠 짐
석 에</w>
선 명
선 영
설 에</w>
세 금을</w>
소 지가</w>
수 록,</w>
승 인을</w>
시 위를</w>
신 대
실 ,</w>
실 태</w>
쏘 아
애 를</w>
야 망
양 산</w>
양 국이</w>
얻 을</w>
엄 정한</w>
없 던</w>
연 연
연 은</w>
염 려
예 우
예 외</w>
오 로지</w>
왔 다며</w>
외 치고</w>
우 ,</w>
우 ·이
원 재
웨 이
유 동
윤 관
이 성
입 영을</w>
자 …
자 ""고</w>
장 거리</w>
장 소를</w>
적 발
전 진</w>
점 과</w>
정 병
정 례</w>
정 소영</w>
제 정
제 치고</w>
제 주도
졌 다”고</w>
조 와</w>
조 력을</w>
좁 혀
중 견
중 구
중 립
중 점을</w>
즉 각
지 켰
지 킨</w>
쪽 이</w>
찔 러
차 장
처 가</w>
청 취
초 선
충 주
취 하며</w>
치 른</w>
치 면서</w>
친 여</w>
키 르
타 워</w>
통 제</w>
트 에</w>
판 다고</w>
하 ,</w>
한 가
항 의</w>
해 이</w>
현 ·
확 대해</w>
"" 안</w>
100 년간</w>
뉴스 쇼
한국 으로</w>
3: 37
연합 훈련</w>
영상 ]</w>
\n\t "",</w>
지난 달
대구 경
공천 으로</w>
여러분 과</w>
국무 위원</w>
추가 "",</w>
al l
으로 만</w>
17 2
16 .0,
'[ 아시아경제</w>
'[ 디지털뉴스
사회 통합,</w>
35 7
전략 이</w>
37 ,2020-03-17</w>
27 ,2020-03-17</w>
통합당 에서</w>
설명 한</w>
확진 자와</w>
39 1
39 ,2020-03-17</w>
\' 고</w>
2.0, 0.0,
50 여</w>
전문 성과</w>
들어 갔
들어 오
임명 되자</w>
비판 하며</w>
정세 의</w>
강화 했다.</w>
40 %
시작 할</w>
시민 을
시민 들을</w>
예비후보 도</w>
내용 이다.</w>
,https://news.naver.com/main/read.nhn?mode=LS2D&mid=shm&sid1=100&sid2=269&oid=0 20&aid=000326
나라 ,</w>
나라 와</w>
확인 을</w>
노력 은</w>
3.0, 4.0,
포함 해서</w>
간담 회에</w>
금지> \n\t"",</w>
나가 지</w>
전체 회의(
마련 을</w>
마련 해야</w>
31 일
하나 는</w>
과정 이</w>
강경 한</w>
2. 1
희망 보금자리</w>
단체 와</w>
발생 했다.</w>
말씀 은</w>
항공 사</w>
비난 하는</w>
국정 운영
76 9
\r \n</w>
김진 태
투입 돼</w>
:38 ,,"['\n\t',</w>
페이스북 '</w>
마음 뿐일</w>
지켜 야</w>
2:5 8,,"</w>
수준 에</w>
인천 함
업무 계획</w>
시험 에</w>
하자 ”고</w>
민식이 법'</w>
컷오프 된</w>
설치 해</w>
비행 을</w>
지속 적인</w>
시점 이</w>
전투 와</w>
만들어 진</w>
국회의원 에</w>
주목 할</w>
김현 민</w>
김현 아</w>
봉사 활동</w>
가족 이</w>
규정 이</w>
지휘 를</w>
인정 하고</w>
아무 개
비서관 은</w>
소통 을</w>
시스템 으로</w>
도입 을</w>
대체 한</w>
시계 가</w>
않겠 다며</w>
정책조정 회의</w>
.5 %,</w>
불편 한</w>
,정치,행정,2020-03-04, 코로나19</w>
11:4 4,,"</w>
항의 했다.</w>
새누리 당이</w>
김일 성·
이주 영
바람 이</w>
평양 에서</w>
저희 는</w>
보유 하고</w>
상생 을</w>
사퇴 했다.</w>
살펴 보는</w>
차지 하는</w>
소리 (VOA
사무총 장</w>
불법 적인</w>
게시 판
카드 로</w>
대외 선전매체</w>
장애 인
정기 국회가</w>
,https://news.naver.com/main/read.nhn?mode=LS2D&mid=shm&sid1=100&sid2=266&oid=421&aid=0004 38
서구 을</w>
270 여명을</w>
,https://news.naver.com/main/read.nhn?mode=LS2D&mid=shm&sid1=100&sid2=269&oid=016&aid=00016 44
비교 해</w>
제조 업과</w>
환담 에서</w>
발열 검사를</w>
명확 하게</w>
농협 은행</w>
kim hyun
왜곡 된</w>
단수추천 을</w>
되겠 기에</w>
묵념 하는</w>
박수 치는</w>
항공편 을</w>
살피 고</w>
기로 만</w>
평안 남
""' 페이스북'</w>
여행객 에</w>
있나 ?</w>
jebo ",정치,
뚜렷 한</w>
한미동맹 을</w>
수류 탄이</w>
사우 스
상향 조정될</w>
================ ================
트위터 를</w>
하도 급</w>
친구 추가"",</w>
정태 호</w>
구독신청 ',</w>
국가안보전략 연구원</w>
신산업 에</w>
신산업 의</w>
깨끗 이</w>
떨어뜨 리려</w>
구속영 장을</w>
이산 가족</w>
보시 면</w>
스위 스</w>
필터 용</w>
십시오 .</w>
부임 지로</w>
정은 경</w>
중소기업중앙 회에서</w>
성신여 대에서</w>
뉴질 랜드
백승 주</w>
지역사랑 상품권</w>
김소 연</w>
대항 마
사개 특위</w>
먼지알지 !',</w>
모셔 올</w>
유엔총 회에서</w>
안쓰 럽
비무장지대(DMZ )</w>
욕심꾸러 기로만</w>
silver paper
명실 상
.0404.go.kr/dev/newest_list.mo fa
이미지출처 =연합뉴스]',</w>
빠짐 없이</w>
' 공정
' 이인영</w>
' 강한</w>
' 한편,</w>
' 존경하는</w>
' 모바
' hankyung
( 8
( T
( 비례
( 공동
, 한겨레
1 학
1 차관
1 3.0,,</w>
1 명은</w>
3 ,정치,국회/정당,2020-03-05,
3 조원</w>
4 12
5 29
5 .1
P D
S )</w>
p jh
s ince1999@newsis.com',</w>
“ 국민이</w>
각 급</w>
간 다는</w>
개 발사
건 과</w>
겠 다면서</w>
경 대
공 간</w>
공 방을</w>
구 할</w>
국 장이</w>
군 수</w>
군 소</w>
군 으로</w>
권 고</w>
규 명
규 합
규 ,</w>
그 곳이</w>
김 빈</w>
꺼 내</w>
남 측에</w>
놀 라
놔 야</w>
누 군
는 지에</w>
당 내에서</w>
대 독
대 만,</w>
도 심
동 남
듣 기</w>
등 으로부터</w>
래 의</w>
류 성
마 녀
맞 춘</w>
면 ·
면 으로</w>
모 았다.</w>
몰 라
묘 역을</w>
무 난
미 쳤
미 칼</w>
미 군이</w>
바 닥
박 았다.</w>
버 야</w>
병 력</w>
보 육
봤 습니다.</w>
부 진을</w>
부 시장이</w>
분 향하고</w>
불 법과</w>
브 루
사 안은</w>
살 릴</w>
상 근
상 점
상 당의</w>
생 각</w>
성 산
세 워
속 한</w>
송 영
수 순
수 칙
순 ,</w>
시 도한</w>
식 ·
신 규
실 린</w>
쓰 는데</w>
씨 에</w>
안 동
안 되는</w>
양 국은</w>
얘 기</w>
어 이</w>
업 ,</w>
었 다
었 을</w>
오 염
온 천
원 조</w>
원 장,</w>
원 동력
유 행
윤 희
융 합
을 지</w>
읍 에</w>
의 아
의 결정
인 식</w>
인 물을</w>
일 대
읽 는</w>
임 의</w>
자 들에</w>
재 단
적 일</w>
전 방</w>
접 어
제 일
제 임
제 고를</w>
중 순
지 나지</w>
진 ·
진 출</w>
집 회
찍 은</w>
천 금
청 과</w>
체 온</w>
총 장,</w>
최 정
최 지
추 를</w>
출 격
충 성
케 미칼</w>
터 치</w>
투 르
트 라우
특 성
파 탄
편 만</w>
편 성을</w>
표 명</w>
품 이</w>
하 냐
함 정</w>
합 성</w>
합 류를</w>
핵 시험
혼 자</w>
황 주홍</w>
회 귀</w>
.c ,정치,0,2020-03-17</w>
"" 모든</w>
"" 오늘</w>
"" 그러나</w>
"" 저는</w>
코로나 로</w>
19 3개
의원 직을</w>
한국 인은</w>
21 3
통합 은</w>
10 여</w>
10 명이</w>
선거 인
공감 하는</w>
서울 시는</w>
경제 성장과</w>
공천 한</w>
감염 을</w>
.0,, 0.0</w>
중앙 선관위</w>
22 3호
'\n\t']",정치, 6,2020-03-16</w>
35 4
37 2
27 4
아니 다”라고</w>
진행 하지</w>
정의 당과</w>
선언 과</w>
,정치,정치일반,2020-03-02, 마스크</w>
의료 지원</w>
군사 정보보호
사람 도</w>
방역 ·
수사 와</w>
비판 의</w>
기자회견 에</w>
·경 기</w>
40 대의</w>
시작 하겠
추경 안이</w>
특별 경비
,,, 5.0,,</w>
추진 을</w>
기소 권을</w>
00:5 2:5
00:5 2:0
책임 론을</w>
공동 대표】
33 2
사업 과</w>
재난 을</w>
세계 적인</w>
분석 해</w>
분석 한</w>
지역구 가</w>
00:4 9:0
창당 하는</w>
촉구 했습니다.',</w>
돌아 보고</w>
지금 부터</w>
하나 도</w>
협의 하고</w>
강원 지사가</w>
중단 했던</w>
합동 브리핑을</w>
센터 에</w>
확정 되지</w>
안정 ,</w>
변호 사의</w>
70 9
산업 의</w>
국정 조사</w>
참배 ",연합뉴스,2020.01.02.</w>
05:1 5
05:1 6
영향 으로</w>
의사 와</w>
1주 년</w>
56 5
여행 금지</w>
여행 경보</w>
업무 보고를</w>
법률 안</w>
판매 처를</w>
지속 될</w>
지속 하고</w>
간호사 들이</w>
시점 이라고</w>
기대 하고</w>
전략공천 설이</w>
우선 추천
함께 한</w>
기록 한</w>
봉사 활동을</w>
관측 이다.</w>
질의 하고</w>
고민 하고</w>
시사 저널
김종 대</w>
,https://news.naver.com/main/read.nhn?mode=LS2D&mid=shm&sid1=100&sid2=269&oid=001&aid=001144 0
파악 해</w>
대안 신
둘러 보고</w>
이정 미</w>
전화 통화를</w>
전화 걸기</w>
대결 로</w>
의석 이</w>
.7 %
2주 택</w>
지급 하는</w>
부처 에</w>
당선 됐다.</w>
(오른쪽 )이</w>
고위공직자범죄수사 처</w>
동맹 의</w>
인사청문 회를</w>
원내수석부 대표
다가 오
친박 계</w>
배치 되는</w>
시급 하다고</w>
송구 스럽게</w>
사무총 장이</w>
등장 했다.</w>
경험 을</w>
바라 보고</w>
아동 학
하태 경
병역 거부
,https://news.naver.com/main/read.nhn?mode=LS2D&mid=shm&sid1=100&sid2=264&oid=001&aid=001144 8
3.0,1.0, 1.0</w>
질병관리본부 와</w>
연장 선
,https://news.naver.com/main/read.nhn?mode=LS2D&mid=shm&sid1=100&sid2=267&oid=001&aid=00114 47
통제 하고</w>
",아시아경제 ,2020.01.02.</w>
저항 은</w>
봉오 동,</w>
모임 인</w>
서울중앙 지검</w>
김민 우</w>
의장 국이</w>
정상회담 에서</w>
자료사진 ]',</w>
격상 했다.</w>
여행객 의</w>
병진 노선</w>
가격 이</w>
홈페이지 (www
정미 경</w>
북강서 을</w>
지혜 와</w>
,MBC ,2020.03.05.</w>
기자간담회 하는</w>
케이뱅 크</w>
물론 이고</w>
온라인 뉴스
남해 지방
서면 브리핑을</w>
공업 ,</w>
,머니S ,2020.03.05.</w>
성금 과</w>
트위터 에</w>
선전선동 부</w>
열린 민주당
호국 영령
대선주 자</w>
부통 령은</w>
국군대구병원 은</w>
아세안 과의</w>
open @hankyung
양극 화를</w>
소프트웨 어
선거법· 공수처법</w>
기습 적인</w>
상하 이
양국 간</w>
초국경 적인</w>
DU R
,,뉴시 ,정치,0,2020-03-17</w>
일한 경</w>
북핵외교안보 특별위원회</w>
법질 극
만약 에</w>
정미경· 신보라</w>
커다 란</w>
알고싶 냐?</w>
찔러 서</w>
.0404.go.kr/dev/newest_list.mofa )에서</w>
'모바 일한경</w>
'hankyung .com',</w>
의결정 족
' 한
' 민</w>
' 이다.</w>
' 외교부는</w>
' 공관위는</w>
' fn
' 레드라인
( 전</w>
( 민주당
( 29
( .k",정치,0,2020-03-17</w>
- 원내대표</w>
1 시</w>
5 .0,,1.0</w>
6 0</w>
6 80
6 ,,,1.0,,</w>
8 일
9 27
T o
a l</w>
f ine
j a
l my
“ 안철수</w>
北 김정은</w>
가 졌
가 동</w>
개 회
객 원
거 두
거 행
거 라는</w>
것 들이</w>
격 차는</w>
계 절
고 스
고 개</w>
고 려</w>
공 채</w>
과 태
관 문
관 측</w>
국 한
굴 복
기 강
기 찬</w>
기 ,정치,0,2020-03-17</w>
김 우
김 건</w>
끈 다.</w>
끌 고</w>
낮 추
노 조</w>
단 기
단 비</w>
덕 분에</w>
돌 을</w>
돼 있다.</w>
됐 다
됐 으며</w>
들 지</w>
들 게</w>
등 에게</w>
래 도</w>
마 르
막 으
말 한다.</w>
망 국적</w>
맞 섰
맡 기도</w>
명 )</w>
명 에서</w>
모 금</w>
몸 으로</w>
못 지
무 능한</w>
문 경
민 갑
바 브
반 의</w>
반 하는</w>
발 끈
방 산업
배 송
배 분</w>
번 은</w>
번 영</w>
보 편
보 조금</w>
복 합</w>
부 서
불 응
불 의
불 가능한</w>
사 스
사 과의</w>
상 원</w>
생 계
생 긴</w>
설 훈</w>
섬 멸의</w>
소 명
손 실
수 천
실 마
쏘 아</w>
양 구
여 명으로</w>
오 래
욕 을</w>
원 천</w>
음 ,</w>
이 경
이 준
이 탄
이 외</w>
이 나마</w>
인 지도
입 장,</w>
잇 달아</w>
재 를</w>
전 념
전 은</w>
전 역</w>
전 보다</w>
정 비</w>
제 기</w>
져 야
조 국으로</w>
조 해진</w>
졸 렬
주 장은</w>
진 지
질 본</w>
짐 바브
찾 았
찾 으
총 괄</w>
최 상
최 다</w>
추 정</w>
침 투
카 ,</w>
컨 설
크 지</w>
탈 법을</w>
택 시</w>
특 금
팀 ]',</w>
판 사
평 택</w>
포 스
하 달
한 다”는</w>
한 산한</w>
합 심
해 제를</w>
해 봐야</w>
향 해서는</w>
현 상</w>
현 안을</w>
혈 액
활 약
후 속
힘 들고</w>
20 21
20 35
2020 년에</w>
,정치, 2,2020-03-17</w>
26 1
위원 이</w>
19 :19
19 51
대표 (
대표 ,뉴시스,2020.01.02.</w>
.0, 9.0,
국회 의원의</w>
21 .0,
3: 48
통합 만이</w>
10 %</w>
", 한겨레
후보 자로</w>
다"" 면서도</w>
기자 단</w>
대구 고검
공천 심사
가치 에</w>
인사 와</w>
인사 인</w>
인사 들도</w>
un hwa
2019 년에</w>
상황 도</w>
상황 에서도</w>
하기 에</w>
하기 는커녕</w>
국방 부가</w>
가능 할</w>
가능 하고,</w>
국가 유공
국가 혁신과</w>
38 8
행정 관은</w>
조치 라고</w>
27 2
미국 도</w>
총선 까지</w>
노동 자들은</w>
대해 서
필요 로</w>
문제 ,</w>
생각 할</w>
,정치,정치일반,2020-03-05, 코로나19</w>
2.0, 3.0,
2.0, 1.0,</w>
결정 된</w>
전문 병원</w>
보수 ·
평화 교섭
일보 ,</w>
수사 지휘
확산 하고</w>
40 9
시작 …
,https://news.naver.com/main/read.nhn?mode=LS2D&mid=shm&sid1=100&sid2=269&oid=003&aid=00097 41
결과 도</w>
00:5 4:0
00:5 4:5
,https://news.naver.com/main/read.nhn?mode=LS2D&mid=shm&sid1=100&sid2=269&oid=0 14&aid=000435
나라 ’를</w>
제1 야당</w>
공동 의</w>
입장 에선</w>
계획 이다.',</w>
조사 (
기관 인</w>
것이 냐
시키 겠다는</w>
협력 도</w>
한반도 에</w>
00:4 9:5
23 번째</w>
교수 를</w>
자리 하고</w>
획정 위가</w>
본부 장,</w>
비상 근무
안정 과</w>
운동 으로</w>
유지 했다.</w>
제출 하는</w>
예상 보다</w>
부족 해</w>
외국 에서</w>
공급 할</w>
해주 셨
보호 하는</w>
:36 ,,"['\n\t',</w>
응답 자</w>
응답 률을</w>
있다. ,정치,0,2020-03-17</w>
,https://news.naver.com/main/read.nhn?mode=LS2D&mid=shm&sid1=100&sid2=269&oid=003&aid=000973 28
전해 철</w>
추천 관리
거리 두
당직 자를</w>
늘어 날</w>
민간 이</w>
���� �</w>
3:0 7,,"</w>
,https://news.naver.com/main/read.nhn?mode=LS2D&mid=shm&sid1=100&sid2=269&oid=001&aid=001144 17
하라 .</w>
역사 상</w>
소득 이</w>
주도 할</w>
기본 적인</w>
것인 데</w>
,https://news.naver.com/main/read.nhn?mode=LS2D&mid=shm&sid1=100&sid2=265&oid=001&aid=0011 44
하루 만에</w>
선관 위가</w>
단수 공천을</w>
,https://news.naver.com/main/read.nhn?mode=LS2D&mid=shm&sid1=100&sid2=265&oid=421&aid=000438 7
.7 %,</w>
11:1 2,,</w>
순천 시의</w>
통상 일정
포인트 가</w>
일어 나</w>
기대한 다며</w>
따라 가지</w>
허용 하지</w>
의결 했다.</w>
=뉴시스 】
교체 를</w>
종교 적</w>
내세 웠다.</w>
2000 년</w>
""( 서울=뉴스1)</w>
방지 하기</w>
강원도 당</w>
인터넷전문은행 법을</w>
아동 양육</w>
(www .k
'비례 용</w>
행보 로</w>
KT A)
물러 나는</w>
자랑 스럽게</w>
",파이낸셜뉴스 ,2020.03.02.</w>
우체국 에서</w>
맞추 며,</w>
보기 ▶]</w>
종식 시키고</w>
국무회의 서</w>
말아 주셨으면</w>
현충탑 에</w>
화력타격 훈련
스( TF
존중 하는</w>
공간 이</w>
장거리포병구분 대들의</w>
모델 을</w>
카자흐 스탄
내비 친</w>
살피 는</w>
이제 까지</w>
참관 하고</w>
훼손 하는</w>
전수 조사를</w>
일관 되게</w>
권성 중</w>
이슈 가</w>
김지 현</w>
느끼 지</w>
&oid=005&aid=000 1295
춘추 관에서</w>
",머니S ,2020.03.05.</w>
김무 성
생산량 의</w>
침묵 으로</w>
,더팩트 ,2020.03.02.</w>
참전 용
파주 시</w>
.k,정치, 0,2020-03-16</w>
감사위원 에게</w>
유사 한</w>
'임 한별</w>
해명 했다.</w>
국무조정 실</w>
나이지 리아,</w>
컷오프(공천배제 )
초기 부터</w>
확고 히</w>
3:21 ,,"</w>
3:09 ,,"</w>
,https://news.naver.com/main/read.nhn?mode=LS2D&mid=shm&sid1=100&sid2=266&oid=001&aid=0011 44
안장 할</w>
다당 제</w>
AR S</w>
서울- 세종</w>
대승 적으로</w>
그랜드 호텔에서</w>
\r\n\t\t\t\t\t\t this.
과방 위</w>
타이 밍
무책임 한</w>
증거장막성전(신천지 )</w>
성윤 모</w>
인프라 를</w>
빙자 한</w>
doso7 @',</w>
,https://news.naver.com/main/read.nhn?mode=LS2D&mid=shm&sid1=100&sid2=269&oid=087&aid=0000 78
어르 신
태스크포 스(TF
[영상 보기▶]</w>
미지수 다.</w>
&amp; #
이채 익</w>
일부터 는</w>
국무총리( 중앙재난안전대책본부
@se gye.com',</w>
얼음 조
대구- 서울-세종</w>
미국의 소리(VOA
khy @fnnews.com</w>
윤관 석</w>
'fn khy@fnnews.com</w>
lmy @newsis.com',</w>
' 일
' 지난달</w>
' 한국인</w>
' ",뉴시스,2020.01.02.</w>
' 공정사회</w>
' 친문</w>
' 시민을</w>
( K
( 미국
1 개
1 일,</w>
2 ,</w>
3 15
3 ,정치,정치일반,2020-03-05,"
3 법과</w>
4 19
5 18
6 .
6 두
6 48
: 00:5
@ s
E C
T e
l ine
“ 황</w>
“ 정부</w>
“ 황교안</w>
“ 저는</w>
가 해
가 라고</w>
간 소
간 ,</w>
격 차가</w>
계 류
계 ,</w>
계 로</w>
고 배를</w>
곤 두
구 )</w>
구 하지</w>
군 )</w>
글 이</w>
기 인</w>
끌 었다.</w>
남 겼
높 다는</w>
단 지를</w>
대 답
대 우
두 루</w>
들 여</w>
련 의</w>
로 에</w>
룸 버
마 침
마 시고</w>
막 았
매 몰
못 했
무 진</w>
문 진을</w>
방 점을</w>
방 법은</w>
버 리면</w>
변 동
보 람
보 낼</w>
보 십니까?</w>
복 당
부 적절
북 측</w>
분 들에게</w>
블 룸버
비 율</w>
산 시
산 이</w>
선 조
성 폭력</w>
성 착취</w>
세 금</w>
소 나
소 설
소 련</w>
속 개
속 하는</w>
수 위
스 퍼
시 당
신 남
안 에
않 다""고</w>
않 습니까?</w>
알 리고</w>
약 간의</w>
양 무진</w>
얘 기는</w>
억 원의</w>
얻 었다.</w>
없 다'는</w>
역 사</w>
역 사가</w>
연 포</w>
연 습</w>
열 화상</w>
예 배</w>
외 로
외 출
요 미
요 즘</w>
용 으로</w>
음 압</w>
의 대에서</w>
이 겨</w>
이 사가</w>
이 대로라면</w>
임 상
임 해
임 기가</w>
입 성
잘 하는</w>
잘 못하고</w>
전 폭
전 하며</w>
정 국
제 고
제 약
제 천
제 작</w>
주 면서</w>
중 ”이라고</w>
쥐 고</w>
지 명
지 적</w>
지 면을</w>
천 안을</w>
촉 각을</w>
최 경
출 현
키 로
탈 락</w>
통 위</w>
편 으로</w>
평 창</w>
하 다,</w>
한 신
한 눈에</w>
합 을</w>
해 석</w>
허 가를</w>
협 박
혼 란</w>
활 기찬</w>
후 에는</w>
20 7
"" 그
"" 이런</w>
대표 적</w>
의원 )</w>
",정치, 6,2020-03-17</w>
영상 통화
국민 이라</w>
위원장 으로</w>
외교 안보</w>
외교 부와</w>
경제 정책
감염 자</w>
청와대 로</w>
3. 3
30 3개
우리 나라가</w>
비례 연합
하기 가</w>
으로 밖에</w>
28 1
28 2
관련 해서도</w>
그러 한</w>
전략 에</w>
전략 으로</w>
전략 지역으로</w>
27 로</w>
진행 된다.</w>
발표 하지</w>
발표 했다.',</w>
정책 실장</w>
정의 선
선언 이</w>
선언 하면서</w>
,정치,정치일반,2020-03-02, '
법무 장관이</w>
\' 이라는</w>
,정치,정치일반,2020-01-02, 문</w>
사람 들
들어 가</w>
지도 자들이</w>
민생 법안은</w>
격리 자는</w>
공개 하지</w>
결과 다.</w>
00:5 5:0
임시 정부의</w>
지적 하며</w>
대화 에</w>
시간 만</w>
국무총리 ,</w>
국무총리 ,연합뉴스,2020.03.05.</w>
'▶ [
알려 지며</w>
기획 조정
준비 에</w>
46 6
안보 와</w>
않았 고,</w>
혁신 ,</w>
혁신 적</w>
통일 전선
생활 비</w>
선거구 의</w>
비서 실</w>
피해 자를</w>
방식 이다.</w>
이유 다.</w>
확정 지
이야 기도</w>
안정 에</w>
안정 적으로</w>
차관 )이</w>
운동 에</w>
김병 준
때문 으로</w>
않는 다”며</w>
:20 ,,"['\n\t',</w>
의사 로서</w>
검사 ·
마음 대로</w>
지켜 주는</w>
복귀 한다.</w>
선택 할</w>
권력 형</w>
영입 행사에</w>
경우 도</w>
방송 이</w>
자료 에서</w>
업무 보고</w>
범죄 의</w>
응답 률은</w>
졸업 하고</w>
해야 …
해야 ""',</w>
국회의 장은</w>
만들어 서</w>
추천 했다.</w>
전략공천 했다.</w>
담화 가</w>
보건복지 부에서</w>
공관위 에서</w>
언론 에서</w>
스스 로가</w>
:12 ,,"['\n\t',</w>
계속 되고</w>
경기 ·인천
목표 는</w>
방사포 의</w>
82 ,</w>
누구 보다</w>
경고 한</w>
사고 에</w>
과거 의</w>
존재 한다는</w>
정책위의 장
철회 하지</w>
선관 위,</w>
완화 할</w>
,https://news.naver.com/main/read.nhn?mode=LS2D&mid=shm&sid1=100&sid2=268&oid=001&aid=0011 309
압박 하는</w>
여론조사 (
가져 올</w>
사랑 과</w>
자동 응답</w>
사망 자</w>
의학 박사를</w>
중· 영도
박근혜 ,</w>
원주 에서</w>
법무부 와</w>
이인영 (가운데)</w>
방해 )를</w>
10:0 2,,"</w>
급증 하는</w>
3호 '인</w>
대대 적</w>
탈락 했다.</w>
행태 가</w>
이날 도</w>
노선 으로</w>
러시아 ,</w>
절실 하게</w>
도착 비자</w>
하늘 을</w>
맞이 하는</w>
비서실 장을</w>
중대본 의</w>
",파이낸셜뉴스 ,2020.03.01.</w>
감독 자라고</w>
,https://news.naver.com/main/read.nhn?mode=LS2D&mid=shm&sid1=100&sid2=267&oid=001&aid=00114 50
승객 을</w>
의원총 회</w>
이례 적인</w>
조선중앙TV 는</w>
왜곡 하는</w>
,매일경제 ,2020.03.02.</w>
확신 한다고</w>
'\n\t\n\t[ 서울신문]',</w>
회원 국(
,한국경제 ,2020.03.05.</w>
자금 과</w>
노영 희의</w>
역량 이</w>
시무식 서</w>
",세계, 0,2020-03-17</w>
이낙연 ,</w>
어제 (4일)</w>
선거대책 위원장인</w>
노원 구</w>
위원회( 본청</w>
논리 에</w>
컷오프( 공천</w>
특혜 를</w>
위생 성</w>
2.0 ,,,</w>
상한 선을</w>
외면 하고</w>
민경 욱
도시락 이</w>
초대형 방사포</w>
,https://news.naver.com/main/read.nhn?mode=LS2D&mid=shm&sid1=100&sid2=269&oid=079&aid=0003 30
적격 성</w>
나이지 리아
부정부 패
비호 하는</w>
빈틈 없이</w>
거짓말 쟁
김일성 광장에서</w>
대전환 이</w>
공존 의</w>
다낭 총영사관</w>
F-35 A</w>
범정부 적</w>
윤곽 이</w>
합동군사연습 을</w>
중앙교육연수 원을</w>
AP/뉴시스 ]
국립서울현충 원에서</w>
순국선열 과</w>
신성 범</w>
대한항공 과</w>
악법 들이</w>
헬기로 프</w>
이강 래</w>
무작 위생성</w>
좌고우 면
이스라 엘
최대한 의</w>
성북구 의</w>
여유 가</w>
주승 용</w>
러브 콜
원재 료</w>
원동력 인</w>
투르 크
온라인뉴스 팀]',</w>
민갑 룡</w>
' 유
' 오늘</w>
' 비례대표</w>
' 2020년도</w>
' 당정은</w>
' 민식이법'</w>
' 터치</w>
( D
( 충북</w>
1 회</w>
1 ,,"
1 시간</w>
3 25
3 가지</w>
6 개월
9 천
: 00:4
A 수사
[ [
k o
o ut
· 네트워크
‘ 평화
“ 권력기관</w>
北 에</w>
가 라
가 의</w>
가 가</w>
가 겠다”고</w>
가 계약을</w>
강 사로</w>
거 울
거 센</w>
게 는</w>
결 성</w>
결 속</w>
겸 직</w>
계 좌
고 의
고 민</w>
곤 란
곳 (
공 론
공 격을</w>
과 업을</w>
관 례
구 (
구 민
구 사
구 성을</w>
기 만</w>
기 에는</w>
길 일지라도</w>
김 희
깨 달
끌 면</w>
끝 나
내 려</w>
내 고,</w>
넘 겨</w>
농 식품
는 지,</w>
다 하지</w>
단 위</w>
달 간</w>
담 겨
담 겨</w>
대 단
도 착</w>
돌 연</w>
동 과</w>
되 지만,</w>
뒤 로
따 져
때 의</w>
마 크
막 바
만 채</w>
메 니
명 절</w>
몰 고</w>
믿 습니다.</w>
발 행</w>
범 진보</w>
법 적으로</w>
법 원에</w>
보 게</w>
분 쟁
불 복
불 만</w>
비 위</w>
비 디오
사 지
사 안을</w>
산 재
생 겼
생 색
서 류</w>
석 ·
석 방
성 큼</w>
성 폭력
셔 도</w>
셔 야</w>
손 실</w>
송 부
수 술</w>
순 서
슬 기
신 사
신 서
실 패</w>
싶 다”고</w>
암 호
압 델</w>
앵 커</w>
엄 마
엄 격히</w>
없 애
없 지만,</w>
엘 리
여 개</w>
연 신
연 맹</w>
열 리지</w>
영 국
영 리
오 르는</w>
외 의</w>
왼 손으로</w>
요 인들이</w>
우 기</w>
운 이</w>
운 정동</w>
원 하지</w>
위 에서만</w>
유 남
의 중
이 남
이 곳</w>
이 룬</w>
인 )</w>
일 이라며</w>
잃 고</w>
임 대</w>
임 에도</w>
있 다'는</w>
있 고요.</w>
있 습니다."",</w>
장 군은</w>
재 수</w>
저 에게는</w>
저 성장과</w>
적 으로도</w>
전 과</w>
절 박
접 견
정 문에서</w>
제 의
제 청
제 정</w>
조 전
조 봉환</w>
줄 줄이</w>
지 하는</w>
질 러진</w>
창 궐
청 렴
청 춘을</w>
출 시,</w>
캐 롤
컨 대</w>
통 미
통 째로</w>
퇴 근
폭 정을</w>
표 방
풀 기</w>
프 리</w>
피 하기</w>
하 한
한 인
함 양
해 서라도</w>
했 어야</w>
헬 기를</w>
혁 명을</w>
화 재</w>
환 을</w>
회 장.</w>
후 손
휴 가</w>
휴 가를</w>
힘 들</w>
20 초</w>
.com )',</w>
19 50
대표 ,뉴시스,2020.03.02.</w>
대표 (오른쪽
국회 법에</w>
한국 민
한국 민</w>
21 5&aid=0000
3: 08
10 대</w>
10 분</w>
위원장 ,뉴스1,2020.03.05.</w>
미래 에</w>
북한 판</w>
지역 이다.</w>
밝혔 다
서울 ,</w>
기다 리는</w>
부( 부장
,https://news.naver.com/main/read.nhn?mode=LS2D&mid=shm&sid1=100&sid2=269&oid= 215&aid=0000
관계 와</w>
우리 당</w>
14 .0</w>
22 79
functio n
17 .0,,
16 개</w>
'[ 이미지출처=연합뉴스]',</w>
'\n\t']",정치, 8,2020-03-16</w>
29 3
35 2
출마 한다.</w>
37 3
27 5
진행 해왔
24 명</w>
입국 자를</w>
36 2
대해 ,</w>
39 5
처리 해야</w>
위원회 로</w>
,정치,정치일반,2020-03-05, 마스크</w>
34 6
34 8
1.0,, 4.0,,</w>
전문 가는</w>
보수 언론은</w>
임명 했다.</w>
,정치,청와대 ,2019-12-01,"
수사 권
강화 로</w>
평가 에서</w>
특별 위원장이</w>
개정 된</w>
공개 ,</w>
언급 …
메시 지도</w>
00:5 1:5
00:5 1:0
지적 한</w>
나라 에</w>
국민의 당을</w>
정상 회의</w>
사업 의</w>
치료 에</w>
치료 하는</w>
한반도 )</w>
있었 다”고</w>
있었 는데</w>
포함 되지</w>
준비 한</w>
우려 로</w>
00:4 8:5
창당 한</w>
촉구 하며</w>
23 명</w>
실시 를</w>
는데 …
부산 '</w>
면접 은</w>
세력 과의</w>
혁신 적으로</w>
여야 3당</w>
통화 …
확대 할</w>
확정 한</w>
발생 해</w>
국정 상황실
05:1 8
필리버스터 에</w>
않는 다""고</w>
느냐 '는</w>
울산 시의회</w>
중도 청년
투입 이</w>
나서 며</w>
제기 된</w>
제시 하고</w>
권력 에</w>
현실 적</w>
나타 냈
보호 를</w>
방송 에</w>
시험 발사
응답 자의</w>
혐의 없
의혹 은</w>
졸업 했다.</w>
국회의 장과</w>
주목 하고</w>
동의 할</w>
당정 ,</w>
대법 원</w>
고발 한</w>
고발 했다.</w>
:50 ,,"['\n\t',</w>
현재 로선</w>
5.0, 3.0,
드리 겠습니다.</w>
수행 에</w>
,정치,행정,2020-03-05, 마스크</w>
친서 가</w>
진영 이</w>
제재 로</w>
일정 은</w>
구축 될</w>
아무 래도</w>
없어 서</w>
김영 란
고용 안정</w>
누구 처럼
도입 ,</w>
대체 복무
주도 형</w>
접촉 이</w>
불구 속
.2 %로</w>
출발 해</w>
차단 ,</w>
시장 생태
정계 에</w>
받아들 이지</w>
환영 …
,https://news.naver.com/main/read.nhn?mode=LS2D&mid=shm&sid1=100&sid2=269&oid=003&aid=0009739 8
편성 해</w>
진정 성</w>
걱정 하는</w>
비전 회의에서</w>
1년 까지</w>
강행 할</w>
위성정당 에</w>
이인영 ·
전반 적으로</w>
차지 할</w>
일으 켜</w>
현장 지원
추구 하고</w>
행태 는</w>
재정 비
11:5 5,,"</w>
목격 할</w>
기울 어진</w>
육군 대장</w>
국군대전병원 과</w>
구조 와</w>
교류 협력</w>
전주 보다</w>
능력 만으로</w>
이익 만을</w>
여권 의</w>
현황 과</w>
춘천 시</w>
질병관리본부 에서</w>
제조 업체
부탁 드린다고</w>
대중 교통
무너 져
화력타격 훈련</w>
이끌 고</w>
김동 엽</w>
,https://news.naver.com/main/read.nhn?mode=LS2D&mid=shm&sid1=100&sid2=269&oid=008&aid=0004 37
하세요 ?</w>
청소 년</w>
채택 을</w>
글로 벌
광주시 당</w>
해상 에서</w>
묵념 을</w>
죄송 하다.</w>
이제 껏</w>
각계 각
금강 산
1958 9</w>
국민동의 청원은</w>
,https://news.naver.com/main/read.nhn?mode=LS2D&mid=shm&sid1=100&sid2=268&oid=02 5&aid=00029
629&aid=0000 00
사라 진</w>
울먹 이는</w>
울먹 이며</w>
,https://news.naver.com/main/read.nhn?mode=LS2D&mid=shm&sid1=100&sid2=265&oid=421&aid=000449 4
하노이 ·
,MBC ,2020.03.02.</w>
현대 자동차</w>
계급 장</w>
경산 시</w>
공방 이</w>
브라 질</w>
프랑 스</w>
선열 의</w>
독립선언 서
[속보] 文대통령</w>
어린이 집</w>
,KBS ,2020.03.05.</w>
국무위원들 ,뉴시스,2020.03.05.</w>
다니 는</w>
동시 다
인상 적
3:49 ,,"</w>
아닙 니다.</w>
대구시청 )</w>
일부개정법률안 (
32&aid=000298 39
청년우선 전략
용납 할</w>
호찌 민</w>
리병철 ,</w>
화해 와</w>
과기정통 부</w>
전· 현직</w>
국난 극복의</w>
국립외교 원</w>
일으켰 던</w>
불신 과</w>
클릭! ,정치,
컨트 롤
지점 장,</w>
억압 을</w>
2019.11 .
상무위원 회의에서</w>
국립5·18민주묘 지에서</w>
임정 엽</w>
바이오헬 스,</w>
the300 ]
(MI KTA)
In fo
군사정보보호 협정
안에 !"",</w>
투르크 메니
[[ the300]
거울 삼아</w>
' 한</w>
' 당</w>
' 정치
' 라며</w>
' 대구</w>
' 반드시</w>
' 이해찬</w>
' 반면</w>
( 한국당
- 2일</w>
1 일을</w>
2 회</w>
2 배</w>
3 24
4 단계</w>
5 20
7 명과</w>
L ab
M C
[ 그래픽
h j
u b
y un
· 인공지
’ …
“ 우리의</w>
“ 나는</w>
日 ,</w>
가 하고</w>
간 판을</w>
감 추
같 고</w>
건 축
겁 니까?</w>
것 ”,
경 멸
경 색</w>
계 의</w>
고 영
공 석</w>
과 반</w>
관 내</w>
국 과의</w>
귀 빈</w>
그 만</w>
금 소
기 '를</w>
기 세를</w>
김 관
김 구</w>
나 우루
남 겨</w>
남 소연
네 팔
높 음
높 아</w>
놓 는</w>
느 라</w>
늘 려</w>
늦 은</w>
다 들</w>
단 단히</w>
담 대한</w>
당 했다
대 형
독 재</w>
독 립</w>
돕 는</w>
되 찾
들 인</w>
땅 ,</w>
때 와</w>
똑 같이</w>
란 드,</w>
레 터
려 던</w>
로 켓
마 는</w>
목 요
목 으로</w>
목 적이</w>
몸 싸움을</w>
못 해낼</w>
무 역</w>
무 척</w>
민 원
밀 어
밀 양</w>
박 대
밖 에서</w>
반 입
반 발을</w>
방 영
백 신</w>
범 어
벽 을</w>
병 과</w>
보 장을</w>
북 극
불 시
불 가</w>
불 안정
사 수
살 을</w>
상 응
생 명</w>
석 동
석 면</w>
선 희</w>
성 일종
세 정
세 배하는</w>
소 장이</w>
속 셈
손 선희</w>
송 금
수 령
수 험
순 수한</w>
순 차적으로</w>
시 레이
신 앙</w>
실 정
싱 크
아 우
압 살
애 매
야 기
없 으며</w>
없 어야</w>
역 지사
연 대로</w>
열 리고,</w>
였 고</w>
영 업</w>
예 천</w>
오 프
올 리며</w>
왕 세
우 희
우 상호</w>
원 장
원 주</w>
웠 던</w>
유 례
의 사는</w>
이 론
이 자,</w>
일 까
임 박
잇 단</w>
자 '</w>
자 택</w>
자 꾸</w>
저 녁
저 와</w>
저 력이</w>
적 힌</w>
전 향
전 신</w>
제 5
제 명
제 도로</w>
졌 고,</w>
주 고,</w>
중 복</w>
중 소</w>
중 앙</w>
중 이거나</w>
줬 다.</w>
지 (
지 능
지 정을</w>
지 기도</w>
진 술
진 실</w>
채 워
천 안</w>
체 코
취 급
취 지와</w>
측 면
키 리
탈 당한</w>
터 무
터 져</w>
통 계</w>
퇴 출
파 기</w>
파 국으로</w>
편 집</w>
평 민</w>
평 소</w>
표 창원·
플 러
한 기
한 인</w>
한 탄은</w>
함 성이</w>
해 놓고</w>
해 달라며</w>
현 (
현 실에서</w>
홀 에서</w>
희 ·
20 05
"" 코로나</w>
"" 이만희</w>
"" 지금은</w>
위원 과</w>
국회 에서도</w>
국회 법을</w>
이라 고도</w>
민주 ·
뉴시스 ]</w>
11 :11,,"</w>
", SBS
장관 ,뉴시스,2020.03.02.</w>
12 .0,,
12 74
정당 '에</w>
47 .6
국무 부가</w>
보내 주고</w>
참석 자</w>
,https://news.naver.com/main/read.nhn?mode=LS2D&mid=shm&sid1=100&sid2=269&oid= 277&aid=000458
3. 7
상황 ,</w>
국방 부,</w>
가능 해</w>
뉴스1 과의</w>
국가 적인</w>
지원 했다.</w>
'[ MBN</w>
관련 이</w>
35 ㎞로</w>
전략 공관위에</w>
조치 의</w>
조치 에도</w>
24 1
24 3
24 ,2020-03-17</w>
발표 회에</w>
안전 하게</w>
정책 ,</w>
필요 성</w>
신년 회(
개혁 ,</w>
개혁 법안을</w>
처리 한다는</w>
결정 해야</w>
중국 으로</w>
보수 와</w>
방역 활동을</w>
평화 체제가</w>
사실 관계를</w>
수사 도</w>
,정치,국방/외교 ,2019-12-01,"
예정 이
비판 했습니다.',</w>
정세 는</w>
정세 가</w>
추경 안에</w>
특별 감찰
기소 됐다.</w>
13 명,</w>
최고위원 의</w>
교육 감</w>
,https://news.naver.com/main/read.nhn?mode=LS2D&mid=shm&sid1=100&sid2=269&oid=0 21&aid=00024
지적 했습니다.</w>
58 0
대화 하며</w>
국무총리 실</w>
공동 대표는</w>
통과 와</w>
통과 에</w>
입장 과</w>
확인 해</w>
조사 와</w>
국제 테러
시키 고자</w>
있었 지만,</w>
지역구 의</w>
우려 되는</w>
00:4 9:4
만들 면</w>
협의 에</w>
세력 으로</w>
않았 다.',</w>
감사 원은</w>
2. 8
제한 한</w>
피해 극복</w>
사건 이</w>
확대 하고,</w>
확정 되면</w>
이동 식</w>
er .
부족 으로</w>
지켜 보면서</w>
정신 적</w>
방침 이다.',</w>
인민 을</w>
금융 거래
위협 하고자</w>
컷오프 …
무엇 인
배제 된</w>
교통 정보
해야 ”</w>
해야 할</w>
국회의 장,</w>
경남 지사
그렇 습니다.</w>
·이 은
활용 하고</w>
공관위 ,</w>
홈페이 지에서</w>
위기 의</w>
부총리 ,뉴시스,2020.03.04.</w>
개선 되었습니다.</w>
보이 더라도</w>
분명 하게</w>
대북 제재를</w>
가족 을</w>
고발 장을</w>
조선중앙통신 에</w>
5.0, 1.0,</w>
전환 하는</w>
파견 하는</w>
구축 하고</w>
전쟁 에서</w>
정치권 에서는</w>
명령 이</w>
핵심 인</w>
.3 %</w>
청주 권</w>
근무 했던</w>
유권 자들이</w>
이종 철</w>
이종 덕</w>
철회 해야</w>
거부 할</w>
분열 시키는</w>
하루 라도</w>
의석 수</w>
의석 수를</w>
.8 %),</w>
가시 적</w>
통상 적으로</w>
압박 에</w>
허용 하기로</w>
해소 하고</w>
인식 의</w>
인식 으로</w>
실현 에</w>
선별진료 소에서</w>
라디 오
,https://news.naver.com/main/read.nhn?mode=LS2D&mid=shm&sid1=100&sid2=267&oid=001&aid=001144 8
감염병 과의</w>
법제사법 위원장인</w>
종교 시설</w>
간부 들과</w>
자유공화 당
자유공화 당은</w>
벌어 졌다.</w>
화상 면접</w>
급증 한</w>
코로나바이러스 감염증(코로나19)이</w>
아동 수당</w>
취재진 과</w>
다르 다.</w>
이행 에</w>
부의 되는</w>
옥중서신 을</w>
무산 된</w>
신보 라
,https://news.naver.com/main/read.nhn?mode=LS2D&mid=shm&sid1=100&sid2=269&oid=009&aid=0004 528
용인 시
아직 은</w>
데이터 ·네트워크
말씀드 렸
애국 심이</w>
,세계 일보,2020.01.02.</w>
스( 바이러스
육성 하는</w>
해양경찰청 장에게</w>
가슴 을</w>
아나운 서</w>
헌법재판 소에</w>
부합 하는</w>
순간 까지</w>
",조선 일보
매입 해</w>
,MBC ,2020.01.02.</w>
다탄 두
,헤럴드경제 ,2020.01.02.</w>
것” 이라면서</w>
회귀 를</w>
모니터링 을</w>
지지도 는</w>
지지도 가</w>
교민 을</w>
만만 찮
주먹 인사하는</w>
2조 4000
",MBN ,2020.03.05.</w>
자이 드</w>
기다리 겠다고</w>
구급 차
참담 함을</w>
상식 적으로</w>
228 호)</w>
국가혁명배당금 당은</w>
국가안보전략 연구원은</w>
끌어들 이지</w>
한상 혁</w>
최고위원회의( 국회</w>
엘살바도 르</w>
프로젝트 와</w>
중기 중앙회</w>
제1부 위원장과</w>
당당 히</w>
검찰총장 과도</w>
몰디브 ,</w>
포괄 적</w>
@chosun biz
민감 한</w>
인천국제공항 에서</w>
모름 ·무
3·1독립 운동</w>
김철 근</w>
정치외교 학과</w>
요충 지
국군화생방방호 사령부</w>
디자 인
2009 년</w>
최현 수</w>
,https://news.naver.com/main/read.nhn?mode=LS2D&mid=shm&sid1=100&sid2=267&oid=011&aid=00037 04
식민 지</w>
열렬 히</w>
증대 되고</w>
주요일정 ]
전임 강사로</w>
최배 근</w>
후진 에게</w>
이종걸·박범 계·
마당 이니</w>
silverpaper @news1.",정치,
제임 스</w>
고스 란히</w>
짐바브 웨
스퍼 드
좌고우면 하지</w>
슬기 롭게</w>
신년회( 대한상공회의소</w>
데이터·네트워크 ·인공지
% )과</w>
' 대한민국</w>
' 정치개혁연합
( R
( 마스크
) ·김
, 중앙일보
0 .0,2.0,
1 ∼
1 억
2 4</w>
3 37
3 일(현지시간)</w>
4 28
5 ,,
6 시
7 ,,
7 .0,1.0,
8 76
D -
M a
[ 파이낸셜뉴스]</w>
m s
p p
‘ 혁신
가 리
가 신</w>
가 지를</w>
간 다.</w>
감 면</w>
갑 질</w>
강 도를</w>
강 국의</w>
개 량
개 에</w>
것 이어서</w>
겨 우</w>
겸 허
공 백</w>
공 연</w>
과 이</w>
관 찰
광 장</w>
규 정한</w>
금 태
기 ·
기 레
기 록</w>
기 어이</w>
김 중
꺾 는</w>
나 흐
내 어
내 서</w>
내 며</w>
내 팽개
년 대</w>
노 형
높 일</w>
느 리게</w>
니 스</w>
단 위
달 러</w>
당 적을</w>
대 ·
대 접
대 여</w>
대 뉴스',</w>
동 향
동 일한</w>
됐 기</w>
됐 다가</w>
되 겠다고</w>
두 드러
띄 는</w>
라 카
레 바
르 바이
리 턴
리 라는</w>
마 드</w>
막 판</w>
많 고</w>
말 하며</w>
맹 세를</w>
메 인</w>
명 으로,</w>
못 하도록</w>
무 지
물 이니</w>
미 친</w>
박 사
박 차고</w>
반 출
방 지와</w>
배 포</w>
변 신
병 역</w>
복 락
부 득
부 동산
부 적격</w>
부 치던</w>
북 이</w>
북 측에</w>
분 담</w>
불 법을</w>
불 기소</w>
붙 여</w>
블 랙
비 박
비 ,</w>
삶 도</w>
삼 는다면</w>
상 해
새 정치
서 열</w>
선 결
성 전</w>
소 강
소 망
소 식에</w>
소 임을</w>
송 언
수 령</w>
스 에</w>
신 준
싶 다.</w>
안 으로는</w>
않 더라도</w>
양 당
어 디</w>
여 명,</w>
역 은</w>
연 이</w>
열 기</w>
영 내</w>
오 산
옮 길</w>
외 치는</w>
외 치며</w>
용 기와</w>
우 면서</w>
원 장과</w>
위 상이</w>
의 구
이 호
이 탈</w>
인 상</w>
임 지
잠 복
잠 잠
재 직</w>
저 장
저 런</w>
적 이
적 잖
전 했습니다.',</w>
접 속</w>
정 갑
정 총리</w>
조 광
조 항을</w>
좌 절
주 어진</w>
중 지를</w>
직 ·
직 결
직 면
진 (
질 서</w>
짐 작
집 결
집 주인
차 에</w>
채 취</w>
처 한</w>
첫 째,</w>
총 장이</w>
최 강
추 세가</w>
충 청</w>
취 지</w>
층 의</w>
친 서는</w>
코 이
크 고</w>
타 당
폭 스
표 적
풍 요와</w>
학 을</w>
한 동안</w>
한 다."",</w>
한 목소리로</w>
했 다""면서</w>
했 으니</w>
협 정</w>
호 ·
화 보병
효 율</w>
희 ,</w>
20 .0,
20 일까지</w>
.0 %,</w>
"" 민주당</w>
"" 정부</w>
"" ]',</w>
100 대뉴스',</w>
19 99
19 87
대표 (가운데)가</w>
한국 일보,2020.01.02.</w>
회의 실</w>
국민 통합도</w>
", 국민
", JTBC
정부 청사에</w>
12 개</w>
선거 연합
선거 연대</w>
후보 인</w>
기자 의</w>
공천 ,</w>
여러분 은</w>
코로나19 ,</w>
총리 실
관계 없이</w>
금지 하기로</w>
"[ 포토]</w>
국가 채무
지원 하기로</w>
지원 단을</w>
28 명</w>
사회 적
29 4
29 6
행정 관,</w>
아니 다며</w>
24 일부터</w>
총선 에서도</w>
노동 신문에</w>
36 ,2020-03-17</w>
예비 비를</w>
최고 인민
생각 한</w>
34 0
의료 자문위원
,정치,정치일반,2020-01-02, 안철수</w>
중국 으로부터</w>
25 년</w>
25 ,2020-03-17</w>
평화 정착</w>
수사 관</w>
23: 04
대상 을</w>
시민 들,</w>
보도 하는</w>
,,, 1.0,,1.0</w>
,https://news.naver.com/main/read.nhn?mode=LS2D&mid=shm&sid1=100&sid2=268 &oid=003&aid=0009635
언급 했다.',</w>
바른미래 당은</w>
00:5 4:4
교육 현장을</w>
이어 지
지적 을</w>
나라 '의</w>
통과 로</w>
확인 하는</w>
확인 하면서</w>
세종 특별자치
요청 했다.',</w>
극복 ,</w>
정상 간</w>
국제 사회</w>
한반도 평화교섭
포함 돼</w>
지역구 다.</w>
촉구 한다""고</w>
31 일(현지시간)</w>
중단 된</w>
생활 지원
신뢰 와</w>
신뢰 하며</w>
2. 3
시설 과</w>
변화 로</w>
변화 화</w>
나온 다.',</w>
확정 …
지방 신문
70 %)·유선(20%)</w>
국정 원</w>
때문 이라고까지</w>
바란 다""며</w>
05:1 4
않는 다
고려 해야</w>
울산 에</w>
주민 자치
투입 을</w>
영향 력
파이 팅
상공회의 소
지켜 내기</w>
조직 이</w>
·김 도
반발 …
공화 국</w>
새해 엔</w>
하자 도</w>
대구·경북 에서</w>
이번 엔</w>
개발 한</w>
발사체 에</w>
더불어민주당 에</w>
·이 장
있다 면서도</w>
주한미 군의</w>
당직 자가</w>
질의 하는</w>
개최 한</w>
규정 했다.</w>
친서 …
답변 했다.</w>
장교 가</w>
없었 다는</w>
전환 해</w>
일정 도</w>
���� ���</w>
69 7
도시 재
소통 과</w>
여성 신문
%) 보다</w>
회복 에</w>
구독(클 ",정치,0,2020-03-17</w>
배화여 자
11:0 5,,"</w>
11:0 9,,"</w>
제도 의</w>
,https://news.naver.com/main/read.nhn?mode=LS2D&mid=shm&sid1=100&sid2=268&oid=003&aid=00097 35
법사 위를</w>
이종 구</w>
분열 의</w>
선거관리 위원회는</w>
연합정당 '</w>
.9 %→
정계 복귀를</w>
,https://news.naver.com/main/read.nhn?mode=LS2D&mid=shm&sid1=100&sid2=265&oid=0 79&aid=00033
수용 을</w>
적대 시
적대 적</w>
제2 작전
3월 까지</w>
신고 서</w>
감염병 의</w>
다가 가는</w>
,https://news.naver.com/main/read.nhn?mode=LS2D&mid=shm&sid1=100&sid2=264&oid=0 16&aid=00016
비전 이</w>
인력 은</w>
있다./ 김현민</w>
2:3 4,,"</w>
입원 시키는</w>
고양 시
감안 하면</w>
사무총 장은</w>
입니 다.
전날 인</w>
체제 의</w>
,아시아경제 ,2019.12.01.</w>
15&aid=0004 30
비상대책 위원장을</w>
교환 이</w>
하락 했다.</w>
하늘 과</w>
이광 재,</w>
기계 화보병
만큼 은</w>
합리 적이고</w>
문재인 하야
배포 한</w>
",파이낸셜뉴스 ,2020.01.02.</w>
유포 되고</w>
녹색 당</w>
발열 체크</w>
마포 갑</w>
내다 본</w>
당협 위원장</w>
잠수 함</w>
결의 안</w>
단수추천 됐다.</w>
되새 겼
않아 도</w>
접경 지역</w>
정의당 도</w>
전파 를</w>
3:04 ,,</w>
재해 와</w>
,https://news.naver.com/main/read.nhn?mode=LS2D&mid=shm&sid1=100&sid2=265&oid=008&aid=0004 37
혼란 이</w>
국민동의 청원</w>
250 여</w>
,https://news.naver.com/main/read.nhn?mode=LS2D&mid=shm&sid1=100&sid2=266&oid=02 5&aid=00029
제독 차</w>
구상 이다.</w>
육군사 관학교
민심 에</w>
우리나라 에</w>
성남 시</w>
미루 고</w>
실행 할</w>
모으 고</w>
민· 관·
박재 민</w>
",머니S ,2020.01.02.</w>
강효 상
양천 구</w>
2조 3000
되어 서는</w>
애로 사항을</w>
어린이 교통안전
정쟁 의</w>
n번 방
거수 경례를</w>
민정비서관 실</w>
앙골 라
중지 하고</w>
3일 씩</w>
다녀 온</w>
원천 봉쇄
말레이 시아,</w>
획기 적으로</w>
,https://news.naver.com/main/read.nhn?mode=LS2D&mid=shm&sid1=100&sid2=269&oid=005&aid=000 129
,https://news.naver.com/main/read.nhn?mode=LS2D&mid=shm&sid1=100&sid2=269&oid=437&aid=0000 23
당당 하게</w>
샌더 스</w>
특별재난 지역</w>
open @hankyung.c",정치,
하강 이라는</w>
기념촬영 하는</w>
class="" tomain_info_
9&aid=000 25
'미 투
나무 는</w>
더욱 이</w>
2004 년</w>
20주년 ]</w>
240㎞ ,</w>
잇따르 고</w>
세연 ·김영
나름 대로</w>
기독 교
어떻게 든</w>
녹록 지</w>
1989 년부터</w>
소셜네트워크 서비스(SNS
newsis .com</w>
시스템반도체 ,</w>
남해지방 해양경찰청
'▶[ 창간</w>
통미 봉
부(부장 검사</w>
범어 동</w>
불시 착
@chosunbiz .com]',</w>
집주인 에게</w>
기계화보병 사단
문재인하야 범국민투쟁
' 비
' 장
' 미래한국당</w>
' 원포인트</w>
' 옥중서신
' \u
( 南
( 약</w>
, 국민일보
1 심</w>
3 년
3 주</w>
3 ,정치,정치일반,2020-01-02,"
3 년간</w>
4 32
5 일
5 부</w>
8 천
8 .0,,,,</w>
E P
O EC
i an
j ung
k er
o w
r d
~ 20
‘ 도로</w>
’ 인</w>
“ 고</w>
가 할</w>
간 접</w>
감 과</w>
감 은</w>
강 명
갖 췄
갖 고,</w>
거 론</w>
거 다.</w>
건 으로</w>
게 요.</w>
게 다가</w>
겠 다,</w>
격 인</w>
격 차</w>
겪 었던</w>
결 속
결 국은</w>
경 산</w>
곳 곳의</w>
그 동안의</w>
급 감
긍 지와</w>
긍 ·부정</w>
기 도
기 살
길 '에</w>
꽃 병
나 간</w>
나 란히</w>
남 성
낮 춘</w>
넣 고</w>
네 티
노 리는</w>
논 리를</w>
농 민
놓 인</w>
는 게</w>
다 섯</w>
다 시는</w>
달 리는</w>
대 하여</w>
돌 고</w>
동 시</w>
동 력</w>
동 대구
됐 었다.</w>
둘 째
둘 째,</w>
뒤 인</w>
들 께서</w>
떠 난</w>
려 서</w>
려 다</w>
력 으로</w>
론 도</w>
리 의</w>
릴 레이
만 세</w>
만 날</w>
만 방에</w>
말 과</w>
맡 겨
명 부</w>
무 섭
민 군
바 레
반 려
발 목을</w>
밤 보다</w>
법 령을</w>
벗 는</w>
보 우
복 수
본 다""고</w>
부 가
부 대에</w>
부 작용
분 권
분 리</w>
불 안</w>
빌 겠
빨 간
빨 간</w>
사 사건
새 기면서</w>
서 해</w>
성 추
성 공</w>
성 남</w>
소 식</w>
순 창
쉬 고</w>
슈 퍼</w>
스 루</w>
시 코,</w>
신 나
아 티
않 자</w>
알 제
양 낙
양 육
양 대</w>
언 어
얻 기</w>
여 섯
여 지도</w>
연 가를</w>
염 원하는</w>
예 배를</w>
오 대
옥 천
운 명</w>
울 린
위 상과</w>
유 능한</w>
으 시
을 까
을 도</w>
의 병
임 금
임 을
있 죠.</w>
자 산을</w>
잡 아
잡 혔
장 동
장 군이</w>
장 착한</w>
저 격
저 해하는</w>
전 선을</w>
점 거
접 수를</w>
정 윤희</w>
제 '</w>
졌 습니다.',</w>
주 중</w>
주 워</w>
주 셔서</w>
중 반
지 경
직 전까지</w>
짓 고</w>
처 지에</w>
천 명한</w>
청 탁
청 장이</w>
체 어를</w>
초 로</w>
최 운
추 혜
축 사에서</w>
코 너
키 즈
태 영</w>
터 닝
트 는</w>
특 징
특 위가</w>
팀 을</w>
파 열
패 배</w>
편 가르기에</w>
평 했다.</w>
표 심</w>
필 승을</w>
하 거나,</w>
합 당
합 집
해 봤
해 볼</w>
향 해서도</w>
헌 신</w>
현 주</w>
현 안이</w>
현 장으로</w>
혼 용</w>
화 는</w>
효 력</w>
후 임</w>
정치 권을</w>
"" …
"" 우리가</w>
"" 대구·경북</w>
"" ��</w>
in g
19 95
19 88
의원 으로</w>
한국 전쟁</w>
한국 지방신문
11 시부터</w>
3: 32
회의 서</w>
연합 훈련을</w>
,https://news.naver.com/main/read.nhn?mode=LS2D&mid=shm&sid1=100&sid2=269 &oid=003&aid=00096347
", 매일신문
사진 제공
기자 /
여러 번</w>
경제 계</w>
판단 으로</w>
국무 위원장과</w>
감염 된</w>
참석 …
3. 2
2019 년
자유 민주주의
으로 )</w>
우회 적으로</w>
15 .0,,</w>
28 4
28 일에</w>
관리 와</w>
조치 ,</w>
출마 선언
발사 …
37 7
아니 에
아니 다고</w>
아니 다""라고</w>
진행 했다고</w>
총선 에서는</w>
노동 당의</w>
정책 도</w>
설명 에</w>
확진 자들을</w>
39 9
신년 사가</w>
3, 2.0,,,,</w>
\' 에서</w>
의료 현장에</w>
사람 들</w>
,https://news.naver.com/main/read.nhn?mode=LS2D&mid=shm&sid1=100&sid2=264 &oid=018&aid=000458
민생 당,</w>
23: 11
23: 25
격리 해제</w>
대상 자들이</w>
ho 09
평가 도</w>
추경 과</w>
추진 하겠다는</w>
언급 하는</w>
바른미래 당이</w>
사태 는</w>
58 ,2020-03-17</w>
확인 이</w>
세종 시는</w>
요청 한다고</w>
정상 은</w>
미사 일로</w>
사업 으로</w>
세계 에서</w>
시키 고,</w>
photo 31
46 8
창당 은</w>
운영 하고</w>
안보 실장</w>
질문 엔</w>
실시 하는</w>
제안 이</w>
제안 했다.',</w>
마련 하는</w>
검토 가</w>
강경 화
했다 ",정치,1,2020-03-17</w>
에서 도,</w>
획정 위에</w>
시설 이나</w>
48 0
이었 다.',</w>
이었 고,</w>
희망 찬</w>
해결 되지</w>
사건 ,</w>
정권 심판론
센터 는</w>
75 명,</w>
이동 섭
차관 을</w>
산업 을</w>
때문 에,</w>
다' 며</w>
비례대표 제가</w>
느냐 ,</w>
울산 시장이</w>
의미 는</w>
대사 ,</w>
검사 에</w>
긴급 한</w>
지켜 봐야</w>
조직 으로</w>
조직 문화
조직 지도부</w>
양산 시장이</w>
양산 을로</w>
권력 의</w>
나타 날</w>
'이 만
보호 하기</w>
단계 에</w>
한다 ,</w>
공공 을</w>
교통 지역</w>
시점 과</w>
협조 해야</w>
전투 함
총회 장
동의 했다.</w>
,정치,청와대,2020-01-02, 문</w>
so ho09
언론 ,</w>
언론 을</w>
일부 로</w>
성공 적으로</w>
공무 원이</w>
보이 콧
,정치,정치일반,2019-12-01, 김의겸</w>
아이 슬
답변 이</w>
되었 나</w>
민간 단체
방안 은</w>
나섰 다.',</w>
풀이 된다.',</w>
위로 금</w>
대안 )이</w>
시스템 이</w>
근무 한</w>
분열 과</w>
수출 도</w>
대정부질문 '에</w>
불편 이</w>
11:1 8,,"</w>
11:1 3,,</w>
긍정 평가</w>
올라 와</w>
최소화 할</w>
이후 로</w>
인식 이</w>
인식 하고</w>
레이 더
나왔 다.',</w>
전담 병원</w>
필요하 다""고</w>
상생 도약
이야기 하고</w>
대통합 이</w>
위성정당 은</w>
소독 을</w>
안팎 에서는</w>
국군대구 병원으로</w>
접수 된</w>
자가격리 자</w>
개편 에</w>
완료 해</w>
인구 구조와</w>
'비례 민주당
국군대전병원 은</w>
허위 보고
합동타격 훈련</w>
차량 의</w>
측근 으로</w>
분구 가</w>
시한 이</w>
11&aid=000 370
10만 명의</w>
,https://news.naver.com/main/read.nhn?mode=LS2D&mid=shm&sid1=100&sid2=269&oid=009&aid=0004 47
,https://news.naver.com/main/read.nhn?mode=LS2D&mid=shm&sid1=100&sid2=267&oid=001&aid=00114 38
전원회의 서</w>
우체국 과</w>
맞추 려는</w>
바랍 니다.',</w>
종식 될</w>
정해 지지</w>
,정치,북한,2020-01-01," 노동신문,</w>
퇴장 하는</w>
경기도 지사가</w>
심재철 ·
형사 상</w>
김부 겸
오후 에는</w>
fo to
,https://news.naver.com/main/read.nhn?mode=LS2D&mid=shm&sid1=100&sid2=269&oid=008&aid=0004 36
비율 을</w>
물량 이</w>
일관 된</w>
선거대책 위원회</w>
서로 가</w>
개방 형</w>
뚜렷 이</w>
한마 디</w>
모으 는</w>
엇갈 린</w>
@imaeil .com',</w>
반문 했다.</w>
사우 디아
보건· 의료
,https://news.naver.com/main/read.nhn?mode=LS2D&mid=shm&sid1=100&sid2=269&oid=088&aid=00006 27
거세 게</w>
공산 이</w>
따뜻 한</w>
물리 적으로</w>
인용 해</w>
도쿄 올림픽</w>
이스 데
1일 자로</w>
,매일신문 ,2020.01.02.</w>
예산결산 특별
속수무 책으로</w>
공직선거 후보자
실제 행동
'컷오프 '</w>
구현 을</w>
빈틈 없는</w>
전방위 적</w>
크로 아티
,https://news.naver.com/main/read.nhn?mode=LS2D&mid=shm&sid1=100&sid2=268&oid=003&aid=000963 38
'4+1 '</w>
교훈 이</w>
원색 적인</w>
젊은 보수</w>
문체 부</w>
1998 년
한나라 당</w>
pe r</w>
약식기소 했다고</w>
평화공동체 ’를</w>
폭넓 게</w>
R& D</w>
열악 한</w>
롯데 케미칼</w>
전화면접 (10
안중 에도</w>
탈북 민</w>
5년 째</w>
가구 구조</w>
대부분 의</w>
무선( 70%)·유선(20%)</w>
특파 원</w>
사모 아,</w>
축적 된</w>
'변· 신</w>
권준 욱</w>
박맹 우</w>
스텔 스</w>
매점 매
묵묵 히</w>
사할 린
2008 년</w>
컨벤션 센터에서</w>
신기술 ,</w>
에티오피 아,</w>
타지키 스탄,</w>
선영 기자</w>
kimhyun 8
pjh 2035
의아 하지</w>
연신 내</w>
투르크메니 스탄,</w>
국제테러 와</w>
보우 소나
soho09 02
사우디아 라
' 백
' 수
' 군</w>
' 그</w>
' 유</w>
' 최</w>
' 경제
' 대통령</w>
' 추미애</w>
' 심재철</w>
' ,연합뉴스,2020.03.05.</w>
' 국민일보
' 백원우</w>
( 주
, \r\n\t\t\t\t\t
- BR
2 인
2 0</w>
2 년에</w>
2 사단</w>
4 주</w>
4 13
5 13
5 58
5 .0,,2.0,,</w>
7 29
7 .0,,1.0,,</w>
8 60
F M</w>
Y out
b ae
g et
k b
n @asiae.co.kr',</w>
z n@asiae.co.kr',</w>
· 초·중·고</w>
Δ 서울</w>
“ 우리가</w>
… 내일</w>
】 통상일정</w>
가 평</w>
간 극
간 다면</w>
감 금
강 대해
같 아서</w>
개 시</w>
개 인이</w>
건 가
건 지</w>
걷 어
걸 었다.</w>
검 진</w>
검 사는</w>
결 혼</w>
계 신
계 양
고 도로</w>
공 정</w>
공 표</w>
공 포</w>
과 제가</w>
관 행</w>
국 책
규 칙
규 명</w>
급 박
기 라고</w>
기 부를</w>
김 규
김 유
나 갔
나 눈
나 기</w>
날 (
남 대
노 후
니 아</w>
다 보니</w>
당 당한</w>
당 중앙위원회</w>
대 중</w>
대 기업</w>
데 요.</w>
동 으로</w>
됐 는지</w>
들 여
들 려온</w>
등 급</w>
라 트
로 프</w>
류 희수</w>
리 면서</w>
리 려는</w>
만 명으로</w>
만 원의</w>
많 다고</w>
맡 았
먹 는</w>
멀 지</w>
명 )을</w>
모 신</w>
못 했습니다.</w>
무 시</w>
문 ,</w>
미 터</w>
미 명</w>
믿 음</w>
박 우
박 사</w>
발 간
배 수
번 이나</w>
변 수</w>
보 입니다.',</w>
본 다”고</w>
부 본부
부 시장의</w>
부 강을</w>
불 충분
브 로
비 록</w>
빚 어
사 공정
사 천·
서 야</w>
서 청원</w>
석 탄
선 전</w>
선 박</w>
성 모
소 동</w>
손 잡는</w>
수 거
스 카
승 자
시 도를</w>
시 기가</w>
실 었다.</w>
아 시아</w>
안 상
안 주는</w>
않 지만,</w>
알 지</w>
알 게</w>
애 하는</w>
약 한</w>
양 자
양 당의</w>
어 린</w>
었 지만,</w>
여 명에</w>
연 말
연 속
열 매를</w>
오 면</w>
오 만,</w>
요 르
우 간
우 수한</w>
웃 는</w>
원 -
원 산에서</w>
위 상</w>
위 헌</w>
위 성을</w>
위 주로</w>
유 불
을 에선</w>
의 회에서</w>
의 심이</w>
이 사</w>
이 합집
인 건
인 위
인 준</w>
일 요
일 지</w>
일 부가</w>
일 정한</w>
자 매
장 면을</w>
재 선
재 원을</w>
저 축
전 후</w>
전 경</w>
전 역으로</w>
제 주시
제 천·
존 스</w>
주 면</w>
주 둔</w>
중 량
중 부</w>
지 구
직 면한</w>
진 의</w>
진 상</w>
[...]
