#version: 0.2 - Trained by `huggingface/tokenizers`
다 .</w>
0 0
으 로</w>
에 서</w>
\ '
니 다.</w>
하 는</w>
했 다.</w>
0 1
의 원
x a
\ xa
하 고</w>
민 주
대 표
다 .
한 국
00 00
\xa 0
이 다.</w>
선 거
국 회
정 치
위 원
2 0
다 는</w>
이 라
. .
습 니다.</w>
후 보
있 다.</w>
s e
다 고</w>
l e
0 ,
. c
대 통
다 ”
있 는</w>
지 역
국 민
D 5
01 D5
들 이</w>
고 ,</w>
2 1
g t
자 유
2 01
.c o
총 선
면 서</w>
a l
& gt
e n
대통 령
i n
d a
지 만</w>
대 한</w>
에 서
정 부
의 원</w>
민주 당</w>
1 9
f al
fal se
0000 00
까 지</w>
한국 당</w>
총 선</w>
false ,
한국 당
p :</w>
i d
1 0
한 다.</w>
민주 당
에 게</w>
출 마
) ;</w>
o n
en t
예 비
하 게</w>
적 으로</w>
문 재
다” 고</w>
미 래
적 인</w>
이라 고</w>
b le
들 의</w>
t i
da ble
아 니
정 당
총 리
하 겠
서 울
더 불
경 제
하 지</w>
위 해</w>
통 합
생 각
h t
부 터</w>
e r
사 람
지 난</w>
라 고</w>
a r
w w
더불 어
문재 인</w>
기 자
에 는</w>
. k
지 지
었 다.</w>
우 리
습 니
해 야</w>
것 으로</w>
위원 장
e w
&gt ;</w>
해 서</w>
때 문
n c
/ /
[ b
d [b
d[b ]
r e
a m
1 5
21 대</w>
문 제
들 은</w>
\xa 0</w>
으 로
1 8
그 러
입 니다.</w>
l t
요 .</w>
m ent
의원 은</w>
정 책
4 8
- -
1 2
01D5 E
뉴 스
는 데</w>
것 은</w>
대 표</w>
위 한</w>
리 고</w>
대 한
했 다.
비 례
시 장
청 와
.co .k
대표 는</w>
\' );</w>
되 는</w>
s i
가 능
황 교
기 자</w>
사 회
라 는</w>
다 "
t :</w>
에서 는</w>
& lt
보 수
국 회</w>
d o
자유 한국당</w>
국회 의원
예비 후보
사 를</w>
후 보</w>
하 기</w>
것 이다.</w>
( \'
t p
검 찰
국회 의원</w>
ht tp
정 의
것 이</w>
상 황
서 울</w>
우 리</w>
함 께</w>
장 관
1 1
3 0
: //
회 의
대 해</w>
&lt ;
] }
이 런</w>
장 을</w>
대 로</w>
들 어
공 천
진 행
ew s
연 합
이 날</w>
에 도</w>
밝 혔
하 면</w>
들 을</w>
통 해</w>
시 민
황교 안</w>
1 7
대표 가</w>
e t
1 00
더불어 민주당</w>
[ {
대한 민
.. .</w>
원 내
t a
2 00
&gt ;
도 록</w>
기 를</w>
말 했다.</w>
a n
1 4
1 ,
지 는</w>
합 니다.</w>
) ,</w>
5 0
이라 는</w>
선 거</w>
리 를</w>
당 의</w>
필 요
n ews
것 이
서 는</w>
렇 게</w>
것 을</w>
이 번</w>
국 가
보 다</w>
.co.k r
없 는</w>
같 은</w>
. p
관 계
인 사
e .
사 실
개 혁
o g
지 역</w>
관 련
am p
3 6
d i
당 이</w>
20 20
w .
자 는</w>
, b
g et
& amp
조 사
하 며</w>
지 난
다 면</w>
. q
dable (\'
d[b] .q
f u
의원 이</w>
다 른</w>
자유 한국당
다” 며</w>
된 다.</w>
나 라
( )
중 앙
1 6
장 은</w>
정 권
nc ti
fu ncti
자 신
다. \xa0
2 7
기 도</w>
때문 에</w>
t e
4 7
시 작
대통 령</w>
누 리
그 는</w>
지 금</w>
위원 회
됐 다.</w>
지 를</w>
되 고</w>
코 로
하 면서</w>
선 언
지 만
f :</w>
가 장</w>
. 1
그 런</w>
하 지만</w>
.. ..
그 리고</w>
는 데
e ,
교 육
등 을</w>
국 무
지 고</w>
만 들
청와 대</w>
수 사
여 론
있 습니다.</w>
새 누리
다 시</w>
력 을</w>
\' ,</w>
당 은</w>
기 업
많 은</w>
았 다.</w>
밝혔 다.</w>
성 을</w>
이 낙
최 고
&amp ;
정 부</w>
u ment
리 는</w>
였 다.</w>
2 5
이 나</w>
결 과
.co m
안 을</w>
정 을</w>
하 여</w>
http ://
제 가</w>
이 어</w>
g o
functi on
c :</w>
두 고</w>
c h
2 4
1 3
하 고,</w>
장 이</w>
지만 ,</w>
기 에</w>
정 치</w>
a s
위원 회</w>
이 후</w>
r u
그 래
ww w.
출 마</w>
새 로
지 원
, \'
경 제</w>
청 년
. 0
추 진
발 표
' ]</w>
있 었
연 구
F B
성 이</w>
바 른
당 시</w>
했 던</w>
동 안</w>
사 업
자 가</w>
비 판
이낙 연</w>
어 떻
이 어
출마 를</w>
ti c
대한민 국
박 근
참 여
여 러
주 장
s t
혁 신
id :</w>
지 금
운 동
내 년</w>
요 구
며 ,</w>
종 로
2 2
없 이</w>
이 고</w>
책 임
총선 에서</w>
가 는</w>
요 .
&gt; \xa0
화 를</w>
a g
이 는</w>
내 용
열 린</w>
하 다.</w>
들 과</w>
지 도
시 간
주 의
활 동
모 두</w>
모 든</w>
강 조
투 표
선 을</w>
= a
관 련</w>
결 정
[ '
대 변
00 0
스 트
p p:</w>
이 해
으 면</w>
s h
지역 구
한 다는</w>
하 나
졌 다.</w>
이 었
사 건
2 8
안 철
특 별
대 학
in .
r i
기 로</w>
바른 미래
조 국</w>
( l
se t
201 9
E le
관 리
전 문
; e
Ele ment
ㅡ ㅡ
id get
예비 후보</w>
= \'
e, _
이 유
현 재</w>
했 습니다.</w>
변 호
기 가</w>
어떻 게</w>
re a
사 는</w>
이 야
2 9
p t
4 0
아니 라</w>
주 민
있 다는</w>
평 가
많 이</w>
들 에게</w>
특 히</w>
이 를</w>
발 전
코로 나
경 우</w>
그 런
그러 나</w>
c p:</w>
에서 도</w>
p l
다" 고</w>
당 을</w>
참 석
저 는</w>
전 략
이라 며</w>
사 무
처 럼</w>
노 동
따 라</w>
다 며</w>
01D5 B
\xa0 &gt;\xa0
= =
- 0
이 상
0000 01
지 방
산 업
” 이라고</w>
예 정
000000 0
어 떤</w>
이 렇게</w>
보 고
si :</w>
말 씀
등 록
오 는</w>
in do
없 다.</w>
가 운
자 리
한 다고</w>
교 수
시 장</w>
이 에</w>
-- --
발 언
중 요
대 책
정 당</w>
새로 운</w>
이 러
세 력
이 상</w>
습니 다</w>
} )
더불어 민주당
20 대</w>
대 상
대통령 이</w>
, pp:</w>
n p:</w>
정치 인
국민 의</w>
회 를</w>
오 후</w>
w indo
a y
◎ \xa0
이 제</w>
v i
대 해
최 근</w>
7 0
,b f:</w>
i :</w>
오 전</w>
평 화
사 진
했 다</w>
논 의
어 려
당 선
ch :</w>
]} ,
주 시
세 종
명 을</w>
{ np:</w>
[{ cp:</w>
ru :</w>
국무 총리
} ]}
국 정
장 ,</w>
. n
go og
준 비
청와 대
그 렇
a e
d er
결 국</w>
공 천</w>
… …
( 5
미래 통합
국 민</w>
박근 혜</w>
공 약
대표 의</w>
2 3
- 21
goog le
[{ t:</w>
예 산
.com /
47 48
언 론
일 본
36 48
0, ru:</w>
4748 3648
47483648 ,pp:</w>
계 획
-21 47483648,pp:</w>
국회 에서</w>
}]} ]},
여러 분
도 시
지 적
명 이</w>
u sh
.p ush
.push (
입 니
.. .
지역 구</w>
행 정
견 을</w>
대 구
그런 데</w>
서 도</w>
. 2
.co m</w>
지난 해</w>
과 정
o r
개 정
부 분
있 다.
등 이</w>
어 야</w>
않 고</w>
문 화
사 가</w>
중 심
대통령 의</w>
기자 회
u t
그래 서</w>
시 키
, si:</w>
모 습
않 았
위 를</w>
2 6
밖 에</w>
정부 의</w>
, ch:</w>
오 세
도 를</w>
있 다고</w>
정 세
, id:</w>
기 는</w>
오 늘</w>
단 체
a v
비 서
c e
공 동
3 7
01D5 C
겠 습니다.</w>
경 쟁
연합 뉴스
마 음
자 의</w>
되 었
보 면</w>
여 야</w>
합 니
공 수
역 할
뉴 스</w>
에 선</w>
정의 당</w>
6 0
l :</w>
4 월</w>
법 무
\ '</w>
상 을</w>
보 고</w>
되 지</w>
전 망
라 도</w>
바 로</w>
선거 구
b :</w>
관 심
알 려
가운 데</w>
페 이
경 기
있 을</w>
% )</w>
f o
의원 의</w>
정 도
인 터
function (
경 찰
공 직
여 성
보 수</w>
치 를</w>
http s
’ 을</w>
통 과
대변 인
나 오
D A
원 을</w>
총선 을</w>
광 주
권 을</w>
새누리 당</w>
o d
만 큼</w>
안 전
a si
. .</w>
설 명
100 ,
있 도록</w>
대 를</w>
협 의
처 리
ar g
총리 는</w>
제 21대</w>
미 국
금 지
또 한</w>
것 도</w>
역 시</w>
% )
8 9
않 은</w>
asi ae
정부 가</w>
같 이</w>
마 련
점 을</w>
부 동
돌 아
% ,</w>
수 가</w>
do c
, a
자 를</w>
8 F
따 르
북 한
포 함
= 1
논 란
유 권
정 보
doc ument
https ://
기 획
다 가</w>
비례 대표</w>
정치 적</w>
한 국</w>
비례 대표
확 인
최고 위원
합 의
\' ,\'
제 를</w>
보 인
} ,
총 리</w>
거 나</w>
되 면</w>
진 보
느 냐
면 ,</w>
i l
해 결
전 에</w>
라 며</w>
ta g
선거 법</w>
j s
유 승
위원 장</w>
했 다고</w>
니 까</w>
수 도
이 미</w>
대 선
안철 수</w>
조 사</w>
목 소
께 서</w>
승 리
대한민 국</w>
나 는</w>
앞 두고</w>
왔 다.</w>
0, b
운 영
되 어</w>
기 사
u r
까 ?</w>
부 산
201 5
정 상
예비후보 는</w>
감 사
는데 ,</w>
하 려
으 며</w>
나 타
소 속</w>
대통령 은</w>
google tag
정치 를</w>
연 동
복 지
법 을</w>
수 석
u n
자신 의</w>
패 스트
4 9
그 렇게</w>
패스트 트
C FB
하 시
질 문
세 계
판 단
사 태
과 의</w>
선 택
장 애
요. \xa0
우 려
다 ’
등 의</w>
의 석
가 지</w>
18 CFB
01D5E 8F
01D5E8F 18CFB
인 가
경 우
, \xa0
인 천
예 상
겠 다는</w>
분 석
식 을</w>
해 주
회 의</w>
대 응
명 의</w>
무 엇
.c h
검 찰</w>
않 는
전 국
s )
공 개
공 정
지 가</w>
대 전
개 발
이 었다.</w>
입 장
현 실
노 무
보 도
.... ....
. 3
민주당 은</w>
당 에</w>
장 관</w>
마 스
av er
수 도</w>
노 력
바 탕
반 드
[ ]
s c
여 러</w>
외 교
반드 시</w>
기 준
n d
이 뤄
, l
출 신
가능 성이</w>
() {
새 정치
죠 .</w>
. 5
arg ument
장 의</w>
제 로</w>
0, s
’ 를</w>
법 안
비 롯
.push( argument
.push(argument s)
의 미
.co.k r</w>
변 화
우리 가</w>
여 의
민 생
3 4
영 향
오 늘
지 원</w>
id =
보 여
직 접</w>
i f
일 본</w>
h an
지지 율
am e
, t
놓 고</w>
받 아
성 공
중 국
심 판
들 도</w>
않 는</w>
영 입
1 9</w>
일 이</w>
바른미래 당</w>
앞 으로</w>
8 8
false, d
7 5
나 가
기 대
리 가</w>
제 도
주 의</w>
아 닌</w>
원 의</w>
windo w
반 대
이 다.
지 도</w>
대표 와</w>
정부 는</w>
는 지</w>
후보 가</w>
방 문
부 를</w>
수 준
시 간</w>
r c
자 체
습니 다.
s ta
19 9
인 이</w>
해 도</w>
상 태
좋 은</w>
3 1
% 로</w>
국민 의
한 다”고</w>
있 다</w>
4 ·
3 5
2 년</w>
s :</w>
7 9
3 8
만 들어
경 선
얘 기
공수 처
탄 핵
인 물
사 의</w>
구 성
보 는</w>
인 권
환 경
s rc
제 안
sc ri
e l
미 국</w>
위원장 은</w>
의 혹
수 를</w>
다 ,</w>
기 관
- 8
위 해
원 에</w>
3 9
다 음
인 의</w>
on g
4 6
asiae .co.kr
교 통
2020 년</w>
강 화
이 용
방 송
기 록
것 ”이라고</w>
받 고</w>
이 사
드 러
제 대로</w>
정세 균</w>
어 렵
있 어
. i
이 번
원 이</w>
김 영
w :</w>
시 스
scri pt
조 정
일 부</w>
o /
대표 를</w>
정 책</w>
정치 권
se r
u g
나 온
이 다</w>
회의 에서</w>
.co.kr /
오세 훈</w>
ur n
) [
지 ,</w>
일 을</w>
아 이
여론 조사
지 키
as y
만 에</w>
종 로</w>
ar ent
재 배
도 전
정 말</w>
말 했다.
B e
당 과</w>
하겠 다는</w>
if (
강조 했다.</w>
re t
요 ?</w>
nc e
전 히</w>
민주 주의
사람 이</w>
B y
세 대
201 6
[] )
r en
9 D
경 기</w>
01D5 D
시 대
fo re
7 년</w>
아 무
말 을</w>
. get
er vi
하겠 다고</w>
0 ]
L og
st /
rea te
모 르
.get Element
T ag
function (){
se nd
않 을</w>
.c reate
N ame
S ervi
ut f
asy nc
= function(){
s By
.getElement sBy
Tag Name
.getElementsBy TagName
ht m
.create Element
주 도
.p arent
sta tic
Servi ce
w idget
전 국</w>
e. in
pl ug
& &
ser t
N od
function( d
Be fore
.parent Nod
e.in sert
Before (
.parentNod e.insert
.parentNode.insert Before(
ret urn
0] ;
static .
in. js
| |
ar set
( function(d
utf -8
( d[b].q
( window
) return
, e,_
, document
; d[b]
; e.
= d[b].q
O nce
W idget
_ =a
_ .parentNode.insertBefore(
m in.js
} ;e
\' ;</w>
\' dable
\' asiae.co.kr
\' ;e.
dable \',\'
dable .i
// static.
d[b] &&
e. async
di st/
,b ,l
dable(\' set
dable(\' ren
dable(\' send
d[b].q )return
,\' dable\',\'
=a .createElement
in. min.js
(l );</w>
(l )[
;e .ch
=\' utf-8
=\' //static.
e,_ );</w>
}) (window
der Widget
,a ,b,l
따르 면</w>
=1 ;e.ch
.push(arguments) };e
src =\'//static.
script \');</w>
o/ dist/
if( d[b]&&
[]) .push(arguments)};e
Log Once
=function(){ (d[b].q
.getElementsByTagName (l)[
Service \',</w>
widget _
plug in.min.js
0]; _.parentNode.insertBefore(
|| []).push(arguments)};e
arset =\'utf-8
(function(d ,a,b,l
,e,_ )</w>
,document ,\'dable\',\'
;d[b] =function(){(d[b].q
=d[b].q ||[]).push(arguments)};e
_=a .getElementsByTagName(l)[
\'dable widget_
\'asiae.co.kr \');</w>
\';e. src=\'//static.
dable.i o/dist/
e.async =1;e.ch
dable(\'set Service\',</w>
dable(\'ren derWidget
dable(\'send LogOnce
d[b].q)return ;d[b]=function(){(d[b].q
=a.createElement (l);</w>
})(window ,document,\'dable\',\'
if(d[b]&& d[b].q)return;d[b]=function(){(d[b].q
plugin.min.js \';</w>
0];_.parentNode.insertBefore( e,_);</w>
arset=\'utf-8 \';e.src=\'//static.
(function(d,a,b,l ,e,_)</w>
=d[b].q||[]).push(arguments)};e =a.createElement(l);</w>
_=a.getElementsByTagName(l)[ 0];_.parentNode.insertBefore(e,_);</w>
dable.io/dist/ plugin.min.js\';</w>
e.async=1;e.ch arset=\'utf-8\';e.src=\'//static.
dable(\'renderWidget \',</w>
dable(\'sendLogOnce \');</w>
})(window,document,\'dable\',\' script\');</w>
if(d[b]&&d[b].q)return;d[b]=function(){(d[b].q =d[b].q||[]).push(arguments)};e=a.createElement(l);</w>
e.async=1;e.charset=\'utf-8\';e.src=\'//static. dable.io/dist/plugin.min.js\';</w>
국 제
어 느</w>
때문 이다.</w>
http:// www.
했 다는</w>
. 4
누 구
는 가
주 요</w>
먼 저</w>
앞 서</w>
주 는</w>
했 고,</w>
아 시
성 장
. 9
관계 자는</w>
갖 고</w>
사 법
5 D
다 만</w>
하 고
현 역</w>
받 은</w>
당 원
의 료
달 라
수 는</w>
마 지
다" 며</w>
기 본
12 월</w>
에 게
자 로</w>
기 념
심 을</w>
희 망
tic le
후보 는</w>
제 시
정 권</w>
부 는</w>
. 6
표 를</w>
피 해
것 이라고</w>
. 7
력 이</w>
제 는</w>
계 속</w>
다 양
자 들이</w>
한국당 은</w>
( )</w>
인 재
총선 에</w>
연 합</w>
김 종
학 생
올 해</w>
ㅡㅡ ㅡㅡ
발 생
실 시
힘 을</w>
하 였
미래통합 당</w>
부 정
언 급
소 득
선거 구</w>
8 년</w>
치 고</w>
2 :</w>
있 으
문제 가</w>
결 과</w>
부 가</w>
확 보
v e
상 임
리 트
개 혁</w>
역할 을</w>
대 선</w>
1 월</w>
드 는</w>
확 대
전 재</w>
과정 에서</w>
. 8
지 켜
문 을</w>
치 는</w>
15 일</w>
1 :</w>
아 닌
보인 다.</w>
정 신
바 이러
으로 는</w>
제 기
8 A
나 경
보 이
있 어</w>
한 다
b o
홍 준
이 재
( 6
상 승
이 름
한 다</w>
김 무
장 과</w>
0, o
2 0</w>
세 를</w>
겠 다고</w>
지 지</w>
안 에</w>
렸 다.</w>
주 택
현 재
의원 과</w>
대 해서</w>
투 쟁
기자회 견을</w>
부동 산</w>
선거 를</w>
a d
물 론</w>
news /
더 욱</w>
진행 자</w>
4 년</w>
행 사
너 무</w>
구 미
학 교
의원 을</w>
나 서
이해 찬</w>
아 파
조 직
중요 한</w>
대 구</w>
지 에</w>
프 로
했 지만</w>
.n aver
와 글
민주당 이</w>
제 1
그 동안</w>
야 당</w>
내 려
다 가
2 월</w>
가 지고</w>
” 이라며</w>
경 험
금 융
하 는데</w>
크 게</w>
공 화
김 정
당 내</w>
것 입니다.</w>
일 보</w>
모 두
잘 못
o k
유승 민</w>
경 남
공 공
하겠 습니다.</w>
선거 에서</w>
도 입
. \xa0
바 란
내 가</w>
1 년</w>
촉 구
재배 포</w>
지 로</w>
기자 ]</w>
기 술
pl ay
== ==
수 밖에</w>
위 에</w>
밝 혀
고 민
도 가</w>
1 5</w>
당 ,</w>
감 염
하 기로</w>
토 론
당 한</w>
di s
으로 서</w>
났 다.</w>
등 에</w>
진행 자
고 려
울 산
보 기</w>
후 원
요 청
스 스
역 사
확 정
받 았
dis play
높 은</w>
우리 는</w>
드 리
8 0
사 이
국회 의
공 관
생 활
) 이</w>
차 기</w>
지난 달</w>
공 무
떨 어
01D5 A
. htm
2 ,
---- ----
호 남
n o
문제 를</w>
진 영
a c
회 에서</w>
처 음
사 실</w>
매 우</w>
아 직</w>
입 장을</w>
사 퇴
해 야
관련 해</w>
안 이</w>
위 기
포 인
m a
경 북
유 지
김 성
의 를</w>
사 랑
사실 상</w>
. display
googletag .display
있 다”고</w>
연동 형</w>
검 토
통 합</w>
없 었
사 용
* *
재 판
안 보
진행자 \xa0&gt;\xa0
전문 가
9 E
출 처
인 정
3 :</w>
추 가
그러 면서</w>
조 선
}) ;
방 식
대표 ,</w>
감 을</w>
시 에</w>
있 고</w>
후보 를</w>
ar ticle
4 :</w>
a :</w>
주 요
로 는</w>
da ta
응 답
교 체
받 는</w>
자 료
중 국</w>
시 는</w>
임 을</w>
위원장 이</w>
6 :</w>
서 를</w>
i t
가 족
마스 크
위 원</w>
국민 이</w>
장 에</w>
5 :</w>
\ u
문재 인
다양 한</w>
0, l
주 목
법무 부</w>
원 칙
2019 년</w>
대해 서는</w>
기 업</w>
효 과
( 4
이 루
인 데</w>
페이 스
선거 법
정책 을</w>
9 0
충 청
이 명
내 고</w>
본 부
친 박
i g
s o
약 속
이 미
청 년</w>
신 청
원 에서</w>
’ 에</w>
신 뢰
아 야</w>
인 지</w>
여 야
on t
1, f
노무 현</w>
한 나라
9D 0000000
수 사</w>
김 대
하 다고</w>
헌 법
필요 한</w>
의원 ,</w>
제 3
제 공
협 상
여의 도</w>
있 었다.</w>
아 니다.</w>
자 치
대한민국 의</w>
범 죄
14 17
…… ……
원내 대표는</w>
중 에</w>
false, s
자 들의</w>
코로 나</w>
자 ,</w>
한 편</w>
변호 사</w>
t h
건 설
으 나</w>
가능 성
대 화
도 로</w>
거 론
3 3
권 력
6 7
나경 원</w>
선거 에</w>
l as
번 째</w>
이야 기
il y
마 다</w>
F 000000
센 터
했 고</w>
의 견
북 한</w>
출 신</w>
민주 평화
전 을</w>
년 간</w>
01D5E8F18CFB 9D0000000
최 대</w>
서울 시장
장 에서</w>
천 안
더 라도</w>
반 영
01D5E8F18CFB9D0000000 5D
사 회</w>
가 고</w>
중심 으로</w>
도 ,</w>
A C
또 는</w>
5 9
따 른</w>
적 극
길 을</w>
득 표
건 강
an g
간 의</w>
집 중
투 자
분 명
중 소
◎\xa0 진행자\xa0&gt;\xa0
% ),</w>
통 일
이 란</w>
못 한</w>
누 가</w>
코로나 19</w>
하 다는</w>
방 향
중 도
바 람
0, t
내 는</w>
대 안
인터 뷰
오 히
” 고</w>
이 후
7 :</w>
로 서</w>
씨 는</w>
얼 마
정 한</w>
이 자</w>
있 다
공천 을</w>
데 ,</w>
소 통
: 0
중 인</w>
본 격
영 역
니 까
이 인
창 당
개 최
오히 려</w>
% 를</w>
다 음</w>
회의 를</w>
김 진
강 력
서 비
나 ,</w>
열 고</w>
지 속
따 라
소 속
선 관
자 기</w>
적 용
한 다면</w>
보 호
6 C
상 대
부 산</w>
신 문
겠 다.</w>
연 대
핵 심
확 산
총리 가</w>
냈 다.</w>
찾 아
임 명
위 는</w>
국 내</w>
법 안</w>
일 자
야 당
불 출마</w>
gt ag
행 동
0000 0
o ve
자 세
살 아
어려 운</w>
일 부터</w>
검 사
대 법
나 라</w>
금 을</w>
기 소
전 체
덧 붙
후보 자</w>
정권 의</w>
’ 이</w>
공 식</w>
관 광
레 이
후 원</w>
시 행
비 상
학 교</w>
= 연합뉴스
관 에서</w>
사 업</w>
이 슈
차 지
나온 다.</w>
각 각</w>
시 민</w>
l i
일 (
구 청
박 원
것 에</w>
거 의</w>
당 협
있 지만</w>
공 감
넘 어
인 을</w>
개 월</w>
보 좌
간 담
유 튜
회 장</w>
하 도록</w>
확 실
명 ,</w>
하 셨
· ·
구 조
구 체
바 꾸
바탕 ,t
부 족
패스트트 랙</w>
핵 심</w>
수도 권</w>
이 기</w>
만 나</w>
후보 로</w>
이러 한</w>
v s</w>
일 보
의 회</w>
하 다</w>
불 구
- 15
세 계</w>
국 가</w>
홍준 표</w>
이 라</w>
이 끌
단 체</w>
하 자
단 을</w>
여론 조사</w>
설 치
( "
김 경
수 출
3 년</w>
개 선
있 기</w>
.htm l
면 서도</w>
아시 아
위 해서</w>
안 정
기 반
어 나
회 가</w>
국민 을</w>
않 았다.</w>
종 합
” 라고</w>
원 ,</w>
3 월</w>
인 구
새정치 민주
혐 의
세 우
출 처</w>
도 시</w>
동 ,</w>
사람 들이</w>
으 며,</w>
windo w.
17 일</w>
영향 을</w>
알 고</w>
고 발
대학 교</w>
되 면서</w>
정 도</w>
문 제</w>
) 가</w>
절 차
김무 성</w>
경 선</w>
대상 으로</w>
만들 어</w>
f ont
국회 가</w>
위 가</w>
정당 이</w>
지 사
상 당
와 의</w>
있 을
나 아
제 외
가 까
상황 에서</w>
보 건
움 직
들 에</w>
활동 을</w>
말 이</w>
점 에서</w>
선 출
표 현
0 9
4 5
데 이
있 는데</w>
하 기도</w>
반 발
주 에</w>
인 사</w>
의원 (
in g
부 의</w>
습니 다
국 토
기 사</w>
분 이</w>
서 에</w>
행 복
지역 의</w>
대통령 과</w>
못 하고</w>
등 으로</w>
c o
음 을</w>
버 스
) 을</w>
한국당 이</w>
s p
어 제</w>
\u 00
.html ?
그 의</w>
비서 관
여 성</w>
신 당</w>
@ han
하 나</w>
청 문
거 래
했 는데</w>
있 게</w>
당 에서</w>
광 주</w>
김 현
19 대</w>
e v
권 의</w>
라 이
세 요
행 보
협 력
정 무
정 이</w>
분 열
들 어</w>
촛 불
메 시
조 성
신 종</w>
의 견을</w>
점 이</w>
로 ,</w>
적 이</w>
" 이라고</w>
치 러
자유한국당 이</w>
충 분
방 법
소 를</w>
강 원
관 한</w>
7 8
폐 쇄
변호 사
나 섰
장 으로</w>
전 혀</w>
계 속
움 을</w>
제 도</w>
확 진
5 ,
무 소속</w>
가 진</w>
드 린
100, e
되 었다.</w>
분 야
부 담
우 선</w>
한 다.
윤 석
M B
국회 를</w>
A A
경 영
하 락
받 을</w>
뜻 을</w>
무 리
인 사를</w>
전 체</w>
기 존</w>
국민 들이</w>
스 럽
굉 장
활 용
이 정
제 출
하 던</w>
결과 를</w>
모습 을</w>
브 리
계 를</w>
3 일</w>
no =
서 ,</w>
선거 운동
) 는</w>
스스 로</w>
font -
민주당 의</w>
직 을</w>
없 다는</w>
생 활</w>
장관 이</w>
2016 년</w>
저 작
원내 대표
부 에</w>
실 패
것 이라는</w>
전 달
성 과
o n</w>
나 왔
5 7
제 주
서울 시
6 일</w>
석 을</w>
정당 의</w>
함 께
반 면</w>
무 상
실 을</w>
가 져
로 부터</w>
조 치
거 리
규 모
됩 니다.</w>
국회 에</w>
9 F
시장 은</w>
01D5C B
2 50
0, h
자유한국당 은</w>
관리 위원회
비서 실
굉장 히</w>
심 각
패스트트 랙
의 사
100, r
이 게</w>
i m
위원장 을</w>
입 법
개 인
바이러 스</w>
해 당</w>
목 표
이라 도</w>
사 에서</w>
여 당</w>
가 지
’ ,</w>
잖 아
안철 수
E C
남 북
드 립
T O
무 슨</w>
있 고,</w>
불 출마를</w>
벌 어
움 이</w>
하 기
민 중
’ 의</w>
여 전히</w>
활 성
공 식
전 해
성 과</w>
y le
문제 는</w>
운 동</w>
비롯 한</w>
밝 히
한 번
- 2
' 을</w>
유 치
이 동
아니 냐
려 고</w>
거 부
이 와</w>
이 가</w>
지역 에</w>
과 거</w>
도 는</w>
시 설
고 도</w>
) 의</w>
t ru
장관 은</w>
홍 보
했 습니다</w>
보 다는</w>
사무 총
수 원
어 서</w>
르 는</w>
V i
탄 핵</w>
d :</w>
여 기
일 ,</w>
분 들이</w>
통 신
회 에</w>
강 남
증 가
국민의 당</w>
일 까지</w>
들 고</w>
말 로</w>
만 나
대 결
대변인 은</w>
한국당 의</w>
1417 ,
거 든
교수 는</w>
정치 의</w>
사 과
전 환
장관 에</w>
주장 했다.</w>
자 동
201 7년</w>
병 원</w>
선 대
vi ew
젊 은</w>
당 대
응 원
입니 다</w>
m e
님 께서</w>
’ 로</w>
........ ........
4 4
6 6
j o
때 는</w>
앞 에서</w>
가 치
이 른
원 은</w>
자 들은</w>
김 용
올 라
un g
별 로</w>
의원 들이</w>
) ;
통 한</w>
상황 을</w>
일 에</w>
합니 다</w>
설명 했다.</w>
페이스 북
다 르
원내 대표</w>
세 월
e :</w>
심 상
리 더
일 단</w>
미래 를</w>
당 연
한 반
st yle
밝혔 다.
어 디
원 으로</w>
불 법
하 는
개혁 을</w>
얼마 나</w>
으로 ,</w>
민 심
과 거
각 종</w>
조 국
황교 안
11 월</w>
Vi ew
상 공
신 속
등 록</w>
지지 를</w>
내용 을</w>
마지 막</w>
id x
u m
경 남</w>
손 학
추 천
집 권
생각 이</w>
겠 다”고</w>
기 간
하 거나</w>
201 8년</w>
알려 졌다.</w>
추 가</w>
아 나
보 니</w>
경 자
스 타
국민 들의</w>
명 으로</w>
일 은</w>
진 영</w>
10 월</w>
기 간</w>
신 문</w>
물 을</w>
용 산
적 극</w>
했 을</w>
20 일</w>
발언 을</w>
부 터
바 뀌
검찰 이</w>
4 3
) 은</w>
바 라
목소 리를</w>
개 월
존 재
호 남</w>
false, a
0 2
영 입</w>
국 방
생각 을</w>
정도 로</w>
나 온</w>
인 해</w>
매 일
어 도</w>
4· 15</w>
고 위
습니 다.\xa0
내 놓
받아 들
위 반
사회 적</w>
지역 을</w>
총선 이</w>
조 사를</w>
법 률
국무총리 가</w>
어 요.</w>
news .naver
사 고
무 너
격 을</w>
회 담
지 낸</w>
보 내
방 안을</w>
조 짐
- 1
ev ent
실 현
제 한
공 약</w>
다” 면서</w>
실 제</w>
tru e,
이 익
초 롬
함 초롬
대통령 을</w>
기 득
새 ·
들 었
책임 을</w>
e =
출 범
전 화
시 절</w>
10 일</w>
비 난
번 째
충 남
종로 구</w>
없 다고</w>
제 2
경 북</w>
아 직
news/ article
) 에</w>
9 5
인 천</w>
L ay
{ \'
\' :
data Lay
gtag (\'
하겠 다”고</w>
\u00 27
삼 성
조 금</w>
… \'
상황 이</w>
년 에</w>
심 재
서 로</w>
향 후</w>
말씀 을</w>
이 고,</w>
최 선을</w>
논란 이</w>
코로나 19
2 일</w>
균 형
무 단
보 장
위 성
전 했다.</w>
발전 을</w>
3 2
현 대
함초롬 바탕,t
고 용
하 라
경기 도
m j
대한민국 을</w>
나오 고</w>
물 갈
규 제</w>
5 5
심 히</w>
업 무
작 업
했 다
앞 에</w>
배 제
사 진</w>
자 와</w>
받 았다.</w>
di v
5 일</w>
승 리를</w>
광 역
전 쟁
예정 이다.</w>
상 이</w>
민 주</w>
분 위
재 정
n :</w>
그 대로</w>
구 축
일 으
B X
아나 운
생 산
이 전
! !</w>
둘 러
000 원
다’ 는</w>
3 00
장애 인
4 일</w>
받 아</w>
공 유
강 한</w>
단 식
부 부</w>
광 화
나라 를</w>
있 지</w>
J 4
발 표</w>
지 의</w>
다” 는</w>
}]}]}, 01D5E
9 일</w>
t o
우 선
r :</w>
21 대
5 G</w>
만 드는</w>
주 고</w>
자유한국당 의</w>
1 .</w>
19 8
차 례</w>
박근 혜
2015 -0
이야 기를</w>
0, m
주요 뉴스
E B
DA Y</w>
false, f
검 증
청 소
가능 한</w>
전 당대
왼 쪽
기 관</w>
사 례
이 종
저 희
향 해</w>
% 포인
13 일</w>
TO DAY</w>
el v
정 청
다. ”</w>
투 표</w>
G ok
n BX
스 러
사람 은</w>
다" …\'
37 J4
\'dablewidget_ Gok
\'dablewidget_ 37J4
마스크 영역
mj elv
주요뉴스 \'
nBX N
\'dablewidget_Gok mjelv
\'dablewidget_37J4 nBXN
\'dablewidget_Gokmjelv \');</w>
규 정
o rea
서 구
자 리를</w>
동 의
김 형
규 제
박 지원</w>
한 번</w>
’ 가</w>
군 사
갤 럭
김 태
11 일</w>
기자회 견
이 제는</w>
산 업</w>
지 소
미 디
6 월</w>
호 소
지금 까지</w>
e r</w>
단 일
01D5E8F18CFB 75
이 며</w>
한 미
해 왔
24 일</w>
극 복
현 역
5 월</w>
회의 에</w>
지 나
지 정
3 D
해 석
연합 뉴스</w>
마 이
선거 가</w>
16 일</w>
수 사를</w>
2 .</w>
위해 서는</w>
또 다른</w>
I L
인 )</w>
- ad
이른 바</w>
실 에서</w>
진 다.</w>
저작 권
C B
) 를</w>
고 요.</w>
새로 운
보고 서에</w>
지소 미
않 겠
결 정</w>
과 학
등록 을</w>
% p</w>
여 당
추 미
회 장
지역 에서</w>
물 러
대 비</w>
려 는</w>
시 사
? \xa0
| |</w>
있 다”며</w>
20 200
으로 도</w>
돼 야</w>
전 남
고 양
22 일</w>
27 일</w>
중 단
박원 순</w>
체 육
연 기
사 람</w>
4 월
는 다.</w>
생각 한다.</w>
우리 공화
하려 는</w>
까 .</w>
하 자</w>
u :</w>
회 복
7 일</w>
찾 아</w>
수 의</w>
정권 을</w>
비 교
만 이</w>
인 은</w>
- 01
같 다.</w>
예 산</w>
t y
브리 핑
산 을</w>
폭 로</w>
불구 하고</w>
서비 스
마스크영역 \'
8 일</w>
이 지만</w>
좋 아
&amp ;</w>
5 ·
m d
권 이</w>
였 던</w>
보수 당</w>
차 별
시 도
지금 은</w>
늘 어
사 항
소 개
추 진</w>
불 가
성 남
쳤 다.</w>
획 정
’ 는</w>
나 .</w>
국회의원 이</w>
갤럭 시
3 0</w>
false, b
f las
집 행
에서 의</w>
기 준</w>
임 시
6 8
최 소
시간 이</w>
7 F
23 일</w>
않 다.</w>
b l
식 이</w>
노 출
열 심히</w>
아나운 서</w>
파 출
&lt; /
수 록</w>
4 2
된 다고</w>
씨 가</w>
동 을</w>
정부 와</w>
k y
매 입</w>
스 트</w>
r an
시장 이</w>
ㅋ ㅋ
’ 으로</w>
독 재
센 터</w>
자 인</w>
r o
조 차</w>
화 성
밝혀 진</w>
- g
사 건</w>
프 레
리 지</w>
위 로</w>
하 루
르 고</w>
y o
납 입
위원장 ,</w>
K orea
필 리
개 발</w>
.c md
.push( function(
googletag .cmd
.push(function( )</w>
googletag.cmd .push(function()</w>
(\' div
pt -ad
-0 \');</w>
관심 이</w>
googletag.display (\'div
-g pt-ad
googletag.display(\'div -gpt-ad
기 억
이 촌
googletag.display(\'div-gpt-ad -15
것 인가
선 언</w>
일자 리</w>
선 정
좌 파
이 기
원내 대표가</w>
' 를</w>
총선 은</w>
의석 을</w>
윤석 열</w>
글 로
방 침
19 일</w>
E 000000
머 니
] [
공 개</w>
정치 가</w>
검찰 의</w>
자체 가</w>
고 승
영 등
19 6
아파 트</w>
봐 야</w>
사 생활</w>
시 신</w>
년 을</w>
영 업
최 종</w>
아 주</w>
파출 소
정당 을</w>
대 란</w>
김 기
습니 까?</w>
쇄 신
교 육</w>
단 계
경 기도</w>
01D5A FB
View .html?
일본 의</w>
안 은</w>
시 절
지 하
4 +
무 단</w>
중앙 선거
E D
의 석</w>
C F
{ id:</w>
올 랐
정치 에</w>
질문 에</w>
갤럭시 S
검찰 총
S N
대 신</w>
이 들은</w>
사건 \'
H M
근 로
명 예
idx no=
18 일</w>
고 자</w>
에 만</w>
우리 의</w>
정 리
여 권</w>
납입 일</w>
예 측
ma in
더 라
독 립
당 장</w>
0 원에</w>
구 를</w>
야 권</w>
했 다”고</w>
선언 했다.</w>
추 경
한 다”며</w>
최 저
그 냥</w>
고승 덕</w>
지적 했다.</w>
이인 영</w>
처 음</w>
만 든</w>
… 결국</w>
류 를</w>
자 루</w>
2 주에</w>
없 을</w>
news/article View.html?
한번 씩
당 원</w>
와글 와글
0, n
밝 힌</w>
style =
관 계</w>
되 어
마 대</w>
선 의</w>
88 8</w>
갤럭시S 10
… \'</w>
후보 자
" 0원에</w>
… 밝혀진</w>
감 이</w>
샀 다"…\'
女 시신</w>
\' 고승덕</w>
\' 와글와글
인권 보고서에</w>
폐쇄 "0원에</w>
조짐 ']</w>
이촌 파출소
사건\' …밝혀진</w>
한번씩 …\'</w>
갤럭시S10 \'</w>
샀다"…\' 갤럭시S10\'</w>
\'와글와글 \'고승덕</w>
이촌파출소 …결국</w>
과 연</w>
롭 게</w>
입니 다.
선언 한</w>
지 사</w>
국회의원 선거</w>
으로 부터</w>
} },
D C
공 급
기 초
’ 라는</w>
내 에서</w>
뛰 어
20 20</w>
경제 를</w>
나 왔다.</w>
비 해</w>
의 지를</w>
예비후보 가</w>
시스 템
무단 전재</w>
ove Korea
IL oveKorea
HM 888</w>
ILoveKorea HM888</w>
부 분</w>
비 례</w>
28 일</w>
회 는</w>
하 였다.</w>
30 일</w>
있 겠
21 일</w>
만 을</w>
성 향
등 은</w>
부 탁
4 .1
전 북
희 생
에게 는</w>
a te
는가 .</w>
네 이
활 동</w>
문 희
홈 페이
긍 정
M C
의 무
개 편
나 누
연 설
D D
세 가</w>
복 귀
주 민</w>
가 를</w>
이명 박</w>
오세 훈
지지 율</w>
걱 정
앞 장
정 동
6 F
고 등
규 모</w>
김 병
출 연
새정치민주 연합</w>
바 이
정 규
동 구
위 의</w>
관심 을</w>
김대 중</w>
기 다
철 저
해 보
통 화
비판 했다.</w>
있 던</w>
아 울
주 택</w>
14 일</w>
도 의</w>
: 1
억 원</w>
되 어야</w>
시키 는</w>
만 한</w>
소 상공
자 원
5 2
발 의
ㅡㅡㅡㅡ ㅡㅡㅡㅡ
중 진
그러 면</w>
리트 윗
4 1
자신 이</w>
소 중
최 초
리트 윗</w>
당 (
news/articleView.html? idxno=
8 6
연 결
성 에</w>
자리 에서</w>
덧붙 였다.</w>
된 다는</w>
통합 을</w>
마음 을</w>
자 기
· 새·
오 른</w>
) 과</w>
신 고
남 은</w>
식 으로</w>
얘 기를</w>
리트윗 했습니다</w>
분 을</w>
da ily
비 율
지지 층
정의 당은</w>
이 지</w>
않 으면</w>
정 확
조 건
일 반
실 천
하 신</w>
글 을</w>
석 ,</w>
저 도</w>
3 .</w>
방 역
이 ,</w>
따라 서</w>
서 초
방 송</w>
2 1</w>
비 를</w>
jo ong
뿐 만</w>
식 에</w>
론 을</w>
공약 을</w>
000000 B
것 처럼</w>
7 월</w>
동 시에</w>
탈 당
계 가</w>
심 의
functi on</w>
살 펴
수 용
체 제
반 응
그 가</w>
손학 규</w>
하겠 다.</w>
t n
민주당 과</w>
그 룹</w>
01D5E8F18CFB75 F000000
을 )</w>
201 2년</w>
못 하는</w>
혁 명
아 서</w>
작 성
학 과</w>
12 일</w>
들 ,</w>
한나라 당</w>
나타 났다.</w>
사 라
유 리
9 9
없 습니다.</w>
오 른
전 날</w>
p ?
불 출마
총리 의</w>
2020 .</w>
유 일
비롯 해</w>
적 절
노 력을</w>
역 대</w>
장 기
것 과</w>
# 구미
반 대</w>
스 마
카 드
외 국
lt :</w>
로 운</w>
보 궐
무 역
않는 다.</w>
2 7</w>
가 격
충 북
하 루</w>
바 랍
심 사
한 겨
가 야</w>
그 게</w>
한 ·
“ (
만 원</w>
니 다</w>
본 다.</w>
서 의</w>
여 기에</w>
정세 균
든 지</w>
https:// www.
주 로</w>
5 00
쏟 아
h o
한 편
특 정</w>
끌 어
통합 당</w>
높 아
일 어
이유 로</w>
세 요.</w>
작 용
4 .
언 제
함 을</w>
8 월</w>
가 서</w>
실 제로</w>
이상 의</w>
9 월</w>
A B
E 9
T V
7 6
수 행
후보 의</w>
k ing
’ 이라는</w>
일 각
혐의 로</w>
나 갈</w>
은 행
거 쳐</w>
부 여
출 판
r /
그 룹
권 한
불 과
역 임
국회 는</w>
했 지만,</w>
관 측
트 럼
답 변
있다. /
되 기</w>
구 속
연 대</w>
졸 업
하 며,</w>
추미 애</w>
01D5B 8A
d f
검찰 개혁
영 상
지지율 이</w>
==== ====
이번 에</w>
저작권 자</w>
% 에</w>
' 는</w>
선 에</w>
포 기
아니 면</w>
ran king
국무 총리</w>
위 험
다 니
아파 트
내 부
이 같이</w>
의원 도</w>
국민 들
일 )</w>
개 헌
해 온</w>
정당 에</w>
저 의</w>
대해 서도</w>
ky ung
나 오는</w>
이 기도</w>
5 3
p _
아닌 가
. ”</w>
수 수
판 결
십 시
집 권</w>
국 의</w>
나 선</w>
의 사를</w>
시장 의</w>
심상 정</w>
존 경
세력 이</w>
결과 가</w>
분 노
소 비
빨 리</w>
안 건
부 의
지역 은</w>
하려 고</w>
대 전</w>
의 정
01D5A D
지 시
K B
갔 다.</w>
민주 화
다 ”</w>
마 찬
드립 니다.</w>
하고 자</w>
취 재
용 인
공수 처</w>
아울 러</w>
선 진
않 을
관 이</w>
치 열
사실 을</w>
이 하</w>
와 서</w>
컷 오
마 무리
환 영
전 통
인 한</w>
2 .
필요 가</w>
업 체
해 를</w>
는데 요.</w>
한 테</w>
교 수</w>
나 올</w>
방 안
이 들</w>
넘 어</w>
합 리
필리 버스
것이 다</w>
이었 던</w>
명 은</w>
아 버
' 에</w>
교 섭
위 에서</w>
유승 민
정치 는</w>
개 입
신 당
으 니</w>
전 남</w>
충분 히</w>
i .co.kr
b or
정 기
공 항
사 망
시 켰
이유 는</w>
u l
비 슷
경제 ,</w>
세종 시
마지 막
져 야</w>
민주 주의</w>
상 징
% 가</w>
대 중
false, k
과 는</w>
불 안
있었 던</w>
0, r
정당 인)</w>
.p h
아 닙
0,b b
심재 철</w>
쉽 지</w>
집 을</w>
손 을</w>
D 000000
당 선</w>
보 유
었 던</w>
1 일</w>
검찰 은</w>
영등 포
자 한
나 와</w>
이 념
false, h
1417, o
주 자</w>
중소 기업
/ 0
작 년</w>
태 극
ww w
발표 한</w>
대 의</w>
미 래</w>
발표 했다.</w>
5 1
야 당의</w>
해 당
것 인
내 세
25 일</w>
수도 권
근 거
것 ”이라며</w>
내 지</w>
박 영
명 에</w>
국회 의</w>
통 해서</w>
세 대</w>
확 대</w>
흔 들
라 디
열 린
조 금
부 모
시간 을</w>
비 용
사업 을</w>
자 연
행 위
등 장
\xa0 \xa0
조 합
1 0</w>
구 가</w>
일 자리
있 어야</w>
기 울
어 린
법 안을</w>
joong ang
된 다.
분 양
편 집
bor der
민 정
진 행</w>
받 지</w>
26 일</w>
득표 율
찬 성
유튜 브</w>
등 과</w>
으로 써</w>
동 원
선 임
01D5B 89
google _
부 와</w>
절 대</w>
6 1
임 금
강력 한</w>
무 시
법 이</w>
세월 호</w>
분 류
시장 을</w>
googletag.display ("
MC _
df p_
google_ dfp_
googletag.display(" google_dfp_
googletag.display("google_dfp_ MC_
박 정
진 보</w>
. f
아 베</w>
완 전히</w>
째 ,</w>
문희 상</w>
장관 의</w>
수 성
수 요
재 건
적 을</w>
a ce
관 악
서 민
p x
공 격
( 1
1 번
속 에</w>
없 고</w>
이 르
le f
ti on
o p
대 가</w>
신 천
-------- --------
% 의</w>
5 년</w>
리 에</w>
% p
더불 어</w>
려 면</w>
현 직</w>
한 다"고</w>
이루 어
정 체
진 짜</w>
홍 문</w>
근 무
디 지
영 화
해 서는</w>
E E
m k
인 상
의원 들은</w>
민 족
분 의</w>
내 에</w>
된 다</w>
A F
t .co
” 라며</w>
주 변
부동 산
대 학</w>
우리 나라
년 도</w>
되 겠
연 장
창 원
지역 으로</w>
시 켜
아 는</w>
생각 합니다.</w>
싸 움
6 B
적극 적으로</w>
에 너
이라 면</w>
명 한</w>
민 간
한국 의</w>
가능 성을</w>
로 를</w>
연 령
시민 의</w>
합니 다
아시아 경제</w>
넘 는</w>
미 세
야 권
0 년</w>
뉴 시스
필요 하
처 벌
사람 을</w>
그러 니까</w>
신 년
열 어</w>
7 7
회 장은</w>
정권 이</w>
대책 을</w>
대해 선</w>
나 고</w>
니 다.
당 ·
감 독
금 지</w>
코로나 바이러스</w>
충 남</w>
분명 히</w>
: 00
앞 둔</w>
이 면</w>
t.co /
고 를</w>
을 ,</w>
사회 의</w>
5 4
자 금
줄 어
처 리</w>
@ joongang
년 이</w>
달 라고</w>
변 화를</w>
죠 .\xa0
거 짓
세 상
적 이고</w>
진 중
선거 사무
01D5D 70
까 지는</w>
무상 급
h e
모두 가</w>
정치 인</w>
event _
관 을</w>
당 직
window. dataLay
window.dataLay er</w>
유 력
’ 은</w>
것 "이라고</w>
부 장
의 결
프 리
매일 경제</w>
집 단
이 트
지 면서</w>
h :</w>
없 어</w>
프로 그
간 에</w>
유 성
3 ,
01D5C AC
북한 의</w>
z e
아 가
온 라
라 면</w>
년 부터</w>
조 치를</w>
김 재
잡 고</w>
그래 도</w>
의원 들의</w>
전 반
김 문
까 요?</w>
차 원에서</w>
한반 도</w>
주 거
싸 우
잘못 된</w>
있 는
대 책</w>
해 소
저 지
창 당</w>
게 시
기 여
평 균</w>
안 녕
본격 적인</w>
공직 선거법</w>
w it
없 다”고</w>
경제 가</w>
당 부
al l
계 의</w>
rea d
결 정을</w>
번 호
자 문
비 대
문제 에</w>
대구 ·
막 을</w>
쉽 게</w>
당 으로</w>
국 은</w>
의 해</w>
말 고</w>
인 재</w>
하시 는</w>
대 에</w>
검 사</w>
시 점
8 5
바 로
최 근
나 서</w>
b e
글로 벌</w>
우 회
우 파
인 구</w>
장애 인</w>
처음 으로</w>
실 질
점 검
진 정
해 주시
이름 을</w>
29 일</w>
평가 를</w>
만 의</w>
없 어
( 3
지키 는</w>
자 에</w>
소 수
곳 에</w>
가 치를</w>
습니 까
우 한</w>
파 악
작 은</w>
C 8
도 움이</w>
있어 서</w>
고 는</w>
측 근
경 향
분 야</w>
지 휘
a n</w>
' ,</w>
연구 원</w>
" 이라며</w>
l in
명 )</w>
것이 다.
대 응</w>
안 타
얼 굴
-- >
대 상</w>
e c
르 게</w>
아 산
발 을</w>
3 E
궁 금
량 을</w>
압 박
사 표를</w>
상황 이다.</w>
. w
일 정
인 식
마스 크</w>
고 향
의원 님
과 제
않 아</w>
에 ,</w>
.ph p?
개 를</w>
바탕 으로</w>
만 큼
정 론
스러 운</w>
감 소
강 제
나 머
데 일
부 처
폭 력
서울 시</w>
인 데
계획 이다.</w>
... 마스크영역\'
bl og
모 양
싶 은</w>
창 출
격 차
더불어민주당 은</w>
바이러 스
교 과
시 설</w>
다" 면서</w>
) ·
사 ,</w>
속 에서</w>
하 자는</w>
아 래</w>
미세 먼
현 안
지 구
대표 (
예비후보 로</w>
보 였다.</w>
행 을</w>
화 가</w>
임 대
유권 자
대통 합
리 서
선거 제</w>
우리 나라</w>
관계 를</w>
느 끼
평 가</w>
장관 ,</w>
댓 글</w>
여 당의</w>
오 를</w>
전 략</w>
설 립
시 각
없 다</w>
C E
국민 들은</w>
김 부
야 당이</w>
asiae .co.kr</w>
/ /</w>
1 월
라 ,</w>
상 한
해 외
측 은</w>
지원 을</w>
대 권
인 간
T V</w>
false, u
4 .</w>
만 원
향 한</w>
미국 의</w>
기 구
분 들
18 대</w>
달 리</w>
없 었다.</w>
었 습니다.</w>
권 리
기 회를</w>
국민 과</w>
포함 한</w>
x t
공무 원
같 은
임 종
도 에</w>
곳 에서</w>
협 회</w>
고 령
양 산
중 이다.</w>
자리 에</w>
만 약</w>
봉 사
봤 다.</w>
였 다.
선 호
입 을</w>
세력 의</w>
o s
고 함</w>
\'dablewidget_37J4nBXN \');</w>
1 8</w>
부 ,</w>
수 로</w>
협의 체
리 기</w>
나섰 다.</w>
최 종
9 8
a t
국 정</w>
패 배
내용 은</w>
김 상
보 이는</w>
연구 원
000원 후원</w>
순 천
시 킬</w>
lef t
하 지만,</w>
맞 는</w>
위 치
시 켜</w>
사회 를</w>
대 문
거든 요.</w>
공직 자
민주평화 당</w>
2015 년</w>
0 6
반 도
북 구
t f
………… …………
@ asiae.co.kr</w>
관련 한</w>
드 렸
여 수
형 성
( 서울
된 다면</w>
나 설</w>
삶 을</w>
대 부분
무 소속
바란 다.</w>
적 폐
점 은</w>
배 경
합니 다.
더 니</w>
불 법</w>
출마 할</w>
사진 =
십시 오
0, d
안녕 하
보 이고</w>
복 지</w>
조 를</w>
참석 한</w>
, m
의 심
지 면</w>
행 태
D ,bf:</w>
가 기</w>
공 간
이 며,</w>
관련 된</w>
관 은</w>
설 득
정 국
0,l c:</w>
국민 에게</w>
이 로</w>
다’ 고</w>
문 화</w>
케 이
C 6
l a
C ,si:</w>
본 회의</w>
회 장,</w>
전 이</w>
테 마
신 설
국 내
올 해
바 꿔
지 와</w>
ig ht
총선 의</w>
참 여</w>
치 료
참석 해</w>
연 수
이 들이</w>
12 월
장 (
6 5
개 의</w>
대 비
E F
니 까?</w>
위 반</w>
경 선을</w>
금지 &gt;</w>
단 이</w>
많 다.</w>
변 경
정 유
흐 름
목소 리가</w>
주 를</w>
한 마
의 혹</w>
선거 는</w>
선언 을</w>
3 선</w>
사 태</w>
안 팎
19 7
모 임
직 후</w>
국회의원 )</w>
n aver
했 기</w>
시키 고</w>
미디 어
상 의</w>
출판 기념
끝 까지</w>
소 리
현 장</w>
있 지만,</w>
정부 에</w>
고 문
가 면</w>
대 체
동 남
키 워
당 사
0 7
Q u
관 ,</w>
위원회 를</w>
라 .</w>
리 얼
이 언
그 럼
단 지</w>
이낙 연
이 건</w>
선 이</w>
만 들</w>
예 방
주 자
&lt ;</w>
시민 들의</w>
2020 .0
벤 처
전망 이다.</w>
같 아
김 수
되 고,</w>
위 기</w>
되었 습니다.</w>
으 면서</w>
지 급
대변 인</w>
http:// t.co/
운동 을</w>
ac k
트럼 프</w>
때 마다</w>
blog .naver
아 침
자 격
협 상</w>
01D5C 5
면 에서</w>
언 론</w>
론 이</w>
일 로</w>
6 년</w>
인 ,</w>
) 와</w>
듣 고</w>
결 코</w>
4.1 5</w>
하 다
방 해
국민 은</w>
) ']</w>
우려 가</w>
겁 니다.</w>
알 아
오 차
er y</w>
뉴스 1
김형 오</w>
남 양
지역구 를</w>
. 01
하 려</w>
셔 서</w>
T K
투 자</w>
주 가</w>
이 승
정부 를</w>
입 력</w>
ri te
단 식</w>
출 발
=연합뉴스 )</w>
다 짐
원 하는</w>
결과 에</w>
마 저</w>
죠 .
국회의원 을</w>
예산 을</w>
항 상</w>
te xt
애 국
다” 라고</w>
&lt; 저작권자</w>
.co.kr ,</w>
구 ...마스크영역\'
단 순
사실 조국</w>
주요뉴스\' 2주에</w>
구...마스크영역\' 마대</w>
았 던</w>
여 권
험 지</w>
수 정
시 ·
총선 기획
유권 자</w>
당연 히</w>
당 초</w>
단 의</w>
차 례
/ c
공 항</w>
이 전</w>
코 스
%포인 트</w>
광 진
h n
예 고
회 ,</w>
훨 씬</w>
document .w
마 을
판 을</w>
상당 히</w>
사람 들
mk .co.kr,</w>
대 부분</w>
지 사는</w>
불가 피
고 .</w>
철 도
사실 이</w>
document.w rite
거 리</w>
김 세
아 래
하 더라도</w>
저 를</w>
노무 현
인 으로</w>
제 도를</w>
진 출
트 를</w>
정치 권</w>
계 에</w>
법 에</w>
본 회의
201 4년</w>
금지 ]
아직 도</w>
공 사</w>
(" "
j Qu
기 고</w>
window. jQu
document.write (""
금지] window.jQu
document.write("" )']</w>
금지]window.jQu ery</w>
조 원
a id=
동 맹
블 로
or :</w>
농 업
듯 이</w>
때 도</w>
포 항
힘 이</w>
0,b f:</w>
명 과</w>
책 을</w>
최 악
더불어민주당 이</w>
주 셨
성 장</w>
일 부
있 다면</w>
강 하게</w>
더 민주</w>
사 에</w>
소 재
자 영업
e t</w>
리더 십
겠 다</w>
보 험
MB C</w>
년 의</w>
발 전</w>
인사 청문
청와대 가</w>
목소 리
못 했다.</w>
반 복
것이 란</w>
예 술
en :</w>
in der
news .
됐 다.
무 능
중 진</w>
너 무
D B
b ack
ace bo
정 의</w>
송 파
( 2
맡 고</w>
부 천
인 도
공천 관리
가능성 도</w>
당 대표
방식 으로</w>
@han kyung
신 을</w>
기 능
지 검
안 의</w>
C A
요 ?
종 료
r y
기업 의</w>
공정 한</w>
SN S
8 1
단 은</w>
상황 에</w>
보수 의</w>
A 000000
k o
이유 가</w>
아무 리</w>
인 공
산 이</w>
현 장
겠 다
님 이</w>
나라 가</w>
inder .co.kr/
' 이</w>
방 위
임 금</w>
입 당
장관 을</w>
심각 한</w>
신 임</w>
서울 시장</w>
김 해
출 생</w>
노 조
선 고
드 라
m :</w>
고 통
결과 는</w>
지소미 아</w>
사 상</w>
아니냐 는</w>
낮 은</w>
적 은</w>
미 리</w>
논의 를</w>
ac tf
co :</w>
과 정을</w>
들 었다.</w>
없 다
한 일</w>
actf inder.co.kr/
계획 을</w>
되 도록</w>
y e
임 기</w>
투 입
특 수
히 는</w>
전략 공천
불 평
코 리
페이스북 에</w>
있 습니다</w>
의혹 을</w>
했 다”며</w>
아가 다
길 이</w>
외 면
) 에서</w>
했 으나</w>
아가다 경자
성 ,</w>
세 로</w>
매 일</w>
평 화를</w>
내 야</w>
돌 입
마 포
목 포
아가다경자 홍문</w>
h _
그 것이</w>
주 ·
진 실을</w>
9 7
국 립
률 이</w>
본 부</w>
만들 기</w>
운 영</w>
통 상
성과 를</w>
거 예
요 ,</w>
대 체</w>
원 내</w>
go .f
go.f actfinder.co.kr/
N e
도 로
지금 의</w>
의견 이</w>
영 남
곳 이</w>
사 망</w>
수사 권</w>
yo ut
리서 치
’ (
스 포
31 일</w>
정의 당이</w>
][ ⓒ</w>
공 동</w>
입 국
전 북</w>
국토 교통
보 기
불 리
민주주의 를</w>
으 나,</w>
개 소
목 을</w>
졌 다.
예비후보 자</w>
느 냐</w>
대 (
반 기</w>
이 것이</w>
하려 면</w>
tn ]
경 찰</w>
깊 은</w>
:0 0</w>
시 가</w>
친 구
불 편
험 지
대 는</w>
참 고
한편 ,</w>
/c tn]
민 심을</w>
환 경</w>
둘러 싼</w>
기 회
반 기
않 도록</w>
지역구 인</w>
그 때</w>
미 사
아 마</w>
친 노
막 아
: 5
m i
마 치고</w>
만들 고</w>
능 력
면 서
씨 의</w>
증 거
기자 들과</w>
심 이</w>
안 보</w>
여 당이</w>
실 망
@hankyung .com
김 한
자료 를</w>
yout u
담 당
총리 와</w>
대 ,</w>
됐 던</w>
형 사
무엇 보다</w>
영 상</w>
조 건</w>
특 위</w>
마 친</w>
한 다.\xa0
구체 적인</w>
y :</w>
200 9
border -
기 존
세종 시</w>
혼 란
합 의</w>
오늘 은</w>
가 가</w>
최 고</w>
회 원
는 ,</w>
소 위</w>
메시 지를</w>
그럼 에도</w>
100 0
정당 은</w>
투표 를</w>
논의 가</w>
가까 운</w>
리얼 미
1 차</w>
법 과</w>
본 인이</w>
인 과</w>
기준 으로</w>
병 원
달 러
오 르
이 제
내용 이</w>
나머 지</w>
f f
갑 )</w>
의 뢰
이 철
하 여
김 민
명 령
한 다며</w>
경제 의</w>
# 21대
s =
자신 을</w>
정의 당
허 용
검찰 에</w>
공약 으로</w>
동 아
식 품
까 지
재 선</w>
준 비</w>
선거 대책
세 력</w>
웠 다.</w>
혁 신</w>
개 입</w>
말 하는</w>
일 이다.</w>
필리버스 터
밀 어
위 협
친 박</w>
의 식
전 면</w>
검 토</w>
다 운</w>
진 실
위원장 의</w>
님 의</w>
접 촉
c las
거 운</w>
문 이</w>
법 적</w>
시 킨</w>
조 작
쪽 으로</w>
한국당 을</w>
된 다
물 이</w>
전 면
직 접
제외 한</w>
견 제
정 에</w>
아니 고</w>
안 양
강조 했다.
라디 오</w>
같 습니다.</w>
이 들의</w>
겨 냥
나 도</w>
박 찬
의 장
이었 습니다.</w>
}, {
은 행</w>
여 부를</w>
대 처
px ;</w>
6 ,ch:</w>
F 8
로 의</w>
김 포
새 해</w>
의 한</w>
질 을</w>
da um
.n hn
보이 지</w>
결 집
됐 습니다.</w>
대 거</w>
.nhn ?
4 -2
5 8
스 ,</w>
01D5E 15
시 ,</w>
일 반</w>
f am
n ew
논 란</w>
성 은</w>
셈 이다.</w>
6 3
공 소
그 걸</w>
내 부</w>
주 ,</w>
바랍 니다.</w>
대 권</w>
시 의</w>
참 가
( 새</w>
끝 에</w>
요 즘</w>
지방 선거</w>
fam ily
2 년
건 을</w>
계 획</w>
음 에도</w>
사 고</w>
적 으로는</w>
하 느냐
font- family
베 이
자 들을</w>
집 회</w>
근 본
롯 데
시 기
책 임</w>
main /
상 황</w>
존 중
01D5E 9E
있 다며</w>
활성 화
어 떠
정동 영</w>
n e
’ 과</w>
대 규모</w>
면 을</w>
201 9</w>
서울 대</w>
줘 야</w>
6 000000
선거 의</w>
H on
니 ,</w>
만 난</w>
사람 들은</w>
의원 에</w>
201 1년</w>
통합 의</w>
0 8
법 은</w>
보 다
일 정</w>
주 기</w>
하 라고</w>
20 년</w>
이미 지
치 지</w>
발 언</w>
수 출</w>
재 난
최 대한</w>
( 19
므 로</w>
권 력을</w>
얼 마</w>
이 지
인터뷰 에서</w>
계 약
왔 습니다.</w>
풀 이
C B</w>
출마 한</w>
01D5E 9F
B F
소 방
였 습니다.</w>
거 듭
비판 을</w>
더불어민주당 의</w>
5 89
S O
삶 의</w>
호 선</w>
지역구 에</w>
그 리
올 림
저 희</w>
때 까지</w>
생각 하는</w>
2 차</w>
당 대표</w>
역 을</w>
청 구
항 공
광화 문</w>
he ight
1 2</w>
과 감
김 동
시 급
취 임</w>
여러 분</w>
려 야</w>
유 세
상 정
앞장 서
해 양
국민 들에게</w>
예상 된다.</w>
daum .n
그 랬
면 접
비 정규
하나 로</w>
·· ·
@joongang .co.kr
6 70
신 경
위 ,</w>
&amp; aid=
개 정</w>
안 산
3 월
3 .1
지지율 은</w>
................ ................
여의 도
훼 손
1 .
장 악
타 협
정치 ,</w>
혁신 을</w>
잖아 요.</w>
강 행
c c:</w>
악 화
정책 에</w>
종로 에</w>
2 월
여야 가</w>
01D5CB 4
) .</w>
o id=
자 금</w>
지 게</w>
1, l
c i:</w>
보 답
표 가</w>
다 소</w>
이 탈
인터 넷
새 보수
시 험
시 고</w>
시 를</w>
헌 신
od e=
지 사가</w>
녹 색
바 른</w>
회 관에서</w>
스 토
이 것은</w>
1 3</w>
: 4
린 다.</w>
행정 안전
비례 연합
사건 을</w>
절차 를</w>
김문 수</w>
[ '</w>
불 러
출 사표를</w>
드린 다.</w>
강 화</w>
억 원
의 회
피 해</w>
동 작
돌 파
형 태
희망 을</w>
통화 에서</w>
마찬 가지
대표 도</w>
몰 아
연구 소</w>
스마 트
3 C
구 에</w>
선 수
연 속</w>
계 층
위원회 가</w>
맞 아</w>
이 하
false }},
경제 부
as :</w>
2, ci:</w>
false,f i:</w>
강 경
전 주
젊 은
제 의</w>
정상 회담
청소 년
감 안
네 요.</w>
심 으로</w>
인 들이</w>
대표 에게</w>
김대 중
세 력을</w>
열 어
영 화</w>
정치 개혁
이 든</w>
절 반
겼 다.</w>
관계 가</w>
이 던</w>
전 직</w>
행 사</w>
지방 자치
명 (
.0 pt
N ews
새 로</w>
천 ·
** **
위원회 는</w>
X C
우 파</w>
출 석
의원 총
@ se
명 확
계 파
시 아</w>
프 랑
한 일
새로운 보수당</w>
발 견
현 행</w>
서울 경제,</w>
% (
오 류를</w>
차 를</w>
한 ,</w>
연동 형
민중 당</w>
모 델
청 주
파 괴
했 으며</w>
거 주
그 건</w>
대 회
면 서,</w>
비상 대책
존경 하는</w>
da y
가 .</w>
배 우
전 한</w>
위원회 의</w>
^ ^</w>
기 독
분 위기
재 외
제 작
진 정한</w>
폐 지
경험 을</w>
걸 고</w>
다 !</w>
예 를</w>
철 회
대학 원</w>
프로 젝
read .nhn?
즉 각</w>
단 에</w>
답 했다.</w>
당 신
배 당
적 이다.</w>
정책 위
' 로</w>
01D5E8F18CFB9D00000005D D,bf:</w>
01D5E8F18CFB9D00000005D C,si:</w>
단 독
세 상을</w>
청 산
이어 서</w>
논 의</w>
어 진</w>
힘 들
네 트
전 라
왜 곡
구 의</w>
위원장 과</w>
n a
clas s=
3 대</w>
과 반
사 로</w>
투쟁 을</w>
이 에
이 행
있 으면</w>
회 담</w>
그 림
후보 와</w>
9 B
대 단
됐 다고</w>
font- si
인 데,</w>
가 ,</w>
그 에</w>
대 출
압 수수
XC ']</w>
내 각
석 이</w>
47 9
말 씀</w>
아 예</w>
청와대 는</w>
그 럼</w>
이 냐
전 진
충 돌
어 르
울 산</w>
36 4
새 롭게</w>
의미 가</w>
곳 은</w>
낙 선
김정 은</w>
시 대</w>
판 매
광화 문
사 퇴</w>
소 득</w>
점 으로</w>
만 ,</w>
자 고</w>
정권 은</w>
우 한
불 가능
정론 관에서</w>
’ 에서</w>
수 상
자 료</w>
re m
정보 를</w>
4 34
7 1
F 0000000
te r</w>
김 어
남 북</w>
률 은</w>
보 도</w>
전 자
자세 한</w>
4+ 1
컷오 프
전 기
새누리 당
에게 도</w>
v a
표 본
압 도
오 신
ty p
E A
국민 적</w>
si s
인재 영입
: 3
노 원
정 두
하 니</w>
' 의</w>
상 대로</w>
국가 의</w>
동 의</w>
01D5E 6F
중앙 당</w>
6 4
눈 에</w>
배 치
인터 뷰</w>
선거운동 을</w>
워 크
탈 락
국무총리 는</w>
따 뜻
디지 털
E 8
메 르
못 할</w>
석 패
심 한</w>
열 리는</w>
현 지
경 고
오 랜</w>
제 조
구 을</w>
곳 을</w>
그 것은</w>
0000 0000
선거 용</w>
k e
” 며</w>
당 권
하나 의</w>
고 속
어 쨌
취 업
했 는데,</w>
그렇 다면</w>
01D5D FB
영 국</w>
함 수</w>
명 백
의 장은</w>
품 을</w>
이끌 어
보 지</w>
주 지</w>
초 등
서비 스</w>
얘 기가</w>
신 분
할 지</w>
안 에서</w>
앵 커
계 기로</w>
비 리</w>
외 에</w>
제 일</w>
막 기</w>
있 는지</w>
천 정
취 임
았 습니다.</w>
고위 공직자
마 치</w>
완 성
있 다"고</w>
접 근
선거 운동</w>
광 명
심 사</w>
모 른
일 에는</w>
충 북</w>
201 8
움직 임
7 B
원 래</w>
주 문
flas h_
2 C
C all
부 끄
우회 하기</w>
비 전
대표 적인</w>
46 5
rem ove
구 로
원 장</w>
정치인 이</w>
노 인
정 보</w>
&amp; oid=
싶 다.</w>
조 선</w>
연구 소
flas h</w>
_ flash_
부 패
추가 function</w>
back ()</w>
Call back()</w>
remove Callback()</w>
_flash_ removeCallback()</w>
6 9
는데 도</w>
마음 이</w>
2 000000
자 본
폐 기
사람 의</w>
' 으로</w>
사 와</w>
느 낌
졌 습니다.</w>
혹 은</w>
호 를</w>
김부 겸</w>
( 결정</w>
말 한</w>
효과 가</w>
적극 적인</w>
K T
규 탄
비 박
일 방
꾸 준
완 화
유튜 브
’ 라고</w>
연 락
정책 이</w>
유 증</w>
일 하는</w>
의원 에게</w>
아닌 가</w>
국 이</w>
나 를</w>
해 진</w>
새정치민주 연합
쓰 고</w>
s /
시작 했다.</w>
요구 하는</w>
[ 연합뉴스
그 것을</w>
주 신</w>
5 .</w>
스 를</w>
진 을</w>
됐 다</w>
취 소
치 기</w>
군 의</w>
수 많은</w>
피해 를</w>
1 ,</w>
수 정</w>
후 에</w>
법무 부
6 2
정신 을</w>
대 화를</w>
주 재
당선 된</w>
1 년
a p
정청 래</w>
googletag.display(\'div-gpt-ad-15 670
googletag.display(\'div-gpt-ad-15670 434
오 고</w>
돈 을</w>
기득 권</w>
자 랑
조 대
회 동
변호 사는</w>
@se daily
적 합
59 465
googletag.display(\'div-gpt-ad-15670434 59465
googletag.display(\'div-gpt-ad-1567043459465 -0\');</w>
점 에</w>
서울 중앙
이명 박
이익 을</w>
/ 2
관 리</w>
.k r</w>
가능 성</w>
사태 가</w>
있으 며,</w>
스럽 게</w>
연 금
집 회를</w>
창 원</w>
주민 들의</w>
경찰 청
등 에서</w>
방 문</w>
출신 인</w>
벗 어
축 하
헌 법</w>
총리 를</w>
[' //</w>
평가 가</w>
0,s c:</w>
시 대를</w>
강원 도</w>
무 기
봅 니다.</w>
시민 들이</w>
위해 서
긴 급</w>
실 장은</w>
통 계
당 당
말 도</w>
선 ,</w>
자 들
어려 움을</w>
01D5E8F18CFB9D00000005D 6,ch:</w>
정부 에서</w>
감사 합니다.</w>
상태 다.</w>
감염 증
지 배
et /
79 364
googletag.display(\'div-gpt-ad-15 589
479 79364
googletag.display(\'div-gpt-ad-15589 47979364
googletag.display(\'div-gpt-ad-1558947979364 -0\');</w>
식 의</w>
확 장
간담 회를</w>
사 전
3 년
포 스
다 시
대 립
위 기를</w>
모르 겠
김종 인</w>
신속 처리
한 경
때 가</w>
면 이</w>
상 에</w>
조 정</w>
모르 는</w>
한겨 레
었 다</w>
권 역
스 크
일 정을</w>
놓 은</w>
역 사</w>
표 결
행 위를</w>
지도 부</w>
행보 를</w>
비 가</w>
최고위원 회의에서</w>
공무 원</w>
직 원
일본 이</w>
@hankyung.com ']</w>
B C
내 용</w>
수 익
어 를</w>
이 )</w>
있 는데,</w>
해 ,</w>
현 장에서</w>
그 를</w>
민 생</w>
사 령
지 명
참 모
축 소
다 수</w>
0 3
중 도</w>
0, f
오른 쪽
한 데</w>
예비후보 ,</w>
격 려
계 산
됐 다는</w>
자 산
프로그 램
분 당
수 립
01D5C D
년 대</w>
물 론
민주당 을</w>
올랐 다.</w>
거 다.</w>
박 종
사 유
함 으로써</w>
총선 과</w>
기록 했다.</w>
연기 )</w>
섰 다.</w>
법 ,</w>
비례대표 제</w>
담 은</w>
뿐 이다.</w>
있 습니다.
left &gt;</w>
성 의</w>
출마 하는</w>
불 거
대한민국 이</w>
“ 이</w>
말 은</w>
배 출
석 으로</w>
올 리
회 장이</w>
구 는</w>
총 재
3 A
말 이다.</w>
버 린</w>
2 F
200 0
설 치</w>
최고 의</w>
부분 에</w>
방문 해</w>
돼 지
않 아
news.naver .com/
광 역시</w>
끝 나
방 지
해 외</w>
김 명
소 송
은 ,</w>
최 대
필요 하다.</w>
전문 가</w>
. 12
가 짜
확 산</w>
제3 유증</w>
법 인</w>
와 는</w>
조 속
더 민주
민 의</w>
엄 청
이 다
적 지</w>
제 목
지 어</w>
하 다”고</w>
보건 복지
s id
거 듭</w>
건 설</w>
것 인지</w>
법 조
이 영
{ }
제 한</w>
윤 리
있 으며</w>
청 사에서</w>
해 가</w>
민주당 에</w>
0,b c:</w>
false,s t:</w>
c on
데이 터
v :</w>
민주 화</w>
19 5
자 체</w>
확실 한</w>
게 임
av :</w>
지역 이</w>
news.naver .com</w>
장 도</w>
평 택
울산 시장</w>
01D5AD 8
s u
.k r/
대안 신당</w>
칼 럼
대통령 에게</w>
on e
포함 해</w>
대구· 경북
, s
지 에서</w>
평 을</w>
특별 위원회</w>
의 장</w>
사태 를</w>
변화 가</w>
5 .
기 부
제 정
os un
않 습니다.</w>
자 .</w>
자 에게</w>
시작 한</w>
0 F
갈 등을</w>
삼성 전
외 교</w>
여기 서</w>
그 간</w>
데 도</w>
50 %</w>
후보 자가</w>
.com/ news/articleView.html?idxno=
탄핵 을</w>
것 ”
교 체</w>
투 명
그렇 지</w>
합 류
해 왔다.</w>
부분 이</w>
어쨌 든</w>
각 오
이 처럼</w>
형 을</w>
0,t c:</w>
십시오 .</w>
h w
앞 으로도</w>
대 폭</w>
수 ,</w>
펼 쳐
시장 에</w>
4 차</w>
실 무
등 도</w>
중 한</w>
0, lt:</w>
검찰 개혁</w>
200 8년</w>
않을 까</w>
치열 한</w>
알 리고</w>
생각 하고</w>
1 위를</w>
2 ·
계 는</w>
차 이가</w>
협 조
사회 가</w>
font-family :
기 지</w>
신 청</w>
주 장을</w>
여러분 의</w>
3 ·
’ 이라고</w>
갈 등</w>
비 리
처 리를</w>
출 범</w>
아무 런</w>
균형 발전
개 선</w>
중 구</w>
이재 명</w>
" 고</w>
는가 ?</w>
@sedaily .com
년 까지</w>
차 량
했 으며,</w>
대 에서</w>
01D5 DA
지지율 을</w>
리 스트
상 승</w>
지금 도</w>
선 생
타 임
인가 .</w>
사랑 하는</w>
오 직</w>
기획 재
o o
불 과</w>
집 회
경쟁 을</w>
랜 드
정 ·
하겠 습니다
양 보
직 무
E S
개 최</w>
경 상
동 참
개혁 의</w>
진중 권</w>
wit ter</w>
도 와
명 분
배 를</w>
중심 의</w>
질문 을</w>
대통령 에</w>
01D5D 27
_ n
경우 가</w>
마 감
여 서</w>
회 사</w>
전략 을</w>
나 마</w>
승 리</w>
지적 이</w>
맞 서</w>
보 복
화 된</w>
층 의</w>
크 다.</w>
정권 에</w>
대 북
연 을</w>
촬 영
텃 밭
힘 든</w>
요구 를</w>
상대 적으로</w>
T witter</w>
ht :</w>
것이 다.\xa0
김 두
이 렇
보 면서</w>
성 ·
이 석
이 길</w>
요. ◎</w>
01D5B 4
비슷 한</w>
민정 수석
9 4
당 내
주 체
후보 자의</w>
18 세</w>
참여 할</w>
내 린</w>
상 실
올 린</w>
비판 이</w>
도 입</w>
부 인
대상 이</w>
여러분 !</w>
온라 인</w>
이 완
위원장 으로</w>
&amp; ranking
바이 오
A 8
좌 파</w>
선거 관리위원회
조사 에서</w>
개정 안</w>
m arg
방 역</w>
관련 ,</w>
무엇 을</w>
의 정부
장 외
협 상을</w>
원칙 을</w>
최악 의</w>
marg in
국정 농
데 이</w>
범 위</w>
비 핵
이 성
마지막 으로</w>
요 일</w>
추 구
있었 습니다.</w>
말씀 드리
가 의</w>
강 원</w>
기 ,</w>
도 당</w>
불 리는</w>
가까 이</w>
' 라는</w>
( A
바 라는</w>
에 이
하 실</w>
가 격</w>
시 당</w>
시민 단체
철저 히</w>
사 설
1 6</w>
공 모
아 름
통 과</w>
다음 에</w>
@sedaily.com &lt;저작권자</w>
지 향
x 250
이 사</w>
대통령 ,</w>
한국당 에</w>
새정치 연합</w>
250 x250
lin k
5 6
c n
군 이</w>
사회 에</w>
googletag.display("google_dfp_MC_ 250x250
googletag.display("google_dfp_MC_250x250 "
1 1</w>
7 4
w id
모 아</w>
1 만
사실 은</w>
이 주
저 항
지 자체
페이스 북</w>
치러 지는</w>
거 기
나 의</w>
네 ,</w>
식 에서</w>
학 생</w>
여러분 ,</w>
받 으
자 율
}]}]}, 01D5E8F18CFB75F000000
생 을</w>
진 단
함 이</w>
출마 가</w>
“ 문재인</w>
하 다가</w>
0 B
두 려
참 으로</w>
창 업
해주 세요
이언 주</w>
각 을</w>
방 을</w>
세 금
폐 렴
때문 입니다.</w>
장관 과</w>
강 서
긴 급
논 리
수 산
정 경
에서 ,</w>
기자 ][ⓒ</w>
방향 으로</w>
[ 아시아경제</w>
가 입
경 산
발 휘
중 립
국회 의원은</w>
U A
결 혼
@han i.co.kr
한마 디
박 성
시 의회</w>
제 에</w>
검 색
소 환
시 아
치 가</w>
한국당 과</w>
통합 이</w>
범죄 수사
; }
인 프
전 광
전해 졌다.</w>
갑 자기</w>
답 을</w>
201 3년</w>
참여 를</w>
al :</w>
어려 울</w>
협의 회</w>
d =
징 역</w>
하 라는</w>
도 약
많 았
방 안</w>
01D5B 6C
변화 와</w>
미세먼 지</w>
꿈 을</w>
되 자</w>
위 기에</w>
키 우
청와대 와</w>
나아 가</w>
나 가는</w>
반 박
더불어민주당 과</w>
범 죄</w>
장 )</w>
시장 ,</w>
드 리고</w>
보 니까</w>
일 의</w>
정 은</w>
의원 들</w>
부 각
집 값
나라 의</w>
시 청</w>
혁 명</w>
교육 을</w>
보다 도</w>
다 녀
물 어
선거 인
4 F
새정치 연합
네 티
도 덕
오 래
체 제</w>
국회의원 ,</w>
17 대</w>
기본 소득
분 석</w>
본 인
사 하
씨 를</w>
자 주</w>
정치권 의</w>
기자회견 에서</w>
고 위</w>
내 기</w>
대 신
해 서
P K
을 에</w>
패스트트랙 (
사 이에</w>
중 구
포 용
하 는지</w>
지속 적으로</w>
왜 냐
이 다.\xa0
재 보
캠 프
아니 라,</w>
%포인 트
네이 버
관 심</w>
남 아</w>
차 단
평 론
8 4
가 슴
가 족</w>
갈 등이</w>
결 의
기 술</w>
김 광
바 닥
입 법</w>
질 의
01D5E 6C
개정 안
재 산
인사 들이</w>
나 라는</w>
님 ,</w>
않 게</w>
장 소
정 계
우리공화 당</w>
말 에</w>
묻 는</w>
0, e
시스 템</w>
3 000000
m .
엄 마
영 호</w>
먹 고</w>
이야 기</w>
북한 이</w>
시 청
음 이</w>
합의 를</w>
선택 을</w>
격 전
복 합
전 부터</w>
절 실
문제 로</w>
거 기에</w>
낡 은</w>
b el
되 는데</w>
보 시
이유 를</w>
~ ~
광 산
높 다.</w>
이 달</w>
4+ 1</w>
c ate
font-si ze
f e
완 료
이 겨
주 류
하였 습니다.</w>
야 당은</w>
k :</w>
것 이라며</w>
복 잡
율 이</w>
태 어
... .</w>
반대 하는</w>
[ 출처
유 력</w>
4 25
누 군
양 정
인 근</w>
주 식
현 수
정책 의</w>
도시 로</w>
분 에</w>
비 판</w>
재 생
새 보수당</w>
생 명
역 사를</w>
자 리</w>
초 선</w>
01D5B 7F
나타 났
유일 한</w>
C 5
l u
개 인</w>
년 에는</w>
받 게</w>
않 으
발생 한</w>
남 구
살 리
지 구</w>
10 년</w>
' 고</w>
못 해</w>
었 다.
대 로
들 로</w>
순 으로</w>
하겠 다
( 왼쪽
국회 로</w>
0, ht:</w>
총선 에서는</w>
false },
01D5E AA
내용 의</w>
지도 부가</w>
선관 위</w>
진 흥
민주주의 의</w>
/ 20200
기 후
생 태
종 교
좋 겠
경제 적</w>
시장 과</w>
t o</w>
15 0
font-size :
달 라는</w>
유 럽
리얼미 터
효과 를</w>
도 대체</w>
분 수
외 에도</w>
\xa 01
뒤 집
부 지
대 사
점 이다.</w>
중 ·
탈 당</w>
20 22
정책 과</w>
청와대 에서</w>
&amp;ranking S
콘 텐
여론 이</w>
상 품
점 도</w>
했 다가</w>
.ch osun
강 기
상 은</w>
자 도</w>
민주 노
원내 대표,</w>
go ry
L E
M I
비 공개</w>
외 부
원 과</w>
설 이</w>
후보 자는</w>
인도 네
모 아
법안 이</w>
www .k
wid th
공 보
중 에서</w>
하 늘
마음 으로</w>
새로운 보수
박영 선</w>
" 라고</w>
순 간
윤 소
지 .</w>
하겠 다</w>
김세 연</w>
인 물</w>
해 선</w>
01D5E 14
관리 위원회</w>
신뢰 를</w>
가 정
기 의</w>
무 조건</w>
고위공직자 범죄수사
광 주시
권 에</w>
맞 붙
화 에</w>
시작 으로</w>
위원회 에서</w>
' 가</w>
창 당을</w>
기자회 견</w>
신천 지</w>
결 심
하 는데,</w>
기업 이</w>
오늘 의</w>
지하 철</w>
7 3
연 계
채 널
취 약
타 당
+ 1</w>
2 A
활성 화</w>
소중 한</w>
} }
무 당
전 두
T K</w>
고 맙
이야 기가</w>
심판 론
여론조사 에서</w>
고 요.\xa0
교 통</w>
그 만
모 색
1, d
어렵 다.</w>
반도 체</w>
! !
트 위
면 으로</w>
쓰 는</w>
아 쉬
홈페이 지</w>
la bel
지 식
대표 에</w>
가 시
거 대</w>
맞 지</w>
보 낸</w>
주 차
인가 ?</w>
한 선
대선 주자</w>
출신 으로</w>
고 한</w>
도 서
교수 가</w>
채 택
논란 을</w>
최고위원 은</w>
과학 기술
cate gory
협 정
자유한국당 을</w>
개 인의</w>
거 라고</w>
도 와</w>
있 다.\xa0
총 괄
선거구 에</w>
기사 로</w>
확진 자가</w>
C C
억 원을</w>
종로 에서</w>
어린 이
출처 =연합뉴스
( 전</w>
, c
의혹 이</w>
부터 는</w>
가 게</w>
내 세우
선 에서</w>
야 말로</w>
재 정</w>
조 경
직 한</w>
필요 하다고</w>
네티 즌
포 퓰
false, l
g :</w>
동 물
들 이
공천 관리위원회
0,l w:</w>
false,b t:</w>
1 호</w>
가 기
인 가</w>
협 력</w>
fo :</w>
ty :</w>
아닙 니다.</w>
6 ·
6 월
t p:</w>
동 에</w>
사 안
10 5
참석 했다.</w>
h i:</w>
단 식을</w>
자 녀
10 월
do :</w>
, as:</w>
p b:</w>
{ a
비 중
0, a
0,o l:</w>
진영 의</w>
1417, or:</w>
true, hi:</w>
false,f a:</w>
1417,o t:</w>
1417,o b:</w>
' (
. han
C li
대 회</w>
청와대 의</w>
보좌 관</w>
( 사진
acebo ok
과 도
그 만큼</w>
차 관
친 문
국무총리 와</w>
마 땅
숨 을</w>
원 종
이 걸</w>
주 년</w>
투 데이</w>
현 안</w>
후보 자를</w>
지역 위원장
201 0년</w>
1 0,
철 학
시작 된</w>
알려 진</w>
. daum.n
4 29
강 남</w>
해 체
있으 니</w>
물갈 이
p o
살 고</w>
서 산
양 대</w>
조 항
진 상
가운 데
ㅡㅡㅡㅡㅡㅡㅡㅡ ㅡㅡㅡㅡㅡㅡㅡㅡ
물 리
종 의</w>
이라 면서</w>
인터 넷</w>
정유 경
기 타</w>
끝 난</w>
0, si:</w>
이번 에는</w>
박정 희</w>
[ 이미지
내 다
에 스
하 러</w>
당협 위원장
인구 가</w>
2, m
425 2,m
f ig
세 훈
아 무</w>
있 느냐
초 선
호 ,</w>
e q
반 성
심 지어</w>
종 료</w>
파 주
정부 ,</w>
정부 서울
석패 율
S B
또 다시</w>
보 며</w>
이 수
꾸준 히</w>
= 뉴시스
본 격</w>
선 전
예 비</w>
자 들</w>
했 다며</w>
기준 을</w>
춘 천
◎\xa0 정유경
[연합뉴스 ]
스 가</w>
지역구 에서</w>
생활 을</w>
오신 환</w>
달 려
동 일
양 국</w>
정 작</w>
탄 생
흘 러
저희 가</w>
어르 신
대 출</w>
박 주
상 처
주 최
인사 는</w>
그 들의</w>
내 리
헌법 재판
4 년
구 미</w>
정의 당의</w>
그 럴</w>
깨 끗
참여 하는</w>
어려 워
목표 로</w>
임종 석</w>
미 추
상 생
수 에</w>
[이미지 출처=연합뉴스
서 가</w>
대응 을</w>
모양 새
( 전
2 .0
구 설
만 으로</w>
01D5E 7
확진 자</w>
기 와</w>
두 에</w>
것이 라</w>
자유한국당 과</w>
최고 위원</w>
경선 에서</w>
공수처 법</w>
기 생
부 상
분 담
상 식
공 원</w>
법 의</w>
변 화</w>
전당대 회</w>
5 B
경 쟁</w>
권 과</w>
베 트
신 인
준 연동형</w>
하 면서도</w>
정당 으로</w>
고등 학교</w>
8 00
나 ?</w>
연 장</w>
자 들과</w>
너무 나</w>
되 며</w>
분 은</w>
보여 주
sp an</w>
과 정</w>
분 들은</w>
집 계
최초 로</w>
( G
때 부터</w>
지 냈
아니 라고</w>
국회의원 의</w>
-0 2
내려 놓
물갈 이</w>
네이 버</w>
s _
달 성
최 소</w>
합 동
대표 로</w>
열린 우리
D F
재 단</w>
인사 가</w>
정청 래
프레 임
플 랫
교섭 단체</w>
@joongang.co.kr ']</w>
0 E
명 이다.</w>
정 계</w>
제 공</w>
회 관</w>
발언 하고</w>
3 개</w>
권 은</w>
뚜 렷
정 비
죄 를</w>
차 원의</w>
치 며</w>
화 ,</w>
선거 제도</w>
주장 하는</w>
대 화</w>
박 지원
석 의</w>
1 ·
해 달라
아 \xa0&gt;\xa0
풀 어
11 월
부분 은</w>
자동 차
# 홍
따 로</w>
) 으로</w>
법 사
의 사</w>
va r</w>
닷 컴</w>
마 산
소 가</w>
이 니</w>
모습 이</w>
기반 을</w>
여당 인</w>
ne w</w>
; function</w>
된 다”고</w>
얻 은</w>
체 계
1번 지
l o
유 재
자 들에게</w>
힌 다.</w>
예산 안</w>
소중 히</w>
매 년</w>
성 사
의미 를</w>
가 로
나 와
넘 게</w>
준 호</w>
◎\xa0정유경 \xa0&gt;\xa0
랜 드</w>
민 ·
보 완
신 용
여 당은</w>
집 값</w>
201 50
선거구 는</w>
5 월
더 ·
원 전</w>
한국 갤
대선 에서</w>
아 프리
자 유</w>
의원 )</w>
구체 적으로</w>
맡 아</w>
빠 른</w>
정 태
회 사
밝혔 다</w>
무 력
태극 기</w>
5 000
설 계
어 머니
재 선
위원회 (
대한민국 은</w>
) 로</w>
나 눠
혐 오
홍 문
것이 고</w>
포퓰 리
: 2
단 계</w>
지방 선거에서</w>
입장 에서</w>
실시 한</w>
겪 고</w>
면 에</w>
세 에</w>
제 주</w>
트 리
국가 가</w>
이상 을</w>
계 시
동 주</w>
주 변</w>
친 일
규모 의</w>
감 찰
대 형</w>
혜 택
추진 하는</w>
사람 들의</w>
◎\xa0 김진
본격 적으로</w>
m o
동 이</w>
의 료</w>
지지 도</w>
시간 )</w>
논 쟁
압 승
8 7
인재 영입</w>
권 력</w>
특 정
\' );
공천 에서</w>
&amp;aid= 000
# 김
때 ,</w>
성 향</w>
전 문</w>
출신 의</w>
누구 나</w>
\'dablewidget_37J4nBXN \');
\'dablewidget_37J4nBXN\'); (function(d,a,b,l,e,_)</w>
법 제
전 쟁</w>
덧붙 였다.
기 회가</w>
빠 르게</w>
아 침</w>
했 었
아니 겠
il bo
어떠 한</w>
’ 와</w>
점 점</w>
조 기</w>
배당 금
/ w
말 했다</w>
전 까지</w>
회 장을</w>
정도 의</w>
공 포
윤 상
100 %</w>
준비 하고</w>
79 34
행복 한</w>
◎\xa0김진 아\xa0&gt;\xa0
· 이
대 목
맡 은</w>
발 굴
하 이
자동 차</w>
로 도</w>
D ate
강 동
믿 고</w>
연 금</w>
우 세
죠 ?</w>
구청 장</w>
[ \'
“ ‘
력 과</w>
상 업
승 인</w>
신 의</w>
질 병
업 체</w>
위 와</w>
정 쟁
do main
정무 수석
번호 :
구 자
여 자
잠 시</w>
경남 도
, {\'
- -</w>
A R
s \':
| 후원
은 혜</w>
했 으면</w>
행 사를</w>
\' :</w>
\' ]}
\' 기사
\' 후원</w>
\' UA
\' ,{\'
er .push(arguments)
er \':
검찰 청
() );
ay .han
\',\' event_
js \',</w>
[] ;function</w>
(){ dataLay
39 7934
}); gtag(\'
gtag (){dataLay
-15 397934
sp ay.han
event \',\'
{\' link
{\' domain
\': \'후원</w>
gtag(\' con
gtag(\' js\',</w>
노출 :
노출 \',\'event_
i.co.kr \']}
event_ category
4-2 \',</w>
cn spay.han
;} gtag(\'js\',</w>
label \':</w>
fig \',</w>
Date ());
[\' cnspay.han
s\': [\'cnspay.han
|후원 노출:
\'기사 번호:
\'UA -15397934
\',{\' event_category
er.push(arguments) ;}gtag(\'js\',</w>
er\': {\'domain
});gtag(\' event\',\'
gtag(){dataLay er.push(arguments);}gtag(\'js\',</w>
{\'link er\':{\'domain
gtag(\'con fig\',</w>
노출\',\'event_ label\':</w>
i.co.kr\']} });gtag(\'event\',\'
Date()); gtag(\'config\',</w>
s\':[\'cnspay.han i.co.kr\']}});gtag(\'event\',\'
\'UA-15397934 4-2\',</w>
\',{\'event_category \':\'후원</w>
{\'linker\':{\'domain s\':[\'cnspay.hani.co.kr\']}});gtag(\'event\',\'
망 을</w>
박 형
음 .</w>
채 용
시민 사회
36 0
http:// news
현재 의</w>
이후 에</w>
부 평
용 산</w>
커 지고</w>
확 충
지지 하는</w>
24 4
( 50
건 의</w>
이 유</w>
테 이
입니 다
촉구 했다.</w>
경 영</w>
동 안
지 대</w>
에서 만</w>
새누리 당이</w>
부분 을</w>
정치권 에</w>
인 에</w>
한 의</w>
통합 에</w>
대학 교
안타 깝
패스트트랙( 신속처리
돌 려
se _
2020 .01
i c
연 기</w>
“ 이번</w>
소 에</w>
200 4년</w>
신 도시</w>
업 을</w>
홍준 표
분 들의</w>
하 태
훈 련
보좌 관
지소미 아
감 염</w>
게 도</w>
까 지도</w>
이 틀
쳐 야</w>
출 근
공천 이</w>
L S
원 장은</w>
가 산
고 소
군 은</w>
철 도</w>
친 문</w>
최저 임금</w>
j e
겠 습니다</w>
구 민
중 랑
진 료
미 칠</w>
사진 을</w>
준비 를</w>
무상급 식</w>
L G
갖 추
카 카
게 다가</w>
십 니까
아 들</w>
양 극
일 간</w>
참 사</w>
새누리 당의</w>
새누리 당은</w>
무 려</w>
정 으로</w>
허 위
력 은</w>
공 산
30 %</w>
&amp; sid
언론 에</w>
성 장을</w>
없 고,</w>
없 다”며</w>
인 적</w>
선거 법을</w>
관측 이</w>
3 .
당 시
본 인의</w>
제 ,</w>
201 7
진행 된</w>
fo r</w>
추가 로</w>
6 .</w>
말 할</w>
사 전</w>
증 권
보 를</w>
원 본</w>
조 심
수 (
왔 던</w>
위 안
의 견</w>
회 (
원내 대표의</w>
[출처 ]</w>
깊 고</w>
모 으
제 안을</w>
체 제를</w>
총 장</w>
포인 트
th e</w>
량 이</w>
이뤄 질</w>
다 행
반 대로</w>
버 렸
수 입
자세 로</w>
d e
일 관
남 기</w>
반 면,</w>
여 권의</w>
한 다"며</w>
떨어 진</w>
일으 키
대 외
부 로</w>
전 의</w>
홍 익
환 자</w>
전망 이</w>
댓 글
수준 에</w>
거 죠.</w>
벗 어나
평 균
폐 렴</w>
분위 기가</w>
탄 을</w>
테 러
정책 으로</w>
,t b:</w>
바꾸 는</w>
ㅋㅋ ㅋㅋ
본 회의에서</w>
인 지도
(5 7
돌아 가
한겨 레</w>
naver .
쓰 겠습니다.</w>
역 량을</w>
일 도</w>
정당 과</w>
40 대</w>
이사 장은</w>
하자 고</w>
기존 의</w>
[ 편집
나 리
보 였
지 정</w>
투 쟁</w>
.1 8</w>
데일 리
의원 회관에서</w>
창당 준비
께 서는</w>
나 쁜</w>
수 호
전 세
하나 가</w>
가 동
방 법을</w>
신 인</w>
일 제
활 발
여러 번</w>
과 도</w>
목 적
타 고</w>
67 29
이 지만,</w>
KB S</w>
대 정부
동 대문
오 랫
출 생
했 다"고</w>
화 와</w>
\' });
라 면서</w>
버 리
폭 로
유리 한</w>
본 회의를</w>
윤 동주</w>
49 6729
일자 리를</w>
429 496729
7 월
만 원을</w>
일 어나
사회 에서</w>
n one
u s
극 단
기 재
우 수
평 등
것이 고,</w>
전략 공천</w>
건 이</w>
들 께</w>
머 물
시민 과</w>
429496729 5,
국 을</w>
보고 서는</w>
2009 년</w>
I S
분 기</w>
전 개
갈 등
꼬 집
느 껴
성 격
소 에서</w>
안 내
치 게</w>
200 7년</w>
수사 에</w>
% 는</w>
사 장</w>
세 요</w>
경험 이</w>
약속 을</w>
응원 해주세요
F F
구 조</w>
드 리는</w>
모 를</w>
일 과</w>
조 용
축 산
다음 과</w>
도 에서</w>
이 날
받아 야</w>
< span</w>
메 이
번 의</w>
증 명
부족 한</w>
천정 배</w>
감염증 (
D e
률 을</w>
맞 이
벌 이고</w>
여 론</w>
빠 진</w>
소 식
을 은</w>
en t</w>
가능성 은</w>
계 파</w>
부담 을</w>
S K
길 로</w>
많 아
무 산
얻 을</w>
졌 다</w>
하 에</w>
결 단
의 지가</w>
자 (
체 를</w>
01D5E 5
2 )</w>
수 단
지 요.</w>
선 동
9 000000
실 업
만들 었
미추 홀
빠 져
시 정
알 찬</w>
주 제로</w>
하겠 습니다</w>
&amp; m
======== ========
1 D
[ 사진</w>
아 동
아 세
야 만</w>
양 승
예 상</w>
벌 써</w>
사업 이</w>
사건 이</w>
내 일</w>
자신 들의</w>
분석 이</w>
김정 은
담 을</w>
맞 춤
제 와</w>
지 사의</w>
국민 들</w>
ri g
보답 하겠습니다
현지 시간)</w>
대 와</w>
발 광
행 위</w>
현 장을</w>
수사 가</w>
설명 했다.
Y ES
봐 도</w>
상 관
se ri
2 x
갖 춘</w>
님 과</w>
윤 영
피 의
의원 들을</w>
아니 었
교체 를</w>
#21대 총선</w>
가 )</w>
오 래</w>
30 대</w>
여론 조사를</w>
.n et</w>
입장 에서는</w>
가 지로</w>
부 품
의 가</w>
, h
계 기가</w>
대 결</w>
사 기
신 도시
진 심으로</w>
김진 태</w>
바 꿀</w>
입 성
신 고</w>
예 정</w>
활동 에</w>
공 부
선 포
하겠 다"고</w>
경우 에는</w>
02 .1
걸 로</w>
맞 춰</w>
진 입
개정 안을</w>
판단 을</w>
☎ \xa0
것 "이라며</w>
공 시
박 용
의 왕
차 로</w>
청 원
충 주
캠 페
( 0
걸 쳐</w>
공 익
노 선
상 당한</w>
8 3
것 .</w>
마 무
1 호
9 3
날 이</w>
떠 나</w>
추 모
포 럼
보고 서를</w>
해결 을</w>
후원 하기
왜냐 하면</w>
10, 000원
Y \'});
a ticle
h y
세 워
원 진실을</w>
중 간
폭 력</w>
호 텔
1, 000원후원</w>
후원 원진실을</w>
방향 을</w>
5, 000원후원</w>
--> 후원하기
_n o</w>
|후원노출: Y\'});
{\'linker\':{\'domains\':[\'cnspay.hani.co.kr\']}});gtag(\'event\',\' YES
응원해주세요 ,</w>
10,000원 후원원진실을</w>
aticle _no</w>
-->후원하기 응원해주세요,</w>
|후원노출:Y\'}); var</w>
{\'linker\':{\'domains\':[\'cnspay.hani.co.kr\']}});gtag(\'event\',\'YES \',{\'event_category\':\'후원</w>
” 는</w>
그 들이</w>
않 다는</w>
제 20대</w>
보답하겠습니다 후원</w>
눈 을</w>
닷 컴
중앙 일보
가운 데,</w>
시대 의</w>
다 운
대 회를</w>
스 의</w>
접 수
관련 해서</w>
감 사</w>
비 전을</w>
지 자</w>
확 신
이해 찬
습니까 ?
% 였다.</w>
위 하여</w>
중 심</w>
지 기</w>
정책 은</w>
부산 ·
수준 의</w>
bo t
( 7
( 서울</w>
꿈 꾸
나 무
해 명
에너 지</w>
가 량</w>
광 장에서</w>
십 니까?</w>
파 일</w>
김현 미</w>
seri f
고 성
권 유
년 ,</w>
상 호</w>
실 행
여 명이</w>
지 혜
한국 은</w>
경제 에</w>
노 영
박 상
아 주
id "
사람 들</w>
1,f lu
googletag.display("google_dfp_MC_ 2x
1,flu id"
googletag.display("google_dfp_MC_2x 1,fluid"
· 정
기 호</w>
소 리를</w>
후보 들이</w>
책임 이</w>
.htm l</w>
t b
되 게</w>
야 당을</w>
의 도
초 대</w>
언급 한</w>
공 을</w>
깊 이</w>
조 직</w>
했 습니다.
현실 을</w>
알 겠습니다.</w>
조 성</w>
포 토
군 소
날 을</w>
문 의</w>
번 도</w>
콘 서
만들어 야</w>
밀어 붙
엄청 난</w>
0 4
2 B
끄 는</w>
남 성
미 니
버 스</w>
조 원</w>
청 주</w>
학 과
사회 복지
.0pt ;
A 4
드 릴</w>
정 해
민주당 ,</w>
이어 질</w>
htm l
감 치</w>
부 총리</w>
5· 18</w>
난 다.</w>
와 이
0, co:</w>
8 월
디 자
아 카
(서울 =연합뉴스)</w>
압수수 색
끼 리</w>
뒤 에</w>
번 에</w>
부 인</w>
신 중
지도 부에</w>
이 대로</w>
인 들의</w>
보수 가</w>
미래통합 당
김재 원</w>
안타 까
데일 리</w>
건 립
고 가</w>
노 회
농 어
01D5E 3D
사태 로</w>
0,m l:</w>
생 존
false, m
false, ae
미래통합 당은</w>
false,a a:</w>
적절 한</w>
false,ae :</w>
! !!</w>
박 한</w>
유 통
이 같은</w>
혐 의</w>
이정 현</w>
h er
k im
기 소</w>
능 력을</w>
님 은</w>
이 기는</w>
인 생
장 례
군 을</w>
직 권
사건 에</w>
규 제를</w>
대 안을</w>
본 회의에</w>
소 리</w>
요구 에</w>
공직 선거법
3 당</w>
그 것도</w>
최 경
제시 했다.</w>
true, s
4 00
건 너
격 한</w>
룸 에서</w>
일 찌
do so
지도 부는</w>
[' 이낙연</w>
감 시
다 를</w>
분 들</w>
신 년</w>
유 의</w>
잡 는</w>
층 이</w>
사진 =연합뉴스
대변인 이</w>
&amp;sid 1
가 르
갑 ·
나 지</w>
농 민
한 컴
교과 서</w>
하 면,</w>
자유한국당 에</w>
하나 는</w>
: \xa0
신 규</w>
실 에</w>
제 품
검찰 을</w>
여러분 께</w>
다 수
잠 재
주민 들이</w>
(5 8
작업 을</w>
일각 에서는</w>
doso 7
0 px;</w>
1 )</w>
남 아
될 지</w>
이 준
쳐 서</w>
출마 해</w>
.co.kr/ news/
단 수
모 여</w>
유 시민</w>
일 꾼
있 음을</w>
전 화</w>
효 율
# 국회의원</w>
4 선</w>
기 대한
않 고,</w>
충 격
민주 적</w>
대학 생
산업 의</w>
경쟁 이</w>
조선 일보</w>
· 무
걸 어
구 역
꼽 히는</w>
시 선
인물 이</w>
95 %</w>
/ 연합뉴스
과 천
추 경</w>
테 크
유권 자의</w>
김병 준</w>
벤처 기업
마 케
상 으로</w>
선 정</w>
신 동
화 하는</w>
2015-0 4
관 광</w>
김 승
무 관
이 광
MB C
01D5D70 BF
01D5D70BF DA
보 냈
심 사를</w>
어 깨
발전 에</w>
권력 의</w>
구 나</w>
뒷 받
운 운
총 장은</w>
" (
검 경
남 지</w>
늦 게</w>
렀 다.</w>
수 석</w>
이 원
19 80
위성 정당</w>
기 조
부 처</w>
졌 던</w>
죄 송
후보 에게</w>
사람 들을</w>
si te
경선 에</w>
제안 한</w>
01D5DA 6
1 20
남 용
신 종
요 구</w>
후보 에</w>
뉴스 ]</w>
그렇 다고</w>
사퇴 를</w>
일찌 감치</w>
한컴 바탕,t
/ html
민 간</w>
없 애
토 대로</w>
도전 장을</w>
중앙선거 여론조사
직 속</w>
특별 한</w>
경 계
손 혜
확 정</w>
외교 부</w>
( 10
7 C
골 목
곳 이다.</w>
올 바른</w>
측 이</w>
판 에</w>
노동 자</w>
acebook .com/
오랫 동안</w>
다 ,\xa0
몸 을</w>
질 문</w>
역사 적</w>
im ag
blog.naver .com/
( 여러번</w>
갑 에</w>
인 수
입 당</w>
제 재
집 중</w>
찾 은</w>
현 충
경우 는</w>
번째 로</w>
고위공직자범죄수사 처
. ◎</w>
명 도</w>
없 기</w>
자 부
함 에</w>
화 하고</w>
\xa0 \xa0</w>
행정 관
선진 화
던 진</w>
버 리고</w>
원내 대표를</w>
과정 에</w>
국회의 장</w>
서울시장 이</w>
blog.naver .com</w>
기획재 정부</w>
선 배
그러 한</w>
뉴스 1</w>
강력 히</w>
란 히</w>
반 문
발 생</w>
아 ,</w>
총선 ,</w>
연합 회</w>
마스크 를</w>
시켰 다.</w>
F T
시 기에</w>
문 자
파 트
6 A
o m
체 결
\xa0 “
\xa0 :\xa0
미래 한국당</w>
것이 냐
미국 이</w>
youtu be
니 다.\xa0
무 효
약 에</w>
추 천</w>
홍 남기</w>
사건 의</w>
민생 을</w>
나서 야</w>
확실 히</w>
갈 수록</w>
교 류
맞 추
역 사의</w>
전 투
호 (
변호 사가</w>
입 장</w>
입 국</w>
지 검</w>
차 량</w>
확 진</w>
교수 ,</w>
있을 지</w>
보 편
제도 가</w>
잖아 요.\xa0
강 북
의 문
경찰 이</w>
맞 은</w>
한 미</w>
화 합
v .daum.n
‘ 조국</w>
스 는</w>
이 진
이 것을</w>
있 다"며</w>
전 부</w>
10 %</w>
미래 한국당
정치인 들이</w>
박원 순
아카 데
날 인</w>
무 게
야 권의</w>
한· 일</w>
소 재</w>
국회의원 ),</w>
청년 들이</w>
' 이라는</w>
6 .
강 연
질 이</w>
통 제
상황 은</w>
공 작
김 미
달 리
로 가</w>
부 르
현 황
필요 하다는</w>
0 5
거 나,</w>
본 인</w>
사 상
사업 에</w>
김경 수</w>
행정안전 부</w>
I M
온 갖</w>
혁 통
교육 부</w>
결정 에</w>
# 더불어민주당</w>
) 도</w>
실 장</w>
장 에게</w>
/ 2019
노 조</w>
사 이</w>
등록 했다.</w>
얘기 다.</w>
4 ,
곧 바로</w>
남 을</w>
만 만
것인가 ?</w>
앞 서
저 녁</w>
지 상
지 연
2019 -
중앙선거 관리위원회
SO MI
메르 스</w>
C D
기 사를</w>
언 제</w>
나 중에</w>
만 났
말 까지</w>
아 닐
조 치</w>
으로 서의</w>
시민 이</w>
7 E
간 사
귀 국
동 구</w>
로 써</w>
뭔 가</w>
얻 어</w>
필 요</w>
경우 ,</w>
상태 에서</w>
있어 요.</w>
가 질</w>
끊 임
화 장
다가 온</w>
습니다 !</w>
님 을</w>
단 ,</w>
안 전</w>
홍 영
나가 야</w>
행사 에</w>
권한 을</w>
늘 어나
번 영
시 흥
연 석
\' 을</w>
사회 적
H el
계 열
정당 인</w>
경제 와</w>
통합 추진
공 사
솔 직
시 나리
소득 주도
내 내</w>
지 방</w>
치 르
캠 프</w>
편 성
위원 ,</w>
정치인 의</w>
수출 규제</w>
심의 위원회</w>
전광 훈</w>
9 월
시 한
재 벌
직 업
착 수
: 30</w>
강 을</w>
열 었다.</w>
서울 에서</w>
요구 했다.</w>
바른미래 당
o :</w>
되 기를</w>
은 ?</w>
전 화를</w>
주 력
최 재
칠 곡
하 니까</w>
허 가
보수 를</w>
기 반</w>
돼 서</w>
뿌 리
우 는</w>
잡 을</w>
SN S</w>
니 다
독 일
동 지
로 지</w>
아 마
율 은</w>
인 하
장 인</w>
재 개
국가 안보
자체 를</w>
간담 회에서</w>
8 ,
고 향</w>
됐 고,</w>
무소속 으로</w>
1 ~
공 급</w>
생 각</w>
이슈 가</w>
데이 터</w>
고 발</w>
봉 쇄
체 계</w>
하 지는</w>
or m
Y T
구 상
양 ·
임 명</w>
증 을</w>
행 한</w>
출연 해</w>
4. 15
1 위</w>
대 의
본 청</w>
여 부</w>
육 성
재 판</w>
18 0
국가 를</w>
보도 가</w>
이름 이</w>
물러 나
가 ?</w>
간 다.</w>
동 두
안 심
올 렸다.</w>
정 진
직 원</w>
총리 ,</w>
경제 는</w>
문제 와</w>
▲ &lt;
멈 추
민 심</w>
친 노</w>
바람 직
부장 판
의 미</w>
적 임
컷오 프</w>
3 000
m ode=
괜 찮
기 본</w>
심 판</w>
이 웃
해 운
들어 가
개정 안이</w>
.co.kr/ news/articleView.html?idxno=
news.naver.com/ main/
site /
변 수
유 명
추 정
들어 서</w>
결과 ,</w>
미래통합 당의</w>
독 재</w>
듯 한</w>
축 구
인터뷰 를</w>
청소 년</w>
미디 어</w>
나누 고</w>
관 여
다 면,</w>
로 조국</w>
만 은</w>
많 았다.</w>
신 상
입 문
필요 성을</w>
사실 마스크영역\'
정무 부
주요뉴스\' 마대</w>
구설 로조국</w>
사실마스크영역\' 2주에</w>
6 00
[ 뉴스1
보 도를</w>
없 게</w>
였 다</w>
20 %</w>
교육 청
토론 을</w>
co l
결 국은</w>
매 매
김영 삼</w>
미 ·
했 는지</w>
은 평
주 도</w>
탈 북
50 4
경쟁 력</w>
시대 에</w>
하락 한</w>
따뜻 한</w>
3 B
겠 다며</w>
없 도록</w>
오늘 도</w>
09 :00
2 9</w>
3 )</w>
어 요.\xa0
억 울
주시 기</w>
건 축
못 하면</w>
부 진
여 행
인 적
지 인</w>
최 초</w>
텐 데</w>
참여 한</w>
세력 은</w>
선거구 를</w>
우려 를</w>
site/ data
O EC
결 론
국 제</w>
en n
site/data /html
가 치</w>
뜨 거운</w>
오 후
치 면</w>
다” 라며</w>
에서 부터</w>
보여 주는</w>
분야 에서</w>
시스템 을</w>
KB S
.chosun .com/
소 외
율 을</w>
중 앙</w>
네트 워크
경 청
또 한,</w>
보 면,</w>
촛 불</w>
알려 져</w>
단순 히</w>
비례연합 정당</w>
W e
갑 ,</w>
곳 으로</w>
뮤 니
보 인</w>
자 제
좌 우
주 자로</w>
특 검
요. ◎\xa0진행자\xa0&gt;\xa0
a l</w>
개 로</w>
심 에서</w>
않 은
이 우
정치 적으로</w>
계 와</w>
윤 호
제 약
나오 지</w>
경 력
구 로</w>
로 서는</w>
보 통</w>
시 스</w>
측 의</w>
플 러
한국 이</w>
이상 이</w>
0,t t:</w>
I d=
비 용</w>
살 인
역 에서</w>
한국 에</w>
비례대표 제를</w>
2 4</w>
기 한</w>
영 ·
필 수
[' 황교안</w>
대법 원</w>
부 활
승 부
이 들을</w>
해 결</w>
행보 에</w>
유치 원</w>
2 ,bf:</w>
께 서도</w>
석 은</w>
실 이</w>
이 병
이 전에</w>
( 공수처
) ]</w>
기 원
염 두에</w>
익 을</w>
하 라</w>
추진 하고</w>
그렇 기</w>
카카 오
대 기업
미 치는</w>
적 어도</w>
지도 부
I T
가 로</w>
굳 이</w>
도 착
양 당</w>
오 로지</w>
초 래
200 6년</w>
나온 다.
밝히 고</w>
간 부
길 에</w>
들 이다.</w>
법 원</w>
소 통</w>
주 장이</w>
중 재
해 요.</w>
서울 의</w>
회의 실에서</w>
안전 을</w>
중국 의</w>
감염 병</w>
일( 현지시간)</w>
김두 관</w>
고 개를</w>
성 실
주목 된다.</w>
한마디 로</w>
금 강
서 구</w>
양 천
어 가</w>
회의 가</w>
따르 면,</w>
기사 )</w>
방침 이다.</w>
넘 겨
리 아</w>
머 리
명 칭
속 으로</w>
치 로</w>
바른미래 당은</w>
정부서울 청사에서</w>
년 생
않 다고</w>
창 조
공개 적으로</w>
포인 트</w>
( 을)</w>
계 엄
권 은
전 인</w>
참 조
커 뮤니
바란 다”고</w>
view .php?
2 5</w>
김 관
순 환
이 회
민주 통합
시장 에서</w>
공식 적으로</w>
mi ke
겠 지만</w>
나 서는</w>
내 렸
밝혔 습니다.</w>
한경 닷컴</w>
구 매
내 놨
법 으로</w>
30 분
&gt; &lt;/
남양 주
enn mike
나 선
스 티
호 흡
화 할</w>
한국당 ,</w>
언론 의</w>
B 4
m so
o f</w>
’ 도</w>
챙 기
크 리
정당 ,</w>
국가 균형발전
' 은</w>
/ A
_ di
국 에</w>
기 까지</w>
아 닐</w>
인 근
찾 는</w>
아니 라는</w>
정보 통신
7 00
개 방
공 단</w>
물 은</w>
부 문</w>
성 남</w>
커 녕</w>
예정 된</w>
지키 기</w>
선거사무 소</w>
뒷받 침
0 .
구 성</w>
번 호</w>
로 서의</w>
협 력을</w>
정치 와</w>
지역 과</w>
200 2년</w>
1, t
발표 를</w>
or y
기반 으로</w>
개 편</w>
만 든
인 상</w>
지 냈다.</w>
집 에</w>
포 럼</w>
현재 는</w>
돼지 열
&amp;sid1 =
w e
결 단을</w>
과 제를</w>
답 답
데 다</w>
술 을</w>
의 의</w>
폐 지</w>
표 명
종로 는</w>
이름 으로</w>
양정 철</w>
남 부
보 여</w>
영 광
청 원</w>
지역 민
100 억</w>
민심 이</w>
소상공 인</w>
“ 우리</w>
마 을</w>
상 무
시 부터</w>
악 한</w>
60 대</w>
않는 다는</w>
어렵 게</w>
대단 히</w>
googletag.display("google_dfp_MC_250x250" );
교 회</w>
도 민
소 유
앤 드
업 무</w>
연 구</w>
투 기
현 동</w>
한국 을</w>
위원회 에</w>
논란 에</w>
국방 부</w>
인공 지
read.nhn? mode=
mso -
다 른
부 정</w>
있 음</w>
자 꾸</w>
제 주도
주 한</w>
해 질</w>
심판 을</w>
김영 삼
제1 야당</w>
약속 했다.</w>
text -
비정규 직</w>
아 내
통 일</w>
위원 으로</w>
예비후보 의</w>
해주 는</w>
1 10
간 단
지 목
포 천
아니 다</w>
국가 혁명
그렇 지만</w>
협의 를</w>
판결 을</w>
드 린</w>
들 과의</w>
변 수가</w>
않 기</w>
유 능
추진 할</w>
( 11
됐 지만</w>
들 여
목 적으로</w>
저 런</w>
정상 회담</w>
업무 를</w>
ye ong
2 .1
더 보기</w>
마 음</w>
빅 매
소상공 인
최초 의</w>
한선 교</w>
5 0</w>
간 절
알 리
추 락
분명 한</w>
브리핑 룸에서</w>
어 린</w>
올 려
유 엔
-- ></w>
전략 적</w>
일본 은</w>
ve tic
new sis
패스트트랙(신속처리 안건
개 념
방 치
저 녁
정 민</w>
치 면서</w>
정치 자금
하태 경</w>
p x</w>
t er
도 심</w>
도 움을</w>
인 지
등록 한</w>
예상 되는</w>
최소 한의</w>
유력 한</w>
_di r/
\ 고</w>
m s
금 액
기 구</w>
나 요?</w>
는 게</w>
다 수의</w>
배 신
수 원</w>
신 호
유 감
일 주
출 산
협 약
사람 도</w>
중국 인</w>
site/data/html _dir/
c k
되 길</w>
수 습
올 라</w>
화 이트
으로 의</w>
비판 했다.
정보 보호
4 .0
파 이
조속 히</w>
1 인</w>
1 7</w>
물 로</w>
수 소
이 죠.</w>
전 했다.
지방 선거
내놓 은</w>
---------------- ----------------
# 예비후보</w>
m in
대 장
머 리를</w>
특 히
생각 은</w>
입니 다.\xa0
환경 을</w>
이사 장</w>
도입 을</w>
안 대
티 브
해주 신</w>
제시 한</w>
정두 언</w>
&amp;m id=
다 해</w>
대 북</w>
마 자</w>
주 세요.</w>
호 영</w>
이어 지고</w>
기관 이</w>
이미 지를</w>
분위 기를</w>
D &amp;mid=
가 야
공 안
독 자
총 학생
자한 당</w>
달 러</w>
속 도를</w>
징 용</w>
기자 ,</w>
사건 은</w>
기득 권을</w>
가 중
대 덕
례 를</w>
실 정
제 천
직 전</w>
국토교통 부</w>
발 행
버 티
변 혁
이 란
대표 하는</w>
30 분</w>
수석 부
네티즌 본부
2 000001
P K</w>
l y
겨 울
면 &gt;</w>
참 석</w>
한 명
요구 하고</w>
게시 판</w>
5 67
공 통
공 장</w>
늘 리
부 한</w>
전 파
결정 할</w>
마무 리</w>
A D
[ 디지털
보 입니다.</w>
정 수</w>
회 와</w>
국회 법</w>
코로나 바이러스
부정 적</w>
고민 정</w>
프로젝 트
1 천
? ”</w>
I N
급 등
분 들을</w>
실 종
아 들
었 지만</w>
올 렸
주 간
힘 으로</w>
의원 으로</w>
미국 과</w>
방문 한</w>
조선 일보
2 ~
때 보다</w>
로 만</w>
모 바
중 단</w>
채 널</w>
모 자
사 직
실 은</w>
싶 습니다.</w>
었 다고</w>
출 입
지난 해
요구 가</w>
분석 했다.</w>
당협 위원장</w>
이끌 어</w>
계속 해서</w>
구 ,</w>
별 로는</w>
빼 앗
유 치</w>
일 산
정 국</w>
침 해
중도 층
서비스 를</w>
+ +
구 도가</w>
도 심
안 과</w>
았 다</w>
호 감
\xa0 ‘
01D5E 78
발언 은</w>
아무 도</w>
바람 을</w>
운 용
회 장의</w>
중요 하다.</w>
콘텐 츠
1 억
B B
당 진
당 도</w>
명 시
박 수
분 리
자 발
포 부를</w>
화 한</w>
\' 에</w>
000000 01
6 개월</w>
r a
소 신
심 리
좋 은
평 화</w>
혜 영</w>
000 5
4월 15일</w>
농 림
여 부에</w>
절 을</w>
좋 지</w>
초 청
혹 시</w>
정치 로</w>
&amp; c
ma s</w>
반응 을</w>
맞춤 형</w>
것 ,</w>
연 한</w>
운 전
절 반</w>
국가 와</w>
◎\xa0 정청래
명백 한</w>
.chosun.com/ site/data/html_dir/
높 게</w>
높 였다.</w>
받 는
블 랙
상 상
성 인</w>
수 )</w>
연 대를</w>
국회의원 으로</w>
2020 년
이정 미</w>
style= '
· 장
목 숨을</w>
의 장이</w>
차 이
개 정을</w>
검 사를</w>
그 나마</w>
김 봉
막 는</w>
상 규</w>
성 균
종 목
촉 구</w>
혼 자</w>
손학 규
있다./ 윤동주</w>
높 았다.</w>
분 간</w>
영 상을</w>
우 려</w>
Hon g</w>
걸 음
여 기</w>
중 략
정치권 이</w>
패스트트랙 에</w>
당연 한</w>
거 물
떠 나
배 분
안 동
들어 오
시키 기</w>
김태 호</w>
,s t:</w>
국무총리 ,</w>
검토 하고</w>
조원 진</w>
미사 일</w>
그 저</w>
그 들은</w>
살 을</w>
평 창
폭 발
위원 은</w>
발언 이</w>
(5 9
비서 관</w>
아닌가 .</w>
K K
다 (
보 육
부 추
세 워</w>
아 까</w>
언 을</w>
주 한미
진 ,</w>
진 이</w>
ar t
예비후보 (
교수 )</w>
거론 되고</w>
조치 가</w>
주 류</w>
키 로</w>
타 이
진행 되고</w>
() 의</w>
정권 과</w>
보인 다.
도전 하는</w>
최저 임금
박찬 주</w>
7 2
구 에서</w>
남 녀</w>
에 겐</w>
찬 성</w>
대변인 ,</w>
무너 뜨
거 리를</w>
도 둑
만 족
무 를</w>
북 미
아 베
정당 들이</w>
서울 특별
기관 의</w>
상승 한</w>
거든 요.\xa0
news.naver.com/main/ read.nhn?mode=
style=' font-size:
= 20200
개 가</w>
기 만</w>
문 자</w>
업 계</w>
습니까 ?\xa0
“ 황</w>
법 률</w>
안 고</w>
유 은혜</w>
이 트</w>
후보 ,</w>
48 DA
01D5B 48DA
4 개</w>
기 대를</w>
날 치기</w>
충 실
검찰 청</w>
합니 다.\xa0
전망 했다.</w>
통과 를</w>
다음 은</w>
함께 하는</w>
정확 한</w>
위치 한</w>
typ e
[디지털 뉴스
( 20
1 인
건 은</w>
과 제</w>
남 편
불 참
하 기는</w>
항 의
000001 B
9B 0005
01D5B48DA 9B0005
y na
것 ”</w>
서 대문
아 우
체 감
하 게
여야 의</w>
C 000000
능 력이</w>
박 진</w>
전 에는</w>
조 만
부끄 러
, k
신 설</w>
잘 못</w>
집 니다.</w>
국회의원 (
아시 아</w>
센터 에서</w>
% 에서</w>
X mas</w>
건 의
김 원
독 일</w>
몰 랐
평 가는</w>
보수 통합</w>
선거구 가</w>
ong Xmas</w>
지사 ,</w>
사례 가</w>
@hani.co.kr window.dataLayer</w>
3 .0
시 작</w>
졌 다는</w>
인사 들의</w>
야당 인</w>
5 F
달 라</w>
슬 로
침 체
한 -
헌 정
요구 한</w>
지도 자
실질 적인</w>
고 수
달 하는</w>
살 려
세 종</w>
우리 도</w>
24 66
아프리 카
거 래</w>
나 름
노 동</w>
시 다.</w>
등록 이</w>
경쟁 력을</w>
프랑 스</w>
조대 원</w>
가 며</w>
동 북
설 립</w>
수 영
경우 도</w>
현재 까지</w>
me /
@ Hon
n .
구 갑</w>
김 근
말 하고</w>
먹 는</w>
위 축
gt ongXmas</w>
16 68
확인 할</w>
운영 하는</w>
국가혁명 배당금
@Hon gtongXmas</w>
김 혜
동 문
제 19대</w>
1, b
16 01
여론 을</w>
시켜 야</w>
◎\xa0정청래 \xa0&gt;\xa0
” ,</w>
뒤 를</w>
민 병
부 문
불 신
즉 시</w>
확 보</w>
19 세</w>
200 0년</w>
an :</w>
2020 -02
주장 하고</w>
sh :</w>
serif '
, p
, co:</w>
5 개</w>
김 장
체 계를</w>
토 지
지적 했다.
공직 자</w>
0,r c:</w>
거예 요.</w>
c l:</w>
약 간</w>
외 부</w>
저 지</w>
현 안을</w>
자유 민주주의
false, lt:</w>
false, sh:</w>
false, cl:</w>
0,b i:</w>
,t d:</w>
신청 을</w>
0,t w:</w>
0,r t:</w>
0,r w:</w>
0,bb t:</w>
0,bb c:</w>
0,bb w:</w>
0,d t:</w>
0,d c:</w>
0,f i:</w>
1,d w:</w>
p a:</w>
방 식을</w>
의원 인</w>
di :</w>
문화 체육
누구 도</w>
. 000
길 은</w>
세 금</w>
지도 부의</w>
사태 에</w>
가치 가</w>
0,n t:</w>
만큼 은</w>
[이미지출처=연합뉴스 ][
c s:</w>
i d</w>
거 리가</w>
되 기도</w>
발 탁
법 인
한 정
혐 의를</w>
0, g
ar :</w>
충청 권</w>
코리 아
hw p
기생 충
) ,as:</w>
, d
j :</w>
{ pa:</w>
” (
끌 고</w>
더 욱
도 전</w>
악 재
일 할</w>
패 를</w>
했 다면</w>
\' 를</w>
0, pp:</w>
0, pb:</w>
19 360
false, e
]} },
1, pp:</w>
,a p:</w>
,a c:</w>
0,s b:</w>
0,s a:</w>
false,d s:</w>
1417 },{
0,n n:</w>
85 0,sb:</w>
1,l c:</w>
1,l w:</w>
,c d:</w>
false,l l:</w>
{a t:</w>
0,a u:</w>
244 20
567 ,st:</w>
2466 28
1668 246628
19360 24420
1417},{ ty:</w>
{ cc:</w>
} ,b
개 성공
연 일</w>
카 페
공동 체
됐 고</w>
이 중
잡 아
지 고,</w>
위원장 인</w>
마이 크</w>
우리나라 의</w>
“ 지난</w>
.. ...</w>
예산 이</w>
01D5B48DA9B0005 0000000
다 라고</w>
본 질
셔 야</w>
오 만
전 시
조 합</w>
차 가</w>
0, al:</w>
16 대</w>
구성 된</w>
비교 적</w>
스포 츠
감염증( 코로나19
거 세
거 취
계 신</w>
도 지사</w>
들 께서</w>
묻 고</w>
세 는</w>
운동 에</w>
교수 의</w>
고등 학교
news. v.daum.n
한국갤 럽
" 라며</w>
( 주
5 .18</w>
B 0
b it
금 융</w>
내 비
봤 을</w>
수 렴
시 위
엇 갈
연 간</w>
협 의</w>
통합 진보
정의 로운</w>
관계 자</w>
단체 가</w>
-01 T
외국 인</w>
삼성전 자</w>
.000 Z
2 차
당 정
선 제
월 드
절 대
취 지를</w>
10 시</w>
news .com</w>
청년 들의</w>
아이 디
지키 고</w>
친박 계</w>
가격 이</w>
올림 픽
다 할</w>
만 약에</w>
이 한
태 도를</w>
선거구 획정
-01 -01T
:00 .000Z
09:00 :00.000Z
8 504
R e
y p
배 려
싸 워
원 본
정 착
춘 추
국민 들을</w>
경찰 은</w>
보궐 선거</w>
1601 -01-01T
1601-01-01T 09:00:00.000Z
데 요.</w>
됐 을</w>
안 상
측 근</w>
침 묵
주목 을</w>
역임 한</w>
8504 ,m
아 프
전 ·
지 수
마음 에</w>
중소 벤처기업
조경 태</w>
' 라고</w>
( 갑)</w>
4 대</w>
개 별
두 는</w>
새 해
싱 크
외 환
의원 님</w>
뉴스 는</w>
해결 할</w>
득표 율</w>
D E
담 긴</w>
대 국민</w>
쇄 신</w>
인 용
평 양
지역 위원장</w>
통합 은</w>
청와대 에</w>
전문가 들은</w>
유일 하게</w>
youtu .
금 태
내 리</w>
래 도</w>
시 로</w>
펜 앤드
개혁 에</w>
하시 고</w>
하자 면</w>
방침 을</w>
강 창
나 은</w>
단 호
삼 아</w>
오 르고</w>
주 인
들어 서
미래통합 당이</w>
마련 된</w>
법안 은</w>
카드 를</w>
[이미지출처=연합뉴스][ 아시아경제</w>
C 9
W H
꼽 힌다.</w>
남 도</w>
눈 길을</w>
맞 게</w>
의원 직</w>
2020 -01
’ 고</w>
돈 이</w>
요 !</w>
원 자
정 ,</w>
화 학
으로 서는</w>
국회의원 예비후보</w>
국가 적</w>
성공 한</w>
5, d
2 시</w>
군 에</w>
담 보
막 고</w>
못 하게</w>
주 관
표 준
in g</w>
000000 A
방법 이</w>
1,b f:</w>
강 요
당 규
생 기
식 은</w>
작 품
여러분 과</w>
치러 진</w>
당부 했다.</w>
7 .</w>
“ 지금</w>
과 반</w>
역 설
이 래</w>
쪽 에</w>
취 지
해 줄</w>
다.\xa0 &lt;
비판 하는</w>
주의 를</w>
평가 했다.</w>
가 에</w>
그 야말로</w>
낮 아
이 희
이 면서</w>
초 ·
보고 를</w>
수준 으로</w>
시대 적</w>
대부분 의</w>
) ’</w>
d ong
n s:</w>
이 벤
이어 가고</w>
window text
나서 서</w>
windowtext ;</w>
B 5
겸 손
공 정</w>
불 을</w>
수 준</w>
실 험
실 장이</w>
제 안</w>
차 게</w>
취 득
사무 처
겨냥 한</w>
D -
가 난
계 로</w>
당 사에서</w>
대 행
동 네
모 임</w>
지지 층</w>
변호사 )</w>
프로그 램</w>
조만 간</w>
· 신
이 런
주 주
홍 보</w>
후 퇴
사업 은</w>
합의 가</w>
중소 기업</w>
2 .2
’ 이다.</w>
공 주
권 ,</w>
단 과</w>
없 다.
언급 했다.</w>
강력 하게</w>
li d</w>
5· 18
김어 준</w>
= 0</w>
것 입니다</w>
금 천
김 윤
꼼 수
전 형
없었 던</w>
코리 아</w>
곽 상
없 지</w>
의 식을</w>
중 부
입장 이다.</w>
자세 히</w>
\'기사번호: 9
농 촌
다 루
동 생
비 는</w>
연 맹</w>
이 끄는</w>
인 연
한 지</w>
대통령 도</w>
30 년</w>
인사 로</w>
h a
그 것
내 외
다 ’</w>
동 반
미 안
엘 이
홍 성
우리 에게</w>
공천 에</w>
유권 자들의</w>
제안 했다.</w>
고려 대</w>
me di
언제 나</w>
5 천
개 표
로 드</w>
시 행</w>
어 느
원 ·
국무총리 의</w>
확인 해</w>
감사 의</w>
so lid</w>
차지 했다.</w>
선호 도</w>
료 를</w>
적 ,</w>
최 순
하 우
확 인</w>
지역구 는</w>
승리 할</w>
리 스트</w>
인 권</w>
잡 기</w>
전 과</w>
조 문
정부 ·
사이 에서</w>
구체 적</w>
기독 교
전두 환</w>
끊임 없이</w>
개 선을</w>
달 아</w>
리 포
않 습니까?</w>
환 자가</w>
조사 는</w>
주장 했다.
여성 의</w>
무엇 이</w>
선관 위에</w>
청문 회</w>
응원 합니다
김어 준
2022 년</w>
news.naver.com/main/read.nhn?mode= LS
p ennmike
스 (
일 자</w>
지 내
화 로</w>
통합 과</w>
인물 을</w>
바람 이</w>
세우 고</w>
방법 으로</w>
me 2.
5 당</w>
말 해</w>
비 밀
여 부
유 도
통 보
in s
공관 위</w>
1 21
i s
가 리
를 ,</w>
비 록</w>
송 영
야 합
입 증
특 징
2019 .12
과거 에</w>
비율 이</w>
과도 한</w>
( 9
, ,
받 기</w>
실 용
안 희
알 았
이 틀</w>
장 ),</w>
youtube .com/
결 산
노 래
논 설
레 이</w>
신 념
정 개
현 상
정확 히</w>
복 귀</w>
연 히</w>
이 름</w>
이 슈</w>
한 때</w>
민주 연구원
보여 주고</w>
시설 을</w>
나 면</w>
드 를</w>
세 미
인 턴
잡 은</w>
정 몽
현 실</w>
의원 들과</w>
승리 의</w>
노무 현재
이종 걸</w>
윤소 하</w>
나 게</w>
만 명</w>
말 한다.</w>
모 집
선 별
세 의</w>
저 히</w>
줬 다.</w>
직 면
산업 통상
협상 에</w>
구조 를</w>
표현 을</w>
오차 범위</w>
국정농 단</w>
구 독
군 포
대 선을</w>
유 사
후 배
의원 들
해주 셨
경선 이</w>
경험 과</w>
LE D</w>
등 이다.</w>
방 에</w>
보 복</w>
하 더라
상업 적</w>
권 리를</w>
도 봉
연 휴</w>
하 기에</w>
대통령 께서</w>
이어 지는</w>
의혹 에</w>
협상 이</w>
[뉴스1 ]
2 25
박 물
이 례
전 락
지 나</w>
추 도
0, u
문제 ,</w>
말씀 하셨
역할 이</w>
비례대표 를</w>
제출 한</w>
리서치 뷰
1 A
군 ,</w>
김 순
다 면서</w>
정 희
제 보
종 사
da te
위해 선</w>
뉴 시스</w>
무 책임
파 견
이유 다.</w>
U U
j u
뒤 로</w>
민 감
뽑 는</w>
었 고,</w>
획 정</w>
희 망</w>
대책 이</w>
( 48
감 정
개 헌</w>
고 객
다 름
동 네</w>
쓰 레
알 게</w>
졌 다고</w>
들어 가</w>
유권 자들이</w>
이미 지</w>
행동 을</w>
성균 관
2 천
u f:</w>
편 향
행 정</w>
st ory
미국 은</w>
단일 화</w>
C 0
곳 의</w>
내 년도</w>
순 간</w>
없 다며</w>
여 부가</w>
이 태
조 끼</w>
파 가</w>
히 고</w>
발언 에</w>
탄핵 의</w>
진영 이</w>
오차 는</w>
( 18
가 구</w>
김 학
많 아</w>
올 려</w>
입 학
있 는데
팩 트
지역구 가</w>
국정 원</w>
,\xa0 이런</w>
대안 신
합리 적</w>
6 .1
격 리
보 안
오 영
장 병
점 ,</w>
해 지고</w>
se c
출마 선언
정도 가</w>
북한 에</w>
성향 의</w>
강 석
갖 는</w>
론 에</w>
문 학
자 금을</w>
주민 의</w>
의석 수</w>
국회의 장이</w>
절차 에</w>
같은 데</w>
아름 다운</w>
낮 추
매 출
의 존
자 존
한 글
느냐 는</w>
고향 인</w>
o k</w>
상 담
서 영
유 공
전 환</w>
중 대한</w>
가능성 에</w>
D 9
경 로
일 요
미래 한국당은</w>
문제 의</w>
재배 포
나서 고</w>
to p
6 개월
급 증
대 형
동 해
북 도</w>
석 에</w>
시 기</w>
차 출
하 다.
화 는</w>
선거 개입</w>
그런 데도</w>
갑 은</w>
갖 게</w>
금 리</w>
넓 은</w>
목 )</w>
부 당
적 용</w>
철 거
ar _
관계 에</w>
소속 으로</w>
ho to</w>
등 급
목 표를</w>
저 와</w>
표 시
경제 성장
북한 은</w>
합의 한</w>
김성 태</w>
다르 다.</w>
홍익 표</w>
A nd
D J
j a
김 도
남 구</w>
리 라</w>
비 행
이 창
전 망</w>
하 위</w>
정치 적인</w>
라이 브
왼쪽 부터</w>
권 고
취 지의</w>
” 라는</w>
서 명
출처 :</w>
사항 을</w>
고위공직자범죄수사처 (공수처
그 녀
대 대
많 은
접 어
투 데이
확 대를</w>
혁신 과</w>
준비 하는</w>
격차 가</w>
내 정
대 하여</w>
이 만
전 력
선거 와</w>
보고 서</w>
.3 %</w>
여야 는</w>
니까 .</w>
바라 보는</w>
·새· 정당인)</w>
J T
강 도</w>
거 절
뭐 가</w>
방 법</w>
석 (
스 페
알 겠
어 디</w>
완 수
완 전</w>
판 정을</w>
포 커
했 었다.</w>
자유 를</w>
그래 야</w>
세력 과</w>
금지 (
비례대표 로</w>
촉구 하는</w>
활성 화를</w>
호소 했다.</w>
객 관
안 건</w>
판 사
방위 비</w>
산업통상 자원
B E
[ 앵커
동 성
바 가</w>
부 채
성 명
실 로</w>
어 .</w>
원 장이</w>
이 강
잇 따라</w>
토 록</w>
현 안에</w>
김기 현</w>
b s
것 들이</w>
그 리</w>
농 성을</w>
든 든
전 ,</w>
화 )</w>
철저 한</w>
2 2</w>
3 선
[ 서울
관 의</w>
구 현
무 서
법 치
정 우
진 주
bit .
공 연
내 걸
막 말
발 의</w>
전 용
총 장이</w>
학 부모
현 지</w>
총선 에서도</w>
필요 합니다.</w>
운영 을</w>
하였 다</w>
진상 규
9 6
던 졌다.</w>
마 련</w>
오 차</w>
으 니까</w>
준 영</w>
탄 압
들어 갔
필리버스 터</w>
가 평
권 오
락 을</w>
은 퇴
음 성
했다. 이</w>
발표 할</w>
이었 다</w>
예정 일</w>
혜택 을</w>
I C
결 론을</w>
마 쳤다.</w>
살 리는</w>
선 도
성 적
원 유
측 에</w>
중앙 일보</w>
운동 권</w>
사법 개혁
방안 도</w>
풀이 된다.</w>
And ro
가 깝
금 이</w>
목 이</w>
복 을</w>
우 고</w>
워 낙</w>
조 작</w>
질 의</w>
항 쟁
국회 ,</w>
있었 는데</w>
선거법 과</w>
Andro id</w>
[ ]</w>
뉴 욕
주 말</w>
naver. me/
단 수</w>
령 을</w>
분 들도</w>
일 인</w>
평 소</w>
http:// naver.me/
지적 도</w>
올림 픽</w>
B 1
건 국
유 니
잊 지</w>
측 면에서</w>
환 을</w>
원내 대표와</w>
거론 되는</w>
받 는다.</w>
여 당과</w>
재 미
지역구 로</w>
.5 %</w>
A S
경 인
인 력</w>
의원 직을</w>
국회의원 과</w>
ig n
지사 와</w>
최소 한</w>
바꿔 야</w>
손혜 원</w>
( 8
상 대</w>
수 치
원 인
통 신</w>
투 자를</w>
교육 감
세대 의</w>
. 11
거 친</w>
농 협
둘 째,</w>
세 금을</w>
이 자
한국 과</w>
19 4
만들 겠습니다.</w>
89 7
돌아 오
선대 위</w>
극 우
형 이</w>
에서 )</w>
기자 가</w>
&lt; left&gt;</w>
한미 동맹
&lt;/ left&gt;</w>
/ 02
[ 무단</w>
긴 장
등 )]</w>
소 아
옮 겨
제 거
올해 는</w>
금지( 상업적</w>
검 증</w>
관심 과</w>
0,s t:</w>
기간 을</w>
중앙선거 관리위원회</w>
A I
T yp
건 물
구 축</w>
살 아</w>
역 할</w>
표 심을</w>
해 서도</w>
출마 하지</w>
do /
다가 오
페이스북 을</w>
만큼 ,</w>
군 산
빠 져</w>
있으 나</w>
i n</w>
구 리
않 겠다는</w>
없 다"고</w>
일 대</w>
문제 도</w>
국민들 께서</w>
( 이하</w>
이 동</w>
카 드</w>
국정 감사
다음 달</w>
군사 정보보호
마찬 가지로</w>
노회 찬</w>
공 조
배 우</w>
요 ?\xa0
위 대한</w>
유 엔</w>
을 에서</w>
자 극
in her
이어 졌다.</w>
성공 을</w>
기본 적으로</w>
inher it
▲ ...</w>
가 능</w>
공 언
동 지</w>
별 도의</w>
영 ,</w>
유 세</w>
정 면으로</w>
중 대
했 어요.</w>
생각 하
가능 하다.</w>
1, ch:</w>
어렵 다는</w>
상임 선대
고려 해</w>
https://www. youtube.com/
선임 기자</w>
과 ,</w>
목 포</w>
산 불
이 혜
이 의</w>
첫 째,</w>
있었 지만</w>
김경 욱</w>
같아 요.</w>
1 4</w>
[ 사설
공 감</w>
다 들</w>
당 헌
방 어
새 벽</w>
운 을</w>
택 시
민주당 에서</w>
관련 주</w>
안전 한</w>
수석 은</w>
보여 준</w>
윤호 중</w>
시 점에서</w>
예 외
터 를</w>
현 상이</w>
사업 의</w>
자리 가</w>
당선 됐다.</w>
이르 면</w>
대구· 경북</w>
겠 다"고</w>
려 서</w>
며 칠</w>
배 정
사 용</w>
유 의
응 답</w>
이 견
정 신</w>
집 단</w>
해 산
하겠 다”며</w>
-0 3
부정 적인</w>
o r</w>
공 존
기 도
새 벽
일 시
일 고</w>
하 락</w>
한 계가</w>
공공 기관</w>
해당 하는</w>
재건 축</w>
기능 을</w>
노영 민</w>
‘ 문재인</w>
갈 라
관 에</w>
남 았
당 )</w>
대 기업</w>
맞 서
욕 을</w>
해 달라고</w>
들어 간</w>
공유 하기</w>
시점 에</w>
................................ ................................
7 A
건 에</w>
높 이는</w>
상 향
세 운</w>
영 원
자 처
풍 을</w>
현 장에</w>
발표 하고</w>
경찰 의</w>
의석 수를</w>
노력 이</w>
규정 하고</w>
포퓰리 즘
겠 다”며</w>
력 으로</w>
보 증
열 을</w>
은 )</w>
홀 에서</w>
지역 이다.</w>
시민 단체</w>
종로 를</w>
2019 .</w>
과정 이</w>
중앙선거여론조사 심의위원회</w>
9 1
가 면서</w>
소 식을</w>
의 로</w>
회 계
ch o
충분 한</w>
강기 정</w>
' …
4 15
국 장</w>
다 만,</w>
않았 습니다.</w>
변화 의</w>
지방자치 단체
노 골
머 니</w>
아 니</w>
여 당에</w>
위 장
유 기
주 말
피 력
브리핑 을</w>
검경 수사권</w>
걸 린</w>
민 노
보 험</w>
보 내</w>
오 염
이 거</w>
11 시</w>
본부 장</w>
9 46
건 데</w>
방 이</w>
보 내고</w>
북 구</w>
일 시</w>
진 의</w>
선거 일</w>
것이 기</w>
시간 에</w>
되었 다</w>
응답 이</w>
인데 요.</w>
도 발
었 고</w>
이 젠</w>
장 소</w>
찾 을</w>
청 취
50 대</w>
https:// blog.naver.com/
\u fe
\ufe ff
건 ,</w>
눈 물을</w>
량 의</w>
수 급
웠 던</w>
자 주
장 기</w>
제 재</w>
으로 만</w>
어려 움
1 위
4 대
4 )</w>
각 오를</w>
남 겨
대 우
두 를</w>
선 물
선 과</w>
연 관
월 )</w>
이 해</w>
일 종의</w>
국회 와</w>
20 대
생각 한다”고</w>
정치인 은</w>
언론 이</w>
가 결
건 강</w>
구 성을</w>
세 ,</w>
이 은
충 돌</w>
평 범
화 의</w>
14 .0pt;
사실 이다.</w>
간담 회</w>
초등 학교</w>
o ul
p op
당 국
법 정
살 리기</w>
송 구
수 와</w>
직 후
특 보
\' 는</w>
개혁 이</w>
활동 하고</w>
Hel vetic
' Ne
권 영
오 르는</w>
유 족
장 학
재 ·
첨 부
시민 을</w>
권역 별</w>
2 만
계 양
노 선</w>
러 시아</w>
박 사
부 장</w>
설 을</w>
성 주
체 제로</w>
최 연
선언 하고</w>
평화 와</w>
핵심 은</w>
상 반기</w>
얘 기</w>
준 다.</w>
호 가</w>
특별 법</w>
조직 을</w>
view /
기다 리고</w>
1 당이</w>
리 게</w>
무 장
스 에</w>
연 휴
함 과</w>
허 가</w>
회 동을</w>
() 을</w>
보도 에</w>
민심 의</w>
제2 의</w>
최근 에</w>
홍영 표</w>
# 총선</w>
E :</w>
분 산
어 차
용 기</w>
으 론</w>
전 격</w>
집 회에</w>
참 배
초 과
0, i
세대 가</w>
ad d
style='font-size: 14.0pt;
'Ne ti
소 독
심 의</w>
얘 기도</w>
일 상
생각 해
비례 정당</w>
.2 0</w>
지켜 야</w>
01D5D70 A
시급 한</w>
( 12
게 이트
끝 으로</w>
는 )</w>
임 에도</w>
쪽 에서</w>
지역 별</w>
뉴스 를</w>
이뤄 지지</w>
원칙 에</w>
치러 질</w>
같 다”고</w>
고 생
공 인
는 ?</w>
마 쳤
민 경
순 위</w>
양 당
에 )</w>
졸 업</w>
차 이로</w>
하고 도</w>
벌어 진</w>
SOMI A
6 0</w>
9 A
금 )</w>
류 정민</w>
졌 고,</w>
하 다”며</w>
50 %
25 3
대결 이</w>
/ 01
5 28
변 경</w>
주 실</w>
한 창
한 다’는</w>
활 력을</w>
대한 애국
정치권 에서</w>
ze n</w>
개 국</w>
다 섯</w>
당 권</w>
사 랑</w>
성 산
있 습니다.\xa0
적 도</w>
전 공
정 재
하 길</w>
http:// me2.
사무 소</w>
세대 교체
누구 보다</w>
피해 자</w>
http://me2. do/
' 과</w>
민 형
일 간
입 은</w>
획 기
10 0</w>
마이 크
긍정 적인</w>
부끄 럽
googletag.display("google_dfp_MC_2x1,fluid" );</w>
3 %</w>
3 차</w>
급 격
발 사
결과 적으로</w>
알려 졌다.
Ne u
만만 치</w>
2 3</w>
_ _
네 .</w>
세 상</w>
원 (
틀 을</w>
화 되고</w>
출마 의</w>
디지 털</w>
style='font-size:14.0pt; font-family:
'Neti zen</w>
매 체
박 완
삭 제
상 세</w>
좌 절
사무총 장</w>
Helvetic a</w>
Neu e,
( 60
가 졌다.</w>
광 고
반 환
우 세</w>
지 출
진 다는</w>
초 에</w>
우리 나라는</w>
국회의원 들이</w>
국회의 장
부담 이</w>
serif' ></w>
구 분
로 드
양 성
여 겨
왼 쪽</w>
전 )</w>
자유 민주주의</w>
이용 해</w>
N S
x :</w>
경 력</w>
계 약</w>
구 와</w>
비 전</w>
사 죄
숙 한</w>
실 시</w>
없 지만</w>
체 험
협 동
지난 주</w>
지금 이라도</w>
.4 %</w>
것인가 .</w>
일각 에선</w>
type =1
m t
강 득
박 사</w>
속 보
쿠 데
경찰 에</w>
변화 에</w>
반도 체
style='font-size:14.0pt;font-family: Helvetica</w>
… .</w>
가 득
갑 질
고 용</w>
눈 높
모 인</w>
소 는</w>
위 헌
재 차</w>
차 에</w>
아무 것도</w>
typ e=
a k
가 운</w>
네 요</w>
선 택</w>
씨 와</w>
없 으면</w>
었 다는</w>
이 한</w>
통 을</w>
문제 다.</w>
관련 해서는</w>
과감 한</w>
KT X</w>
최경 환</w>
news.naver.com/main/read.nhn?mode=LS D&amp;mid=
Typ e=
김 의
대 기
머 리</w>
연 루
전 으로</w>
항 공</w>
행 위에</w>
지지 도는</w>
강조 한</w>
결정 이</w>
저작 권</w>
제목 의</w>
Q .</w>
과 제로</w>
나 주
세 기</w>
요 ~</w>
워 싱
주 인공
컨 설
어떻 게
산업 을</w>
계획 이</w>
이번 에도</w>
주택 을</w>
한다. ”</w>
홍문 종</w>
마케 팅
구 역</w>
김 선
대 리
차 관</w>
찾 기</w>
정의 당,</w>
조사 에</w>
투쟁 에</w>
분야 의</w>
국민들 께</w>
et/ v
고 집
논 평
높 아</w>
수 행</w>
의 장,</w>
태 양
표 창
주장 에</w>
이뤄 진</w>
탄핵 에</w>
국토 부</w>
부탁 드립니다.</w>
인프 라
유재 수</w>
9 시</w>
공 고
도 당
사 장
수 용</w>
시 갑</w>
었 는데</w>
유 출
전 원
합 당</w>
홀 딩
1, u
bo :</w>
처음 부터</w>
' 에서</w>
. as
i s</w>
경 희
관 철
색 깔
잠 룡
조 기
진 성
하 신
했 으나,</w>
개혁 과</w>
&amp; date
운영 에</w>
01D5D 4
얼굴 을</w>
행태 를</w>
총선기획 단</w>
0,i t:</w>
o 1:</w>
r 1:</w>
‘ 정치</w>
는 지,</w>
먼 저
바 꿔</w>
빈 소를</w>
웃 음
점 차</w>
지역 위원회</w>
false, en:</w>
false, bo:</w>
1, so
100, o1:</w>
0,o t:</w>
0,o 2:</w>
0,o 3:</w>
0,o 4:</w>
0,o 6:</w>
0,o 5:</w>
0,o 7:</w>
false,s b:</w>
false,s s:</w>
false,s u:</w>
false,s m:</w>
기소 된</w>
100,e 2:</w>
100,e 3:</w>
100,e 4:</w>
100,e 6:</w>
100,e 5:</w>
100,e 7:</w>
0,h c:</w>
0,h y:</w>
0,h x:</w>
false,u k:</w>
비핵 화</w>
0,e m:</w>
4294967295, uf:</w>
1,u c:</w>
1,so :</w>
# 자유한국당</w>
류 가</w>
성 도</w>
이 화
주 십시오.</w>
하시 면</w>
기준 이</w>
9E B
사무총 장은</w>
대결 을</w>
고통 을</w>
당당 하게</w>
위안 부</w>
엘이 디</w>
3 기</w>
3 1</w>
6 개</w>
냐 는</w>
시 와</w>
실 효
열 렸다.</w>
이 긴</w>
페 미니
보수 층
그렇 다.</w>
분위기 다.</w>
구자 근</w>
0,u s:</w>
D 000001
계 ,</w>
곳 ,</w>
불 교
유 럽</w>
이 끌</w>
인 식을</w>
20 30
혁신 의</w>
방법 은</w>
작업 에</w>
acebo ok</w>
일방 적으로</w>
노무현재 단</w>
2 동</w>
3 개월</w>
e s
대 항
동 과</w>
매 진
부 과
심 장
았 다.
어 지는</w>
판 이</w>
출마 에</w>
발전 과</w>
현역 의원</w>
orm al
8 .</w>
관 과</w>
기 대</w>
후 반
법안 에</w>
간담 회
닷컴 가기
# 아가다경자홍문</w>
노 사
시 리
이 천
조 에</w>
하 세요
다" 라고</w>
&gt; &lt;
처리 가</w>
정상 적인</w>
당협 위원장이</w>
신년 인
3 천
? …
부 당한</w>
산 하</w>
스 로</w>
최 선의</w>
비서 실</w>
모르 고</w>
.9 %</w>
피해 가</w>
리더 십</w>
인도네 시아</w>
inherit ;</w>
6 ,
P hoto</w>
됐 다”고</w>
보 겠습니다.</w>
수 차례</w>
어 제
중 의</w>
지원 하는</w>
정확 하게</w>
반기 문</w>
않아 도</w>
실 장,</w>
여 는</w>
입 장이</w>
주 년을</w>
철 호</w>
우리 를</w>
시민 들에게</w>
1, r1:</w>
방송 통신
1,f 2:</w>
1,f 3:</w>
1,f 4:</w>
1,f 6:</w>
1,f 5:</w>
1,f 7:</w>
대안 신당
연설 을</w>
파트 너
s 1:</w>
동 에서</w>
비 유
세 입
시 도</w>
앉 아</w>
자 격</w>
토 론</w>
201 0
그렇 습니다.</w>
확정 된</w>
대화 와</w>
대체 로</w>
( 15
D :</w>
ㅎ ㅎ</w>
라 서</w>
져 서</w>
한국 인</w>
총선 까지</w>
매 각
오 피
정 봉
지 분</w>
초 기</w>
생각 하지</w>
시민 들과</w>
전국 적으로</w>
고민 을</w>
rig ht
: none
구 도를</w>
일 환
제 품</w>
중 에는</w>
체 포
클 릭
국회의원 에</w>
사건 으로</w>
다가 오는</w>
( M
갑 (
개 각
김 준
김 지
동 양대</w>
만 나는</w>
붕 괴
인 민
저 에게</w>
정 식</w>
처 분
친 이
호 의</w>
기업 을</w>
광주 ·
나가 고</w>
5 선</w>
말 아야</w>
박 해
영 국
용 품</w>
위 법
윤 건
지 사를</w>
피 할</w>
화 순</w>
검찰총 장이</w>
ec tion
강제 징용</w>
출판기념 회를</w>
뉴스1 )</w>
I D
T F
매 각</w>
미 루
수 십
유 동
위원 이</w>
후보 들의</w>
0, k
이해 가</w>
상태 로</w>
B 57
가 라
는 가</w>
당 내에서</w>
만 날</w>
면 접</w>
불 확실
불 만이</w>
상 인
서 야</w>
세 요?</w>
하 긴</w>
협 정</w>
01 0
사진 은</w>
드러 냈다.</w>
실시 되는</w>
article /
답변 을</w>
에너 지
youtu. be
8 2
일 까
투 기</w>
기자 의</w>
들어 갔다.</w>
논의 할</w>
이용 한</w>
.8 %</w>
선거운동 에</w>
현역 인</w>
특히 ,</w>
펜앤드 마이크</w>
( 한국
7 ,
가 칭
개 별</w>
답 게</w>
부 천</w>
블 록
음 식
차 별</w>
않았 던</w>
대변인 을</w>
포함 된</w>
거론 된다.</w>
황교안 ,</w>
이완 구</w>
± 3.1
군 요.</w>
방 사
보 은
연 말
연 령</w>
의 약
화 될</w>
사회 는</w>
조사 됐다.</w>
정치인 으로</w>
소통 을</w>
모른 다.</w>
무 죄
박 병
북 부
손 으로</w>
오 마이
의 총
생각 해</w>
당선 이</w>
부정 하는</w>
유성 엽</w>
F acebook</w>
관 료
긴 밀
부 합
소 프
자 기가</w>
즈 니
지 며</w>
01D5B 946
언론 사</w>
선관 위는</w>
비서실 장</w>
아직 까지</w>
둘러 싸
이철 희</w>
민주노 총
# 용산
간 호
노 리는</w>
망 이</w>
분 명</w>
알 리는</w>
앞 선</w>
10 대</w>
하겠 다며</w>
모습 .</w>
질문 에는</w>
이번 엔</w>
서울시장 ,</w>
\u00 27</w>
벗어 나</w>
감염증(코로나19 )</w>
pop ul
( 경기</w>
가 입</w>
귀 를</w>
내 려</w>
부 가
실 어
이 남
포 괄
미래 가</w>
관련 기사
40 %</w>
개정 안은</w>
모습 이다.</w>
드러 난</w>
사과 를</w>
( 49
1 /
급 속
끝 났
밝 혀</w>
색 을</w>
아 쉽
오 픈
일 치
http:// www.k
중심 에</w>
재판 을</w>
De c</w>
4 000000
거 는</w>
만 드
빼 고</w>
성 완
소 장은</w>
시 우
실 장
안 으로</w>
어 는</w>
옹 호
용 퇴
침 을</w>
풍 이</w>
검찰 개혁을</w>
검찰총 장</w>
< !
T h
가 속
노 인</w>
당 무
사 단
선 ·
실 현</w>
안 성
중 에서도</w>
선거 제도
지역 인</w>
때문 이다.
.com/ news/
100, s1:</w>
%) 에서</w>
100,r 2:</w>
100,r 3:</w>
100,r 4:</w>
100,r 6:</w>
100,r 5:</w>
100,r 7:</w>
ranking /
분수 대</w>
보편 적</w>
감 사를</w>
과 거의</w>
꼼 꼼
당 에서는</w>
많 고</w>
여 명의</w>
이 시
잃 은</w>
정 연
특 혜
하 면서
5 대</w>
A P
광 복
배 제</w>
시 위를</w>
영 동
유 영
인 도</w>
자 녀</w>
처 럼
확보 를</w>
D 38
구 도
구 제
만 찬
매 주</w>
박 진
승 을</w>
혔 다.</w>
회 장과</w>
운동 의</w>
01D5B 9EB
기술 을</w>
나아 가
활용 해</w>
영등포 구</w>
Type= popul
01D5B9EB 196
Type=popul ar_
7 .
f b
n k
뜻 이</w>
불 어
사 립
시 킨
예 결
주 식</w>
중 원
진 지
행 위가</w>
결정 한</w>
대상 에</w>
0,s 2:</w>
0,s 3:</w>
0,s 4:</w>
0,s 6:</w>
0,s 5:</w>
0,s 7:</w>
차지 하는</w>
…………………… ……………………
0,e 1:</w>
&amp;rankingS eq
&amp;rankingS ection
bot to
ranking/ read.nhn?
Type=popular_ day
( 오른쪽
G T
계 신
논 평을</w>
북 미</w>
생 산</w>
음 악
주 승
200 5년</w>
자신 들이</w>
도전 을</w>
바란 다.\xa0
의견 도</w>
흐름 을</w>
이에 요.</w>
2019- 12
&amp;rankingSection Id=
Type=popular_day &amp;oid=
e -
p ar
동 영상</w>
배 가</w>
않 겠다고</w>
열 렸
인 맥
대표 적</w>
200 3년</w>
참여 해</w>
%) 이</w>
비례대표 제
수준 을</w>
.7 %,</w>
아닌 지</w>
false,u t:</w>
감 당
걱 정이</w>
국 으로</w>
논 산
모 니
복 원
사 항</w>
살 기</w>
소 셜
썼 다.</w>
탓 에</w>
했다. \xa0
하나 도</w>
발전 의</w>
일본 을</w>
되었 고,</w>
&amp;date =20200
@ :</w>
구 태
말 했습니다.</w>
백 원
보 호</w>
선 출</w>
승 부를</w>
엄 중한</w>
챙 겨
초 반
판 결</w>
정당 한</w>
예비후보 를</w>
결과 로</w>
건강 한</w>
정두 언
( 더</w>
2 8</w>
간 접
것 들을</w>
권 분
급 한</w>
납 득
라 인</w>
발 족
부 대</w>
익 산
제 발</w>
차 원
트 가</w>
의원 들도</w>
그러 니</w>
개발 을</w>
9E 76
지하 철
분류 되는</w>
꼬집 었다.</w>
아프리카 돼지열
8 DC
’ 인</w>
국 정을</w>
노 선을</w>
덕 분에</w>
뒤 늦게</w>
막 말</w>
부 재
없 어서</w>
의 )</w>
공정 하고</w>
영향 력을</w>
5 A
것 입니다.
든 ,</w>
스 케
약 한</w>
작 동
예정 인</w>
(5 6
https:// youtu.be
js on
.6 %</w>
언급 하며</w>
표본 오차는</w>
문화체육 관광
2 6</w>
7 000000
= 뉴스1)</w>
겨 우</w>
구 속</w>
낙 동
남 성</w>
돌 리
듣 는</w>
링 크
방 안이</w>
법 원
부 ·
소 식에</w>
신 장
싸 움을</w>
았 고,</w>
억 원의</w>
와 도</w>
이 래
잇 는</w>
진 술
파 로</w>
편 의
시민 들은</w>
27 9F
서울시장 은</w>
확실 하게</w>
함초롬바탕,t 3:</w>
상한 제</w>
내다 봤다.</w>
동두 천
강 력</w>
게 임</w>
누 리</w>
소 식</w>
시 기를</w>
위 로
음 에</w>
이 춘
촉 진
위원 을</w>
아니 지만</w>
an d</w>
모습 은</w>
선택 한</w>
센터 를</w>
기반 이</w>
개인 적으로</w>
기구 (
간 을</w>
경 자</w>
끝 내</w>
년 대
다 당
인 력
일 입니다.</w>
전 재
협 치
10 .
않는 다면</w>
공관 위는</w>
어디 로</w>
일으 켰
비율 은</w>
당직 자</w>
죠. ◎</w>
마찬가지 다.</w>
열린우리 당</w>
관 행
국 세
도 저히</w>
비 공개
살 피
소 집
운 이</w>
이 때</w>
특 례
휴 대전
\xa0 ']</w>
당원 과</w>
김수 민</w>
아세 안</w>
감 과</w>
공 시</w>
대 답
든 다.</w>
맞 춰
무 료
반 려
벌 인</w>
법 상</w>
봐 야
원 희
장 진영</w>
정 파
하 기를</w>
노동 당</w>
기사 입력</w>
최소 화
at ch
비정규 직
베트 남</w>
안대 희</w>
“ 그</w>
법 ’</w>
어 울
여 유
자 민
점 과</w>
접 한</w>
정 성
탄 탄
했 을
검찰 과</w>
주민 들과</w>
공동 대표</w>
제기 되고</w>
토론 회</w>
세우 는</w>
기간 이</w>
번째 는</w>
솔직 히</w>
금태 섭</w>
4 0</w>
나 갔
낙 하
능 력</w>
도 매
물 었다.</w>
버 리는</w>
법 ·
사 전에</w>
의 학
태 안
합 당
마음 대로</w>
인재 를</w>
국회의 장을</w>
다니 는</w>
뚜렷 한</w>
단 독</w>
상 당</w>
생 겼
이 은</w>
전 과
함 .</w>
는데 .</w>
[ 단독
공 표
기 정
상 호
신 뢰</w>
이어 진</w>
pt ;</w>
.7 %</w>
경향 신문</w>
어차 피</w>
% 대</w>
r am
검 사가</w>
관 리를</w>
남 의</w>
단 행
물 고</w>
박 우
연 출
주 권
.1 6</w>
연구 원은</w>
공약 은</w>
전국 의</w>
** *
( 새
3 ~
당 일</w>
변 한</w>
보 내는</w>
원 인</w>
점 쳐
줄 이</w>
펀 드</w>
지역 사회</w>
자유 통일
대선 후보</w>
이번 이</w>
시대 가</w>
data -
윤석 열
의뢰 해</w>
’ 이란</w>
감 찰</w>
경 호
노 태
담 당</w>
어 ,</w>
유 입
파 업
포 항</w>
하 면서,</w>
한 강</w>
습니 다만</w>
결정 하는</w>
최고위원 이</w>
0,m r:</w>
m un
검 경</w>
나 가</w>
는 다는</w>
사 법</w>
쉬 운</w>
생각 할</w>
위원회 ,</w>
요청 을</w>
스타 트
움직임 이</w>
트위 터
01D5B946 279F
B 8
드 루
부 (
삼 성</w>
아 끼
질 서를</w>
집 무
혁신 도시</w>
승리 로</w>
0,b t:</w>
0,b b:</w>
0,b r:</w>
경우 에</w>
0,l v:</w>
0,t p:</w>
0,m p:</w>
0,m n:</w>
false,b i:</w>
false,k p:</w>
false,k l:</w>
false,k w:</w>
false,k k:</w>
0,f l:</w>
무당 층
분담 금</w>
,h l:</w>
false,m i:</w>
싱크 크
0,k n:</w>
3 만
인 식이</w>
정 과</w>
주 기
요. ”</w>
.3 %,</w>
연대 는</w>
0,h i:</w>
김한 길</w>
margin -
법제 사법
군사정보보호 협정
단 속
박 인
보 셨
연 말</w>
요 즘
지 경
청 사</w>
천안 함</w>
( ?
광 장</w>
시 험</w>
실 ,</w>
전 주</w>
전 제로</w>
특 권
했 다"며</w>
후 임
예정 이다.
언론 은</w>
비서관 은</w>
@joongang .co.kr</w>
SB S</w>
b u
소 한</w>
입 각
프 라이
뉴스 통신
정치인 들의</w>
않는 다고</w>
:1 px</w>
득표율 을</w>
**** ****
( S
1 01
같 이
분 쟁
삶 이</w>
어 리
재 임</w>
주 장은</w>
짜 리</w>
201 5</w>
10 명</w>
시간 은</w>
이해 할</w>
확산 을</w>
00000 22
후보자 에</w>
01D5D70BFDA B1
01D5D70BFDAB1 F0000000
f 1:</w>
s s
김 우
느 라</w>
다 고함</w>
론 으로</w>
말 라
육 군
첨 단
협 조를</w>
10 .</w>
사업 으로</w>
보고 서
기록 한</w>
위성 정당을</w>
내세 워</w>
1 30
c a
강 화를</w>
고 스
김 희
놀 라
박 철
보 상
상 에서</w>
안 양</w>
어 로</w>
잃 어
재 무
짧 은</w>
판 사</w>
패 러
민주당 에서는</w>
바른미래 당의</w>
사무 실</w>
교수 를</w>
트럼 프
목소리 도</w>
true,s l:</w>
이준 석</w>
p t</w>
w n
얻 었다.</w>
임 기를</w>
지 자체</w>
텍 ,</w>
생각 도</w>
조사 한</w>
일본 에</w>
처리 에</w>
( 친
4 당</w>
가 짜</w>
강 의</w>
까 ?
양 평
임 태
장 ·
조 의</w>
진행 한</w>
인사 말을</w>
세력 에</w>
언론 을</w>
누구 를</w>
/연합뉴스 googletag.cmd.push(function()</w>
3 명이</w>
견 인
당 리
성 명을</w>
소 수</w>
최 우선
취 급
수사 와</w>
지원 에</w>
바른미래 당이</w>
논의 에</w>
전망 된다.</w>
2015-0 6
합리 적인</w>
' .</w>
3 분의</w>
B 6
브 라
안 내</w>
유 예</w>
질 타
회 동</w>
문화 예술
나오 면</w>
반발 이</w>
플랫 폼
결 합
경 을</w>
공 학
십 니다.</w>
연 예
전 염
행 안
황 현
주시 는</w>
주도 하는</w>
00000 20
기간 에</w>
박정 희
다시 피</w>
https://youtu.be /
D 4F
o l
뛰 고</w>
러 시아
봉 준호</w>
부 적
오 지</w>
완 전한</w>
원 활
육 군</w>
전 날
표 방
했다. \xa0</w>
발표 된</w>
유권 자가</w>
분들 께</w>
E 4
노 후
문 화를</w>
부 작용
분 권
얻 는</w>
원 외</w>
있 다”면서</w>
절 차</w>
지 니
찾 았다.</w>
총 력을</w>
15 대</w>
사회 주의
%) 와</w>
확인 하러</w>
해석 이</w>
있다./ 연합뉴스
느끼 는</w>
5. 18
A 0
… “
가 락
가 이
기 성</w>
보 일</w>
비 즈니
아 빠
잡 아</w>
재 편
재 생</w>
주 거</w>
차 라
만들 었다.</w>
여론 의</w>
지도 자</w>
의석 이</w>
필리버스터 를</w>
물론 ,</w>
고 ()</w>
단 에서</w>
대 사</w>
발 로</w>
아 이</w>
요 청</w>
자 마자</w>
조 롱
중 ]</w>
처 벌</w>
20 ~
사람 에게</w>
&amp; type=1
않았 지만</w>
공동 선대
해왔 던</w>
사항 은</w>
성향 이</w>
블로 그</w>
인사청문 회</w>
( 사
그 린
도 리
선 은</w>
시 에서</w>
싫 어
이 냐</w>
조 장
초 당
토 로
청년 의</w>
활동 이</w>
말씀 드렸
모습 으로</w>
법안 의</w>
희망 이</w>
이후 에도</w>
신속 하게</w>
이회 창</w>
C O
a .com</w>
e d
자 격을</w>
0, av:</w>
지역 에서는</w>
그러 자</w>
.com //
투표 에</w>
청와대 를</w>
연합뉴스 ]</w>
https:// news.naver
49 C
인물 로</w>
선거법 이</w>
true, ko
서구 을</w>
구속 영
해양 수산
권은 희</w>
true,ko :</w>
v =
겁 게</w>
것 보다</w>
김 홍
상 가
소 의</w>
의 향
.8 %,</w>
재판 에</w>
다르 게</w>
발의 한</w>
안팎 의</w>
1 F
q u
규 칙
단 결
동 료
부 담</w>
유 지</w>
입 고</w>
포 스트</w>
하 진</w>
현 행
화 성</w>
자유 와</w>
시작 해</w>
광주 광역시</w>
늘어 난</w>
민주노 총</w>
Neue, serif'></w>
A :</w>
눈 치
역 량
연 세대</w>
이 르는</w>
중 ,</w>
학 습
해 졌다.</w>
공약 에</w>
학교 를</w>
전체 의</w>
이슈 를</w>
경향 신문
보건복지 부</w>
박 탈
손 에</w>
어 떤
을 (
하 지도</w>
사람 ,</w>
1, si:</w>
보도 자료</w>
아무 래도</w>
하고 는</w>
김무 성
연수 원</w>
대정부 질문
YT N</w>
공 사는</w>
긍 정</w>
나 와서</w>
노 웅
드 디
모 습</w>
병 이</w>
부 대
서 원
이 익</w>
저 널
직 격
징 계
하 기가</w>
항 소
정부 도</w>
들어 가는</w>
16 0,bf:</w>
있었 다</w>
않았 다는</w>
되었 던</w>
th e
조금 이라도</w>
이승 만</w>
명령 을</w>
포커 스
제 7
편 안
하 반기</w>
대표 )</w>
추진 을</w>
8A 000000
일자리 가</w>
main/ ranking/read.nhn?
01D5DFB 49C
897 8A000000
[사설 ]</w>
&amp;date=20200 30
.com// main/ranking/read.nhn?
https://news.naver .com//main/ranking/read.nhn?
01D5DFB49C 8978A000000
구 도</w>
나 간</w>
담 고</w>
랐 다.</w>
리 의</w>
자 로서</w>
주 장</w>
취 지로</w>
한 기
행 하는</w>
경제 ·
국무총리 를</w>
.5 %,</w>
거리 에서</w>
배제 할</w>
비용 을</w>
C8 D
골 자로</w>
김 은
많 지</w>
박 경
번 이나</w>
주 간</w>
참 패
표 창원</w>
하 명
획 득
\xa0 ■</w>
진행 했다.</w>
http:// www
정치권 은</w>
학생 들이</w>
출처 :
바람 에</w>
드린 다.\xa0
민심 은</w>
5 ~
… "
공 영
내 밀
문 에</w>
비 로</w>
유 보
지 ?</w>
폭 이</w>
100 0,tc:</w>
민주주의 가</w>
교섭 단체
이하 의</w>
호텔 에서</w>
col or:</w>
거 꾸
꺼 내
네 일</w>
동 력을</w>
병 원에</w>
시 즌
실 제
않 지만</w>
왔 다</w>
천 막
합 격
se oul
다” 면서도</w>
17 6
특별 히</w>
제기 한</w>
전체 를</w>
2 위를</w>
가 지를</w>
나 눠</w>
심 은</w>
입 력
차 도</w>
0, id:</w>
보도 자료를</w>
79 0
추구 하는</w>
상처 를</w>
플랫 폼</w>
- 19</w>
강 진
대 고</w>
201 6</w>
미래 한국당의</w>
정의 를</w>
진행 될</w>
발언 으로</w>
주시 길</w>
외교 적</w>
전문가 들</w>
일제 히</w>
1 동</w>
경 정
도 출
보 실</w>
북 ·
원 칙</w>
하 여야</w>
정치 에서</w>
진행 하고</w>
저희 는</w>
철저 하게</w>
아버 지</w>
/2 21
전· 현직</w>
R &amp;
w atch
강 제</w>
공 공</w>
데 는</w>
동 향
메 디
삼 권분
시 당
야 당에</w>
예 방</w>
정 하고</w>
증 가</w>
쪽 이</w>
확 립
al ign
통합 당은</w>
참석 하고</w>
중요 하다고</w>
달라 ”고</w>
EC %
회담 을</w>
복귀 를</w>
작용 할</w>
내세 운</w>
싸우 는</w>
imag e</w>
이우 현</w>
안희 정</w>
차라 리</w>
분 구
시 원
위 성</w>
중 산
해 지는</w>
출처 에서</w>
반응 이</w>
중략 ...</w>
1 000000
3 /
남 동
돌 이</w>
미 를</w>
반 대를</w>
상 ,</w>
시 범
연 방
완 벽
의 사가</w>
이 로써</w>
쇄신 을</w>
각오 로</w>
성완 종</w>
( 27
3 명</w>
거 두
건 너</w>
마 주
보 령
비 아
알 아야</w>
일 이
자 산</w>
정 상</w>
한 해</w>
최고 위
사건 과</w>
.2 %,</w>
C :</w>
나 이
못 했던</w>
배 의</w>
벌 금
부 응
불 만을</w>
신 당을</w>
주 와</w>
즉 위
최 영호</w>
12 ·
투표 가</w>
노동 조합
모두 의</w>
개헌 을</w>
김관 영</w>
% EC%
7 ,si:</w>
B C</w>
년 은</w>
반 발</w>
범 위
서 부
스 터
응 급
자 립
주 역
탈 당을</w>
국민 께</w>
대학 생</w>
추미 애
자연 스럽게</w>
드라 마
닷컴가기 .</w>
계 룡
대 안</w>
미 뤄
시 위</w>
심 에</w>
싸 움이</w>
있 다,</w>
주 셔서</w>
특 위
선거구 로</w>
협의 체</w>
공개 한</w>
오늘 부터</w>
.9 %,</w>
상임 고문
글로 벌
서울중앙 지검
집계 됐다.</w>
“ 문</w>
눈 이</w>
부 지</w>
브 랜드
서 서</w>
외 의</w>
중 에도</w>
1, id:</w>
수사 는</w>
2019 .0
현실 적으로</w>
응답 은</w>
01D5CB 43
01D5CB43 B5
공 업
다 고
묻 자</w>
버 렸다.</w>
분 양</w>
성 찰
20 21
총리 에게</w>
주장 한</w>
혁신 통합추진
지도 부를</w>
i .co.kr</w>
구 입
력 에</w>
무 역</w>
사 )</w>
수 당</w>
시 진
임 재
지 리
화 순
선거 로</w>
.2 %</w>
요청 했다.</w>
사례 를</w>
조건 을</w>
W S
내 렸다.</w>
있 는데요.</w>
전 후
정 황
착 용
히 지</w>
di v</w>
청년 이</w>
공약 이</w>
도시 재생
.4 %,</w>
민주평화 당
&amp;sid1= 100
% 까지</w>
( 47
a nc
관 점에서</w>
단 양
막 판</w>
막 아야</w>
민 이</w>
벌 써
본 선</w>
이 룰</w>
지역 경제</w>
기관 인</w>
고민 이</w>
김진 표</w>
전쟁 을</w>
감 수
건 으로</w>
로 에</w>
롭 고</w>
색 이</w>
서 해
아 픈</w>
언 이</w>
전 병
전 일
타 격을</w>
통 일을</w>
했 어야</w>
이야 말로</w>
사법 농
변호사 ,</w>
-1 8</w>
자격 이</w>
' 이라고</w>
* …</w>
B 000000
[ 20년</w>
o u
는 다</w>
단 원
바 다
생 길</w>
여 명</w>
전 제
현 황</w>
평화 의</w>
%) 과</w>
%) 를</w>
관측 도</w>
2 위</w>
것 인데</w>
김 일
내 리고</w>
동 안의</w>
뭐 라고</w>
벌 금</w>
부 실
황 운
비판 도</w>
000001 0
행정 관</w>
광주 광역
실패 한</w>
의정 활동</w>
조금 씩</w>
김부 겸
하여 ,</w>
박형 준</w>
… '
령 이</w>
맡 았다.</w>
방 해</w>
벨 트
의 지
전 희
진 다면</w>
징 계</w>
포 장
미래 로</w>
국민의 당
198 7년</w>
공 론
담 한</w>
민 을</w>
분 당</w>
산 불</w>
소 로</w>
야 권이</w>
통 일부</w>
포 함</w>
할 수</w>
사회 ,</w>
들어 갈</w>
바른미래 당을</w>
압수수 색</w>
3 선을</w>
대 검</w>
두 로</w>
들 인</w>
립 니다.</w>
상 권</w>
성 공</w>
시 티
열 릴</w>
을 ),</w>
의 장을</w>
일 )
있 음.</w>
진 짜
후 폭
지역 위원장이</w>
지정 된</w>
최근 에는</w>
.0pt ;</w>
의원총 회에서</w>
R R
m b
‘ 4+1
동 의를</w>
올 리는</w>
와 중에</w>
용 납
정 도를</w>
제 정</w>
휴 대
있었 다고</w>
전국 에서</w>
방송 을</w>
추가 경정
근본 적인</w>
안상 수</w>
2 명</w>
c i
· 성
구 민</w>
담 아</w>
당 선을</w>
디 스
마 라
석 에서</w>
수 ·
시 면</w>
쪽 은</w>
청 양
체 제가</w>
판 매</w>
진행 할</w>
,b l:</w>
참석 ,</w>
김종 민</w>
받아들 일</w>
doso7 @
정희 용</w>
( TK
1 조
9 .</w>
` 을</w>
p ag
각 자</w>
균 형</w>
뉴 라이
대 회에서</w>
독 점
매 매</w>
삼 청
폭 행
지원 이</w>
대변 하는</w>
만들어 진</w>
제안 에</w>
보건 의료
to day
다짐 했다.</w>
인프 라</w>
01D5E7 88
시나리 오
OEC D</w>
것 임을</w>
권 력이</w>
늘 리는</w>
당 정청
들 면</w>
똑 같은</w>
만 남
재 개발</w>
정 병
지 표
김민 석</w>
[앵커 ]</w>
( 사진=
N E
거 고</w>
낙 후
도 전에</w>
동 시
세 대를</w>
않 느냐
연 천
종 북
인사 하고</w>
인사 들을</w>
있었 고</w>
어려 움이</w>
보도 자료
김영 우</w>
정치권 에서는</w>
.6 %,</w>
동남 갑</w>
평범 한</w>
1 차
공 략
는 다고</w>
도 의회</w>
되 거나</w>
들 지</w>
리 아
신 규
읽 어
저 소득
제 출</w>
충 청</w>
혁 명의</w>
진행 되는</w>
것이 었다.</w>
대응 에</w>
수준 에서</w>
http://www. news
용산 구</w>
윤건 영</w>
거꾸 로</w>
watch ?
강 행</w>
거 대한</w>
당 하고</w>
명 부</w>
불 가능한</w>
서 다.</w>
쇼 핑
어 지고</w>
참 신
타 파
피 켓</w>
준비 가</w>
되었 고</w>
공수처 가</w>
주변 에</w>
가 만
리 며</w>
보 태
유 연
정 하는</w>
측 면
화 려
의원 들에게</w>
다. [
지지 자들이</w>
때문 에,</w>
정책 ,</w>
세계 적인</w>
무엇 인지</w>
얘기 하는</w>
분위 기</w>
의무 를</w>
마산 합
질병 관리
We b</w>
m _
기 에는</w>
대 비해</w>
일 까?</w>
총 장
축 을</w>
커 질</w>
혁 명을</w>
현 금
계획 에</w>
비례대표 제가</w>
대통합 을</w>
국가균형발전 위원회</w>
인공지 능
감 옥
거 야
뜻 이다.</w>
로 선</w>
비 주류
수 립</w>
없 음
타 결
출마 선언</w>
것이 며,</w>
이었 다고</w>
특별 자치
.7 %)</w>
처음 이다.</w>
정태 호</w>
Y S
p re
도 모
되 는
원 문</w>
이 것
기자 들에게</w>
200 8
선관 위가</w>
주재 로</w>
&amp;type=1 &amp;rankingSectionId=
( 14
9 .
b y
구 도로</w>
리 ,</w>
반 갑
부 에서</w>
얼 굴</w>
입 당한</w>
직 에서</w>
&lt; 리서치뷰
1, s
확인 됐다.</w>
과감 하게</w>
구 나
기 획</w>
렸 던</w>
변 을</w>
분 들과</w>
설 명을</w>
인 상을</w>
탈 당한</w>
진행 됐다.</w>
우려 도</w>
구청 장
현수 막
# 경자
t d</w>
낙 인
되 겠습니다.</w>
두 루</w>
많 습니다.</w>
맞 물
영 도
옵 니다.</w>
입 에</w>
창 의
흡 수
국회 선진화
위원장 도</w>
선언 ,</w>
바른미래 당·
이상 으로</w>
현실 이</w>
만들어 서</w>
so ur
하라 ”고</w>
보유 한</w>
윤상 현</w>
6 시
m .f
건 지</w>
겸 임
론 은</w>
물 에</w>
선 으로</w>
설 치를</w>
스 에서</w>
주 고
증 이</w>
총 장의</w>
id =1
주도 한</w>
하였 고,</w>
어디 에</w>
A 씨는</w>
N H
당 분간</w>
동 교
심 과</w>
여 부는</w>
이 른</w>
제 21대
토 크
특 성
주민 과</w>
안정 적인</w>
newsis .com</w>
a tion
간 다는</w>
건 물</w>
그 럴
나 쁘
보 냈다.</w>
소 리가</w>
수 지</w>
없 던</w>
원 천
이 기에</w>
집 에서</w>
추 후</w>
하 남
전문 기관</w>
말씀 하신</w>
대구 에서</w>
당권 파
기 (
기 성
김 연
살 릴</w>
임 이</w>
전 원</w>
선거 ,</w>
대통령 직속</w>
기자 ]
위원장 에</w>
국가 로</w>
여러분 들의</w>
해결 하기</w>
분열 을</w>
· 더·
감 은</w>
리 로</w>
미 투
미 흡
미 투</w>
변 수로</w>
병 역
불 러</w>
이 경
주 사
통 영
18 9
.1 %</w>
전략 기획
아이 들이</w>
신청 한</w>
비난 을</w>
꿈꾸 는</w>
정몽 준</w>
벌써 부터</w>
+ 2</w>
건 가
고 문</w>
대 장</w>
떠 난</w>
였 다고</w>
을 까</w>
음 모
인 식</w>
제 보</w>
총 체
협 박
민주 통합당</w>
미래 의</w>
27 8
전망 을</w>
관광 객
규모 가</w>
일으 킨</w>
느끼 고</w>
트리 플
E ,bf:</w>
‘ 반
같 다고</w>
내 놓고</w>
모 욕
미 친</w>
방 지</w>
분 도</w>
불 공정
삭 발
터 리</w>
펀 드
해 법을</w>
현 장의</w>
힘 내
더불어민주당 에</w>
중국 에</w>
4· 15
인물 이다.</w>
co m
전당대 회를</w>
고양 시</w>
높아 지고</w>
height :
강경 화</w>
b i
걸 림
단 합
돌 이
명 분이</w>
몇 몇</w>
목 사
목 표</w>
생 명을</w>
수 여
실 시간</w>
앞 세워</w>
은 혜
재 선에</w>
정 하게</w>
찾 고</w>
캡 처
파 탄
환 자
준비 에</w>
대구 경북
제도 적</w>
드러 났
어렵 다고</w>
.4 %)</w>
살펴 보면</w>
참고 로</w>
아카데 미</w>
bit. ly
당 국은</w>
맞 고</w>
배 달
신 당이</w>
이 념</w>
임 기가</w>
재 공시</w>
팽 팽
폴 리
하 되</w>
학 회</w>
200 6
책임 은</w>
주민 등록
목소 리</w>
분석 도</w>
어린 이</w>
트위 터</w>
학과 를</w>
안타까 운</w>
sour ce
5 E
강 구
고 마
기 )</w>
나 이</w>
동 부
마 저도</w>
미 술
창 출</w>
플 레이
한 다”는</w>
예비후보 와</w>
관계 는</w>
요. ◎\xa0
페이 지</w>
달라 질</w>
ranking Type=popular_day&amp;oid=
물론 이고</w>
그 릇
보 고,</w>
원 광
저 렇게</w>
좋 을</w>
사람 으로</w>
교육 의</w>
경찰 청</w>
최고위원 회의에</w>
다’ 라는</w>
떨어 져</w>
자원 봉사
무시 하고</w>
비중 이</w>
도둑 질
botto m
https://news.naver.com//main/ranking/read.nhn? rankingType=popular_day&amp;oid=
군 ·
그 때
끝 나고</w>
당 적을</w>
스 카
스 코
임 상
잘 하고</w>
지 킬</w>
출 산</w>
할 까
결정 은</w>
정도 는</w>
2015 .0
비율 을</w>
가짜 뉴스
게 재
계 승
날 치
매 니
미 군
살 려</w>
소 폭</w>
수 혜
에 다</w>
올 리고</w>
우 위를</w>
절 대로</w>
지 속</w>
타 운</w>
해야 만</w>
벌어 지고</w>
김용 태</w>
좌파 독재
내부 에서</w>
라디 오
watch? v=
2 개</w>
5 년
견 제</w>
까 지의</w>
돼 지</w>
된 다”며</w>
밀 려</w>
복 지를</w>
생 긴</w>
세 웠다.</w>
어 요</w>
장 면
절 박
태 국</w>
선거 용품</w>
사람 들에게</w>
그러 다</w>
회의 는</w>
개혁 은</w>
기업 에</w>
이어 야</w>
기록 을</w>
신속 히</w>
소개 했다.</w>
분양 가</w>
[편집 ]</w>
패스트트랙(신속처리안건 )</w>
5 %</w>
구 호를</w>
근 데</w>
기 금
남 해
넘 기
더 구나</w>
셨 다.</w>
요 금</w>
적 의</w>
조 회
한 테
의원 .</w>
후보 자로</w>
보수 재건
만들 겠다는</w>
입니 까?</w>
관심 사
돌아 온</w>
노력 하고</w>
내려 놓고</w>
문재인 정부</w>
신뢰 수준에</w>
전체 가</w>
아직 은</w>
본회의 장에서</w>
모바 일</w>
1인 당</w>
N o
건 립</w>
광 고</w>
명 에게</w>
보 류
부 위원장</w>
신 성
였 고,</w>
용 역
조 현
터 미
%) 을</w>
위해 ,</w>
드러 났다.</w>
기본 적인</w>
모양새 다.</w>
내놨 다.</w>
( 17
3 13
5 만
거 부</w>
목 사는</w>
불 이</w>
사 면
악 수
유 명한</w>
조 명
줄 줄이</w>
지 수</w>
정치 세력
습니 까.</w>
보수 통합
.6 %)</w>
정신 으로</w>
유지 하고</w>
들었 습니다.</w>
서초 구</w>
세상 에</w>
집값 이</w>
드디 어</w>
4 차
8 .
규 정을</w>
도 내</w>
본 인은</w>
삼 척
생 생
선 수</w>
셋 째,</w>
심 도</w>
여 성이</w>
재 개발
적 ·
주 면</w>
즉 ,</w>
장관 으로</w>
있었 고,</w>
참여 정부</w>
마이 너
실질 적으로</w>
형태 로</w>
감안 하면</w>
가 상
강 릉
교 사
박 재
설 문
얘 기는</w>
외 치고</w>
재 신임</w>
정 미
존 재</w>
판 단</w>
회 원</w>
다. \xa0</w>
투표 로</w>
안철수 계</w>
드라 마</w>
01D5E6C B57
po li
#홍 홍</w>
“ 저는</w>
검 사는</w>
만 으로도</w>
박 수를</w>
받 으며</w>
선 한</w>
신 공항</w>
엄 중
정 종
조 세
주 저
직 에</w>
채 용</w>
허 위</w>
결정 했다.</w>
이었 고,</w>
않았 다고</w>
판단 이</w>
00000 21
상관 없이</w>
유능 한</w>
개성공 단</w>
알겠 습니다.\xa0
# 동</w>
# 당</w>
# 홍문</w>
A 790
곳 곳에서</w>
그 만</w>
선 봉
주 주</w>
줄 을</w>
튼 튼
합 법
201 8</w>
인사 들은</w>
교육 ,</w>
예산 결산
선거구 에서</w>
나타 난</w>
199 6년</w>
국민의 당은</w>
제공 하는</w>
01D5AFB A790
신분 당선</w>
☎\xa0 진행자\xa0&gt;\xa0
acebook.com/ story
#경자 홍</w>
acebook.com/story .php?
# 트리플
c ent
갑 질</w>
값 이</w>
까 지만</w>
둘 째
로 스
벌 이는</w>
뿌 리</w>
새 만
약 을</w>
어 지
영 남</w>
이 럴</w>
작 전
직 장
탄 력
행 동</w>
있었 다는</w>
에게 서</w>
목표 는</w>
안철수 ,</w>
#트리플 8</w>
# 홍</w>
게 는</w>
기 록</w>
넘 지</w>
들 여</w>
번 을</w>
새 누리</w>
원 미
장 수</w>
정 말로</w>
트 ,</w>
하 다며</w>
희 ,</w>
50 억</w>
처리 할</w>
.9 %)</w>
제1 야당인</w>
원내대표 도</w>
근거 가</w>
#홍 경자</w>
쿠데 타
. go
: //</w>
갈 등과</w>
감 에</w>
나 란히</w>
다 라며</w>
소 요
소 식이</w>
시 의
식 에는</w>
이 내
이 스
전 수
조 가</w>
천 년
하 자,</w>
인사 에</w>
이어 가
.3 %)</w>
울산 ·
바꾸 고</w>
브리 핑</w>
01D5AD 7
우파 의</w>
리더십 을</w>
1 동,</w>
5 명</w>
가 세
거 창
겁 니까
극 히</w>
냐 ,</w>
더 이상</w>
모 순
몰 려
보 훈
사 모
생 명과</w>
어 른
연 맹
진 과</w>
짓 는</w>
축 소</w>
서울 시는</w>
시민 들을</w>
것이 며</w>
종로 의</w>
정신 이</w>
해야 할</w>
긍정 적</w>
단순 한</w>
조속 한</w>
(G SOMIA
1 명</w>
관 해</w>
또 ,</w>
병 원으로</w>
은 폐
인 증
포 를</w>
효 과</w>
소재 ·
기 무
길 ,</w>
돌 고</w>
되 던</w>
리 면</w>
분 열</w>
앞 당
영 향</w>
일 베
정 운
책 이</w>
플 랜
행 사가</w>
힘 들어
국무 회의에서</w>
여러분 이</w>
도시 를</w>
ut m_
상태 에</w>
무리 한</w>
DD D
수요 가</w>
전면 에</w>
통합진보 당</w>
m.f acebook.com/story.php?
; mso-
G yeong
l l
구 호
기 사는</w>
낙 마
대 담
마 침
만 났다.</w>
방 식</w>
별 도로</w>
병 을</w>
야 당과</w>
어 긋
역 동
자 살
종 합</w>
진 은</w>
카 메
탈 원전</w>
티 브</w>
보수 는</w>
위원회 와</w>
지역구 의</w>
이었 지만</w>
성공 적으로</w>
의혹 과</w>
유치 원
가치 와</w>
지나 치게</w>
동원 해</w>
01D5C5 EF
1 주
1 .5
B 9
‘ 청년
“ 제가</w>
가 스
대 치
방 지를</w>
병 에</w>
상 과</w>
진 해
철 회</w>
타 운
플 라
학 살
호 응
정의 당과</w>
() 를</w>
내용 에</w>
감염 증</w>
김의 겸</w>
1 %</w>
많 으
받 으면</w>
짓 을</w>
청 이</w>
회 사의</w>
정치 외교
개혁 ,</w>
예정 입니다.</w>
법안 과</w>
인정 하고</w>
대화 의</w>
활용 한</w>
영등 포</w>
공간 을</w>
든든 한</w>
3 개월
가 계
갈 등의</w>
같 아</w>
높 이
여 권이</w>
우 회</w>
유 상
일 들이</w>
재 앙
제 시</w>
조 계
태 영호</w>
토 막
파 주시
피 를</w>
01D5E 3
받았 던</w>
드리 겠습니다.</w>
연대 가</w>
만나 고</w>
차별 금지
01D5E14 9E76
9 년</w>
늘 었다.</w>
독 자</w>
물 려
원 장
일 정이</w>
판 문
후 임</w>
미래 에</w>
기자 간담회를</w>
re a</w>
나라 ,</w>
https ://</w>
강원 도
체제 에</w>
표본 오차</w>
고속 도로</w>
김혜 민</w>
4 .2
갑 을</w>
김 석
들 려
얻 고</w>
일 에도</w>
창 립
00 8
국민 연금
조사 가</w>
마련 해</w>
비서관 이</w>
Cli ent</w>
십니까 ?
가 구
권 성
극 심한</w>
벽 을</w>
사 표</w>
실 적</w>
영 (
임 현동</w>
잘 하는</w>
재 직
조 달
조 언
치 명
le e
국민 에</w>
민주당 도</w>
기자 간담회에서</w>
주민 들은</w>
%) 보다</w>
국민의 당이</w>
당원 들이</w>
위험 한</w>
당당 히</w>
반박 했다.</w>
7 000
… …</w>
감 동
김 주
늘 고</w>
단 지
명 심
명 절</w>
분 할
여 객
장 난
체 가</w>
측 면이</w>
경제 신문
다" 는</w>
공천 은</w>
st or</w>
내용 이다.</w>
(5 5·
.6 %로</w>
분노 를</w>
news.v.daum.n et/v
) '</w>
n ame
그 쳤다.</w>
냐 고</w>
요 양
유 가족
재 산</w>
청 장은</w>
판 으로</w>
.k r
지지 도가</w>
12 .</w>
국정 감사</w>
마련 한</w>
https:// news.v.daum.net/v
분석 이다.</w>
있어 도</w>
상임 위</w>
브리핑 에서</w>
역임 했다.</w>
근거 로</w>
서울중앙 지검</w>
원종 건</w>
… ‘
각 별
간 곡
군 인권
끝 이</w>
를 )</w>
마 크
모 호
옆 에</w>
일 째</w>
임 상</w>
중 간</w>
차 이를</w>
축 사를</w>
친 다.</w>
패 권
허 경영</w>
www. news
책임 지고</w>
더불어민주당 ,</w>
정치인 을</w>
세계 에서</w>
제도 는</w>
김진 태
안철수 의</w>
다르 지</w>
무너 진</w>
기득 권
필요하 다”고</w>
적임 자
5 5</w>
가 득</w>
고 조
됐 는데</w>
미 지수
상 장</w>
서 와</w>
어 질</w>
층 을</w>
피 선거
험 지에</w>
후보 들은</w>
in p
되었 다고</w>
서울시 가</w>
. ◎\xa0진행자\xa0&gt;\xa0
2 ,</w>
f or
t wit
날 짜
높 이고</w>
등 한</w>
메 모
보 라</w>
성 북
식 ,</w>
원 주
육 성</w>
의 도가</w>
적 폐</w>
보수 와</w>
미국 에</w>
나타 나고</w>
검증 을</w>
불편 한</w>
https://www.youtube.com/ watch?v=
m.facebook.com/story.php? stor</w>
? ?</w>
고 교</w>
관 내</w>
높 일</w>
당 대표가</w>
도 중</w>
들 로부터</w>
만 으로는</w>
모 집</w>
비 ,</w>
어 찌</w>
오 면</w>
작 성</w>
중 동
화 해
19 88
현실 에</w>
기대 가</w>
호남 에서</w>
ma il
선거법 은</w>
만나 서</w>
정기 국회</w>
AF 7
<! --
“ 21대</w>
꼽 았다.</w>
류 의</w>
생 겨
석 ·
소 장
야 할</w>
어 면</w>
워 크</w>
유 효
중 시
탄 소
한 계
대통 합</w>
전략 이</w>
논의 는</w>
제기 된</w>
토론 회
사고 가</w>
심재 철
홈페이 지를</w>
의정 활동을</w>
2 주</w>
4 000001
가 지는</w>
격 이</w>
규 명
내 년
농 성</w>
달 아
동 인천
방 안에</w>
배 상</w>
보 통
세 웠
시 티</w>
의 하면</w>
일 까.</w>
편 에</w>
해 준</w>
사람 과</w>
최고 위원회의</w>
(5 4·
.7 %로</w>
밝히 는</w>
K R
N A
거 주</w>
골 프
김 남
높 이</w>
부 수
사 우
손 해
없 는데</w>
완 화</w>
있 기를</w>
중 학교</w>
칼 을</w>
현 ,</w>
자유 민주
an d
관련 하여</w>
자유한국당 ,</w>
.com )</w>
산업 혁명</w>
당원 들의</w>
.8 %로</w>
중도 ·
비난 했다.</w>
01D5B89 8
01D5C5 ED
촬영 을</w>
FT A
) .
B A
고 교
공 장
동 료</w>
보 게</w>
세 상이</w>
신 이</w>
액 을</w>
이 학
입 법을</w>
전 용</w>
죽 음
창 신
100 &amp;rankingSeq
노동 자의</w>
보도 했다.</w>
기관 에</w>
위반 으로</w>
드렸 습니다.</w>
=뉴시스 ]</w>
어깨 띠</w>
명 단을</w>
모 범
삶 에</w>
아 이를</w>
위 촉
줄 이는</w>
퇴 근
평 양</w>
표 출
학 을</w>
행 이</w>
대표 와의</w>
한국당 에서</w>
강화 하는</w>
.8 %)</w>
확정 했다.</w>
지속 가능한</w>
성남 시</w>
권리 당원</w>
불평 등</w>
리얼미터 가</w>
복 당
학 년</w>
농림 축산
블록 체
5 )</w>
9 ,</w>
D 2
D 8
m e</w>
t v
강 경</w>
고 와</w>
공 유</w>
관 으로</w>
국 ,</w>
대 ·
라 우
무 료</w>
부 품</w>
서 민</w>
실 태
전 담
전 세</w>
정 인
좋 겠다.</w>
첫 째</w>
비판 에</w>
대화 가</w>
세월 호
안녕하 세요.</w>
무능 한</w>
감 추
기 각
법 도</w>
보 았
에 요.</w>
여 주
책 무
택 시</w>
팔 달
평 생</w>
할 당
에서 다.</w>
re am
만들 겠다고</w>
요구 하며</w>
조치 에</w>
늘어 날</w>
정체 성을</w>
키워 드
들여 다
낙인 찍
가 수</w>
글 이</w>
도 의원</w>
만 일</w>
말 하면</w>
비 율</w>
옮 겨</w>
요 약
중 견
문제 점을</w>
50 %를</w>
000001 A
선택 할</w>
호남 의</w>
차지 하고</w>
단일 화를</w>
D ,si:</w>
h ap
t q
금 의</w>
빌 딩</w>
소 장</w>
신 혼
음 주
저 질
촉 발
카 페</w>
해 졌
18 8
말했다. 이</w>
고민 하고</w>
국회의 사
절차 가</w>
사무총 장,</w>
불리 한</w>
정상회담 을</w>
서울특별 시</w>
춘추 관
6 000
갑 에서</w>
거 를</w>
군 과</w>
동 맹</w>
면 담
사 과</w>
옳 은</w>
원 혜영</w>
자 동</w>
처 를</w>
했 는데
민주 연구원</w>
한국 에서</w>
news .co.kr</w>
단체 의</w>
입장 문을</w>
요청 한</w>
온라 인
현안 점검
리얼미 터</w>
근본 적으로</w>
강 성
관 건
여 지가</w>
의 해서</w>
일 대
점 검</w>
학 술
할 머니
총선 에선</w>
si on
기업 들이</w>
환경 이</w>
발생 할</w>
반영 된</w>
것인 가</w>
http://news .k
둘러싸 고</w>
( 13
y _
가 려
공 원
남 용</w>
보 장</w>
석 탄
시 의원</w>
임 기
전 무
조 한
탈 환
화 재
사회 로</w>
선언 하면서</w>
.1 %,</w>
주의 가</w>
중심 이</w>
합의 에</w>
해결 하는</w>
환경 부</w>
.4 %로</w>
모두 발언
군 수</w>
년 째</w>
엘 리
준 연동형
학 원</w>
의원 이다.</w>
예산 은</w>
수석 이</w>
건강 을</w>
·· ·</w>
출판기념 회</w>
거기 서</w>
중소벤처기업 부</w>
감 독</w>
다 수가</w>
됐 다”며</w>
들 에게는</w>
명 기한</w>
배 포
시 을</w>
진 출</w>
추 세
생각 하면</w>
관련 해선</w>
시키 지</w>
이끌 고</w>
고용 노동
스마 트</w>
일어 난</w>
영남 권</w>
끝나 면</w>
원유 철</w>
( 201
B :</w>
감 지
급 식
둘 러</w>
매 입
반 납
발 기
스 피
악 용
이 다,</w>
장 성
절 망
최 일
치 르는</w>
카 르
0, ch:</w>
[' 자유한국당</w>
부산 에서</w>
,\xa0 이렇게</w>
확보 할</w>
안보 를</w>
CF 0B
김상 조</w>
급격 히</w>
급 여
남 긴</w>
더 해</w>
됨 에</w>
싶 어</w>
인 들은</w>
주 호영</w>
처 한</w>
최 형
패 션
아니 었다.</w>
ch e
통과 한</w>
제도 의</w>
01D5E8F18CFB75 F0000000
1,t b:</w>
당리 당
면 세
범 위를</w>
별 다른</w>
업 종
우 호
읍 ·
착 공
취 업</w>
대선 에</w>
기관 을</w>
고려 대학교</w>
본격 화
공소 장</w>
5 ,</w>
갔 다</w>
나 빠
널 드</w>
망 언
물 의</w>
손 님
었 을</w>
일 이라고</w>
지 분
해 요</w>
허 경영
회 견
20 %
정부 세종
.3 %로</w>
.5 %로</w>
영입 을</w>
희망 의</w>
분야 에</w>
프리 미
border- top
아마 도</w>
' 한국</w>
a u
국 에서</w>
권 혁
뉴 딜
든 가</w>
뜻 에</w>
룰 을</w>
신 당의</w>
아 르
일 축
토 )</w>
한 계를</w>
총리 로</w>
2020 .2
지방 경찰청
.2 %로</w>
선택 이</w>
F000000 F
돌입 했다.</w>
거주 하는</w>
인도네 시아
01D5E5 35
1 명
4 /
되 돌아
링 크</w>
시 상
안 정을</w>
액 은</w>
외 무
있 죠.</w>
통 상</w>
시작 됐다.</w>
그림 을</w>
가만 히</w>
. or
간 부</w>
공 사가</w>
뜻 으로</w>
면 제
명 분을</w>
슈 퍼
안 ,</w>
안 되는</w>
운 명
이 건
찍 어
전략 공천을</w>
분석 을</w>
기대 하고</w>
분명 하게</w>
행보 가</w>
메시 지</w>
개인 적인</w>
&amp;sid1=100 &amp;oid=
2 명이</w>
E ,id:</w>
겠 습니다.
만 원으로</w>
상 위</w>
설 훈</w>
에 야</w>
유 진</w>
인 지,</w>
te st
시작 하는</w>
내용 으로</w>
투표 용
주민 들에게</w>
이사 장이</w>
민주화 운동
진정 성</w>
시선 집중
가 졌
것 만</w>
고 사
금 호
독 려
문 은</w>
밝 힐</w>
비 주류</w>
스 웨
연 속
이 용</w>
입 지를</w>
전 자</w>
죽 어도</w>
편 집</w>
평 생
여성 가족
역사 상</w>
있을 까
정치자금 법</w>
" 이</w>
( +
( C
E N
가 포
동 포
바 쁘
스 타</w>
양 향
쟁 점
전 신
전 철
지 위를</w>
퇴 진
행 사는</w>
흥 미
생각 에</w>
주장 도</w>
종로 구
스트 레
.5 %)</w>
이재 정</w>
재건 축
아침 에</w>
타당 성</w>
부산· 울산·
재배포 는</w>
! ”</w>
A I</w>
V S</w>
개 각</w>
꼼 수</w>
다 시는</w>
되 지만</w>
박 광
발 송
스 와</w>
쓰 지</w>
역 에</w>
을 로</w>
종 식
추 석</w>
때문 이라고</w>
노동 자
주시 면</w>
2015 /0
받았 다고</w>
사용 하는</w>
드립 니다</w>
전반 에</w>
의뢰 로</w>
윤소 하
WH O</w>
싱크크 인</w>
2 %</w>
U N
겪 는</w>
고 백
기 념</w>
따 져
불 허
상 가</w>
야 ”</w>
어 찌
열 에</w>
융 합
지 닌</w>
짓 밟
최 우선</w>
측 에서</w>
출마 는</w>
30 0</w>
달라 진</w>
한다 면,</w>
6B 9
테이 블
1 48
2 동,</w>
금 은</w>
기 계
더 는</w>
론 과</w>
브 랜드</w>
소 명
장 비</w>
전 년
청 은</w>
() 이</w>
않는 다</w>
%p ,</w>
거물 급</w>
정봉 주</w>
백원 우</w>
. (
4 명</w>
B 3
“ 내년</w>
거 리는</w>
맥 락
배 상
시 한</w>
유 세를</w>
을 까
이 송
전 교
조 율
초 유의</w>
충 성
트 는</w>
폭 탄
하 지
하 듯</w>
총선 거</w>
정의 당·
진보 의</w>
비서관 ,</w>
선거대책 위원회</w>
불거 진</w>
P C
당 원이</w>
두 고
문 건
범 국민
보 조
본 관</w>
봤 습니다.</w>
연 의</w>
위 기가</w>
적 이
채 워
천 명
확 고
00 1
아니 고,</w>
30 %
영입 한</w>
발생 하는</w>
받았 습니다.</w>
건강 보험
지속 적인</w>
나누 는</w>
민주화 운동</w>
yna .co.kr</w>
4 개월</w>
` 를</w>
남 경
닫 고</w>
민 원
부 부
약 속</w>
일 삼
일 보는</w>
자 세를</w>
재 창출
충 족
19 0
19 년</w>
사회 주의</w>
관계 의</w>
&amp; utm_
세력 들이</w>
제3 지대</w>
바랍 니다.
앞장서 서</w>
정경 심</w>
' 와</w>
5 66
8 명</w>
D ,id:</w>
f acebook.com/
도 널드</w>
들 만</w>
밖 으로</w>
복 기
소 추
속 에서도</w>
옥 천
통 하여</w>
품 목
풍 부한</w>
할 까</w>
국민 통합
비례 의석</w>
인사 와</w>
시작 할</w>
의석 은</w>
영향 이</w>
.9 %로</w>
조국 을</w>
한마 디</w>
동아 일보</w>
신상 진</w>
더욱 이</w>
( 16
8 개</w>
남 기
남 인
반 부패
보 자.</w>
빚 을</w>
소 멸
순 천</w>
여 ·
연 장을</w>
였 지만</w>
옹 진
전 은</w>
좁 혀
중 개
총 회</w>
한 다”면서</w>
했 다"
상황 으로</w>
인사 의</w>
%) 에</w>
마련 을</w>
선출 된</w>
거짓 말
최재 성</w>
# 신
f i
게 이트</w>
공 간</w>
냐 ?</w>
무 거운</w>
묵 묵
세 습
실 세
인 다.</w>
인 지도</w>
인 간의</w>
입 장은</w>
종 부
중 대</w>
처 분</w>
축 구</w>
확 고한</w>
후 속</w>
가능 할</w>
통과 가</w>
경우 에도</w>
대전 ·
개발 에</w>
수준 이다.</w>
시절 에</w>
서초 동</w>
일각 에서</w>
경제부 총리</w>
민경 욱</w>
강 세</w>
근 거</w>
답 이</w>
대 문</w>
렬 한</w>
문 에서</w>
밀 려
발 목을</w>
선 )</w>
신 한
았 다는</w>
유 포
이 도</w>
이 들에게</w>
청 산</w>
2020 총선</w>
이었 다.
세계 는</w>
떨어 지는</w>
살아 있는</w>
충남 도
“ 현재</w>
가 와</w>
공 세를</w>
군 소</w>
내 릴</w>
단 기
되 느냐
리 스</w>
무 지
여 일</w>
여 행</w>
요 동
일 원
초 부터</w>
최 영
포 착
함 은</w>
항 을</w>
해 제
해 나가
홀 로</w>
서울 에</w>
.2 %)</w>
오른 쪽</w>
복잡 한</w>
첨부 파일</w>
( 종합
@ pennmike
p an
거 대
배 에</w>
보 자
부 모</w>
사 장,</w>
식 이
오 찬
와 야</w>
왔 다고</w>
지 연</w>
치 료</w>
크 고</w>
클 럽
행 정부
문재 인의</w>
시키 고,</w>
대선 주자
민생 과</w>
임시 국회</w>
googletag.display("google_dfp_MC_250x250" );</w>
1980 년</w>
medi a
이견 이</w>
고스 란히</w>
5 2</w>
경 력을</w>
교 회
김 병원</w>
매 수
싸 울</w>
양 상
역 으로</w>
였 다는</w>
으 려</w>
임 시</w>
지 급</w>
파 주</w>
해 볼</w>
호 화
활 용</w>
추진 해</w>
이었 고</w>
등록 금</w>
마련 할</w>
인구 는</w>
스럽 다.</w>
함초롬바탕,t 2:</w>
함초롬바탕,t 1:</w>
함초롬바탕,t 4:</w>
함초롬바탕,t 6:</w>
함초롬바탕,t 5:</w>
함초롬바탕,t 7:</w>
명확 히</w>
[디지털뉴스 국
1 15
“ 황교안</w>
갖 춰
결 성
교 사</w>
넘 은</w>
는 커녕</w>
롭 지</w>
선 (
세 부
신 기
여 름
인 기</w>
적 으로
황 인
회 피
서울 과</w>
내용 도</w>
바른미래 당,</w>
여러분 들이</w>
사태 의</w>
공개 했다.</w>
출신 이</w>
지키 지</w>
사무총 장
3A 3
무력 화
다운 로드</w>
패러 다
% →
3 시</w>
3 2,
9 2
C N
규 제가</w>
네 거
당 시에</w>
동 원</w>
뒤 ,</w>
민 부
민 선</w>
박 창
브 란
애 초</w>
이 곳</w>
이 밖에</w>
잠 정</w>
친 구</w>
친 환경</w>
하 는데
한 다”
현 )</w>
교수 와</w>
최고위원 \xa0
수석 대변인은</w>
하시 기</w>
더라 .</w>
보궐 선거에서</w>
적폐 청산
스포 츠</w>
네트 워크</w>
빅매 치
.chosun.com/site/data/html_dir/ 2020
01D5B946279F C8D
5 7</w>
8 000
갑 ),</w>
고 에</w>
국 장
기 ’</w>
내 년에</w>
농 산
단 축
셨 습니다.</w>
았 다고</w>
여 당을</w>
줄 이고</w>
통 하는</w>
파 는</w>
해 지
정책 적</w>
세력 으로</w>
89 E9
얼마 든지</w>
CF CE
·새· 전</w>
01D5B89 CFCE
겨냥 해</w>
프로젝 트</w>
su b
고위공직자범죄수사처(공수처 )</w>
어떻게 든</w>
89E9 000000B
01D5B89CFCE 89E9000000B
김 용</w>
면 ?</w>
부 총리는</w>
사 장은</w>
성 으로</w>
조 일
지 법</w>
http:// news.
준비 된</w>
모두 에게</w>
사용 할</w>
표현 의</w>
출범 한</w>
작업 이</w>
대부분 이</w>
이희 호</w>
모니 터
. ◎\xa0
4 천
눈 치를</w>
도 록
둘 째</w>
만 안
문 건</w>
변 동
시 (
원 로
유 죄
정 지
제 일
선거 유세
선거 관리위원회</w>
19 60
ti on</w>
ar i
100 만</w>
원내 대책
인사 들과</w>
국정 현안점검
북한 과</w>
살아 가는</w>
정규 직
명확 한</w>
두려 워
질의 에</w>
와이 파
고 도
급 등</w>
부 장관</w>
앞 섰다.</w>
재 검토
제 왕
최 후
행 보</w>
출마 하겠다고</w>
지지 자</w>
기업 은</w>
sh m
주민 들을</w>
정치인 들은</w>
확대 ,</w>
방식 의</w>
방식 이</w>
@han i.co.kr</w>
격차 를</w>
초등 학교
=뉴시스 】
ilbo .com</w>
직권 남용
- 20</w>
걸 어</w>
국 면
내 겠습니다.</w>
대 장은</w>
새 천년
석 방
일 한</w>
정 관
지 인
한 시
한 층</w>
서울 대
비판 의</w>
대한민국 에서</w>
사랑 을</w>
반발 하고</w>
style :</w>
2015-0 4-2
불과 하다.</w>
아닌가 ?</w>
전반 적으로</w>
혼란 을</w>
적합 도</w>
정두언 \xa0&gt;\xa0
&amp;type=1&amp;rankingSectionId= 100&amp;rankingSeq
= 10
괴 산
내 달</w>
넣 어
보 라
선 발
소 사
스 튜
신 조</w>
유 린
이 득
이 데일리</w>
저 격
제 작</w>
제 치고</w>
크 지</w>
경제 학
때문 에
들어 온</w>
.1 %로</w>
나오 면서</w>
사이 의</w>
우리나라 가</w>
법무부 장관</w>
l e</w>
p add
가 슴</w>
대 정부</w>
박 시
산 동</w>
소 극
유 정
장 대
전 셋
주 목</w>
후 반기</w>
장관 도</w>
강조 했다</w>
말씀 드린</w>
01D5CB 49
여기 까지</w>
경자 년</w>
ff ic
doso7 @</w>
플러 스</w>
4대 강</w>
padd ing
I n
t =
각 자의</w>
거 센</w>
기 타
디 오
막 대한</w>
매 출</w>
사 각
야 구
용 서
윤 곽
이 장
장 담
주 최</w>
했다. }]}]},
자신 감을</w>
비판 하고</w>
지도 부와</w>
강조 하고</w>
외교 ·
중국 과</w>
대법 원
면접 을</w>
청주 시</w>
선거인 단</w>
( 28
5 8</w>
5 6</w>
g u
거 라</w>
김 해</w>
더 )</w>
동 양
디 자인</w>
리 면서</w>
사 흘
않 나.</w>
여 상규</w>
이 야</w>
찾 지</w>
기자 들이</w>
지지 와</w>
12 3
이야 기는</w>
언론 에서</w>
중국 이</w>
조정 식</w>
촉구 한다.</w>
사이 버
권력 에</w>
중도 층</w>
했다 고함</w>
최순 실</w>
응원합니다 ']</w>
( 목)</w>
. 3</w>
“ 이제</w>
걸 려</w>
결 론</w>
고 만</w>
션 을</w>
수 십</w>
신 민
연 설</w>
정 면
줄 곧</w>
클 럽</w>
선거 에서는</w>
때문 이다</w>
청년 을</w>
이어 갔다.</w>
역할 에</w>
정도 다.</w>
아닌 ,</w>
이후 로</w>
바라 보고</w>
무책임 한</w>
6 ~
n b
갈 아
과 열
나 올
다 문화
됐 기</w>
듯 하다.</w>
로 텐
목 사</w>
못 했
무 한
부 적절
분 과</w>
상 세
서 천
연 제
오 리
원 \xa0&gt;\xa0
으 려고</w>
진 다</w>
청 약
테 크</w>
팬 데
회 복</w>
자유 민주주의를</w>
기업 과</w>
종로 가</w>
2019 -0
주시 고</w>
상태 를</w>
모르 겠다.</w>
넘어 서</w>
나아 갈</w>
머니 투데이</w>
체제 의</w>
주한미 군</w>
" 황</w>
( 수)</w>
n am
‘ 정치
근 무</w>
도 움
례 가</w>
배 준영</w>
비 리를</w>
오 신</w>
제 4
주 어
주 철
중 기
천 안</w>
폭 행</w>
한 다,</w>
11 .</w>
책임 지는</w>
지적 에</w>
해주 고</w>
공정 거래
수준 이</w>
199 7년</w>
여야 를</w>
제3 지
살아 온</w>
제외 하고</w>
세요 !</w>
비서실 장이</w>
전환 을</w>
사고 로</w>
실질 적</w>
4 A
구 을
김 철
깜 짝</w>
바 닥</w>
빨 라
소 공
여 기는</w>
원 외
자 진</w>
들어 와</w>
산업 이</w>
해결 해야</w>
성공 할</w>
이사 장,</w>
시대 정신
서울시장 과</w>
무시 한</w>
남양 주</w>
( 29
E 6
p er
강 세
개 막
뇌 물
말 아
먹 을</w>
북 핵</w>
안 겨
였 고</w>
있 나
지 났
클 러
한 강
기자 )</w>
주장 이다.</w>
논의 했다.</w>
전망 도</w>
의미 다.</w>
잘못 을</w>
성과 가</w>
margin :</w>
동일 한</w>
이혜 훈</w>
poli tic
F M</w>
[ 사진=
기 호
남 자
달 리고</w>
마 시
완 전
유 예
펼 칠</w>
화 ·
대상 을</w>
의석 수가</w>
중국 에서</w>
영입 인재</w>
다음 으로</w>
확대 하는</w>
이재 용</w>
CB F
비례연합 정당에</w>
디자 인
fb id=
황운 하</w>
Gyeong ja
농림축산 식품
7 명</w>
가 리지</w>
미 ,</w>
벌 였다.</w>
씨 ,</w>
얻 어
연 내</w>
일 찍</w>
잃 고</w>
저 서</w>
조 는</w>
쥐 고</w>
지 켰
처 분을</w>
통 이</w>
하 노
&lt; 한겨레
하나 .</w>
(5 3·
경쟁 력이</w>
DA 105
확인 한</w>
대응 이</w>
의미 로</w>
의미 에서</w>
하셨 습니다.</w>
드린 다”고</w>
전당대 회에서</w>
01D5AFB DA105
걱정 하는</w>
,h e:</w>
[디지털뉴스국 ][ⓒ</w>
( K
4 000
I )</w>
‘ 비례
가 도</w>
겠 지만,</w>
교 도
김 만
남 도
다 하겠습니다.</w>
당 하는</w>
상 장
이 윤
일 수록</w>
파 크
항 의</w>
후보 군
관련 이</w>
공동 체</w>
반대 하고</w>
역사 에</w>
00000 25
공식 화
조건 으로</w>
중소기업 중앙
수도권 에서</w>
ko ok
깨끗 한</w>
곽상 도</w>
# 이
[ 중앙
걱 정을</w>
그 해</w>
나 주</w>
다 이
수 락
역 사가</w>
임 하는</w>
초 청</w>
타 워
판 교
한 가
행 위는</w>
국회 에서는</w>
하겠 다.\xa0
사람 이다.</w>
14 0
지원 ,</w>
(5 1
정상 화</w>
세대 교체</w>
확보 한</w>
메시 지
포퓰리 즘</w>
= n
o w
급 을</w>
기 동
김 제
단 장</w>
몸 으로</w>
밖 의</w>
빈 곤
안 동</w>
않 다”고</w>
의 구
일 ~
조 정을</w>
중 반
트 랙
홍 콩
총리 에</w>
&amp; id=1
방송 에</w>
조용 히</w>
cent er
당리당 략
j m
강 민
곤 란
맡 겨
못 한다.</w>
사 천
씨 에</w>
않 기로</w>
이 것도</w>
자 들에</w>
찍 고</w>
최 민
텐 트
편 을</w>
학 력</w>
투표 에서</w>
공정 과</w>
기준 에</w>
이재 오</w>
고려 할</w>
대화 하고</w>
긍정 적으로</w>
바이 오</w>
(서울 =뉴스1)</w>
블로 그
직접 적인</w>
원희 룡</w>
( 40
. 1</w>
고 시</w>
굳 건
눈 치</w>
달 려</w>
대 만</w>
돌 봄
동 아</w>
되 며,</w>
되 어서</w>
묻 지</w>
세 브란
쌓 아
일 하고</w>
자 다.</w>
작 업</w>
정 민
죽 을</w>
지 명</w>
사람 으로서</w>
방송 에서</w>
신속 한</w>
최초 승인</w>
다니 며</w>
01D5B6C D4F
01D5B6CD4F 67
/ 12
m m</w>
걸 음을</w>
누 구</w>
다 '</w>
모 로</w>
분 들에게</w>
성 장의</w>
수 술
수 지
여 수</w>
예 측</w>
입 시
지 체
의원 과의</w>
지지 가</w>
비판 한</w>
중요 성을</w>
공동 대표는</w>
사고 를</w>
실현 을</w>
비전 과</w>
수단 으로</w>
바람직 하지</w>
민형 배</w>
( 30
_ view
글 :</w>
나 다.</w>
때 에는</w>
모 의
비 에</w>
쓰 러
역 세
오 전
정 계에</w>
총 력
이유 도</w>
indo w
지적 을</w>
판단 할</w>
김종 대</w>
제1 야당의</w>
있을 까?</w>
받아들 여
유권자 들에게</w>
5 4</w>
g i
s m
“ 당</w>
독 한</w>
명 이나</w>
발 달
백 지
수 구
스 터</w>
아 리
요 인
으 려는</w>
주 어진</w>
총 장을</w>
특 권</w>
하 에서</w>
형 식
화 천
나라 와</w>
소득 이</w>
다가 왔다.</w>
밝혀 야</w>
응답 률은</w>
하자 .</w>
것인 지,</w>
재보 선</w>
태어 난</w>
align :
5 년간</w>
a il
발 상
방 향</w>
삭 감
설 정
적 대
전 년</w>
준 수
중 요</w>
텔 레
특 별</w>
하겠 다.
청년 과</w>
하나 인</w>
모두 발언을</w>
00000 24
프레 스
단계 로</w>
추경 을</w>
협의체 를</w>
text- align:
1 B
“ 총선</w>
가 격을</w>
구 석
내 일
당 명을</w>
동 ·
듭 니다.</w>
비 극
숙 원
스 런</w>
없 으
이 탄
퇴 출
한 기호</w>
화 제가</w>
서울 대학교</w>
상황 과</w>
투표 는</w>
대상 은</w>
01D5D 8DC
이루 는</w>
제3 의</w>
밝히 지</w>
신천 지
&amp;id=1 0000
01D5D8DC 0E
2 호
3 ,id:</w>
4 ,ch:</w>
7 000001
W indow
경 이</w>
기 증
낙 관
내 리는</w>
당 국이</w>
매 도
송 철호</w>
시 기가</w>
신 영
싶 지</w>
있 다가</w>
재 신
진 선
합 쳐</w>
대표 .</w>
국가 에서</w>
16 0
자신 은</w>
주민 이</w>
000001 28
부분 도</w>
않았 다</w>
단체 장</w>
돌아 갈</w>
비례대표 용</w>
떨어 뜨
판결 이</w>
01D5B89 B
(전 )</w>
한명 숙</w>
일환 으로</w>
국정현안점검 조정
. j
1 심</w>
C ,id:</w>
m y
고 가
네 요
만 이다.</w>
만 원의</w>
부 적절한</w>
소 환</w>
실 장을</w>
안 산</w>
우 상호</w>
이 현
일 부는</w>
코 너
표 심</w>
표 결</w>
푸 드
하 향
후 배</w>
정권 교체
사무 실
사태 와</w>
현실 화
이뤄 져야</w>
받아 서</w>
src =
조정 대상
01D5CB 46
비서실 장
좋아 하는</w>
부의 장</w>
않을 까
01D5B4 15
나름 대로</w>
2 ,id:</w>
C J
\ 며</w>
b er
내 서</w>
련 의</w>
무 주
무 죄</w>
보 유</w>
브 레이
수 요</w>
의 식이</w>
입 원
재 현
정 영
조 차도</w>
착 각
최 측근
컨 벤
발전 소</w>
선거구 의</w>
북한 을</w>
논란 은</w>
공무 원의</w>
라이 브</w>
가져 야</w>
코스 피
( B
. 2</w>
4 명이</w>
감 으로</w>
글 에서</w>
늦 은</w>
명 단</w>
무 섭
분 기
소 용
있 음
적 으로도</w>
회 기</w>
위원장 (
01D5E 6
news .com/
의석 수는</w>
4· 3</w>
여론조사 에</w>
2016 -03
거리 로</w>
녹색 당</w>
극단 적</w>
01D5B946279FC8D 0000000
2 .5
7 ,bf:</w>
9 00
” 이라는</w>
감 소</w>
걸 음</w>
다 '는</w>
때 만</w>
맡 게</w>
복 무
원 들이</w>
이 내</w>
자 택
지 형
합 동</w>
\' 이</w>
지지 부진
&gt; &gt;</w>
있었 기</w>
사무 실에서</w>
더불어민주당 ·
당선 될</w>
광주 의</w>
정상 화
인정 하는</w>
범죄 를</w>
분양 가
워싱 턴
5 1</w>
5 9</w>
: 30
F :</w>
내 부의</w>
성 한
인 연을</w>
일 명</w>
주 차</w>
집 회가</w>
차 세대</w>
국민 소통
기자 =</w>
24 176
참여 가</w>
결정 적</w>
그렇 죠.</w>
예산 안을</w>
인터뷰 ]</w>
신문 ]</w>
주셨 습니다.</w>
대대 적인</w>
01D5D4 EB
(새 )</w>
313 24176
로텐 더
D P
v er
x l
겠 다.
계 층</w>
광 양
권 위
리 스크
막 힌</w>
바 꾼</w>
법 정</w>
없 이는</w>
이 민
이 것</w>
좋 다.</w>
철 폐
후 ,</w>
정당 별</w>
기자 들의</w>
다" 라며</w>
11 34
교육 청</w>
기업 인</w>
않았 을</w>
하였 고</w>
호남 을</w>
선출 직</w>
집행 유예</w>
진정 성을</w>
01D5B4 16
전형 적인</w>
주승 용</w>
2015-06 -0
&amp;id=10000 31324176
4 21
@ naver
O ffic
” …
가 지가</w>
간 다고</w>
고 기</w>
군 민
그 라
노 릇
단 단
량 은</w>
박 이</w>
실 장의</w>
양 산</w>
엄 한</w>
여 사의</w>
연 재
일 부가</w>
졌 을</w>
창 업</w>
책 으로</w>
최 다</w>
축 하</w>
환 ,</w>
회 )</w>
00 01
false, w
공천 권을</w>
이해 를</w>
바탕 글
2015-0 5
성향 을</w>
국내 외</w>
입국 을</w>
의식 한</w>
위해서 라도</w>
박주 선</w>
n. news.naver.com</w>
휴대전 화</w>
전희 경</w>
[ 속보
가 스</w>
되 니까</w>
사 로
세 와</w>
적 발
조 준
죽 인
초 점을</w>
출 시</w>
이라 서</w>
승리 가</w>
상태 가</w>
아이 들의</w>
가격 은</w>
그룹 의</w>
,k b:</w>
동교 동
y_ fbid=
&amp;id=1000031324176 27</w>
" 비
( 무
D B</w>
F A
o m</w>
국 고
동 반</w>
말 고,</w>
발 안
별 도</w>
상 주
서 면</w>
싸 움</w>
양 도
전 부
전 대</w>
졌 지만</w>
총 무
팅 을</w>
피 아
하 반기
헌 정</w>
000000 2
01D5E 3E
했다. [
.0 %)</w>
70 9
도시 재생</w>
확인 된</w>
실패 를</w>
제2 차</w>
늘어 나는</w>
언제 든</w>
SB S
민감 한</w>
군사정보보호협정 (GSOMIA
% 인</w>
~ ~</w>
극 우</w>
김 중
됩 니다</w>
말 과</w>
백 화
인 선</w>
임 미리</w>
채 이
첫 째
[{ cc:</w>
1, 000
수사 팀
참여 에</w>
현실 은</w>
거론 하며</w>
바뀌 는</w>
수성 갑</w>
공천관리 위원회</w>
},{ t:</w>
전기 차</w>
강득 구</w>
, f1:</w>
- 1,
/ 뉴스1</w>
W IN
‘ 국민
공 모</w>
권 익
나 름</w>
내 걸고</w>
널 리</w>
번 이</w>
양 당의</w>
영 장
우 원
이 형
이 곳에서</w>
졌 고</w>
치 유
대표 로서</w>
지지 도
관계 자들이</w>
만들 지</w>
24 시간</w>
지금 처럼</w>
예정 ..</w>
학생 들의</w>
균형 을</w>
정동 영
lin e-
재난 안전
대목 이다.</w>
# 홍준표</w>
2 호</w>
{ f
구 ·
농 협</w>
대 다수</w>
동 조
마 디
목 으로</w>
박 빙
속 초
시 사</w>
신 도
싶 다”고</w>
워 서</w>
을 의</w>
잡 아야</w>
춘 천</w>
태 도
학 위를</w>
정치 ·
19 48
총리 도</w>
교육 감</w>
운동 이</w>
투표 권을</w>
일본 과</w>
세계 적으로</w>
.3 0</w>
어렵 고</w>
위기 의</w>
false,s l:</w>
집중 적으로</w>
움직 이는</w>
있겠 지만</w>
졸업 하고</w>
전통 시장</w>
벗어나 지</w>
Offic e</w>
2 억
7 개</w>
{ d
‘ 비
같 다”며</w>
격 차</w>
그 려
본 선
사 형
싱 가포
어 떨
일 선</w>
있 는가.</w>
청 탁
초 빙
칭 찬
통 치
특 집
표 ,</w>
홍 콩</w>
흔 히</w>
10 억</w>
혁신 이</w>
설명 이다.</w>
최고위원 ,</w>
드러 낸</w>
자료 사진
hy un
부끄러 운</w>
맞물 려</w>
- 6
4 E
“ 고</w>
김 창
달 리는</w>
매 몰
물 류
밖 에서</w>
쏠 리고</w>
취 소</w>
협 약</w>
10 42
정당 들은</w>
기자 는</w>
-- -</w>
대한민국 에</w>
.n et/
정상 근</w>
이다. ”</w>
강화 하고</w>
공관 병</w>
저지 른</w>
C6 D38
01D5B7F C6D38
이한 구</w>
pag e
01D5B7FC6D38 105
( 21
+ 1
A 2
H ang
h c:</w>
w b:</w>
{ wb:</w>
공 중
력 ,</w>
바 람</w>
성 별
적 한</w>
펼 치고</w>
했 으니</w>
10 년
강조 하며</w>
이었 는데</w>
평가 다.</w>
사무 실을</w>
이상 한</w>
협상 의</w>
0,t y:</w>
가져 갈</w>
0,h s:</w>
벌어 졌다.</w>
https://www. facebook.com/
같은 데
},{ cc:</w>
4294967295, hc:</w>
커뮤니 티
나선 다.</w>
이자 스
/02 /
{f c:</w>
# 송
( 민
H anc
g l:</w>
g ro
t tb
“ 김</w>
개 설
다 란</w>
대 기업의</w>
동 물</w>
론 의</w>
매 번</w>
명 분</w>
무 더
미 가</w>
수 한</w>
심 화
유 인
윤 종
중 증
직 결
민주 ,</w>
국가 정보
결정 된</w>
공수처 를</w>
제1 차</w>
진영 은</w>
심각 하게</w>
회복 을</w>
머니 투데이
연설 에서</w>
민족 의</w>
71 000000
새누리당 )</w>
84 18
계엄 령</w>
4 만
N ormal
s t:</w>
} ]
“ 그런</w>
고 성</w>
공 격을</w>
낭 비
살 리고</w>
의 무</w>
자 신</w>
줄 이
통 진
하 는가
현 상을</w>
현 명한</w>
false, o
정의 당을</w>
[{ ty:</w>
ta :</w>
200 억</w>
.1 5</w>
교육 이</w>
이야 기도</w>
ay :</w>
국정 운영</w>
최고위원 회의를</w>
}, ro
,t y:</w>
위해 서도</w>
주도 권을</w>
성장 과</w>
공감 대를</w>
0,h e:</w>
이익 이</w>
한· 미</w>
관악 을</w>
동아 일보
압도 적</w>
대구·경북 (TK
},ro :</w>
, o
가 게
결 심을</w>
내 며</w>
내 고,</w>
돌 려</w>
모 름
몰 두
미 치지</w>
상 규
소 병
수 상</w>
어 져</w>
여 사
이 규
있 는가
초 기
특 파
훈 련</w>
지역 ,</w>
정책 위</w>
.0 %</w>
4· 13</w>
나경 원
(6 2
jo ins
용인 시
이렇 게
je ju
" 문재인</w>
( P
( 국
( 월)</w>
, en:</w>
, av:</w>
, gl:</w>
, ta:</w>
. hwp
0 },
1 },
2 ,td:</w>
3 법
P r:</w>
] {
] ,cd:</w>
d h:</w>
f n:</w>
h p:</w>
l s:</w>
l d:</w>
m p:</w>
n t:</w>
n u:</w>
p i:</w>
s l:</w>
v j:</w>
{ ti
{ tp:</w>
{ do:</w>
{ di:</w>
{ hp:</w>
{ ls:</w>
} ,pp:</w>
갑 과</w>
끊 이지</w>
넘 치는</w>
만 장
맞 다.</w>
박 범
버 려
보 전
오 해
잡 지</w>
체 크
충 전
터 져</w>
폭 을</w>
한 참</w>
했 음에도</w>
호 ·
0, np:</w>
0, cs:</w>
gt :</w>
da :</w>
false }}
false, am
false, fu
false, ag
false, cp:</w>
false, ev
false, as:</w>
false, av:</w>
false, al:</w>
false, tp:</w>
false, do:</w>
false, an:</w>
false, di:</w>
false, ns:</w>
false, tq
false, ay:</w>
false, da:</w>
id t:</w>
1, en:</w>
1, fo:</w>
1, do:</w>
1, eq
1, pi:</w>
1, vj:</w>
di s:</w>
,b idt:</w>
28 3,
}]} ]}},
공동 으로</w>
통과 된</w>
,a b:</w>
,a o:</w>
document Pr:</w>
}, cs:</w>
}, dis:</w>
,l f:</w>
,l a:</w>
,t s:</w>
false,d p:</w>
false,d f:</w>
false,d c:</w>
false,d l:</w>
false,d w:</w>
false,d 2:</w>
false,d 1:</w>
false,d 3:</w>
false,d 4:</w>
false,d 6:</w>
false,d 5:</w>
false,d e:</w>
false,d n:</w>
false,d h:</w>
false,d g:</w>
false,d j:</w>
처음 에는</w>
0,l s:</w>
0,l a:</w>
0,l d:</w>
1417 }]
false,s c:</w>
59 528
0,t v:</w>
이후 에는</w>
78 38
0,h h:</w>
false,a p:</w>
false,a t:</w>
false,a b:</w>
false,a 2:</w>
false,a 1:</w>
false,a o:</w>
true, fo:</w>
하라 .</w>
0,m s:</w>
false,f b:</w>
false,b c:</w>
false,b l:</w>
false,b u:</w>
0,n i:</w>
0,n a:</w>
0,n e:</w>
}}, cp:</w>
}}, dh:</w>
기다 리
지지층 이</w>
치열 하게</w>
ul ,av:</w>
false,h p:</w>
false,h f:</w>
false,h i:</w>
false,h b:</w>
false,h e:</w>
false,h m:</w>
3, ru:</w>
false,u i:</w>
false,u l:</w>
,m p:</w>
,m d:</w>
ko ,c
false}}, tp:</w>
false}}, st:</w>
false}}, ld:</w>
false}}, mp:</w>
false}, en:</w>
false}, pb:</w>
대사 관</w>
LE ,as:</w>
}} --></w>
}} }},cp:</w>
1,d 1:</w>
도서 관</w>
false,l r:</w>
{a f:</w>
0,a h:</w>
800 0,ms:</w>
활발 한</w>
false,m f:</w>
true,s g:</w>
IM F
1,t d:</w>
,k e:</w>
,p i:</w>
,p d:</w>
0,g c:</w>
0,g w:</w>
hwp json
,d p:</w>
,d e:</w>
false,e t:</w>
false,e l:</w>
]}}, nu:</w>
1668246628 ,co:</w>
1668246628 ,ty:</w>
1936024420 ,co:</w>
1936024420 ,td:</w>
},b u:</w>
5,d 2:</w>
1,s s:</w>
<!-- [
test .hwp
32, ar:</w>
Window s_
1134 ,ts:</w>
false,w i:</w>
바탕글 ,en:</w>
WIN ,ab:</w>
{d n:</w>
1042 ,lf:</w>
Hang ul,av:</w>
Hanc om</w>
Normal ,pp:</w>
false,o b:</w>
,o s:</w>
0}, fn:</w>
1}, fo:</w>
]{ documentPr:</w>
{ti :</w>
false}} ,bf:</w>
false,am :</w>
false,fu :</w>
false,ag :</w>
false,ev :</w>
false,tq :</w>
1,eq :</w>
283, nt:</w>
}]}]}}, sl:</w>
1417}] ,mp:</w>
59528 ,he:</w>
ko,c r:</w>
hwpjson ]{documentPr:</w>
test.hwp ,ta:</w>
경 륜
끌 려
내 홍
답 했다.
먹 은</w>
병 원을</w>
상 반
선 고</w>
시 길</w>
언 젠
업 계
유 산
일 왕</w>
주 소
차 분
창 당에</w>
11 .
참여 하지</w>
하나 를</w>
산업 ,</w>
분석 한</w>
다가 ,</w>
고발 을</w>
-1 }}}},cp:</w>
아닙 니까?</w>
처벌 을</w>
,s u:</w>
},b i:</w>
1601-01-01T09:00:00.000Z ,ke:</w>
JT BC</w>
data- hwpjson]{documentPr:</w>
매니 페
-1, lt:</w>
<!--[ data-hwpjson]{documentPr:</w>
- 3
4 .4
Z ,md:</w>
] ,bidt:</w>
가 해
거 치면서</w>
고 충
기 '</w>
내 몰
내 에서도</w>
멈 춰
면 밀
몸 이</w>
밝 은</w>
법 학
석 유
싶 어
암 동</w>
없 다면</w>
이 찬
일 부를</w>
장 수
제 5
철 회를</w>
트 로
해 봤
후보 도</w>
국민 들과</w>
만들 고,</w>
자리 로</w>
모습 에</w>
돌아 가는</w>
헌법 에</w>
안정 적으로</w>
혐의 가</w>
비서실 장을</w>
비대 위</w>
형사 소송
선거관리위원회 에</w>
[편집 ]
장례 식
간절 히</w>
3 9</w>
J an</w>
d ream
같 다</w>
고 심
는 \xa0
다 주택
당 황
대 강
보 낼</w>
비 호
빌 리
세 무
애 를</w>
열 이</w>
캠 퍼
하 다"고</w>
\' 라는</w>
20 30</w>
정책 위원회</w>
회의 (
2020 .1
언론 인</w>
,m b:</w>
무기 한</w>
4252,m h:</w>
베트 남
지혜 를</w>
콘서 트
7 ,id:</w>
r ame
감 도</w>
거 점
경 주
계 열</w>
교 훈
난 무
리 퍼
얻 기</w>
재 난</w>
통 폐
패 널
합 쳐
000000 C
기자 와</w>
정책 조정
]} },bi:</w>
(5 1·
대구 의</w>
나타 냈다.</w>
해주 실</w>
행사 에서</w>
.html? no=
어디 서</w>
경향 이</w>
안팎 에서</w>
border- left
계약 을</w>
News 1</w>
8, gt:</w>
국가혁명배당금 당</w>
566 8
8418 8,gt:</w>
( 39
( 46
V er
내 의</w>
망 가
면 역
박 홍
본 다”고</w>
안 새
올 릴</w>
위 임
입 주
정 해진</w>
ar d
검찰 ,</w>
포함 됐다.</w>
개최 했다.</w>
확산 되고</w>
00000 2
불구 경
움직 임을</w>
명예 를</w>
검찰개혁 의</w>
원종 건
4252,m f:</w>
4252,m g:</w>
8504,m t:</w>
8504,m r:</w>
5668 ,mb:</w>
N ew
s k
과 천</w>
국 면에서</w>
권 한</w>
그 릇</w>
날 의</w>
단 으로</w>
반 대한
부 양
살 림
소 감을</w>
시 선을</w>
앞 으로의</w>
완 주
월 세</w>
의 장의</w>
이 긴
이 노
이 니까</w>
전 철</w>
험 지로</w>
활 약
false, ar:</w>
출마 설이</w>
ti t
지원 할</w>
사업 ,</w>
그렇 고</w>
없었 습니다.</w>
44 2
정국 을</w>
( 현</w>
다 하고</w>
동 탄
력 의</w>
박 민
원 래
원 인을</w>
을 까?</w>
인 하</w>
임 금을</w>
전 대
정 통
제 품을</w>
투 명한</w>
형 식으로</w>
확 충</w>
국민 연금</w>
000001 0F
다’ 라고</w>
현실 적인</w>
국회의 장과</w>
한나라 당
적극 적</w>
메시 지가</w>
균형 발전</w>
해주시 기</w>
자랑 스러운</w>
mo on
낙동 강</w>
( 22
o h
“ 이런</w>
감 히</w>
내 게</w>
는 .</w>
력 도</w>
몰 락
박 남
부 자
수 순
오 랜
제 로
조 례
캐 나
컨 트
호 재
경제 협력
200 7
이어 ,</w>
이어 갈</w>
계획 이다.
마련 해야</w>
않겠 느냐
수용 할</w>
프로그램 을</w>
소송 을</w>
명분 으로</w>
부산· 경남
1601-01-01T09:00:00.000Z ,pd:</w>
마산합 포
1 억</w>
9 6B9
C 16
I P
f =
개 통
낸 다.</w>
논 문</w>
누 르고</w>
니 다!</w>
달 을</w>
똑 같이</w>
문 병
박 태
밖 에도</w>
방 에서</w>
수 백
역 과</w>
염 려
이 자,</w>
입 당을</w>
진 다고</w>
총 재</w>
한 을</w>
사업 과</w>
법무 법인</w>
%) 로</w>
유권 자들은</w>
공개 된</w>
개월 여</w>
일정 으로</w>
리서치 뷰</w>
일주 일</w>
.as p?
01D5B9EB196 96B9
01D5D70BFDAB1F0000000 F8
01D5B9EB19696B9 0000000
# 국회의원예비후보</w>
6 3</w>
[ 충청
“ 오늘</w>
단 지를</w>
면 ·
명 에서</w>
모 여
믿 을</w>
박 선
불 만
브 레
서 류
외 치는</w>
이 외에도</w>
적 이지</w>
정 춘
친 일</w>
파 업</w>
미국 에서</w>
에게 만</w>
모두 를</w>
수원 시</w>
언제 까지</w>
01D5AD8 C16
01D5AD8C16 6B
“ 우리가</w>
개 척
공 판
규 정</w>
동 영상
똑 똑
러 운</w>
만 원,</w>
병 원에서</w>
부 결
소 망
수 수</w>
안 정</w>
액 이</w>
양 산을</w>
을 지</w>
잘 사는</w>
진 정</w>
자유 무역
아니 다”라고</w>
생각 이다.</w>
연합 정당에</w>
개정 안에</w>
여성 ,</w>
심판 해야</w>
나가 서</w>
있을 까.</w>
화성 시</w>
김병 관</w>
불가피 한</w>
KT X
# 미래통합당</w>
1 시간</w>
3 년간</w>
그 에게</w>
끝 나는</w>
담 아
방 의</w>
범 여권</w>
보 았다.</w>
북 부</w>
사 활
서 청원</w>
숫 자
승 진
양 상을</w>
용 인</w>
원 문
이 양
인 쇄
찍 은</w>
황 금
경제 정책</w>
시작 되는</w>
24 0
참석 자들이</w>
미국 을</w>
부산 진
제시 하는</w>
규모 를</w>
저희 들이</w>
2020.0 2.1
조대 원\xa0&gt;\xa0
AR S</w>
김근 태</w>
부산·울산· 경남
4 년간</w>
` 는</w>
‘ 총선</w>
노 리고</w>
대 검찰청</w>
맞 아
법 원이</w>
보 도록</w>
봉 사</w>
부 울
비 상</w>
산 림
시 끄
오 셨
유 형
전 향
제 주시
출 연</w>
헌 법을</w>
한국 일보</w>
19 008
&gt; 가</w>
지난 번</w>
정권 에서</w>
선언 에</w>
}]}]}, 01D5B8A
도시 가</w>
경기 ·
얘기 하고</w>
제기 된다.</w>
no wn
건설 을</w>
벌어 질</w>
정세균 ,</w>
언제 든지</w>
시각 이</w>
격전 지</w>
01D5D70BFDA AF7
[중앙 포토
% 다.</w>
2 위
D 4
w on
계 시는</w>
고 검
금 배
동 으로</w>
른 다.</w>
름 이</w>
무 ·
민 족</w>
사 인</w>
서 거</w>
소 송</w>
수 집
영 수
유 감을</w>
이 의
재 벌</w>
전 술
증 언
치 과
치 한</w>
한 인
해 본</w>
해 보면</w>
-- --</w>
30 대
도시 ,</w>
학생 이</w>
공화 당</w>
구청 장이</w>
좋아 요</w>
충북 도
일어 났
비박 계</w>
성균관 대</w>
드루 킹</w>
( 무</w>
1 번</w>
4 278
” 를</w>
강 의
군 사</w>
던 데</w>
분 별
알 고
역 량</w>
옮 기
이 곳에</w>
접 수</w>
집 착
집 권을</w>
측 과</w>
필 승
하 든</w>
형 평
정당 에서</w>
나라 에</w>
마음 은</w>
진보 층
토론 회를</w>
비서실 장,</w>
가산 점을</w>
" 대구</w>
B ,ch:</w>
내 각</w>
네 ,\xa0
대 동
되 ,</w>
되 는지</w>
마 치
민 식이
박 명
빨 간
뻔 뻔
울 릉
유 진
초 월
후 쿠
대표 이사
.1 2</w>
%) 가</w>
질문 이</w>
민생 당</w>
경선 은</w>
46 73
우리공화 당은</w>
새정치민주연합 의</w>
FT A</w>
정우 택</w>
19008 0,al:</w>
4278 190080,al:</w>
9 :</w>
~ )</w>
‘ 대
공 산이</w>
구 간
기 보다는</w>
린 다는</w>
맞 을</w>
민 \xa0&gt;\xa0
배 로</w>
비 춰
새 마을
소 개</w>
았 지만</w>
영 양
재 해
적 이라고</w>
지 우
특 허
하 세요.</w>
합 당을</w>
공천 ,</w>
이야기 하는</w>
연결 하는</w>
지시 를</w>
열린 다.</w>
0,d v:</w>
SNS 를</w>
font-family: 바탕
어린이 집</w>
5,d r:</w>
김어준 \xa0:\xa0
소재· 부품
0 A
A 0000000
객 원
거 짓</w>
거 죠.\xa0
깃 발을</w>
본 부는</w>
억 원에</w>
없 음</w>
여 파로</w>
우 ,</w>
인 기
절 박한</w>
청 장</w>
휴 먼
상황 입니다.</w>
필요 할</w>
있었 을</w>
정치인 으로서</w>
(5 3
제공 =
임명 된</w>
존재 감을</w>
졸업 한</w>
재외 선거</w>
인지도 가</w>
마침 내</w>
( 25
9 억원</w>
B 2
U nk
h i
h el
개 천
깊 게</w>
넓 게</w>
댓 글을</w>
동 은</w>
백 종
병 도</w>
보 가</w>
비 노
소 홀
시 일</w>
시 까지</w>
영 덕
육 아
임 명을</w>
재 단
전 에서</w>
해 달라는</w>
주의 의</w>
특별 법
대해 서
언론 과</w>
지적 이다.</w>
금지 ,</w>
승리 에</w>
기대 한다.</w>
조직 이</w>
보내 기</w>
EB 0
격차 는</w>
스마트 폰
가난 한</w>
채이 배</w>
Unk nown
" 며</w>
# 국회의원선거</w>
( SNS
_ Ver
c k</w>
k m
p e
갑 니다.</w>
기 사가</w>
날 아
다 섯
대 놓고</w>
무 기</w>
백 현
소 지가</w>
속 속</w>
인 스타
장 제
진 안
진 압
0, an:</w>
&gt; 에</w>
조사 와</w>
새누리 당(
주민 등록</w>
평화 당</w>
.2 5</w>
전국 에</w>
도전 이</w>
이후 의</w>
계속 되고</w>
추천 을</w>
1. 0,an:</w>
이영 수</w>
이수 진</w>
최연 소</w>
GT X
sion },dis:</w>
Windows_ Unknown
4673 ,ao:</w>
_Ver sion},dis:</w>
Windows_Unknown _Version},dis:</w>
) -
) 씨는</w>
7 ,ch:</w>
내 란
다 선</w>
단 순</w>
돌 변한</w>
미 만</w>
반 칙
배 후
소 설
없 습니다</w>
여 전
예 전에</w>
이 므로</w>
일 제</w>
전 신인</w>
주 축
징 역
해 놓고</w>
이라 고도</w>
on am
사람 들도</w>
12 6
관련 기사</w>
투표 율이</w>
주민 을</w>
…… ……</w>
진보 와</w>
습니다. ◎\xa0진행자\xa0&gt;\xa0
이슈 로</w>
일으 킬</w>
제조 업</w>
A8 E
( 민주당
; &gt;</w>
거 라는</w>
경 비
경 기가</w>
단 위</w>
뛰 는</w>
비 하
석 )</w>
앞 서는</w>
외 에는</w>
인 준
있 음에도</w>
적 \'</w>
정 면</w>
중 순
청 을</w>
출 석</w>
커 다란</w>
편 이다.</w>
총선 부터</w>
자유한국당 에서</w>
이었 다는</w>
변화 는</w>
38 6
투쟁 의</w>
시설 이</w>
오세훈 ,</w>
탈당 해</w>
News '.</w>
주문 했다.</w>
압승 을</w>
갖추 고</w>
&amp;c ode=
………………………………………… …………
. 4</w>
2 번</w>
” 을</w>
곽 노
날 ,</w>
달 서
달 에</w>
면 .</w>
수 단을</w>
쌓 은</w>
임 원
있 나.</w>
제 명
의원 회관</w>
200 6</w>
e. daum.n
.1 9</w>
FB 00000128
기대 에</w>
습니다. ◎</w>
스스 로를</w>
국회의 장은</w>
방식 은</w>
기억 이</w>
대표( 왼쪽
4.15 총선</w>
01D5E6CB57 EB0
1988 년</w>
조한 기</w>
…………………………………………………… …………</w>
01D5E6CB57EB0 FB00000128
( 한
3 50
“ 최근</w>
고 심</w>
글 라
는 다
보 조금</w>
부 도</w>
불 투명
비 의</w>
얻 지</w>
열 망
오 프
있 다’는</w>
중 계
친 환경
토 지</w>
하 마
한 진
출마 설
예정 이라고</w>
논란 의</w>
정보 가</w>
공정 하게</w>
공수처 법을</w>
한나라 당은</w>
선관 위
반발 했다.</w>
분열 의</w>
소비 자
비용 이</w>
스토 리
태어 나</w>
취약 계층
마땅 한</w>
간곡 히</w>
거 기</w>
곳 도</w>
곳 곳에</w>
기 탁
대 안이</w>
동 력이</w>
막 지</w>
바 쁜</w>
발 목
정 호
집 이</w>
형 제
흔 드는</w>
se ar
한국당 도</w>
생각 한다"고</w>
et ail
() 에</w>
.1 %)</w>
투표 할</w>
도시 의</w>
판단 에</w>
sta t
제시 하고</w>
상승 했다.</w>
사퇴 한</w>
ily o
거리 에</w>
증가 한</w>
21대 총선</w>
시절 부터</w>
사라 진</w>
등장 한</w>
진정 으로</w>
2020.0 2.0
new daily
E8 27
01D5AD8 E827
산업통상자원 부</w>
(사 )
낙인찍 기
고 민</w>
골 든
과 세
단 일</w>
당 당한</w>
박 차를</w>
부 른</w>
상 의
완 료</w>
이 중</w>
작 가</w>
최 대의</w>
수사 의</w>
지금 부터</w>
더불어민주당 을</w>
(5 2
있다. ”</w>
무엇 보다도</w>
실시 하는</w>
강남 구</w>
들었 던</w>
일으 켜</w>
극복 할</w>
지지층 의</w>
(왼쪽 부터
원자 력
01D5E3 DA
padding :</w>
. 9</w>
1 만</w>
5 3</w>
고 의</w>
교 민
급 락
김 소
남 았다.</w>
다 보니</w>
속 도
열 려</w>
의 종
인 간</w>
전 )
조 상규</w>
채 우
첫 날</w>
총 영
시민 들</w>
것이 지</w>
합의 했다.</w>
49 F
하시 길</w>
공수처 는</w>
이번 주</w>
지켜 봐야</w>
프로 세
비상 행동
받아들 이
김도 읍</w>
오마이 뉴스</w>
center ;</w>
( 32
. 5</w>
5 개월</w>
P D
l ang
u p
감 정을</w>
강 나
높 이기</w>
돌 며</w>
많 다는</w>
못 하도록</w>
미 는</w>
밀 집
밑 에서</w>
식 물
암 호화
에 도
연 극
오 정
응 하지</w>
이 합
임 박
재 건</w>
죽 은</w>
증 폭
차 고</w>
참 고</w>
찾 아야</w>
최 강
퇴 임</w>
해 줬
해 소</w>
관계 없이</w>
바른 정당</w>
참여 했다.</w>
단체 장
마련 에</w>
보인 다</w>
id= N
있어 서는</w>
여론조사 는</w>
보이 며</w>
단식 에</w>
앞장 서</w>
가슴 에</w>
가슴 이</w>
주차 장</w>
Cli ck
6.1 3</w>
( ~
h k
당 권을</w>
당 시의</w>
명 품
문 정
미 군</w>
보 아
비 아</w>
성 인
억 원이</w>
없 으니</w>
퇴 임
하 죠.</w>
형 국
힘 들</w>
보수 대통합
내용 과</w>
더불어민주당 )</w>
따르 는</w>
사태 는</w>
인물 은</w>
이사 장
있을 까요?</w>
거부 하고</w>
황교안 은</w>
분위 기는</w>
최종 적으로</w>
거예 요.\xa0
당내 에선</w>
무게 를</w>
[디지털뉴스 국</w>
정개 특위</w>
다가오 면서</w>
대정부질문 에서</w>
bit.ly /
text-align: center;</w>
" WHO</w>
0 .5
감 싸
괴 롭
국 내에서</w>
받 고,</w>
뽑 아
석 사</w>
성 황
알 지</w>
연 이어</w>
일 일이</w>
재 직</w>
진 두
짐 작
초 대
충 격을</w>
화 이
15 00
정책 자문
정의 당에</w>
새누리 당과</w>
http:// news.naver.com/main/read.nhn?mode=LSD&amp;mid=
사건 ,</w>
-0 6</w>
논란 으로</w>
이뤄 졌다.</w>
진영 을</w>
니까 요.</w>
7F DDD
일어 날</w>
근거 를</w>
배경 을</w>
height =
전두 환
재· 보
ID =10
불어 넣
일베 에</w>
토막 살인
7FDDD 71000000
- &gt;</w>
‘ 박근혜</w>
文 ?…
그 와</w>
노 력</w>
다 투
대 진
망 했다"
비 중</w>
비 박</w>
사 안에</w>
상 위
싶 다는</w>
악 수를</w>
여 대</w>
위 생
위 헌</w>
위 주로</w>
전 달</w>
주 얼
천 적\'</w>
초 과</w>
통 계</w>
파 격
편 이</w>
\' 하다</w>
en ews
장관 에게</w>
관리 에</w>
이상 은</w>
방향 에</w>
코로나19 로</w>
다"…\' 천적\'</w>
아파트 를</w>
01D5C5 EE
목소리 "비
접촉 을</w>
절실 한</w>
독일 …"
죽인 다"…\'천적\'</w>
불구경 \'하다</w>
낙인찍기 "</w>
이합 집
토막살인 \'</w>
文?… 민주당은</w>
망했다" "WHO</w>
목소리"비 누가</w>
독일…" 일단</w>
5 ED
같 고</w>
구 (
그 었다.</w>
남 ·
렸 다</w>
마 비
마 크</w>
언 어
요 소
육 박
의 식</w>
이 들
적 잖
전 격
폐 기</w>
후 에도</w>
10 년간</w>
국회의원 선거
이어 져</w>
강조 하는</w>
... )</w>
승리 하는</w>
연동 률</w>
활용 할</w>
줄어 들</w>
키우 는</w>
노웅 래</w>
제왕 적</w>
1 C
A 6
` 에</w>
과 잉
관 전</w>
광 장
기 회</w>
등 )</w>
렌 탈</w>
박 주민</w>
번 복
상 설
솔 루
싶 은
억 원으로</w>
의 지</w>
좋 겠습니다.</w>
위원장 )</w>
사회 와</w>
진행 하는</w>
교육 과</w>
주장 하며</w>
평가 도</w>
공동 상임선대
,l i:</w>
199 8년</w>
센터 ,</w>
한반 도
황교안 의</w>
이지 은</w>
우한 폐렴
평론 가
정병 국</w>
( 금)</w>
7 천
] \xa0</w>
i c</w>
고 ...</w>
네 가</w>
다 져
답 하고</w>
되 더라도</w>
되 고자</w>
몰 려</w>
못 한다면</w>
반 등
온 전히</w>
중 학교
파 기
희 ·
생각 한다고</w>
으로 선</w>
들어 오는</w>
그래 픽
이해 하고</w>
방문 을</w>
소통 과</w>
이인 영
줄어 든</w>
차례 에</w>
width =
아닐 까</w>
스페 셜
국정감사 에서</w>
낙하 산</w>
3 명의</w>
= =</w>
D J</w>
가 급
가 동</w>
국 익
군 (
금 리
기 지
높 다는</w>
불 공정</w>
위 상을</w>
이 대
조 윤
좋 겠다는</w>
차 질</w>
기자 &gt;</w>
보수 통합을</w>
.co.kr )</w>
종로 로</w>
시간 으로</w>
70 년</w>
%) .</w>
대전 환
선거법 에</w>
이미 지가</w>
의정 활동
압도 적인</w>
자율 주
OEC D
( 38
d etail
고 립
고 인의</w>
김 인
내 건</w>
님 께</w>
다 라</w>
되 풀이
두 산
라 인
란 을</w>
백 의종
보 람
분 께</w>
안 ·
점 유
제 언
진 박
채 를</w>
추 억
헤 럴
시장 도</w>
관련 주
선언 이</w>
대한민국 과</w>
노동 자들의</w>
과정 은</w>
이용 하는</w>
유지 하는</w>
보호 를</w>
52 시간</w>
작성 한</w>
법사 위</w>
화이트 리스트
[단독 ]</w>
2 /
4 ~
c t
두 드러
법 적으로</w>
사 자
승 인
앞 섰
인 정</w>
하 의</w>
황 우
대표 께서</w>
지역 발전을</w>
조사 (
대학 을</w>
전문 성을</w>
40 대
문화 가</w>
un d
민주주의 는</w>
김종 배의</w>
바란 다"고</w>
본부 장은</w>
위반 한</w>
정책위 의장
12· 16</w>
( 화)</w>
1 일부터</w>
ㅋ ㅋ</w>
것 "
구 갑
금 요
기 구를</w>
데 려
마 트</w>
말 라고</w>
말 았다.</w>
사 개
생 긴
유 치를</w>
첨 단</w>
축 제</w>
칼 럼</w>
해 소를</w>
행 보는</w>
향 상
활 력</w>
in fo
50 0</w>
대응 할</w>
자료 에</w>
가족 의</w>
지나 지</w>
유승민 ,</w>
D000000 C
양승 태</w>
이벤 트
삼권분 립
4 당이</w>
E U
[ 사진
검 사의</w>
관 문
규 탄</w>
년 과</w>
돕 는</w>
동 국
름 을</w>
비 로
사 외
씨 에게</w>
영 어
유 발
자 행
적 힌</w>
창 당한</w>
특 권을</w>
흔 들</w>
\' 에서</w>
원내 수석부
정권 심판
전략 으로</w>
행정 관은</w>
되었 다는</w>
천정 배
네이버 뉴스</w>
“ 그동안</w>
게 요.</w>
공 직</w>
뉴 욕</w>
단 장을</w>
막 론
만 인</w>
보 존
분 과
실 리
여 건</w>
원 )</w>
유 아
지 은</w>
질 지</w>
청 주시
친 화
한 다"면서</w>
해 임
허 가를</w>
호 텔</w>
00 0</w>
참석 할</w>
않았 다.
역할 은</w>
설명 하고</w>
승리 한</w>
감사 드립니다.</w>
입장 에선</w>
이뤄 지는</w>
지켜 보고</w>
김경 욱
상당 수</w>
반발 을</w>
패스트트랙 으로</w>
위성 정당
4월 에</w>
비교 해</w>
개편 을</w>
자기 들</w>
아버 지
보유 하고</w>
죠. ◎\xa0진행자\xa0&gt;\xa0
김세 연
이제 라도</w>
이주 영</w>
현수 막</w>
총학생 회장</w>
소프 트
1 19
< td</w>
S M
x t</w>
“ 민주당이</w>
공 명
근 절
단 장은</w>
대 회의실에서</w>
들 으
머 무
면 의</w>
미 의</w>
민 ,</w>
변 혁</w>
양 심
양 자
없 다"며</w>
우 주
집 회에서</w>
체 결</w>
침 략
태 백
할 당</w>
후보 인</w>
것이 죠.</w>
하나 씩</w>
지방 선거를</w>
국정 기획
37 000000
마음 의</w>
비서관 을</w>
규모 로</w>
개인 적</w>
방역 을</w>
당· 정·
흐름 이</w>
class= xl
새정치연합 은</w>
과학기술 정보통신
다른 기사</w>
자유민주주의 와</w>
김순 례</w>
주철 현</w>
1 명,</w>
A ,ch:</w>
c ri
“ 민주당</w>
“ 내가</w>
간 다면</w>
같 다는</w>
급 기
다 리
동 행
동 시</w>
맡 았던</w>
목 적</w>
박 맹
박 희
분 배
소 ,</w>
실 의</w>
연 수</w>
외 치
요 건을</w>
유 독</w>
있 고요.</w>
잡 았다.</w>
정 지</w>
조 한</w>
지 적</w>
훈 ,</w>
대표 인</w>
지역 도</w>
10 8
ar e
지지 자들은</w>
운동 가</w>
느냐 ,</w>
영향 으로</w>
정치권 에선</w>
받았 다는</w>
확산 에</w>
00000 23
선출 하는</w>
비서실 장은</w>
규제 에</w>
사항 이</w>
이르 기까지</w>
민간 인</w>
방위 비
외면 하고</w>
[이미지출처=연합뉴스 ]
극단 적인</w>
동북 아</w>
무서 운</w>
시진 핑</w>
최일 권</w>
7 0</w>
8 천
감 각
공 백
내 면</w>
너 희
담 겨</w>
발 이</w>
병 은</w>
성 원
수 리
식 민
전 초
전 임</w>
정 기</w>
조 (
진 에</w>
편 리
훼 손</w>
힘 차게</w>
후보 들을</w>
대통령 께</w>
ti me
산업 단지</w>
광주 에서</w>
보여 줬
드러 나고</w>
상승 세를</w>
김성 곤</w>
이인 제</w>
리더십 이</w>
당신 이</w>
) 에는</w>
1 조</w>
2 층</w>
6 6</w>
S /
v s
’ 다.</w>
걸 친</w>
권 리</w>
금 정
기 상
달 한다.</w>
무 마</w>
봉 하
불 이익을</w>
수 면</w>
숨 진</w>
신 경</w>
역 학
오 바
용 기를</w>
위 탁
의 문이</w>
이 랑</w>
인 권을</w>
잘 한</w>
적 었다.</w>
주 가가</w>
증 인</w>
초 반</w>
퇴 직
할 까?</w>
함 부로</w>
후 속
후 베이
선거 권</w>
통합 당의</w>
통합 신당
세종 문화
마련 하고</w>
노력 할</w>
구성 해</w>
드리 겠다.</w>
당협 위원장을</w>
치료 를</w>
정유 경</w>
naver. me</w>
% 로,</w>
4 ,id:</w>
9 ,
격 리</w>
경 합
고 로</w>
그 때는</w>
는 지를</w>
단 기</w>
두 지</w>
모 름</w>
분 ,</w>
비 겁
비 와</w>
성 동
앞 으로는</w>
원 다라</w>
월 요
은 .</w>
정 직
조 성을</w>
펼 치
한 유
대통령 비서실</w>
주의 에</w>
변호 사의</w>
참석 하지</w>
(5 2·
나타 나
http://www. han
토론 회에서</w>
사이 트
주목 할</w>
서울시장 의</w>
화성 갑</w>
태극 기
width :
나와 야</w>
신종 코로나</w>
기정 사실
( 24
6 5</w>
간 사</w>
게 ,</w>
그 들을</w>
기 꺼
남 겼다.</w>
냐 .</w>
동 력</w>
떠 났
몰 라도</w>
써 야</w>
열 정
운 전</w>
임 춘
있 기에</w>
재 개</w>
전 적으로</w>
접 경
조 리
주 제
촬 영</w>
특 혜</w>
15 일
.0 %,</w>
참석 하는</w>
공직 선거
출신 이다.</w>
방문 ,</w>
여론조사 가</w>
행사 할</w>
황교안 ·
극복 을</w>
뛰어 난</w>
의정 보고
내세 웠다.</w>
블로 거</w>
비공개 로</w>
개 ,</w>
개 인이</w>
그 들
내 에서는</w>
놓 는</w>
도 의
돌 아</w>
란 드</w>
문 의
상 속
숫 자가</w>
아 동</w>
알 아서</w>
원 인이</w>
이 내에</w>
일 들을</w>
제 6
조 승
진 한</w>
크 다는</w>
트 램
팀 이</w>
파 워
하 거나,</w>
\' 의</w>
시장 으로</w>
참여 하고</w>
해결 에</w>
기념 촬영을</w>
하셨 다.</w>
수도권 에</w>
테마 주
자영업 자</w>
/01 /
인스타 그
. 10
6 2</w>
U P
d c
s by
· 전</w>
격 인</w>
귀 한</w>
나 이가</w>
는 지
다 하겠다”고</w>
답 니다.</w>
드 려
마 다
명 단
반 이</w>
벌 일</w>
자 들도</w>
장 애</w>
적 격
젊 고</w>
제 게</w>
집 행</w>
쪽 의</w>
차 ,</w>
해 나갈</w>
했 음을</w>
향 하고</w>
자유 로운</w>
발표 에</w>
요구 는</w>
등록 된</w>
합의 로</w>
대전 시</w>
기대 하는</w>
제기 했다.</w>
유지 할</w>
센터 는</w>
확산 으로</w>
극복 하고</w>
정경 두</w>
한국갤 럽</w>
당정 청</w>
:none ;
3 선의</w>
C op
[ 천안
v e</w>
공 적</w>
관 람
그 쳤
뒤 인</w>
리 턴
무 난
무 대
사 기</w>
손 잡고</w>
여 영국</w>
유 신
재 선을</w>
전 경
조 기에</w>
증 권</w>
진 전
질 환
책 은</w>
치 른</w>
혼 자
문제 라고</w>
보수 ,</w>
지금 보다</w>
신문 은</w>
내놓 을</w>
CB S</w>
더라 고요.</w>
기여 할</w>
광진 을</w>
공보 국
고맙 습니다.</w>
현황 을</w>
유사 한</w>
소아 당
탄력 근로
6 1</w>
8 D
걸 려
공 청
끝 장
달 여</w>
뜨 거
만 전을</w>
많 을</w>
바 치
밥 그릇</w>
변 수</w>
부 정부
붙 은</w>
비 난</w>
생 의</w>
속 한</w>
순 이었다.</w>
아 을</w>
연 결</w>
태 어나
털 어
학 자</w>
했 는데요.</w>
행 위로</w>
\' 로</w>
한국 일보
정치 개혁</w>
국회의원 _
참여 연대</w>
기사 에</w>
공수처 법
아이 가</w>
역사 와</w>
대안 으로</w>
청문 회를</w>
한번 도</w>
경기도 당</w>
해왔 습니다.</w>
검찰총 장의</w>
희생 을</w>
지지층 을</w>
작성 해</w>
재보 궐</w>
================ ================
Gyeongja Hong</w>
( PK
3 .2
R Q
u b
u t</w>
■ 【
【 서울
거 치며</w>
다 …
단 어
때 의</w>
마 침</w>
셨 던</w>
송 병
수 시로</w>
승 부처
시 레이
신 라
이 사를</w>
전 력</w>
체 의</w>
취 재</w>
친 구가</w>
표 는</w>
황교 안이</w>
변호 사를</w>
논의 한</w>
부산 시</w>
있어 요.\xa0
다가 올</w>
야권 은</w>
인데 도</w>
네티즌본부 '</w>
노골 적으로</w>
총체 적</w>
( 34
4 9</w>
< div</w>
E ,ch:</w>
“ 조국</w>
겠 죠.</w>
결 론이</w>
겸 허
구 상을</w>
극 대화
된 다,</w>
드 릴
박 람
삶 은</w>
아 들이</w>
이 순
자 식
자 전
텐 데
피 켓
출마 로</w>
[' [이미지출처=연합뉴스][아시아경제</w>
이유 에</w>
승리 해</w>
세계 적</w>
전문가 들의</w>
헌법 과</w>
핵심 인</w>
차지 할</w>
행복 을</w>
하기 에는</w>
카드 로</w>
콘텐 츠</w>
++ ++
2 시간</w>
6 명</w>
7 대</w>
건 전한</w>
달 이</w>
모 임을</w>
밀 양
살 이</w>
있 다"면서</w>
자 리는</w>
재 를</w>
통 추
항 목
자유 로
자유 롭게</w>
10 %
news 1
국무 조정
26 B
나타 날</w>
촛불 을</w>
중단 하고</w>
근로 기준
불과 한</w>
불과 했다.</w>
무시 하는</w>
도약 을</w>
늘어나 고</w>
B0 A000000
[속보 ]</w>
( -
. /
7 A000000
A ,id:</w>
· 함
· 경</w>
‘ 21대</w>
강 점
겨 울</w>
금 산
기 보다</w>
대 검찰청
됐 지만,</w>
라 고
명 단에</w>
물 밑</w>
생 기는</w>
시 너
시 정</w>
신 보라</w>
야 지</w>
야 한다.</w>
예 의
용 으로</w>
운 명을</w>
위 )</w>
이 호
저 울
정 갑
제 1</w>
주 무
중 량
착 한</w>
탈 출
포 지
폭 정을</w>
표 심이</w>
항 에</w>
후보 님</w>
10 만
30 ~
국가 인권
.1 4</w>
행정 관이</w>
개정 에</w>
법무 부가</w>
대변인 의</w>
운영 하고</w>
말했다. 그는</w>
공공 기관
해야 ”</w>
검토 할</w>
원칙 과</w>
이야기 하고</w>
나왔 습니다.</w>
밝히 며</w>
무상급 식을</w>
최종 수정</w>
능력 과</w>
정책위 의장은</w>
데이터 를</w>
googletag.display("google_dfp_MC_2x1,fluid" );
꼼꼼 히</w>
북· 미</w>
I T</w>
c m
감 축
깨 달
남 한
는 다면</w>
되 겠다는</w>
된 다며</w>
멀 리</w>
보 시는</w>
부 회장,</w>
안 규
영 장</w>
을 ·
자 초
재 원</w>
제 18대</w>
주 기를</w>
짓 고</w>
총 력</w>
특 단의</w>
편 하게</w>
자유 우파</w>
우리 들
들어 선</w>
시민 사회</w>
국가 에</w>
www. g
반영 한</w>
규모 는</w>
과거 를</w>
선정 된</w>
적절 치</w>
(1 명)</w>
인연 이</w>
송영 길</w>
있다./연합뉴스 googletag.cmd.push(function()</w>
&amp;date=2020030 7
기꺼 이</w>
Cop y
# 제21대
0 .6
o .
p y
고 영
고 양</w>
구 례
그 레이
나 루
말 하자면</w>
성 립
심 정으로</w>
역 이</w>
중 동</w>
중 립</w>
지 진</w>
층 에</w>
침 해</w>
토 끼
한 발</w>
정치 신인
사람 들과</w>
() 가</w>
요구 할</w>
22 F
논의 하고</w>
주시 기를</w>
판단 한</w>
않는 다”고</w>
도전 할</w>
하고 요.</w>
민주평화 당은</w>
민주평화 당,</w>
행동 이</w>
기소 를</w>
시행 령</w>
바뀌 어야</w>
김기 남</w>
1번 지</w>
합니다 !</w>
ry u
개소 식을</w>
다시 금</w>
성격 이</w>
이만 희</w>
진지 하게</w>
( 31
2 명을</w>
“ 박근혜</w>
“ 앞으로</w>
고 시
공 방
급 여</w>
돌 리고</w>
마 트
모 시
묘 한</w>
문 으로</w>
물 가
물 꼬
박 준
밥 을</w>
성 산</w>
소 비</w>
압 박</w>
어 요?</w>
진 단</w>
청 렴
청 에서</w>
최 선
캡 처</w>
태 풍</w>
평 등</w>
해 오
그러 기</w>
국가 는</w>
기업 ,</w>
비판 적</w>
어려 워</w>
국정 원
대구 경북</w>
민생 법안</w>
공화 국</w>
처음 에</w>
사무총 장을</w>
홈페이 지
가이 드라
“ 우리는</w>
거 쳤
덜 어
도 한</w>
목 적을</w>
못 했습니다.</w>
별 개로</w>
서 서
손 가락
실 무</w>
원 전
의 장과</w>
재 ,</w>
정 용
하 셔서</w>
해 방
하겠 지만</w>
생각 한다”며</w>
지지 자가</w>
사회 부총리</w>
an n
새누리 당을</w>
ay ms
통과 시키
중국 은</w>
아이 들을</w>
(6 7
환영 합니다</w>
보기 ]</w>
대로 라면</w>
±3.1 %포인트
ayms dream
# 사하
' 비례
( 26
@ GyeongjaHong</w>
B ,id:</w>
고 ,
금 속
나 옵니다.</w>
된 다"고</w>
리 라고</w>
명 절
모 았다.</w>
몰 고</w>
문 자를</w>
실 정을</w>
오 산
왔 고</w>
자 나</w>
집 으로</w>
챙 기는</w>
파 크</w>
혹 시
한국 노
위원 들이</w>
기자 aymsdream
개정 으로</w>
노력 해</w>
ont ent
한반 도의</w>
물갈 이를</w>
북구 갑</w>
의원총 회를</w>
타당 성
아쉬 운</w>
칠곡 군</w>
강진 형</w>
@naver .com</w>
( 37
( 33
4 %</w>
것 이라
김 원이</w>
당 규</w>
동 서
때 로는</w>
무 소
미 중</w>
믿 음
받 기도</w>
변 동</w>
싶 다고</w>
어 두
을 이</w>
인 기를</w>
있 습니다
쟁 점</w>
저 지를</w>
졌 기</w>
커 지는</w>
크 루
퇴 진</w>
퍼 포
필 수</w>
환 자의</w>
흥 덕
12 8
예비후보 에</w>
것이 다.”</w>
교육 ·
청년 ,</w>
지역구 이다.</w>
199 5년</w>
한다 ”</w>
문재인 ,</w>
하는 ,</w>
바뀌 었
위성 정당인</w>
박근혜 의</w>
2015-0 3
01D5AD 7C
신분 으로</w>
se_ f
리퍼 트</w>
비로 소</w>
퍼포 먼
01D5AD7C 17
0 .0
8 CA
h t</w>
j i
갈 등은</w>
겠 는가.</w>
겠 다”</w>
견 해를</w>
기 금</w>
박 동
발 대
않 다</w>
야 기
여 자</w>
외 치며</w>
위 선
인 해서</w>
일 괄</w>
층 은</w>
폐 지를</w>
폭 력을</w>
&gt; ,</w>
추진 한</w>
바른미래 당과</w>
자리 매
70 %</w>
https:// n.
기준 은</w>
말했다. \xa0</w>
있으 니까</w>
사랑 의</w>
충청 권
당협 위원장,</w>
거부 한</w>
해석 된다.</w>
양극 화</w>
https://n. news.naver.com/
( 前
( 토)</w>
3 ,ch:</w>
6 4</w>
기 조를</w>
날 은</w>
됐 으면</w>
리 스
명 )
바 라고</w>
불 매
빌 딩
상 대를</w>
선 박
성 소수
았 고</w>
인 명
조 끼
중 순</w>
민주 화를</w>
특별 보좌관</w>
수도 권의</w>
민주주의 와</w>
행사 에는</w>
촉구 하고</w>
응답 자</w>
적용 할</w>
것인 데,</w>
타협 을</w>
대출 을</w>
현수 막을</w>
Re ad
상향 식</w>
tit le
( 23
3 가지</w>
L H
개 신
계 에서</w>
과 시
나 눈</w>
날 에</w>
늦 어도</w>
답 한</w>
들 끼리</w>
때 와</w>
마 를</w>
목 사가</w>
보 임</w>
부 여</w>
스 위
아 트
였 는데</w>
용 역</w>
의 문을</w>
지 분을</w>
후 에는</w>
10 ~
10 시
가능 하다고</w>
필요 로</w>
관계 로</w>
사실 과</w>
.2 1</w>
han .co.kr/
개최 한</w>
불구 속</w>
응원 합니다</w>
집권 여당의</w>
감독 의</w>
명확 하게</w>
기독 교</w>
석패율 제</w>
번영 의</w>
01D5AD8E827 49F
01D5AD8E82749F 6000000
[ 뉴시스
m ent</w>
과 제가</w>
교 환
그 동안의</w>
끝 날</w>
난 립
도 지사
말 부터</w>
명 의로</w>
세 )</w>
야 ,</w>
열 악한</w>
원 상
은 수
이 메
정 리</w>
조 응
주 자들의</w>
허 락
이라 든지</w>
지역 별로</w>
청년 들에게</w>
주의 와</w>
판단 하고</w>
중국 을</w>
사법 개혁</w>
고려 한</w>
가족 이</w>
있을 까</w>
명백 히</w>
고소 ·
세미 나
(종합 )</w>
' 도</w>
( 文
0 :</w>
9 FB
s n
당 원의</w>
마 감</w>
말 라는</w>
민 자
상 록
성 취
소 선거구
않 아서</w>
앵 커</w>
여 부와</w>
위 배
을 )
저 렴
저 출산</w>
좋 게</w>
주 길</w>
주 인이</w>
집 어
창 녕
치 의</w>
탈 락</w>
하 면
항 쟁</w>
서울 을</w>
기자 단
지지 자들의</w>
15 일에</w>
국회의원 들의</w>
정의 와</w>
원내 부
필요 하다</w>
선언 하며</w>
FB 81
주의 적</w>
산업 혁명
대상 자</w>
논란 과</w>
이뤄 지
31 D000000C
드러 나
당원 동지</w>
가족 을</w>
의견 은</w>
사무총 장이</w>
지나 친</w>
C6 31D000000C
같아 요.\xa0
차례 로</w>
동작 구</w>
당시 에는</w>
ㅋㅋㅋㅋ ㅋㅋㅋㅋ
B4 B0A000000
김장 실</w>
한국갤럽 이</w>
박완 수</w>
임태 훈</w>
01D5CB43B5 C631D000000C
FB81 B4B0A000000
# 민주당</w>
5 ,id:</w>
d ec
n um
‘ 신
개 표</w>
구 심
국 책
면 적</w>
반 을</w>
사 드</w>
살 해
생 략
선 두를</w>
수 급</w>
유 명</w>
제 기</w>
죠 ?
증 자</w>
지 라도</w>
최 기
출 시
특 보</w>
하 더니</w>
정치 판
서울 ·
100 만
관계 자가</w>
정권 교체를</w>
추진 하겠다고</w>
비례대표 제는</w>
.3 %
방송 의</w>
실시 했다.</w>
고려 하면</w>
약속 한</w>
찾아 가</w>
가져 올</w>
국민들 로부터</w>
북구 을</w>
C6 E
01D5CD 2C
정진 석</w>
jm ryu
4 명의</w>
6 시</w>
s an
과 장
군 에서</w>
납 부
내 면서</w>
당 해</w>
돌 파</w>
들 며</w>
러 브
무 작
발 령
상 근
성 토
어 머니</w>
엄 격
없 지만,</w>
역 사는</w>
워 야</w>
정 밀
종 을</w>
지 정을</w>
첨 예
출 현
치 르게</w>
토 착
트 랙</w>
패 배</w>
대표 이사</w>
선거 인</w>
201 7</w>
정당 들의</w>
100 년</w>
광주 를</w>
여론조사 (
없었 다</w>
전문가 로</w>
반영 하는</w>
창당 해</w>
분열 과</w>
공식 적인</w>
권한 대행
모임 인</w>
담당 하는</w>
느낌 이</w>
이틀 간</w>
남경 필</w>
M O
U S</w>
^ ^
j av
각 계</w>
갑 작
거 쳐야</w>
김 찬
남 는</w>
달 고</w>
대 여</w>
듣 지</w>
부 패</w>
부 회장</w>
새 끼
소 화
수 고
수 료
심 하게</w>
장 려
절 로</w>
치 우
폭 주를</w>
했 습니다.\xa0
자유 당</w>
사실 에</w>
대상 에서</w>
당선 자</w>
드러 냈
아무 튼</w>
확보 에</w>
나서 지</w>
무너 지는</w>
-1 3</w>
단일 화
해달라 ”고</w>
(주 )
사각 지
진두 지휘
3 호선</w>
F ,ch:</w>
i k
검 역
겁 니까?</w>
국 영
꿈 이</w>
년 )</w>
년 만에</w>
놓 지</w>
병 의</w>
안 다.</w>
안 된다.</w>
않 고
액 의</w>
웨 이</w>
좋 다고</w>
타 워</w>
편 입
행 정부</w>
선거 개입
후보 자들이</w>
000000 F
경제 보복
습니 까</w>
책임 질</w>
하나 하나</w>
다음 날</w>
사이 트</w>
국회의 장,</w>
본부 장
구청 장,</w>
종합 적으로</w>
인구 의</w>
하는 게</w>
yo ung
중진 의원</w>
back gro
공천관리 위원장이</w>
당권 파</w>
발광 조끼</w>
자발 적</w>
Th e</w>
리턴 매
/ 문
2 년간</w>
6 )</w>
D 1
b b
‘ 보수</w>
고 배를</w>
남 녀
납 니다.</w>
내 로</w>
넘 긴</w>
높 다고</w>
드 려야</w>
때 에</w>
리 모델
몰 라
부 르는</w>
성 격을</w>
세 부</w>
순 방</w>
영 업</w>
온 다.</w>
죄 가</w>
진 입</w>
징 계를</w>
탑 승
표 의</w>
해 진다.</w>
201 1
10 개</w>
기자 \xa0</w>
발표 가</w>
전략 에</w>
행정 수도</w>
개정 이</w>
공직 자의</w>
무엇 인가
기대 할</w>
의혹 ,</w>
과거 와</w>
임시 정부</w>
프레 임을</w>
근로 자</w>
공급 을</w>
마지막 까지</w>
01D5CAC 06
타임 즈</w>
01D5CAC06 26B
2 000000B
9 89
@ asiae.co.kr
A ,bf:</w>
기 부</w>
기 점으로</w>
매 를</w>
백 승
변 수는</w>
분 권</w>
사 명
새 겨
서 귀
선 배</w>
속 도가</w>
승 부가</w>
실 ']</w>
언 행
영 웅
잇 달아</w>
자 의
주 재</w>
추 산
특 화
한 양
함 으로</w>
혁 명으로</w>
한국 여성
경제 정책
공천 심사
as cri
전략 은</w>
최고위원 &gt;\xa0
해주 길</w>
김성 태
서울시장 을</w>
전쟁 이</w>
정상회담 이</w>
01D5E6C 7838
리포 트
이남 재</w>
브레이 크
재난안전 대책
막론 하고</w>
jav ascri
2 배</w>
4 8</w>
6 ,id:</w>
p or
x x
與 ,</w>
감 성
교 차
당 국의</w>
부 상</w>
불 발
서 두
식 과</w>
윤 준
이 끈</w>
장 진영
정 가
토 요
en g
정의 화</w>
자신 에게</w>
지원 과</w>
지도 자가</w>
논의 하는</w>
경찰 과</w>
기사 제보</w>
확보 하는</w>
조직 의</w>
김성 회</w>
벌어 지는</w>
news/article .html?no=
하루 빨리</w>
그룹 이</w>
ke y
인공지 능</w>
# 문재인</w>
( 더)</w>
1 .2
6 46
h ong
☞ 더보기</w>
갑 의</w>
귀 국</w>
그 날</w>
다 지고</w>
도 종
될 까
떠 나는</w>
마 시고</w>
모 여서</w>
불 안을</w>
셈 이다.
수 입</w>
실 패</w>
없 어요.</w>
옥 중</w>
왔 지만</w>
유 행
재 임
전 태
종 교</w>
종 북</w>
커 피
태 풍
편 향</w>
한 상
총선 용</w>
10 만</w>
생각 했다.</w>
17 일부터</w>
.1 7</w>
22 D
활동 하는</w>
돌아 오는</w>
보여 줄</w>
방문 했다.</w>
제기 됐다.</w>
이름 은</w>
있다 고함</w>
구청 장은</w>
선거운동 이</w>
선진 국
여권 은</w>
개소 식</w>
비상대책 위원회</w>
칼럼 ]</w>
보시 면</w>
.chosun .com</w>
내세우 는</w>
아프리 카</w>
진성 준</w>
처럼 ,</w>
임춘 한</w>
【서울 =뉴시스】
4 ㆍ
7 37
[ 뉴스
ㅡ ㅡ</w>
경 ·
고 은
글 은</w>
본 다면</w>
불 필요한</w>
상 하
새 해를</w>
수 위를</w>
스 리
스 레</w>
의 협
이 슬
일 왕
있 다”는</w>
자 ·
자 릿
적 이라는</w>
죽 어
크 다고</w>
호 랑
정치 자금</w>
총리 실</w>
지지 할</w>
필요 성이</w>
중앙 선관위</w>
다.\xa0 \xa0</w>
만들 겠다”고</w>
기업 들의</w>
13 대</w>
협의 회
처리 하는</w>
현실 이다.</w>
법안 ,</w>
나아 가야</w>
전화 가</w>
우리공화 당
있다./ 강진형</w>
느낌 을</w>
타임 즈
외부 재
01D5B48DA9B00050000000 B
( ),</w>
D M
‘ 무
‘ 경제
경 ,</w>
경 향</w>
국 감
기 능</w>
놓 을</w>
눈 물
대 회에</w>
등 등</w>
보 여야</w>
사 례</w>
속 의</w>
예 고</w>
왔 다는</w>
외 쳤
유 기준</w>
인 기가</w>
재 산을</w>
증 시</w>
지 칭
국회의원 으로서</w>
공천 의</w>
an um
.1 1</w>
페이 지
마련 하는</w>
이뤄 지고</w>
지켜 보
한다 면서</w>
원칙 이</w>
검증 된</w>
style= color:</w>
신고 를</w>
사망 자</w>
oo A
none ;</w>
아우 르는</w>
dong a.com</w>
01D5D70A 22D
아끼 지</w>
정미 경</w>
https://news.v.daum.net/v /2019
3 70
J o
a ble
u e
‘ 1
가 공
간 판
겪 은</w>
극 한</w>
기 용
다 리</w>
당 원을</w>
말 입니다.</w>
말 했다고</w>
못 지
민 의를</w>
석 좌
석 과</w>
수 권
엔 터
왔 는데</w>
윤 관
을 까.</w>
인 들을</w>
제 ·
피 로
화 학</w>
회 부
.1 3</w>
수사 권
결과 다.</w>
청년 ·
[' [사진</w>
참석 을</w>
부산 의</w>
우려 하는</w>
개발 과</w>
인물 들이</w>
김영 춘</w>
김성 환</w>
차지 한</w>
넘어 선</w>
전당대 회
규정 에</w>
거듭 나
개정안 과</w>
view/ ?
ca f
. 7</w>
3 법</w>
S )</w>
강 서구
남 선
놓 았다.</w>
대 사는</w>
데 서</w>
릴 레이</w>
말 의</w>
못 했다는</w>
발 급
분 이
소 모
식 약
에 도,</w>
자 라고</w>
재 적
조 치는</w>
청 에</w>
총 연합
캐 릭
특 검</w>
파 를</w>
향 하는</w>
후보 들</w>
한국당 에서는</w>
10 여
&gt; (
www. jeju
추진 에</w>
책임 감을</w>
경쟁 에</w>
통과 될</w>
외교 통일
199 2년</w>
실시 된</w>
이루 고</w>
구조 가</w>
남북 관계</w>
정규 직</w>
한편 으로는</w>
득표율 로</w>
본회의 가</w>
노조 는</w>
캠페 인</w>
이광 재</w>
피력 했다.</w>
경희 대</w>
박철 우</w>
( 정
0 60
2 번
4 7</w>
4 분기</w>
8 :</w>
@ newsis.com</w>
l y</w>
겠 다.\xa0
공 세
끌 었다.</w>
날 마다</w>
늘 어</w>
되 니</w>
면 제</w>
무 죄를</w>
비 방
성 윤
애 초에</w>
위 태
인 생을</w>
임 의
젠 더
조 ,</w>
예비후보 들이</w>
14 1
발표 하는</w>
대변인 과</w>
https:// t.co/
진보 진영</w>
이용 할</w>
안정 적</w>
전해 졌다.
내놓 았다.</w>
구축 을</w>
코스 닥
이탈 리아</w>
주최 로</w>
금강 산</w>
충실 히</w>
이스 라
사활 을</w>
1 12
6 천
7 ~
W W
겠 느냐
계 좌
까 지,</w>
노 선이</w>
달 했다.</w>
대 권을</w>
방 한
병 행
비 호감
이 전을</w>
입 어</w>
중 간에</w>
참 담
천 막</w>
출 발</w>
편 의</w>
책임 지
세계 가</w>
인천 시</w>
받았 고,</w>
검토 를</w>
가족 과</w>
이루 어</w>
대법 관
제출 했다.</w>
상공 회의
바뀌 지</w>
존재 하는</w>
싸우 고</w>
테마 주</w>
기존 에</w>
Cli ck</w>
(전 )
무관 하게</w>
소득주도 성장
한- 일</w>
신장 식</w>
탄탄 한</w>
노태 우</w>
소재·부품 ·장
' 며</w>
. 6</w>
1 AB
2 명,</w>
5 000001
j in
“ 모든</w>
것 으로,</w>
과 제는</w>
국 외부재
명 ),</w>
믿 는
반 하는</w>
속 이</w>
월 간
있 다”
증 액
통 화</w>
해 줘야</w>
헌 재
후 진
정치 개혁을</w>
200 1년</w>
(6 1
건강 보험</w>
드립 니다.
하는 가</w>
현대 차
}]}]},01D5E 15
물러 난</w>
어르 신</w>
압도 적으로</w>
새정치연합 의</w>
2021 년</w>
급기 야</w>
1 심에서</w>
F e
W T
c id=
“ 그런데</w>
교 류</w>
단 어를</w>
더 군
사 표
상 정</w>
수 첩
아 웃
여 건이</w>
옥 중
와 ,</w>
우 를</w>
입 찰
입 시</w>
죄 로</w>
추 대
서울 로</w>
연구 원이</w>
문화 의</w>
영향 력이</w>
(6 3
이후 ,</w>
구청 장을</w>
밝히 면서</w>
조국 이</w>
}]}]},01D5E 9E
·새· 국회의원)</w>
이념 과</w>
07 C000000
목소리 로</w>
노조 가</w>
# 총선
5 분
B R
N G
“ 나는</w>
” -
가 할</w>
값 을</w>
곤 두
급 격한</w>
답 은</w>
대 세
무 마
부 친
성 숙한</w>
쏟 아</w>
전 사
종 결
종 일</w>
직 무</w>
통 제</w>
파 견</w>
포 털
폭 넓은</w>
품 격
한 다’고</w>
해 석을</w>
해 봐야</w>
호 는</w>
확 장</w>
\xa0 &gt;</w>
대통령 으로</w>
50 년</w>
활동 한</w>
정치인 과</w>
전국 을</w>
떨어 졌다.</w>
재판 부는</w>
천안 시장</w>
상대 가</w>
행동 으로</w>
전체 적으로</w>
김현 민</w>
비서실 장과</w>
비교 하면</w>
기회 로</w>
과감 히</w>
영원 히</w>
backgro und
( ↑
( 새누리
3 선에</w>
5 /
5 명이</w>
E 0000000
u id=
z e:</w>
가 겠습니다.</w>
누 르
다 리를</w>
들 게</w>
땅 에</w>
모 독
미 쳤
벨 트</w>
어 마
었 다
유 지를</w>
입 후보
중 지
판 사는</w>
했 어
미래 는</w>
아니 라
정당 ·
비례 제</w>
100 일</w>
여러 가지</w>
책임 자</w>
의미 는</w>
확보 하고</w>
조치 로</w>
기간 은</w>
-1 0</w>
2015-0 8
대중 의</w>
자한 당의</w>
연령 이</w>
거짓 말을</w>
차례 의</w>
(사진 =연합뉴스)</w>
감옥 에</w>
&lt;리서치뷰 &gt;</w>
묵묵 히</w>
박맹 우</w>
( T
0 .3
5 ,si:</w>
@ yna.co.kr</w>
i r
강 효
강 세를</w>
니 아</w>
님 도</w>
당 인</w>
당 대표를</w>
던 지
린 다</w>
릴 레
막 상</w>
맡 는</w>
모 멘
모 시고</w>
물 질
발 굴</w>
변 재
비 하</w>
수 감
연 계</w>
옳 지</w>
원 인은</w>
인 에게</w>
장 치
중 구성
질 서</w>
채 무
파 의</w>
플 레이</w>
후 유
출마 선언을</w>
아니 ,</w>
생각 과</w>
re f=
18 세
17 개</w>
당선 되면</w>
않았 고</w>
포함 돼</w>
하락 했다.</w>
-1 7</w>
전화 면접
하루 를</w>
포기 하고</w>
공항 을</w>
SNS 에</w>
출석 해</w>
텃밭 인</w>
훈련 을</w>
인지도 를</w>
가급 적</w>
( 가칭
결 의를</w>
고 정
과 언이</w>
대 기</w>
론 도</w>
르 기
명 함을</w>
무 언
병 (
억 원,</w>
이 겼
이 거나</w>
임 원</w>
있 거든요.</w>
자 라는</w>
적 일</w>
제 고
찬 반</w>
청 춘
청 약</w>
클 릭</w>
한 꺼
20 대(
201 2
민주당 만</w>
정의 용</w>
인사 인</w>
28 F
대책 에</w>
국정 운영
공동 대표
승리 와</w>
노력 하겠습니다.</w>
오늘 날</w>
인정 하지</w>
가까 워
전해 철</w>
코로나19 가</w>
시· 도
조항 을</w>
지상 욱</w>
pennmike .com/news/articleView.html?idxno=
ation :</w>
서서 히</w>
/ 사진=연합뉴스
3 명,</w>
가 장
겠 습니다
고 작</w>
곡 동</w>
남 자</w>
내 를</w>
렸 다는</w>
박 능
법 원의</w>
변 조
병 )</w>
부 족</w>
세 울</w>
신 정
실 수
씨 도</w>
원 안
의 제
익 숙
정 리가</w>
지 어
최 병
트 렌
파 렴
해 군</w>
화 재</w>
국회의원 들은</w>
관련 주,</w>
[' 문재인</w>
정상 적으로</w>
세계 에</w>
세계 의</w>
건강 과</w>
대법 원의</w>
프레 임</w>
전통 적인</w>
상징 하는</w>
달러 를</w>
제조 업
최대 주주</w>
아카데 미
시리 즈
사단 법인</w>
박우 섭</w>
*** *</w>
와이파 이</w>
FB81B4B0A000000 F
고 통</w>
규 정한</w>
나 ?
돈 으로</w>
때 다.</w>
모 친
분 주
빨 간</w>
사 찰
사 도</w>
심 정
웠 습니다.</w>
유 선
일 까요?</w>
전 하는</w>
주 자가</w>
주 자인</w>
총 장,</w>
총 동원
층 에서</w>
파 행
한 데,</w>
히 토</w>
선언 하는</w>
교육 에</w>
평가 와</w>
말씀 이</w>
문화 ,</w>
경찰 서</w>
대전 시
확대 하고</w>
한나라 당이</w>
범죄 에</w>
선관 위의</w>
무너 지고</w>
극복 하기</w>
과반 을</w>
sis a
모으 고</w>
피의 자</w>
골목 상권</w>
박물 관</w>
추가경정 예산
화려 한</w>
양향 자</w>
윤소하 \xa0:\xa0
복기 왕</w>
@pennmike .com</w>
' 정치</w>
M e
김 효
느 다.</w>
발 행</w>
봉 선
선 명
수 업
을 을</w>
일 산</w>
읽 고</w>
저 널</w>
주 세요
지 을</w>
지 다.</w>
채 권
출 간
취 한</w>
피 고
한 데
의원 정수</w>
대표 나</w>
정치 권을</w>
하겠 습니다.
들어 올</w>
25 3개</w>
결정 적인</w>
제도 권</w>
탄핵 소추
하였 으며,</w>
있으 면서</w>
style= margin:</w>
의결 을</w>
파악 하고</w>
얼굴 이</w>
CE O
시민사회 단체
지소미아 )</w>
버티 고</w>
거취 를</w>
쓰레 기</w>
( 약</w>
- 12
5 50
P re
\ 이라고</w>
’ …
ㅎ ㅎ
간 주
강 은
공 제
금 으로</w>
논 리에</w>
도 망
동 정
명 칭</w>
박 순
배 치</w>
사 적</w>
아 라
외 국</w>
원 도심</w>
월 요일</w>
일 꾼</w>
입 맛
자 면</w>
장 안
차 장
추 적
탁 월
테 러</w>
한 영
혹 한</w>
힘 겨
한국 네티즌본부
선거 권을</w>
20 여
출마 자</w>
15 %
an ews
&amp; &amp;
결과 도</w>
노동 조합</w>
외교 안보
학교 에</w>
프로 필</w>
공화 국
바란 다고</w>
공관 위가</w>
해야 한다.</w>
아시아 뉴스통신
시켜 서</w>
절반 을</w>
유공 자</w>
획기 적으로</w>
/ 8A
3 25
과 세</w>
광 우
광 장에</w>
국 ·
금 지를</w>
당 대표는</w>
대 행</w>
되 는데,</w>
땅 을</w>
막 바
모 빌리
발 목</w>
방 글라
법 령
삶 과</w>
설 명</w>
섰 습니다.</w>
소 신</w>
실 장과</w>
알 렸다.</w>
업 계의</w>
외 로</w>
유 죄</w>
이 세
인 건
일 .</w>
있 습니까?</w>
작 년에</w>
잡 힌</w>
전 력을</w>
집 회는</w>
총 연합회</w>
타 다</w>
패 스트</w>
한 두</w>
할 까요?</w>
했 더니</w>
회 귀
&lt; 조선일보
17 3
amp ;
선언 했다.
행정 자치
역할 과</w>
세계 일보</w>
문재인 은</w>
패스트트랙 을</w>
/ctn] 박철우</w>
김광 림</w>
세훈 은</w>
의왕 ·
text- dec
직격 탄을</w>
text-dec or
0 .4
공 업</w>
광 역</w>
높 지</w>
다 뤄
도 ·
라 든지</w>
벗 고</w>
비 한</w>
소 신을</w>
수 혈
승 복
약 화
우 대
의 대</w>
잃 지</w>
임 .</w>
정 점
최 규
택 지</w>
터 가</w>
하 느냐</w>
해 서,</w>
했 죠.</w>
희 \xa0&gt;\xa0
20 )</w>
생각 으로</w>
보수 ·
시작 해야</w>
참석 했다.
대구 를</w>
판단 해</w>
입장 에</w>
강화 ,</w>
.7 %),</w>
한다 '는</w>
제1 야당
전달 했다.</w>
득표율 이</w>
EF 9
가라 앉
margin- bottom
낙후 된</w>
참신 한</w>
남인 순</w>
프레스 센터에서</w>
( 36
5 3D
C I
O O
개 탄
검 색</w>
결 혼</w>
계 류</w>
공 사를</w>
교 를</w>
남 영
대 중</w>
데 에</w>
됩 니다.
말 하며</w>
목 적이</w>
박 스</w>
사 후
접 촉</w>
지 침
쪽 을</w>
착 오
청 ,</w>
퍼 런
한 화
해 군
경제 인
국가 보안
수사 로</w>
등록 해</w>
그렇 죠.\xa0
4· 29</w>
부정 선거</w>
78 ,si:</w>
지시 했다.</w>
아버 지가</w>
대중 교통</w>
득표율 에</w>
창원 시</w>
6000000 40
논리 로</w>
공천관리위원회 는</w>
양승 조</w>
더욱 더</w>
눈높 이에</w>
ak a
mun onam
R&amp; D
NE WS
01D5AFBA790 EF9
방글라 데
01D5AFBA790EF9 600000040
" 화</w>
( 2019년</w>
D 3000000
가 상대
간 섭
기 만
내 로
놨 다.</w>
되 려면</w>
뒤 에는</w>
들 까지</w>
들 이고</w>
떠 오른</w>
명 지대</w>
모 이는</w>
변 함
변 함이</w>
보 려고</w>
부 채</w>
사 정이</w>
상 용
성 추
신 축
자 가
재 발
점 퍼</w>
주 인</w>
째 로</w>
척 결
출 동
한 복
한국 형</w>
민주당 에선</w>
통합 ,</w>
위원장 으로서</w>
보수 로</w>
이해 식</w>
국정 화</w>
되었 으면</w>
나오 기</w>
김무 성,</w>
요청 에</w>
응답 자의</w>
효과 는</w>
(4 5
이슈 에</w>
함께 한</w>
대결 로</w>
아버 지의</w>
본회의 장</w>
%( 전국</w>
테크 노
YT N
유의 동</w>
장대 호,</w>
구석 구
/문 호남</w>
S t
각 계
간 다</w>
계 절
구 니
근 간
논 리를</w>
드 가</w>
렸 습니다.</w>
많 다고</w>
먹 고
명 만</w>
반 사이
배 정</w>
보 급
뿐 입니다.</w>
속 을</w>
시 선이</w>
여 성을</w>
올 인
일 괄
임 무
주 고,</w>
청 계
침 탈
크 기</w>
피 하기</w>
한 동안</w>
정치 협상
대통령 과의</w>
&lt; !
50 8
특별 위원회
최고위원 을</w>
공관 위
진영 에</w>
소통 하는</w>
임명 동의
바뀌 고</w>
내놓 지</w>
}]}]},01D5E 9F
신경 민</w>
스마트 폰</w>
의원총 회</w>
표결 에</w>
겸손 한</w>
01D5E535 7FDDD71000000
남선 알
text-decor ation:</w>
# 경북
같 지</w>
건 전
공 격</w>
국 장,</w>
그 것</w>
금 과</w>
달 린</w>
당 할</w>
대 담</w>
듣 기</w>
르 지</w>
무 상</w>
민 평
순 위를</w>
영 국의</w>
예 로</w>
요 인이</w>
자 원</w>
저 가</w>
정 대
조 절
중 이던</w>
차 이는</w>
최 저</w>
파 란
표 창원
플 래
허 용</w>
홍 보수
\' 가</w>
19 /
자신 과</w>
.0 8
주장 한다.</w>
ㅡㅡ ㅡㅡ</w>
세종 시는</w>
세종 의사
37 CB
.9 M
학교 가</w>
떨어 질</w>
진영 에서</w>
해야 지</w>
th is</w>
서울시 의</w>
거부 하는</w>
자기 들이</w>
font-family :</w>
0F 000001
[연합뉴스] \xa0</w>
해명 했다.</w>
다루 는</w>
BE 0F000001
만드 는데</w>
01D5CB49 9FB
1AB D000001
한꺼 번에</w>
37CB BE0F000001
01D5CB499FB 1ABD000001
" 이번</w>
8 개월</w>
A M
A .</w>
가 정</w>
갑 에서는</w>
계 단</w>
고 려</w>
관 할</w>
국 산
그 들</w>
그 제</w>
김 유
꿈 과</w>
남 겼
당 명</w>
듯 ,</w>
맛 집</w>
문 서</w>
북 도
사 장이</w>
서 에서</w>
수 천
수 만</w>
신 당은</w>
않 나</w>
얻 었
엄 청</w>
연 기를</w>
원 하고</w>
적 법
조 문을</w>
종 종</w>
증 상이</w>
지 수는</w>
진 ·
진 천
후보 자들의</w>
201 2</w>
문재 인이</w>
대한 의사
전략 과</w>
여러분 께서</w>
처리 해야</w>
승리 했다.</w>
대응 하는</w>
개발 ,</w>
아시 다시피</w>
촉구 한다.\xa0
국회의 장의</w>
본부 장을</w>
협상 은</w>
불구 하고,</w>
일정 에</w>
정국 에서</w>
송파 구</w>
일어나 고</w>
IM F</w>
명칭 을</w>
news.v.daum.n et</w>
lang =
) 이다.</w>
/ 사진=
C )</w>
“ 박</w>
가 요?</w>
개 국
공 지
궁 극
기 류가</w>
께 도</w>
대 면</w>
됐 다며</w>
들 에게도</w>
리 즘
보 듯</w>
송 도
엉 한</w>
완 공
우 수</w>
운 용</w>
유 해
점 거
좀 처럼</w>
치 에</w>
클 린
휘 두
계획 은</w>
당원 들과</w>
발생 했다.</w>
경험 한</w>
(4 2
민주평화 당이</w>
청문 회
나왔 다.
전쟁 의</w>
단계 에서</w>
은행 이</w>
바로 가기</w>
2020.0 2.
연석 회의에서</w>
프리미 엄
S/ S</w>
# 수
( 일)</w>
2 억</w>
3 .3
y a
○ ···</w>
거 침
결 이</w>
경 산</w>
계 급
공 휴
기 기</w>
녹 록
누 비
동 기
매 듭
문 충
방 한</w>
배 종
상 시
신 조
실 상
실 적
안 도</w>
야 간
에 프
인 들</w>
제 8
종 목</w>
진 학
타 는</w>
특 구</w>
했 다,</w>
대표 적이다.</w>
10 여</w>
자유한국당 도</w>
추진 하겠습니다.</w>
산업 과</w>
보인 다”고</w>
인천 의</w>
노력 에</w>
기대 감이</w>
언급 을</w>
신뢰 가</w>
신뢰 수준에서</w>
나아 가는</w>
실패 로</w>
보장 하는</w>
CB S
태극 기를</w>
이르 렀
op en
김수 현</w>
여의도 연구원
A8 000000
01D5E14 A
ㅡㅡㅡㅡㅡㅡㅡㅡㅡㅡㅡㅡㅡㅡㅡㅡ ㅡㅡㅡㅡㅡㅡㅡㅡ
f n
y on
가 닥
걱 정</w>
깨 닫
노 컷
놀 이
대 사가</w>
드 ,</w>
부 러
상 반기
생 물
서 예
식 사를</w>
았 을</w>
애 로
원 장,</w>
접 전을</w>
죽 음을</w>
추 측
현 안이</w>
\' 고</w>
지역 위원장,</w>
진행 을</w>
정권 ,</w>
여론 은</w>
&amp; p
활동 했다.</w>
(5 5
목소 리는</w>
자체 는</w>
정치권 과</w>
전문가 들이</w>
적용 하는</w>
font- style:</w>
획정 안을</w>
포기 하지</w>
border =0</w>
%p )</w>
양정 철
kim hyun
크리 스
전병 헌</w>
국회의사 당</w>
sear ch
무소 불
kimhyun 81
+ 대안신당
1 년간</w>
3 ,si:</w>
4 ,si:</w>
6 명이</w>
9 명</w>
F 6
o b
t k
’ \xa0
“ 국민의</w>
각 각
강 제로</w>
경 합</w>
교 ,</w>
국 인</w>
기 온
눈 으로</w>
대 )</w>
대 장이</w>
량 으로</w>
병 ,</w>
복 합</w>
불 합리
사 면</w>
성 장이</w>
시 다</w>
식 당에서</w>
애 매
열 리고</w>
월 급
유 시민
이 론
인 :</w>
인 생</w>
일 ·
일 엔</w>
자 진
장 윤
정 원
차 명
첫 날인</w>
태 평양
하 야
해 수
의원 실</w>
on e</w>
미래 당</w>
들어 야</w>
공천 과</w>
17 67
나라 도</w>
추진 해야</w>
지적 한</w>
안전 과</w>
79 CF
.6 %
소통 의</w>
관광 객</w>
김태 흠</w>
E9 49
용인 시</w>
AF 2A
필요하 다면</w>
위치 에</w>
진출 을</w>
마포 구</w>
증거 가</w>
height :</w>
형태 의</w>
대단 한</w>
01D5D27 E949
출근 길</w>
hy ang
마케 팅</w>
화이트 리스트</w>
79CF AF2A
79CFAF2A 000001
( D
A 61
A rea</w>
고 창
그 거</w>
냈 습니다.</w>
노 후</w>
늘 리고</w>
돌 리는</w>
등 ,</w>
만 명이</w>
북 핵
빅 데이터</w>
뿐 ,</w>
앞 두
엄 정한</w>
왜 곡</w>
유 성을</w>
잊 어
전 폭
체 류
축 제
플 레
해 제</w>
현 대</w>
혐 오</w>
.0 %로</w>
대학 에</w>
이상 ,</w>
알려 지면서</w>
https:// news.naver.com/main/read.nhn?mode=LSD&amp;mid=
장애 인의</w>
다’ 며</w>
199 0
탄핵 이</w>
인재 로</w>
문재인 을</w>
권력 형</w>
소통 하고</w>
오세훈 이</w>
카드 가</w>
업체 가</w>
기울 이
김한 길
ㅡㅡㅡㅡㅡㅡㅡㅡㅡㅡㅡㅡㅡㅡㅡㅡ ㅡㅡㅡㅡㅡㅡㅡㅡㅡㅡㅡㅡㅡㅡㅡㅡㅡㅡㅡㅡㅡㅡㅡㅡ
세훈 이</w>
주최 한</w>
이진 훈</w>
내비 쳤다.</w>
역설 했다.</w>
세브란 스
이자스 민</w>
ㅡㅡㅡㅡㅡㅡㅡㅡㅡㅡㅡㅡㅡㅡㅡㅡㅡㅡㅡㅡㅡㅡㅡㅡㅡㅡㅡㅡㅡㅡㅡㅡㅡㅡㅡㅡㅡㅡㅡㅡ ㅡㅡㅡㅡ</w>
) :</w>
5 ,ch:</w>
A 3D
“ 더</w>
견 디
공 적
다 름</w>
대 륙
됐 든</w>
되 겠다고</w>
망 에</w>
발 간
불 행
비 싼</w>
삼 고</w>
셋 째</w>
속 도</w>
양 자</w>
억 ,</w>
올 해도</w>
운 행
이 ...</w>
인 수</w>
장 석
정 례
중 점
중 단을</w>
지 기도</w>
직 시
특 조
회 사를</w>
선거 철
le t
가능 하다는</w>
보수 층</w>
대변 할</w>
보고 했다.</w>
않았 고,</w>
유권 자는</w>
모르 지만</w>
확대 에</w>
받았 다.
방향 이</w>
넘어 서
개선 에</w>
95 .9M
시스템 이</w>
바이러스 가</w>
고령 화</w>
행태 는</w>
공간 이</w>
견제 와</w>
회동 에서</w>
김남 국</w>
이탄 희</w>
01D5B7FC6D38105 0000002
title =
박능 후</w>
1 %
? ?
F ,id:</w>
R D
d d
· 민·
◆ ◆
관 할
관 료</w>
그 중</w>
근 처
남 동</w>
독 립</w>
동 생</w>
들 이나</w>
면 )</w>
목 록
승 자
않 겠다.</w>
양 질의</w>
위 험</w>
재 계</w>
중 이라고</w>
치 부
태 도</w>
포 털</w>
폭 으로</w>
휘 둘
민주 연구원은</w>
da e
아니 기</w>
아니 냐</w>
그러 면서도</w>
12 2
들어 와서</w>
수사 하는</w>
go th
안철 수가</w>
준비 해</w>
개정 된</w>
단체 는</w>
정도 면</w>
나오 자</w>
확인 했다.</w>
보여 줘야</w>
방식 에</w>
대화 에</w>
고발 한</w>
대중 교통
대권 주자</w>
파이 낸
단호 하게</w>
임재 훈</w>
성윤 모</w>
. 8</w>
5 000000
7 석,</w>
L G</w>
’ 입니다.</w>
■ \xa0
강 북</w>
기 아
기 장
늘 려
답 변</w>
대 여
마 사
막 걸
스 코</w>
실 험</w>
이 달
전 후</w>
쪽 에서는</w>
철 수
터 널
표 로</w>
합 치
혜 화
으로 서,</w>
예비후보 로는</w>
상황 에서도</w>
◎\xa0 조대원\xa0&gt;\xa0
확인 하고</w>
해주 기</w>
기록 해</w>
세대 는</w>
.9 %),</w>
바란 다.
연대 의</w>
목표 가</w>
view Area</w>
전반 기</w>
ff _n
class= se_
font-si ze:</w>
오래 된</w>
s_ H
se_ ff_n
김어준 의</w>
홀딩 스</w>
대항 마
의약 품
se_f s_H
장진영 \xa0&gt;\xa0
goth ic</w>
class=se_ viewArea</w>
se_ff_n anum
1 기</w>
3 29
A 709
B ,si:</w>
“ 안</w>
견 해
권 으로</w>
날 카
높 여
따 를</w>
법 이다.</w>
벤 처</w>
블 루
상 품</w>
승 패
에 어
옮 긴</w>
을 지
장 .</w>
전 보다</w>
주 둔
진 입을</w>
코 레
퇴 행
퇴 근</w>
시작 을</w>
지원 하고</w>
대책 은</w>
대구 에</w>
과정 의</w>
되었 을</w>
알려 졌
노력 하겠다”고</w>
상승 을</w>
있다 면서</w>
표현 이</w>
변호사 로</w>
이정 현
경자 년
전반 적인</w>
우파 가</w>
예방 을</w>
철도 망</w>
새보수 당은</w>
우한 폐렴</w>
기재 부</w>
모자 라</w>
1767 000001
A709 1767000001
" 지금</w>
3 01
o day
” 이라면서</w>
격 돌
경 과
경 험</w>
공 부를</w>
군 위
나 에게</w>
던 지고</w>
바 다.</w>
없 다.\xa0
옛 날</w>
이 모
조 오
진 화
컨 대</w>
페 스티
해 산</w>
국회 부의
국민 과의</w>
아니 라면</w>
서울 신문</w>
비례 후보</w>
회의 에서는</w>
진행 된다.</w>
시민 에게</w>
있었 지만,</w>
투표 율</w>
세계 를</w>
나가 겠습니다.</w>
얘기 할</w>
기관 은</w>
잘못 한</w>
천안 시</w>
대법 관</w>
동구 을</w>
52 시간
불안 한</w>
케이 블
아래 와</w>
새보수 당이</w>
무기 력
01D5B4 14
실제 로는</w>
모호 한</w>
# 진
( F
/ &gt;</w>
4 C
4 선의</w>
7 시</w>
8 시</w>
가 리</w>
국 익을</w>
놓 여</w>
뒤 에서</w>
떠 올랐다.</w>
망 설
맡 아
밀 고</w>
발 사</w>
분 구</w>
생 명</w>
서 강
서 류를</w>
아 들의</w>
영 화를</w>
을 에서는</w>
의 ,</w>
인 지를</w>
즐 거운</w>
징 용
휘 말
지역 위원장을</w>
지지 자들</w>
청와 대로</w>
50 대(
news info
27 0
새누리 당에</w>
01D5B 3A3
언론 인
입니 다!</w>
법무 장관</w>
미국 ,</w>
노력 하는</w>
구성 원
올라 온</w>
차별 을</w>
대권 주자
3· 1
지향 하는</w>
경산 시</w>
공천관리위원회 가</w>
철학 을</w>
모으 는</w>
인적 쇄신
박수 현</w>
비즈니 스</w>
후쿠 시
GTX -
se_ff_nanum gothic</w>
01D5B3A3 28F
4 5</w>
a b
‘ 3
거 냐
당 직</w>
돌 봄</w>
뛰 어</w>
맡 을</w>
문 석
배 분</w>
삼 는</w>
숙 ,</w>
실 과</w>
않 겠습니다.</w>
오 기</w>
의 지와</w>
져 도</w>
주 범
진 실</w>
채 로</w>
취 하고</w>
해 경</w>
해 리스</w>
협 치</w>
훈 ·
정치 신
정치 하는</w>
서울 은</w>
통합 당이</w>
조사 에서는</w>
만들 면</w>
운동 과</w>
결정 될</w>
특별 감찰
광주 시</w>
http://www. newsis
기본 법</w>
한다 고함</w>
행동 에</w>
분야 를</w>
기다 리는</w>
대비 한</w>
공소 장을</w>
말씀드리 겠다.</w>
세금 으로</w>
바닥 에</w>
비중 을</w>
중앙선거관리위원회 에</w>
관심사 다.</w>
border-top :none;
L ED
w or
가 평</w>
개 통</w>
걷 어
공 감을</w>
구 간</w>
금 품
깜 깜
누 더
독 일의</w>
문 건을</w>
백 악
보 세요
비 준
비 피
사 임
사 정
속 출
숭 인
양 국이</w>
자 산을</w>
지 켜</w>
채 택</w>
최 상
해 .</w>
경제 도</w>
참여 해야</w>
책임 져야</w>
}]}]}, 01D5AFB
나타 나는</w>
고민 하는</w>
역사 적인</w>
데이 트</w>
전당대 회가</w>
포기 한</w>
주변 의</w>
키우 고</w>
많은 데</w>
도매 인:</w>
bi z
소공 인</w>
http://www.newsis .com/
( 與
) 까지</w>
2 .4
5 12
A N
’ 란</w>
경 고</w>
공 헌
공 작</w>
관 ·
군 수
료 가</w>
맞 다고</w>
손 해를</w>
역 대
예 타</w>
유 출</w>
정 주
주 소</w>
취 지에</w>
파 고
하 승
확 대해</w>
지역 주의</w>
아니 지</w>
18 세로</w>
했다. 황</w>
news .co.kr/
중요 하지만</w>
관심 은</w>
포함 해서</w>
기대 와</w>
제도 와</w>
나온 다</w>
9D 000000
인정 한</w>
권력 은</w>
집중 되고</w>
촛불 혁명</w>
}]}]},01D5E 6C
서비스 (SNS
독재 를</w>
조건 이</w>
치료 제</w>
불평 등을</w>
면서 다.</w>
힘들 다.</w>
모르겠 지만</w>
집값 을</w>
자발 적으로</w>
WH O
잃어 버린</w>
블록체 인</w>
암호화 폐</w>
자리매 김
1 명이</w>
i -
p ho
군 림
급 식</w>
넘 을</w>
당 혹
들 면서</w>
마 냥</w>
명 인</w>
문 서
밀 착
받 으면서</w>
세 다.</w>
수 장
에 ...</w>
역 ,</w>
이 사가</w>
일 대를</w>
자 원을</w>
작 년
전 에도</w>
정 립
정 할</w>
정 했다.</w>
직 선
추 운</w>
택 한</w>
품 고</w>
활 짝</w>
회 고
201 4</w>
예비후보 자
공천 으로</w>
인사 들</w>
지역구 와</w>
하나 다.</w>
말씀 은</w>
교수 로</w>
(5 6·
계획 이라고</w>
경찰 ,</w>
통과 되면</w>
정상 화를</w>
나타 나</w>
선택 해</w>
우려 의</w>
성공 과</w>
성공 했다.</w>
얘기 한</w>
상임 선거대책
bo ard
떨어 지고</w>
개최 를</w>
공감 해요</w>
메시 지는</w>
제주 도</w>
}]}]},01D5E 6F
분노 가</w>
등장 했다.</w>
일부 러</w>
적합 한</w>
해서 라도</w>
/20200 21
우수 한</w>
CD =
특검 을</w>
sec tion
협동 조합
뉴라이 트</w>
pan e
진선 미</w>
id=N IS
newsinfo @hankyung.com']</w>
( 대구</w>
- 10
2 기</w>
i i
t r
t bot
“ 정부가</w>
가 치는</w>
같 아서</w>
게 리
그 대로
기 쁘
대 입
때 를</w>
맞 서는</w>
빼 고
않 으면서</w>
양 이</w>
열 리
일 정한</w>
잇 단</w>
절 한</w>
점 수를</w>
준 다는</w>
차 기
차 적으로</w>
창 립</w>
천 안을</w>
체 납
최 전
펼 쳤다.</w>
표 밭
했 던
환 자를</w>
후 회
통합 신당</w>
인사 ,</w>
나라 에서</w>
청년 들을</w>
안철 수는</w>
40 %
주민 들</w>
발언 과</w>
공동 대표가</w>
돌아 가</w>
개발 이</w>
제시 할</w>
상임 위
행동 은</w>
하셨 던</w>
세우 기</w>
조국 의</w>
전화 로</w>
EB %
지나 면</w>
하루 가</w>
명예 훼손
태극 기부
흔들 리는</w>
예고 했다.</w>
엄청 나게</w>
이석 현</w>
~~ ~</w>
다행 히</w>
윤영 찬</w>
습니까? ◎</w>
표준 FM</w>
논설 위원
카메 라
공보국 ']</w>
2 인
4 ,</w>
4 개월
e daily
m tn
고 쳐
공 평
군 인</w>
깨 어
내 륙
당 부</w>
당 했다.</w>
믿 는</w>
밀 알
분 리</w>
서 .</w>
센 트
윤 여
이 신</w>
정 수
차 는</w>
파 기</w>
할 지는</w>
힘 들고</w>
서울 ,</w>
위원장 에게</w>
개혁 적</w>
종로 구에</w>
하나 ,</w>
.2 7</w>
문화 재
공관 위원장은</w>
사용 한</w>
거래 가</w>
박근혜 )
스러 워
사전 투표
포스 팅
강창 일</w>
응원합니다 이슈
여부 도</w>
협동 조합</w>
삼청 교육
원광 호</w>
" 우리</w>
0 .8
1 .4
3 번</w>
4 10
A 98
H ong
N O
_ ttb
광 양·
다 ?</w>
당 ’</w>
들 .</w>
떠 오르고</w>
말 았
무 사
무 척</w>
발 동
베 스트
서 둘러</w>
성 한</w>
않 나
어 제는</w>
영 월
왔 고,</w>
원 조</w>
응 원</w>
제 약</w>
줄 기
청 구</w>
패 키
in che
19 3
한국당 과의</w>
10 7
출마 와</w>
정당 성을</w>
관계 자
선언 으로</w>
13 8
활동 과</w>
사무 처</w>
사진 이</w>
행정 관,</w>
여성 은</w>
%) 은</w>
마련 했다.</w>
선택 의</w>
다’ ,</w>
인천 국제
.6 %),</w>
도입 에</w>
확정 됐다.</w>
경북 도
방향 과</w>
가치 에</w>
동의 하지</w>
실망 을</w>
연락 을</w>
기대한 다”고</w>
JT BC
납득 할</w>
twit tbot
CF0B 000000B
네거 티브</w>
shm &amp;sid1=100&amp;oid=
비피 유
twittbot .net</w>
' 이다.</w>
4 선을</w>
~ !</w>
검 은</w>
고 무
기 회에</w>
낙 천
내 어</w>
돌 릴</w>
두 번째
말 만</w>
멘 트
변 하지</w>
불 안</w>
붙 어</w>
빚 은</w>
뽑 은</w>
사 흘</w>
선 의의</w>
안 병
없 는
열 정을</w>
이 보다</w>
절 감
접 전</w>
조 배
줄 었다.</w>
쳐 다
층 과</w>
틀 림
포 기</w>
합 산
해 상
자유 선진
총선 서</w>
총선 에서의</w>
14 대</w>
news .chosun.com/site/data/html_dir/2020
는데 요,</w>
일본 ,</w>
여러분 들</w>
개정 법률
대변인 도</w>
유권 자를</w>
아이 들</w>
발생 하지</w>
받았 다</w>
센터 가</w>
니까 ,</w>
유튜 버
선출 을</w>
여기 저
밝혔다. 이</w>
호소 하고</w>
기다 려
EE 12
동남 권</w>
부천 시</w>
롯데 그룹</w>
(A S
·무 ·
선제 적으로</w>
01D5D70A EE12
초당 적</w>
컨벤 션
7 페이지</w>
B D
[ 충북
“ 지난해</w>
가 하는</w>
넘 었다.</w>
눈 앞에</w>
다 '고</w>
단 어가</w>
대 망
던 지는</w>
떠 나서</w>
매 달</w>
방 울
백 혜
사 들이</w>
선 인</w>
손 석
억 제
을 ...</w>
이 거
일 련의</w>
입 사
자 치</w>
자 ’</w>
재 정을</w>
정 용기</w>
제 외</w>
지 진
취 할</w>
토 요일</w>
팀 은</w>
하 더
선거 사
국민 들도</w>
19 89
우리 당</w>
12 00
평가 하는</w>
산업 에</w>
보도 한</w>
나가 면</w>
하였 으며</w>
외국 인
E9 A
판결 에</w>
지시 한</w>
조금 만</w>
바로 가기
해주시 길</w>
동작 을</w>
칼럼 을</w>
사법농 단</w>
S ho
“ 한</w>
강 조</w>
격 으로</w>
공 로
금 할</w>
김 삼
난 을</w>
남 기고</w>
놓 여
돌 린</w>
민 은</w>
박 승
반 하
반 면에</w>
불 가</w>
열 세
음 성</w>
의 결</w>
인 위
정 읍
조 혜
짧 게</w>
칙 을</w>
태 도가</w>
헬 기</w>
검찰 에서</w>
비판 하며</w>
준비 한</w>
도시 형
법무 부는</w>
이뤄 내
비롯 하여</w>
자동 응답
반응 은</w>
전통 적으로</w>
일정 은</w>
요? ◎</w>
프로젝 트를</w>
새정치민주연합 은</w>
실정 이다.</w>
당헌 ·
) 한</w>
“ 한국당이</w>
개 시
계 기를</w>
끝 내
독 도</w>
되 찾
배 현
백 성
부 회장
비 롯</w>
빛 을</w>
산 청
상 기
소 규모</w>
순 위
십 자
알 릴레
없 다’는</w>
역 전
인 력을</w>
장 경
적 이었다.</w>
진 박</w>
처 가</w>
천 주
최 장수</w>
하 다”는</w>
호 소</w>
회 사가</w>
흔 들고</w>
가능 합니다.</w>
200 5
정권 심판론
최고 위</w>
대구 시</w>
무엇 인가.</w>
민생 경제</w>
제공 한</w>
상당 수가</w>
이종 걸
시절 을</w>
CF 000001
감독 은</w>
2020.0 3.0
총선기획 단은</w>
무능 과</w>
탈락 한</w>
머물 러</w>
박용 진</w>
콘서 트</w>
정춘 숙</w>
국정기획 상황
3 %
3 일
9 ,id:</w>
E 35
F ,si:</w>
K O
갈 등으로</w>
과 태
그 린</w>
넘 쳐
동 )</w>
동 향</w>
될 까</w>
등 락
딸 이</w>
면 은</w>
본 ,</w>
부 디</w>
부 회장은</w>
사 안이</w>
선 점
세 ·
약 식
양 육
없 다,</w>
연 평
연 하게</w>
예 술</w>
을 ’</w>
의 정</w>
인 포
있 는가?</w>
제 9
좌 천
지 성
풀 어야</w>
할 지,</w>
해 방</w>
했 다”면서</w>
호 주</w>
회 장으로</w>
생각 보다</w>
01D5E 53
대한 항공</w>
11 1
30 대(
&gt; 는</w>
필요 는</w>
시작 했습니다.</w>
등록 하고</w>
목소 리에</w>
복지 국가
사법 부</w>
.7 %
it y:</w>
주목 받고</w>
헌법 적</w>
적용 되는</w>
소비 자</w>
민주화 운동을</w>
번호 를</w>
안팎 에서는</w>
s/ ?
테러 방지
국가안보 실</w>
ms n
미지수 다.</w>
변조 금지,</w>
5 26
F 00000000
가 맹
국 면을</w>
높 여</w>
론 ,</w>
론 스타
무 선
미 로</w>
배 영
법 '</w>
보 십니까?</w>
부 속
부 평</w>
새 정치</w>
엘 리트
왜 관
윤 후
의 정부</w>
의 도를</w>
작 곡
작 전</w>
적 반하
전 담</w>
정 교
출 판</w>
한 민
해 볼
국민 회의</w>
201 4
아니 에
들어 가서</w>
17 0
50 대
중앙 당사에서</w>
노동 자들이</w>
자리 에는</w>
경쟁 하는</w>
DA CD
보인 다고</w>
.5 %
어렵 습니다.</w>
시대 는</w>
기본 소득</w>
있다 ”</w>
조국 은</w>
기울 이고</w>
나머 지는</w>
예고 하고</w>
너무 도</w>
수익 을</w>
평론 가는</w>
01D5D4EB 646
01D5D4EB646 DACD
( http://www.
) ,
E 00000
E 7B
F D
f y
g e
‘ 미
강 한
강 하다.</w>
고 대
공 교
국 적</w>
덕 분
도 .</w>
모 아야</w>
버 릴</w>
범 보수</w>
법 원에</w>
빠 졌다.</w>
소 와</w>
수 학
심 의를</w>
아 젠
안 경
오 찬</w>
의 령
이 나마</w>
자 라
장 에는</w>
크 로
퍼 부
화 두
20 0</w>
국민 도</w>
뉴스 가</w>
정의 가</w>
회의 실
자유한국당 에서는</w>
단체 를</w>
대선 의</w>
선택 하는</w>
우려 했다.</w>
지지율 로</w>
심판 하고</w>
사법 연수원</w>
움직 일</w>
비서관 실</w>
하루 도</w>
kyung hyang
연령 을</w>
ec on
인식 하고</w>
패배 를</w>
65 세</w>
예고 한</w>
하여 튼</w>
이런 저런</w>
직후 인</w>
반환 점을</w>
% EB%
0 .1
[ 인터뷰]</w>
격 상
권 도</w>
권 리가</w>
급 부상
김 천
깨 고</w>
달 기</w>
레 임
론 ’을</w>
먹 거리</w>
목 요
몸 에</w>
본 래</w>
뿌 리를</w>
숙 여</w>
승 인을</w>
신 속</w>
싸 워</w>
예 견
원 장의</w>
이 에서</w>
이 외에</w>
장 외</w>
전 순
전 해</w>
정 리를</w>
참 사
청 산을</w>
타 이틀
통 행
팀 을</w>
패 트</w>
환 호
후 손
000000 6
한국당 에선</w>
10 :
지지 는</w>
때문 으로</w>
비례 의석을</w>
사회 ·
30 여
연구 를</w>
대한민국 ,</w>
주의 는</w>
40 대(
말씀 드린다.</w>
공약 과</w>
안전 보장
느냐 에</w>
의혹 으로</w>
어렵 지</w>
세대 에</w>
학교 에서</w>
토론 이</w>
사랑 하고</w>
없었 다고</w>
선거법 ,</w>
창당 대회를</w>
설치 된</w>
거래 를</w>
view .
광역 교통
성남 시
최근 의</w>
이낙연 ,</w>
노무현 의</w>
낙선 한</w>
su e
바닥 을</w>
공보 실']</w>
조경 태
제재 를</w>
네트워크 를</w>
we et
김선 동</w>
스타트 업</w>
권성 동</w>
01D5D70BFDAAF7 F000000F
장제 원</w>
그래픽 =
( source
) 보다</w>
1 년에</w>
1 분기</w>
2 개월</w>
C ,bf:</w>
M B</w>
b and
“ 특히</w>
건 네
것 은,</w>
공 장을</w>
국 면에</w>
낙 선</w>
단 장으로</w>
대 승
도 로를</w>
부 시</w>
상 ·
알 기</w>
없 음을</w>
우 기
원 도심
이 분
일 ”이라고</w>
있 다’고</w>
장 인
전 일</w>
주 어</w>
차 이</w>
최 승
추 출
콜 롬
황 춘
힘 입어</w>
국회 도</w>
생각 한다</w>
했다. 그는</w>
선언 은</w>
특별 수사
rea le
ae il
정상 회의</w>
현실 로</w>
중국 발</w>
확대 와</w>
전문가 가</w>
헌법 소
국토 부
4.1 3</w>
압박 을</w>
감안 해</w>
연루 된</w>
http://www .p
(source )</w>
# 충주
- 재배포</w>
2 조
4 시</w>
9 시
L T
a t</w>
a .com/
l o</w>
가 하고</w>
강 연을</w>
거 머
금 주</w>
네 요.
다 중
되 면,</w>
뜨 겁게</w>
보 성
부 시장은</w>
불 쾌
삼 석</w>
서 로의</w>
아 의</w>
안 주
여 가
오 디
외 상
의 심</w>
이 근
임 대</w>
임 할</w>
입 지가</w>
재 적</w>
주 된</w>
주 십시오
줄 일</w>
지 주
진 양
트 램</w>
특 유의</w>
현 주</w>
현 금</w>
01 .16</w>
201 3</w>
생각 합니다.
지지 세가</w>
11 시
운동 ,</w>
우려 에</w>
기록 하며</w>
성장 할</w>
있으 나,</w>
사이 버</w>
분열 로</w>
홍보 물</w>
김용 균
받아들 이지</w>
단식 투쟁을</w>
호소 하는</w>
41 E
증거 를</w>
생태 계</w>
채널 을</w>
중앙일보 ]</w>
박해 광</w>
성한 용</w>
러브 콜
# 전남
( 가운데
2 대</w>
F 24
“ 국민</w>
갔 습니다.</w>
강 정
공 정을</w>
공 사의</w>
공 조를</w>
구 원
구 청</w>
규 제로</w>
극 에</w>
급 행
농 성
도 리가</w>
바 에</w>
방 안은</w>
사 안을</w>
수 색
신 흥
실 력
실 히</w>
요 소가</w>
우 러
의 전
이 나,</w>
자 매
장 비
저 출산
전 하고</w>
주 년
할 지도</w>
혁 명,</w>
혼 신의</w>
201 2년
19 70
예정 돼</w>
il i
해주 셔서</w>
비롯 해서</w>
31 000000
확보 하기</w>
스스 로가</w>
공무 원이</w>
2, 000
개최 된</w>
전체 에</w>
공유 하는</w>
일어 나</w>
유권자 에게</w>
시각 도</w>
배경 에</w>
이냐 ,</w>
2F 41E
바이오 ,</w>
검색 어</w>
SOMI A</w>
협약 을</w>
대한애국 당</w>
010 -
긴밀 한</w>
A0 31000000
휴대 폰
01D5C5EF F24
01D5C5EFF24 A031000000
1 회</w>
6 선</w>
@ kyunghyang
G S
e e
m et
n t
개 요</w>
경 부
공 제</w>
구 치
넣 고</w>
다 각
다 다.</w>
도 발</w>
딸 의</w>
리 에서</w>
막 말을</w>
무 분별
본 선에</w>
상 담</w>
수 뇌
승 리는</w>
안 돼</w>
얼 어
우 여
위 키
잠 수
정 서
정 수를</w>
직 원이</w>
폐 쇄</w>
해 체</w>
화 해</w>
20 23
나라 로</w>
rea d</w>
부분 이다.</w>
전망 이다.
돌아 올</w>
대선 과</w>
심판 의</w>
수준 인</w>
자체 로</w>
재판 이</w>
일( 목)</w>
57 C
사례 는</w>
고양 시
뛰어 넘는</w>
권한 이</w>
안건 으로</w>
전통 적</w>
이철 우</w>
신경 을</w>
모델 을</w>
단독 으로</w>
취임 한</w>
년생 .</w>
이례 적으로</w>
pre ss
&amp;type=1&amp;rankingSectionId=100&amp;rankingSeq =
5ED E000000
헤럴 드
( 35
1 개</w>
1 .3
2 부</w>
c ur
“ 그러나</w>
강 훈
같 다.\xa0&lt;
결 국
권 택
기 류
는 지는</w>
당 과의</w>
대 략</w>
동 결
되 고
망 한</w>
무 한</w>
본 연의</w>
비 서</w>
사 설</w>
서 슴
시 점이</w>
실 력을</w>
영 구
이 스타
적 시
주 광
짝 이</w>
철 ,</w>
총 사퇴
텐 데,</w>
틀 에서</w>
학 사</w>
현 )
21 세기</w>
15 :
11 4
발표 하면서</w>
협의 해</w>
진보 정당</w>
해결 해</w>
기관 과</w>
도전 한다.</w>
아닌 데</w>
방식 이다.</w>
반영 될</w>
영역 에서</w>
검사 와</w>
김현 정의</w>
이른 다.</w>
장기 적으로</w>
보궐 선거를</w>
무소속 )</w>
지급 하는</w>
돌입 한</w>
근본 적</w>
시청 에서</w>
내세우 며</w>
황현 희</w>
서귀 포
2F41E 57
' 문재인</w>
( I
( 웃음
3 위를</w>
5 시</w>
A E
F -
가 겠다는</w>
개 에</w>
거 지</w>
검 정
교 부
남 성이</w>
둘 이</w>
라 고도</w>
마 중
많 아서</w>
백 재
버 리지</w>
압 축
앞 줄</w>
오 동
외 곽
유 대
인 내
일 찍
중 입니다.</w>
탄 도
탈 바
특 임
펀 치
펼 쳐</w>
표 현</w>
휴 가를</w>
다” ,</w>
다” 라는</w>
정부 에서는</w>
국회의원 후보</w>
시작 될</w>
기업 인)</w>
책임 과</w>
선거구 에서는</w>
%) 는</w>
il e</w>
전국 적인</w>
현실 적</w>
법안 들이</w>
강화 해</w>
조선 의</w>
90 일</w>
보호 법</w>
증가 했다.</w>
보궐 선거에</w>
아닙 니까
보유 세</w>
아래 의</w>
마포 갑</w>
훼손 하는</w>
나름 의</w>
#용산 _
악수 하고</w>
종부 세</w>
joins .com/
만장 일
내로 남
' '
E R
K T</w>
결 렬
계 류
그 친</w>
기 강
김 규
농 업</w>
동 포</w>
먹 거리
명 함</w>
성 숙
소 문
소 문이</w>
스 탄
쏠 린다.</w>
유 민
이 소
일 더불어민주당</w>
임 은</w>
좋 겠다고</w>
첨 부</w>
하 되,</w>
다. 이</w>
20 여</w>
정책 도</w>
교육 은</w>
24 6
당선 자를</w>
관심 도</w>
통과 에</w>
감사 합니다</w>
수석 의</w>
환경 에</w>
.4 %),</w>
내려 야</w>
없었 다는</w>
한미 일</w>
자한 당이</w>
서민 들의</w>
안녕하 세요
전진 당</w>
직원 들이</w>
총재 는</w>
본인 도</w>
01D5E7 A8E
미· 중</w>
싸워 야</w>
인턴 기자][ⓒ</w>
inp ut
박광 온</w>
역세 권</w>
ilyo seoul
물꼬 를</w>
Sho w</w>
+ 3</w>
. “
. )</w>
5 6C
7 개월</w>
a ,</w>
i te
k han
강 승
것 일</w>
국 도</w>
는 ...</w>
대 가로</w>
동 창
되 나</w>
마 는</w>
머 릿
반 ()
비 하면</w>
식 품</w>
안 민
약 자를</w>
여 건
원 혜
원 천</w>
원 포인트</w>
유 용
의 심을</w>
장 사
전 현
정 비</w>
지 시</w>
책 에</w>
철 원
첫 번째</w>
출 사표</w>
치 밀
팔 을</w>
하 며
홍 사
출마 한다.</w>
생각 한</w>
국회의원 인</w>
16 개</w>
국무 회의를</w>
정치인 ,</w>
세종 =
경쟁 력
여성 ·
영입 인사</w>
.9 %
천안 갑</w>
뛰어 든</w>
위험 이</w>
자금 이</w>
대부분 은</w>
(2 명)</w>
투입 해</w>
법조 인</w>
물러나 야</w>
해운 대
박병 석</w>
토로 했다.</w>
세종문화 회관</w>
윤관 석</w>
pho to
우여 곡
6 만
8 29
c ut
간 첩
거 에</w>
공 연</w>
날 씨
날 로</w>
늘 려</w>
더 더욱</w>
된 다.\xa0
드 림
막 이</w>
모 은</w>
문 일
백 색
변 질
사 내
서 로를</w>
야 간</w>
위 한
이 덕
이 탈</w>
조 로</w>
조 원을</w>
종 이</w>
파 티
편 법
편 파
형 의</w>
확 률이</w>
의원 으로서</w>
정치 도</w>
총선 (
출마 ,</w>
&gt; 의</w>
인사 들도</w>
중앙 당
청년 들은</w>
하나 만</w>
예산 의</w>
확대 간부
다가 오고</w>
th read</w>
:0 5</w>
야당 도</w>
넘어 갈</w>
@han mail
코로나19 의</w>
우선 적으로</w>
그룹 은</w>
창원 성산
임대 료</w>
리서 치</w>
표결 을</w>
배출 한</w>
당내 에서는</w>
고위공직자범죄수사 처</w>
세워 야</w>
낮추 는</w>
영원 한</w>
터미 널</w>
스튜 디오
군사정보보호협정(GSOMIA ·
01D5E6C7838 CF0B000000B
( H
( 대표</w>
2 회</w>
[ 정치
‘ 4+1</w>
가 칭</w>
갔 던</w>
강 신
경 력이</w>
금 리를</w>
금 요일</w>
급 하게</w>
꾸 려
끊 어
동 영상을</w>
매 력
메 리
민 폐
부 실</w>
비 트
송 기
수 련
오 면서</w>
장 소를</w>
젊 음
좋 고</w>
주 었다.</w>
충 주</w>
평 했다.</w>
하 동
하 위
한 심
할 만한</w>
합 법적</w>
해 져</w>
현 ·
혜 선</w>
황 주
on ews
생각 한다.\xa0
상황 도</w>
인사 도</w>
혁신 ,</w>
지금 이</w>
지금 과</w>
전망 ,</w>
진보 적</w>
대응 전략</w>
있어 ,</w>
희망 과</w>
김종 인
연대 ,</w>
혐의 에</w>
계속 될</w>
민심 에</w>
필리 핀</w>
비용 은</w>
여권 에</w>
불편 을</w>
하느냐 에</w>
투명 하게</w>
펼쳐 질</w>
재생 에너지</w>
부지 런
디자 이
단수 추천
반문 했다.</w>
com ment
권혁 기</w>
/12 /
로텐더 홀에서</w>
aka o
1 시</w>
3 인
3 만</w>
6 ,bf:</w>
E 3
F AB
경 유
관 저
넘 어야</w>
당 국</w>
면 담을</w>
바 보
불 사
빠 질</w>
사 드
상 생</w>
서 로
신 중한</w>
알 바
앞 의</w>
억 지로</w>
일 지</w>
자 :</w>
질 서
컴 터</w>
험 난
화 답
정당 이나</w>
그러 고</w>
시간 과</w>
-0 5</w>
연합뉴스 -->
(6 8
현재 로선</w>
바꾸 기</w>
활용 하는</w>
9F 8
번째 ,</w>
동의 할</w>
일각 의</w>
EE E000000
패배 한</w>
종료 를</w>
당신 의</w>
컷오프 (
격전 지로</w>
누군 가</w>
진상 조사
세훈 의</w>
억울 한</w>
선제 적</w>
자존 심을</w>
황현 희\xa0&gt;\xa0
정부세종 청사에서</w>
EN -
01D5B6CD4F67 EEE000000
01D5E6 FB81B4B0A000000F
오랜 만에</w>
( W
2 년을</w>
3 30
5 선의</w>
D ,ch:</w>
E 8A
L A
m ar
s ky
가 끔</w>
계 셨
구 매</w>
군 인
길 게</w>
더 링
덕 양
만 남을</w>
맡 기
명 씩</w>
문 체
반 영</w>
병 으로</w>
봅 니다.
불 황
빠 르
설 과</w>
쉬 는</w>
싶 었
안 돼
연 이</w>
왜 ?</w>
의 에</w>
주 호
총 장과</w>
침 몰
테 니</w>
편 으로</w>
의원 :</w>
201 0</w>
총선 도</w>
경제 민주화
중앙 회</w>
혁신 안</w>
사진 :
사진 기자단
탄핵 은</w>
정신 에</w>
바람 직한</w>
전달 할</w>
프레 시
희생 자</w>
코스 닥</w>
안양 시</w>
끝나 지</w>
경상 북도</w>
직권 남용</w>
김봉 교</w>
본질 은</w>
(? )</w>
걸림 돌
마이너 스</w>
# 415
3 ,</w>
F 6A
P O
y /
’ 까지</w>
“ 조</w>
간 판</w>
갖 지</w>
거 점</w>
군 산</w>
두 번째</w>
모 래
무 선</w>
보 단</w>
본 질을</w>
상 정을</w>
소 녀
수 일</w>
어 머
어 처
오 기
이 채
이 견을</w>
적 당
정 략
제 이
짐 을</w>
청 장이</w>
초 중
최 태
치 매
캐 스
타 개
해 고
해 라
협 회
환 승
황 영
다” (
경제 정당
뉴스 쇼
보수 진영</w>
바른 정당
2019 .11
발전 이</w>
있다. ']</w>
https:// m.
경우 를</w>
대전 시당</w>
지지율 에</w>
중국 ,</w>
달라 .</w>
문재인 정부의</w>
전체 회의에서</w>
현대 차</w>
7F 0E
내세 울</w>
혼란 이</w>
김명 수</w>
195 m</w>
주체 가</w>
원본 :</w>
오피 스
par k
박인 숙</w>
Click ○</w>
한국네티즌본부 .</w>
3 파
J u
n g
거 둔</w>
금 수
꼼 수를</w>
담 겨
돕 기</w>
무 겁
반 의</w>
발 송</w>
배 재
법 관
복 원</w>
불 렀
순 서
애 플
없 습니다.
에 까지</w>
역 풍을</w>
울 타
을 에는</w>
잇 따른</w>
잡 혀</w>
장 세
증 거</w>
집 필
최 현
포 스트
하 게도</w>
협 정을</w>
\' 으로</w>
민주 노동당</w>
ar ti
12 9
11 :
선언 과</w>
수사 ,</w>
.com |</w>
발표 했다.
주장 했다</w>
당선 되는</w>
않았 기</w>
경쟁 에서</w>
DA 6A
기획 단</w>
합의 안을</w>
38 6</w>
구성 되어</w>
드러 내고</w>
정신 과</w>
공관 위의</w>
소속 인</w>
보좌 관,</w>
거래 량
경기도 의회</w>
작성 된</w>
선거사무 소에서</w>
출판기념 회
발견 된</w>
광화문 에서</w>
EA E8A
sis .com|</w>
0E 0000000
김미 희</w>
부합 하는</w>
New sis.com|</w>
송병 기</w>
news1 .kr</w>
lang= EN-
DA6A 0E0000000
lang=EN- US</w>
( 왼쪽</w>
B ,bf:</w>
s -
같 다"고</w>
국 장은</w>
들 한테</w>
띄 는</w>
매 월</w>
모 델</w>
베 네
삭 제</w>
상 한</w>
시 점을</w>
신 창
오 죽
오 게</w>
울 진
이 겠
작 가
진 료</w>
카 타
팀 장</w>
했 으
허 브
교육 대학원</w>
결과 와</w>
추진 ,</w>
2019 0
문화 ·
협의 가</w>
법안 도</w>
보여 주지</w>
방문 하는</w>
조정 이</w>
도입 된</w>
전문가 인</w>
33 37
보좌 진</w>
치러 야</w>
이익 으로</w>
95 %
더라 고
무상급 식
차례 나</w>
당신 은</w>
일방 적인</w>
벗어 난</w>
합동 연설
가산 점</w>
십니까 ?\xa0
혁통 위</w>
소득주도 성장</w>
생기 면</w>
법제사법 위원회</w>
정치외교 학과</w>
탄력근로 제</w>
2 F8
a -
결 단이</w>
공 기업</w>
교 인</w>
그 들에게</w>
그 간의</w>
극 복</w>
눈 물</w>
리 고,</w>
무 대에</w>
밑 에</w>
반 값
부 시장</w>
서 정
시 국
울 주
최 혜영</w>
투 를</w>
판 세를</w>
편 성</w>
프 라
하 향</w>
합 치면</w>
했 지</w>
헤 아
미래 한국당이</w>
때문 ”이라고</w>
15 년</w>
회의 실</w>
공천 심사</w>
news _
하나 ?</w>
교수 ),</w>
일본 에서</w>
않았 다”고</w>
전국 적</w>
이사 장을</w>
말했다. 이어</w>
피해 자
제기 되는</w>
(4 1
한나라 당의</w>
6C F
나왔 던</w>
-2 2</w>
단계 에</w>
흔들 리고</w>
수요 를</w>
유력 하다.</w>
점검 하고</w>
흐름 에</w>
전라 남도</w>
구로 을</w>
일방 적</w>
.kr/ article
무당 층</w>
탄생 한</w>
압수수색 을</w>
후폭 풍
각계 각
( ...)</w>
2 ]</w>
3 자</w>
4 6</w>
C 7
G SOMIA</w>
p im
가 는데</w>
걸 었다.</w>
공 원에서</w>
권 미
남 발
노 하우
달 렸
대 성
대 접
대 회가</w>
되 새
맡 길</w>
명 실상
무 효</w>
범 진보</w>
법 대</w>
변 신
선 두
스 킨
시 계
영 천
영 어</w>
오 후에</w>
위 하는</w>
위 주의</w>
이 들도</w>
일 문일
있 긴</w>
저 축
조 리</w>
좀 더</w>
틀 어
평 동</w>
품 이</w>
향 상을</w>
헬 스케
환 자는</w>
회 계</w>
대표 들이</w>
민주당 ·
우리 나라를</w>
사실 로</w>
사실 상의</w>
.... ..</w>
여론 에</w>
교수 (
평화 통일
부분 에서</w>
북한 에서</w>
https:// news.
세대 교체를</w>
인재 들이</w>
학생 들을</w>
소득 을</w>
받았 지만</w>
80 년대</w>
집중 할</w>
심상 정
심상 치</w>
받아들 이고</w>
방역 에</w>
AB 5
은행 의</w>
등장 하는</w>
싸우 지</w>
궁금 한</w>
인사청문 회를</w>
프랑 스
규탄 대회
신중 하게</w>
변수 다.</w>
커뮤니 티</w>
당규 에</w>
쓰레 기
컨설 팅</w>
최우선 으로</w>
01D5AFBDA105 F6A
조오 섭</w>
밀알 이</w>
7 88
V I
겠 습니다!</w>
끼 고</w>
농 가
높 았
누 적</w>
들 이는</w>
뜨 겁
마 당에</w>
말 하지</w>
매 수</w>
목 격
받 던</w>
여 섯</w>
염 동
유 종
일 조
전 통</w>
줘 서</w>
최 문
코 미디
평 이</w>
학 년
통합 하는</w>
지지 하고</w>
시장 경제</w>
200 8</w>
관련 해서도</w>
27 4000001
[' -->
그렇 게
.2 9</w>
느냐 .</w>
2016 .0
5D 274000001
경남 지사</w>
사랑 채</w>
김현 종</w>
57 C6E
}]}]},01D5E 14
늘어 났
집행 을</w>
높아 진</w>
용인 병</w>
득표율 은</w>
자격 으로</w>
회원 들이</w>
에이 블
지냈 던</w>
않은 가.</w>
간접 적으로</w>
B9 3337
01D5B898 57C6E
font-family:바탕 ;mso-
RQ A
2F8 5D274000001
.kr/article s/?
B93337 D3000000
01D5B89857C6E 51
_ art
’ 이라</w>
겁 니다.\xa0
국 보
까 진</w>
꺼 내</w>
늦 어
다 \고</w>
못 하면서</w>
물 과</w>
배 터리</w>
신 산업</w>
여 지를</w>
은 커녕</w>
이 홍
전 념
전 액</w>
조 화
중 을</w>
철 학과</w>
태 영
해 낼</w>
의원 들에</w>
시장 에게</w>
원내 대변인은</w>
&gt; 와</w>
시키 겠다는</w>
선택 은</w>
우려 는</w>
김영 란
학생 을</w>
원칙 으로</w>
전달 하고</w>
서민 의</w>
(1 )</w>
01D5C5 EB
지검 장</w>
외면 한</w>
김동 철</w>
과반 수</w>
공모 를</w>
노회 찬
간사 인</w>
오만 과</w>
예산결산 특별위원회</w>
( N
j h
같 았다.</w>
걸 렸다.</w>
고 지를</w>
귀 성
근 본</w>
더 블
동 계
량 한</w>
매 체</w>
무 을</w>
법 ’을</w>
불 복
붙 여
상 회
상 향</w>
성 일
시 내</w>
연 상
열 고,</w>
완 화를</w>
왔 다.
용 지</w>
으 려면</w>
주 자들이</w>
찍 을</w>
총 선거를</w>
칠 곡</w>
투 자가</w>
팽 개
함 에도</w>
향 우회</w>
허 물고</w>
후 반</w>
지지 하지</w>
do ?
관계 자들은</w>
관리 가</w>
000001 6
청와대 ,</w>
예산 과</w>
인천 광역시</w>
노력 해야</w>
시대 ,</w>
성장 률</w>
촉구 했다.
협상 에서</w>
제주 일보</w>
실현 할</w>
서구 갑</w>
수도권 과</w>
lef t:</w>
01D5C5 EC
총선기획 단
mi b
강경 한</w>
광화문 광장에서</w>
01D5DA 6C
그만 두
대외 비</w>
imag e
블랙 리스트
정종 섭</w>
면밀 히</w>
time s
( #
2 21
4 ,bf:</w>
6 대</w>
6 7</w>
\ }]}]},
강 변
강 준
교 두
노 트
높 고</w>
단 속</w>
대 란
돌 입</w>
러 ,</w>
리 학
미 터
설 에</w>
시 갑
시 도를</w>
업 그레이
여 건을</w>
연 습
있 는데도</w>
저 장
절 충
좋 겠다”고</w>
찍 는</w>
파 인
패 싱
하 수
화 면</w>
민주 시민
대표 성을</w>
한국 경제
선거 에서도</w>
후보 자와</w>
국민 으로부터</w>
10 :00</w>
12 년</w>
있었 다”고</w>
시간 도</w>
않았 지만,</w>
복지 국가</w>
심판 할</w>
반대 의</w>
.8 %
적용 해</w>
자세 가</w>
보건 소</w>
내놓 는</w>
사례 로</w>
시절 의</w>
이루어 질</w>
보기 에는</w>
직접 적으로</w>
안양 동안
정책위 의장</w>
6· 13</w>
02.1 7</w>
갑· 을</w>
1980 년대</w>
부적 격</w>
윤곽 이</w>
politic s/
이찬 열</w>
yon hap
# 2020총선</w>
- 30</w>
1 석</w>
2 ,ch:</w>
6 D5
7 49
D 0
E ,si:</w>
J P
h me
h um
n ormal
· 곡
관 세
김 웅</w>
나 갔다.</w>
나 주·
는 _
다 졌다.</w>
뒤 에도</w>
등 재
라 운
모 닝
무 용
배 수
병 립
부 서
사 육
선 심
숙 명
신 수용</w>
유 입</w>
을 과</w>
자 ”고</w>
접 전
준 엄한</w>
중 으로</w>
지 자체가</w>
커 졌다.</w>
테 인
하 곤</w>
하 는가?</w>
해 하는</w>
해 보고</w>
협 치를</w>
홍 일
회 수
희 의</w>
선거 제도를</w>
국회 에서도</w>
국민 소환
경제 =
사람 에</w>
것이 었
27 F8
비판 은</w>
이해 하기</w>
전략 적으로</w>
말씀 드리고</w>
당선 돼</w>
예산 에</w>
일본 과의</w>
대변인 으로</w>
해결 책을</w>
대응 하기</w>
탄핵 으로</w>
이사 장의</w>
친박 (친
임명 한</w>
보좌 진
제외 하면</w>
전달 한</w>
서울시 립
민중 당은</w>
시설 에</w>
시설 과</w>
좌파 독재</w>
이념 을</w>
이념 적</w>
정체 성</w>
진실 한</w>
타협 의</w>
게임 의</w>
발휘 할</w>
대신 해</w>
비중 은</w>
삭제 하기</w>
https://news.naver.com//main/ranking/read.nhn?rankingType=popular_day&amp;oid= 0
인스타그 램</w>
안규 백</w>
reale stat
' 이란</w>
( 민주당</w>
( 민주통합
2 명의</w>
5 개
6 ,si:</w>
B 6CF
가 나
공 단
다 하는</w>
단 위
마 리</w>
메 뉴
면 한</w>
못 했다고</w>
방 은</w>
방 점을</w>
보 육</w>
소 년
식 사
실 체
어 필
웃 음을</w>
유 관
출 을</w>
풀 이</w>
품 격</w>
하 를</w>
출마 하게</w>
예비 역</w>
우리 당의</w>
18 대
14 :00</w>
것이 나</w>
www. han
연구 회</w>
주민 투표</w>
국무총리 도</w>
최고위원 과</w>
분석 됐다.</w>
대응 해</w>
영입 에</w>
79 B6CF
모르 게</w>
잘못 하고</w>
AC EF
설치 ,</w>
09 :
제주 시</w>
규제 와</w>
임시 회</w>
단계 적으로</w>
있다./ 김현민</w>
있는 ,</w>
행태 에</w>
01D5DFB 6D5
모른 다는</w>
총재 가</w>
상실 한</w>
font-size: 10
물리 적</w>
2020.01 .0
일으키 고</w>
2015-04 -19</w>
유감 스럽
D2 0000022
01D5D8DC0E 060
line- height
(새누리 )</w>
realestat e.daum.n
79B6CF 9000000
ACEF 2000000B
01D5DFB6D5 ACEF2000000B
01D5D8DC0E060 D20000022
4 4</w>
4 2</w>
7 D
? ◎</w>
± 4.4
‘ 국회</w>
감 동을</w>
거 취</w>
계 인</w>
계 에서는</w>
관 세</w>
구 글
구 요.</w>
금 방</w>
나 무</w>
대 두
돌 풍
동 력
드 에</w>
만 찬</w>
맞 이</w>
모 아서</w>
부 위원장
선 행
성 명</w>
숨 은</w>
실 천</w>
양 성</w>
없 어야</w>
외 압
우 롱
위 기는</w>
의 협</w>
잡 기에</w>
장 면을</w>
즈 를</w>
직 불
질 환</w>
촉 각을</w>
팔 아
평 생을</w>
풍 요
한 병도</w>
헌 혈
협 회장</w>
홍 의
국민 당</w>
01D5 27F8
통합 당
정책 연구원</w>
.1 0</w>
25 년</w>
활동 으로</w>
활동 하면서</w>
노동 자가</w>
대전 의</w>
심판 하는</w>
달라 "고</w>
발생 하고</w>
신청 자</w>
보좌 관을</w>
서울시 당</w>
주변 을</w>
현안 과</w>
je ong
장병 완</w>
터미 널
중도· 보수</w>
num ber
hme eng
# 선거
. 15
3 7</w>
? input
B 13
G M
c s
i .co.kr/
s a
걸 릴</w>
결 실을</w>
고 창</w>
관 (
근 대
끼 리
단 절
만 류
목 적은</w>
민 홍
민 원</w>
보 건</w>
생 애</w>
세 기
순 간에</w>
시 도가</w>
앞 을</w>
왕 이</w>
용 의</w>
인 용</w>
입 지
전 세대
정 준
주 제</w>
주 자는</w>
지 부</w>
지 출</w>
지 극히</w>
초 기에</w>
최 동
파 급
하 셔야</w>
한 달</w>
현 명
20 F
서울 현충
들어 가면</w>
필요 하면</w>
정치인 )</w>
준비 해야</w>
중심 을</w>
av er</w>
정도 에</w>
%) 에서는</w>
마련 이</w>
확인 하는</w>
부산 시
반대 가</w>
얘기 다.
안보 와</w>
하자 ”고</w>
계속 되는</w>
회담 이</w>
저작권 자(
검찰개혁 은</w>
흔들 리지</w>
주변 에서</w>
행태 가</w>
공간 으로</w>
당사 자</w>
01D5E9F 37CBBE0F000001
이명박 ·
진단 했다.</w>
2022 년까지</w>
내세우 고</w>
성실 하게</w>
******** ********
ou s</w>
아시아뉴스통신 =
( 부산</w>
/ 8
5 명의</w>
7 명이</w>
A 36
l n
t d
· 현</w>
” 라면서</w>
가 파
걸 렸
고 루</w>
교 류를</w>
그 토록</w>
급 변
김 포</w>
낳 고</w>
냐 ”고</w>
네 요.\xa0
던 져
동 대문</w>
며 칠
뭉 쳐야</w>
비 노</w>
속 도로</w>
실 세</w>
실 수요
아 산</w>
으 신</w>
이 군
차 단</w>
컴 터
키 울</w>
파 업을</w>
하 명</w>
학 부</w>
휴 가</w>
200 0</w>
() 은</w>
수사 하고</w>
혁신 위가</w>
주민 자치
산업 은</w>
중요 하
개정 안의</w>
구성 에</w>
강화 할</w>
제공 하고</w>
분명 하다.</w>
검사 ,</w>
비상 한</w>
일보 ]</w>
독립 을</w>
연결 에</w>
내부 에서도</w>
줄어 드는</w>
유력 하게</w>
올해 부터</w>
활성화 에</w>
사유 가</w>
서산 ·
위원회( 위원장</w>
검찰청 법</w>
허위 사실</w>
서대문 구</w>
*** 번
하명 수사</w>
민주평화당 +대안신당
RR RQA
동인천 역</w>
새천년 민주당</w>
김만 흠</w>
통진 당</w>
jmryu @asiae.co.kr</w>
윤준 병</w>
남선알 미
01D5B89857C6E51 000000
font-size:10 .0pt;</w>
' 인</w>
5 만</w>
6 %</w>
[ 기사</w>
j ae
k m</w>
“ 하지만</w>
☞ 원본:</w>
게 이
다 자
뜨 고</w>
맞 았다.</w>
명 이었다.</w>
미 친
양 쪽</w>
여 사가</w>
예 수
의 도로</w>
이 길
제 에서</w>
종 은</w>
지 내고</w>
펼 쳤
해 내
호 도
다. ”
한국 기독교
다” 며,</w>
201 3
아니 다”라며</w>
경제 자유
re e
사회 적으로</w>
필요 없이</w>
ch ang
.0 %),</w>
이어 지
이상 민</w>
중요 합니다.</w>
.2 %
문화 와</w>
단체 와</w>
안전 에</w>
하려 던</w>
여의 도에</w>
199 0년</w>
이사 회</w>
김정 일</w>
본부 장,</w>
찾아 볼</w>
일( 화)</w>
구조 적</w>
쇄신 의</w>
의무 가</w>
일반 적으로</w>
방안 으로</w>
기여 한</w>
자문 위원</w>
교과 서
(2 )</w>
[연합뉴스 ]</w>
시한 을</w>
체감 할</w>
김학 의</w>
페미니 즘
원활 한</w>
포커스 데일리
이득 을</w>
총영 사
저작권자( c
( L
9 35
` 이</w>
b /
“ 한국</w>
개 악
겠 다”는</w>
결 사
기 용</w>
낙 점
논 리가</w>
눈 물이</w>
리 더</w>
말 이
바 르
부 대변인</w>
분 한</w>
상 시</w>
석 인</w>
성 장,</w>
연 ,</w>
오 픈</w>
요 원
용 어
정 승
직 전에</w>
질 수록</w>
철 강
태 안</w>
특 징</w>
하 버
하 소
한 달
한국당 으로</w>
정당 도</w>
.k akao
17 :
것이 다,</w>
나라 다운</w>
기업 으로</w>
그래 서
연구 개발
지금 ,</w>
강조 하면서</w>
29 F00000000
느냐 고</w>
대선 이</w>
수석 ,</w>
인천 공항
무엇 인가?</w>
.3 %),</w>
의미 하는</w>
다음 주</w>
학생 의</w>
구미 의</w>
금융 감독
공관 에서</w>
권력 기관</w>
반영 할</w>
일자 리는</w>
제한 하는</w>
비난 하는</w>
수행 할</w>
안건 을</w>
정국 이</w>
당사 자인</w>
아래 로</w>
김해 영</w>
시험 을</w>
절반 이</w>
캠프 에서</w>
평론 가</w>
AR S
01D5E3D 8CA
남아 있는</w>
인근 에서</w>
2~ 3
그녀 의</w>
AS F</w>
어려움 에</w>
.as px
거야 .</w>
01D5E149E76 29F00000000
01D5E3E 79CFAF2A000001
자율주 행
RD D</w>
# 주
' 조국</w>
1 ]</w>
8 ,bf:</w>
‘ 친
결 의</w>
구 하는</w>
권 선
기 분</w>
난 다는</w>
당 론으로</w>
대 치</w>
대 의원</w>
두 렵
류 호
막 강한</w>
살 인</w>
상 태</w>
심 리가</w>
우 윤
우 체
인 류
인 원</w>
임 동
정 정당
최 신
케 미
콜 라
타 격
탓 이다.</w>
특 성을</w>
함 평
우리 와</w>
문제 인</w>
정의 의</w>
정의 당(
운동 가
◎\xa0 박지원
여성 과</w>
느냐 가</w>
외교 안보</w>
주도 로</w>
기념 사업
언급 하면서</w>
제기 하고</w>
(6 2·
사랑 과</w>
원칙 적으로</w>
찾아 가는</w>
협력 해</w>
전달 하는</w>
부터 의</w>
바뀌 었다.</w>
박근혜 를</w>
예측 이</w>
홈페이 지에</w>
나누 어</w>
01D5AD 8A
세종시 가</w>
3, 000
해주시 면</w>
창출 을</w>
기구 인</w>
기능 이</w>
미사 일을</w>
움직임 에</w>
김정은 이</w>
농어 촌
귀국 한</w>
거세 게</w>
cho i
스타트 업
바른미래당· 정의당·
특성 상</w>
과학기술정보통신 부</w>
amp; amp;
) 에게</w>
7 50
T N
감 ,</w>
고 초
고 흥
국 비</w>
끝 내고</w>
나 이에</w>
담 겼다.</w>
대 처</w>
데 리고</w>
보 디
봉 사를</w>
사 정을</w>
서 류</w>
선 당
셋 째
신 학
심 사가</w>
싶 다</w>
엄 정하게</w>
없 으며</w>
없 다”는</w>
재 개를</w>
최 창
터 뜨
하 느라</w>
현 상은</w>
\xa0 □</w>
in de
민주당 으로</w>
뉴스 =
보수 진영의</w>
혁신 위</w>
혁신 안을</w>
이었 으나</w>
예정 ”이라고</w>
말씀 드릴</w>
대상 이다.</w>
시키 겠습니다.</w>
협의 회를</w>
금지 하는</w>
공정 성을</w>
199 9년</w>
4· 19
의혹 은</w>
39 75
확보 해</w>
이재 오
주택 담보
사용 해</w>
추가 적인</w>
자료 가</w>
(4 3
건강 이</w>
sp ar
style= height:
되어 서는</w>
4. 3</w>
01D5B8A A7091767000001
아파트 가</w>
수수 료</w>
것인 지에</w>
이루어 진</w>
AF FF
의결 했다.</w>
오르 지</w>
시험 에</w>
의정부 을</w>
이겨 야</w>
뒤집 어
마땅 히</w>
조항 이</w>
http://news 1
성실 히</w>
정개 특
내걸 었다.</w>
도록 ,</w>
하노 이</w>
토착 왜
4 .3
8 8</w>
9 석,</w>
` 로</w>
“ 이미</w>
개 회
결 심한</w>
고 강도</w>
공 조</w>
굳 은</w>
김 을
끝 났다.</w>
내 년부터</w>
농 식품
다 스
달 랐
따 져</w>
럽 게</w>
망 언</w>
바 르게</w>
반 성과</w>
방 통
영 장을</w>
용 기
위 장</w>
주 한
주 식을</w>
중 원</w>
중 공업
진 원
차 관은</w>
클 리
터 무
하 한
이라 면서도</w>
다” 고도</w>
01D5E AB
14 :
결정 해야</w>
40 년</w>
이상 인</w>
.2 3</w>
노력 과</w>
기대 감을</w>
세대 와</w>
ig A
·· ··
수출 이</w>
함께 할</w>
실현 하는</w>
시사 했다.</w>
검찰총 장
개입 한</w>
설립 을</w>
분들 께서</w>
아래 는</w>
박주 현</w>
논쟁 이</w>
▲&lt; 조선</w>
멈추 고</w>
개방 형</w>
5F E000000
들어서 고</w>
컨설 팅
문화체육관광 부</w>
선봉 에</w>
01D5AD8C166B 5FE000000
도종 환</w>
1 부</w>
1 .8
1 위에</w>
5 G
ㅎ ㅎㅎ</w>
강 연</w>
계 기
구 성이</w>
그 로</w>
님 들의</w>
됐 다
드 로</w>
라 ”고</w>
막 혀</w>
만 원이</w>
물 의를</w>
믿 습니다.</w>
부 풀
사 의를</w>
산 의</w>
상 무</w>
서 지</w>
악 영향을</w>
억 압
에 나</w>
올 림</w>
윤 창
자 질
정 해</w>
조 화를</w>
좌 익
직 능
질 서의</w>
천 막을</w>
최 교
키 즈
태 평양</w>
이라 고
in ews
경제 계</w>
생각 합니다</w>
지지 도를</w>
관계 도</w>
http:// bit.ly/
참여 의</w>
그런 데,</w>
국무총리 로</w>
부분 들이</w>
되었 습니다</w>
경기 지사
선택 에</w>
예상 보다</w>
현실 화</w>
보도 된</w>
심판 론이</w>
공수처 법이</w>
제안 이</w>
기관 으로</w>
기록 하고</w>
이루 지</w>
본격 화</w>
제외 하고는</w>
서울시 의회</w>
검찰총 장은</w>
사라 지고</w>
찬성 하는</w>
감독 이</w>
새보수 당의</w>
누군 가는</w>
나타났 다.
여자 친구
캠페 인을</w>
A4 C
멈추 지</w>
그녀 는</w>
완벽 한</w>
곽노 현</w>
◎\xa0박지원 \xa0&gt;\xa0
( 중략
( 현)</w>
1 .7
1 년이</w>
8 0</w>
i on
강 대
갖 는다.</w>
경 은</w>
김 춘
난 장
노 벨
던 질</w>
드 렸다.</w>
딜 레
무 제한</w>
무 혐의</w>
보 조금
복 수의</w>
부 사
비 추
살 게</w>
살 아야</w>
석 사
석 도</w>
성 적</w>
세 이
셔 도</w>
수 단이</w>
실 체를</w>
아 다.</w>
이 개
인 하여</w>
일 째
임 기는</w>
있 고
자 사고</w>
정 동</w>
제 정을</w>
좌 지우
중 점</w>
지 ’</w>
지 킨</w>
지 고도</w>
처 로</w>
청 송
코 ,</w>
키 르기
태 블
텃 밭</w>
통 째로</w>
퇴 직</w>
특 사</w>
파 장이</w>
팩 트</w>
한 창</w>
할 인
할 까.</w>
했 거나</w>
민주 노동
대표 님</w>
선거 도</w>
정당 인
통합 으로</w>
지역구 도</w>
-0 7</w>
중요 하다는</w>
대책 으로</w>
돌아 와</w>
법안 으로</w>
심판 이</w>
영입 된</w>
실시 하고</w>
no cut
천안 시
김경 호</w>
고발 했다.</w>
어디 서
물갈 이가</w>
CF 6
전북 도
유리 하게</w>
한· 일
자한 당은</w>
%p ),</w>
부처 와</w>
선호 하는</w>
김상 곤</w>
일부 개정법률
더민주 는</w>
oo ooA
정계 개편
하늘 을</w>
col or
좌우 할</w>
독자 적인</w>
doso7@ [아시아경제</w>
넣어 두고</w>
한유 총
0 34
1 단계</w>
R DD
감 정</w>
갖 다</w>
골 목</w>
관 찰
국 감</w>
군 민</w>
너 는</w>
노 리
단 양</w>
도 움</w>
들 러
마 약
명 예</w>
보 더라도</w>
불 법을</w>
산 재
숨 겨
영 리
오 중
요 인으로</w>
위 협</w>
은 \xa0
있 나?</w>
작 태
제 천·
죠 .”</w>
증 평
진 전이</w>
품 목</w>
하 듯이</w>
호 르
홍 천
의원 이나</w>
20 일부터</w>
출마 도</w>
미래 지향
하겠 다,</w>
&lt; 김종배의</w>
사업 비</w>
지역구 다.</w>
전문 대학원</w>
산업 단
발언 한</w>
◎\xa0 정두언\xa0&gt;\xa0
37 6
60 %</w>
진보 ·
,\xa0 그리고</w>
예상 된다.
이뤄 낼</w>
제도 로</w>
만들어 낸</w>
방송 이</w>
국제 적</w>
학생 들은</w>
응답 을</w>
01D5CB 48
이동 하고</w>
idx =
조건 부</w>
다니 면서</w>
줄어 들고</w>
테마 주로</w>
/ctn] 정민
장외 투쟁
이원 욱</w>
부장판 사는</w>
요즘 은</w>
디스 플레이</w>
국회선진화 법</w>
각별 한</w>
_view .html?
재신 임을</w>
( 사진</w>
, ns:</w>
1 대
1 층</w>
2 만</w>
3 위</w>
A )</w>
[ 19년</w>
o ut
t _
t w
“ 국회</w>
감 행
같 습니다.
국 민주
군 )</w>
기 식</w>
끈 다.</w>
놓 인</w>
대 림
만 원에</w>
많 다</w>
면 허
몰 린</w>
못 해
무 모
뭐 냐
받 도록</w>
방 관
버 닝
소 관</w>
실 수를</w>
야 .</w>
예 요.</w>
유 불
을 .</w>
인 지는</w>
재 능
전 현직</w>
진 다.
키 운</w>
학 력
행 진
화 력
정치 학</w>
19 79
아니 다
자신 도</w>
13 9
지원 센터</w>
운동 으로</w>
시키 려는</w>
통과 했다.</w>
제도 에</w>
8A C000000
행사 하는</w>
** *</w>
일( 월)</w>
개선 이</w>
입법 부</w>
공유 하고</w>
추경 안</w>
출연 한</w>
일반 적인</w>
불출마 로</w>
검찰개혁 에</w>
기울 어진</w>
인공지능 (A
흥미 로운</w>
조윤 선</w>
view/? id=NIS
http://www.newsis.com/ view/?id=NIS
mtn .co.kr
EAE8A 000001
line-height :1
/ctn]정민 준</w>
( 비
( 199
3 6</w>
‘ 자유
“ 이
가 다
군 부</w>
기 어
됐 으나</w>
든 지,</w>
명 ·
무 색
부 유
부 위원장,</w>
성 폭력
소 형</w>
순 위로</w>
쓴 소리를</w>
아 스
영 혼
왔 다”고</w>
의 과
이 다”고</w>
인 제
입 문</w>
자 만</w>
재 석</w>
정 &gt;</w>
질 책
축 사</w>
표 정을</w>
하 다면</w>
정치 부</w>
하겠 다”는</w>
생각 해보
18 석</w>
뉴스 룸</w>
예비후보 들의</w>
2020 년도</w>
발표 했습니다.</w>
있었 다”며</w>
참석 자들은</w>
◎\xa0 장진영\xa0&gt;\xa0
언론 사
지적 하며</w>
이재 준</w>
사용 을</w>
신뢰 수준</w>
이야기 할</w>
핵심 적인</w>
검사 장</w>
김용 남</w>
이전 의</w>
박근혜 가</w>
부장 검사</w>
시각 을</w>
수정 안을</w>
Ne xt</w>
존중 하는</w>
News '</w>
것” 이라는</w>
94 48
활발 하게</w>
01D5E5 34
콘서 트를</w>
인근 에</w>
KK KK
워싱 턴</w>
실효 성</w>
방송통신 위원회</w>
놀라 운</w>
튼튼 한</w>
겁니까 ?\xa0
사모 펀드</w>
http://news.naver.com/main/read.nhn?mode=LSD&amp;mid= shm&amp;sid1=100&amp;oid=
황우 여</w>
오바 마</w>
( '
- 7
. ◎\xa0정유경\xa0&gt;\xa0
8 명이</w>
8 ,id:</w>
K A
“ 정부는</w>
고 우
날 짜</w>
넓 혀
뉴 타운</w>
달 한</w>
대 남
래 의</w>
목 숨</w>
물 질</w>
물 어야</w>
밝 힘
방 금</w>
법 원은</w>
심 장</w>
싶 어서</w>
안 (
압 수</w>
어 색
언 급</w>
없 어도</w>
연 세
오 전에</w>
우 습
이 들과</w>
일 단
자 화
존 엄
줄 이기</w>
지 긋
지 하</w>
쿠 웨
통 은</w>
트 로</w>
협 력이</w>
홍 종
흥 행
20 -01
대통령 후보</w>
예비후보 자는</w>
예비후보 자가</w>
시민 은</w>
자유한국당 으로</w>
25 %</w>
주장 과</w>
투표 율은</w>
이었 기</w>
중요 하게</w>
느냐 ”고</w>
해결 이</w>
부산 시당</w>
수석 을</w>
지켜 볼</w>
(6 4·
나서 면서</w>
떨어 지
제3 차</w>
소통 이</w>
연대 와</w>
넘어 섰
제주 특별자치
이동 섭</w>
체육 회</w>
쏟아 냈다.</w>
검찰개혁 과</w>
십시 오</w>
협의체 가</w>
이낙연 은</w>
위협 을</w>
:4 0</w>
이렇 다</w>
width :</w>
기생 충</w>
원본 글:</w>
mt .co.kr/
인프라 를</w>
01D5B9EB196 9448
망가 뜨
# 더불어민주당
1 .9
A 2000001
O U
[ 21대</w>
“ 한국당</w>
가 고,</w>
공 세에</w>
그 것에</w>
나 가지</w>
농 가</w>
대 로,</w>
마 찰
버 려야</w>
보 니,</w>
볼 모로</w>
성 폭력</w>
식 당</w>
신 선한</w>
었 기</w>
연 안
영 토
우 가</w>
이 리
이 목이</w>
일 에서</w>
지 형을</w>
진 심
최 인
투 입</w>
품 은</w>
프 린
합 당한</w>
형 으로</w>
al ,</w>
비례 대표는</w>
관계 장관
시작 한다.</w>
시작 해서</w>
교육 부
2019 년
공개 를</w>
.5 %),</w>
구성 하고</w>
실시 할</w>
하였 으나</w>
지켜 보는</w>
한다 라고</w>
80 %</w>
인정 할</w>
AC ii
간담 회에</w>
하자 마자</w>
나섰 습니다.</w>
증가 하고</w>
자한 당
분류 된다.</w>
안녕하 십니까?</w>
경고 했다.</w>
입성 한</w>
운운 하는</w>
운운 하며</w>
Hel lo</w>
탈북 민</w>
성명 서를</w>
아프리카돼지열 병</w>
[단독 ]
&amp;date=2020030 8
4·15 총선</w>
4E 3975
은수 미</w>
세종의사 당</w>
AFFF FAB
4E3975 A2000001
# 사
# 조
C 60
U C
u k
‘ 사
경 로를</w>
급 급
단 위로</w>
담 았다.</w>
더 러</w>
던 데
도 박
득 표를</w>
등 장</w>
따 름
리 그</w>
무 기를</w>
방 탄</w>
번 ,</w>
법 원에서</w>
병 원,</w>
보 임
보 았습니다.</w>
불 신을</w>
비 건</w>
산 에</w>
선 고를</w>
신 ,</w>
업 계에</w>
오 해를</w>
운 행</w>
웃 고</w>
유 선</w>
이 적
일 전</w>
자 란</w>
조 언을</w>
주 세요</w>
집 결
차 질이</w>
철 거</w>
통 준
폐 지,</w>
폭 탄</w>
한 이</w>
한 심한</w>
국민 일보</w>
10 2
예비 타당성
사람 이
기자 =
그러 나,</w>
상황 이다.
수사 할</w>
운동 본부</w>
세력 ,</w>
사진 으로</w>
당선 자는</w>
국정 상황
}]}]}, 01D5CAC
진보 가</w>
법안 들을</w>
인권 과</w>
아이 콘
생활 에</w>
헌법 이</w>
일( 금)</w>
공감 대가</w>
조성 ,</w>
강남 을</w>
획정 안</w>
사라 질</w>
일어 나는</w>
01D5B89 A
필요하 다”며</w>
세상 의</w>
06 월
남양 주시
리서치 에</w>
공소 장에</w>
가짜 뉴스</w>
이석 연</w>
파주 시</w>
회( 회장</w>
평등 한</w>
잠재 적</w>
번영 을</w>
일시 :</w>
당정청 은</w>
유상 증자</w>
대구·경북(TK )</w>
[충청 매일</w>
소프트 웨
, cp:</w>
. 18
/ C
3 5</w>
3 8</w>
6 /
A 5
D 93
G D
h ye
t ran
거 지
고 노</w>
구 리</w>
낮 게</w>
대 의원
말 로만</w>
무 응답
밟 고</w>
비 당권파</w>
삼 은</w>
소 매
숙 고
순 환</w>
순 위에</w>
신 선
악 순환
안 호영</w>
어 요
예 상을</w>
완 성</w>
이 혼
인 센
일 단은</w>
잠 을</w>
쟁 점이</w>
저 자</w>
전 했습니다.</w>
정 말
정 하지</w>
정 국의</w>
제 동을</w>
주 영
주 겠다는</w>
지 었다.</w>
직 으로</w>
진 척
참 담한</w>
측 에서는</w>
치 고,</w>
특 구
한 성
헤 쳐
선거 전에</w>
국무 회의</w>
비판 과</w>
결정 됐다.</w>
sh in
}]}]}, 01D5E8F18CFB75F0000000
모습 도</w>
알려 지고</w>
안전 하게</w>
최고위원 의</w>
감염 이</w>
드리 며</w>
김진 아</w>
li m
넘어 서는</w>
수출 을</w>
상당 구</w>
sp ace
무리 하게</w>
싸움 은</w>
당대표 &gt;\xa0
@joongang.co.kr \xa0']</w>
내각 을</w>
/20200 30
01D5E14 B
자유통일 당</w>
대강 당에서</w>
문병 호</w>
선당 후
# 젊은
D au
E 1
‘ 이</w>
“ 한국당은</w>
“ 아직</w>
것 들은</w>
겠 다"며</w>
공 주시
근 간을</w>
누 릴</w>
다 지
단 군
단 언
더 민주당</w>
덮 어
드 론</w>
마 에</w>
명 절을</w>
못 한다는</w>
보 겠다는</w>
분 할</w>
사 대
사 유</w>
신 지
악 의
않 지만,</w>
여 사</w>
오 제
외 연</w>
우 정
우 린</w>
이 사는</w>
잃 게</w>
져 가는</w>
케 이</w>
틀 린</w>
폐 업
표 했다.</w>
할 수록</w>
화 제를</w>
대표 자
한국 교
정치 ’를</w>
15 일까지</w>
an i
14 00
지난 주
16 :
국무 부</w>
지적 하고</w>
않았 으면</w>
01D5C AB
여성 들의</w>
검토 해</w>
대법 원은</w>
국토 부는</w>
나섰 다.
바라 보며</w>
쏟아 지고</w>
www .c
해주시 는</w>
국립 서울현충
힘들 게</w>
비리 와</w>
더· 정당인)</w>
일으키 는</w>
art id=
민병 두</w>
UU UU
테인 먼
i.co.kr/ arti
# 리서치뷰</w>
9 ·
B T
‘ 수
‘ 새로운</w>
“ 현</w>
강 령
거 야</w>
겁 니다.
결 별
경 기를</w>
공 포</w>
공 문을</w>
기 고
남 편</w>
놓 아
뉴 딜</w>
단 국
대 외</w>
됐 는데,</w>
면 담</w>
무 관심
번 씩</w>
법 (
복 당</w>
부 두</w>
살 았
성 원을</w>
세 제</w>
시 의원,</w>
아 내</w>
양 지
옮 기는</w>
윤 재
으 라고</w>
이 목
인 격
일 까</w>
입 학</w>
저 부터</w>
정 원</w>
제 17대</w>
조 종
탄 력을</w>
정치 공학
위원 과</w>
통합 민주당</w>
때문 이라는</w>
news View
news .chosun.com</w>
결정 으로</w>
과정 과</w>
감사 원</w>
공수처 법과</w>
희망 하는</w>
인재 개발
이야기 다.</w>
지속 될</w>
아니냐 ,</w>
시절 인</w>
공급 이</w>
ec .go
케이 션
스토 리</w>
모델 로</w>
부패 한</w>
연락 이</w>
ap p
합류 한</w>
의도 적으로</w>
사회적 경제
초· 중·
은퇴 를</w>
일으켰 다.</w>
해양수산 부</w>
01D5CB43B5 C60
새만 금</w>
munonam @</w>
01D5CB43B5C60 AC
# 전
' ;</w>
3 호
4 개
9 ,ch:</w>
@ mtn.co.kr
e x
n /
y h
강 동구
경 에</w>
공 립
금 감
난 다</w>
낮 다.</w>
내 외</w>
누 적
님 들</w>
대 명
돼 도</w>
땅 의</w>
레 니
롯 데</w>
리 조
림 을</w>
몽 골
미 미
반 응</w>
병 역</w>
보 관
분 란
분 쯤</w>
식 ·
신 은</w>
신 문을</w>
알 릴</w>
얻 게</w>
여 름</w>
운 송
으 시
의 지로</w>
임 승
조 회</w>
지 대
차 관,</w>
책 무를</w>
청 의</w>
퇴 장
파 탄</w>
형 사</w>
회 자
\xa0 ◎\xa0진행자\xa0&gt;\xa0
D5 07C000000
자유 가</w>
사람 입니다.</w>
&gt; 를</w>
그런 지</w>
미래통합 당에</w>
정상 이</w>
감사 합니다.
나가 겠다”고</w>
김영 주</w>
2016 년
주도 하고</w>
인재 가</w>
ad sby
9E 61
건설 ,</w>
민주평화 당과</w>
반영 해</w>
버스 를</w>
함께 ,</w>
입법 이</w>
과거 에는</w>
균형 발전을</w>
했다 면서</w>
배제 한</w>
이전 과</w>
동의 하는</w>
:1 0</w>
\xa0\xa0 \xa0\xa0
민정 수석</w>
제목 으로</w>
01D5B4 173
있느냐 는</w>
이날 도</w>
01D5DA6 D93
서영 교</w>
[서울 =뉴시스]</w>
R&amp; D</w>
저소득 층</w>
판문 점</w>
손님 께서도</w>
nb sp
CBF 11
Dau m</w>
01D5B4173 CBF11
01D5DA6D93 D507C000000
( 총</w>
. u
/ 연합뉴스</w>
0 .9
1 위로</w>
2 %
? ’</w>
P T
k h_
가 릭
가 지만</w>
가 졌습니다.</w>
거 치지</w>
걸 음이</w>
남 부</w>
넘 겼
년 간의</w>
뇌 물</w>
다 는데</w>
달 랐다.</w>
대 면
대 병원</w>
득 표</w>
맡 았
못 하고,</w>
배 송
본 선에서</w>
불 응
생 겼다.</w>
세 운
세 탁
소 음
순 으로,</w>
안 에는</w>
여 개</w>
역 량이</w>
열 차
용 ,</w>
우 울
윤 두
이 웃</w>
일 절</w>
잡 음이</w>
장 기간</w>
저 리</w>
적 이며</w>
정 가의</w>
즉 각
차 량을</w>
판 사가</w>
포 천·
학 적</w>
한 결
해 마다</w>
15 :30</w>
그러 지</w>
예비후보 자로</w>
&lt; inp
사실 입니다.</w>
교육 부는</w>
청년 에게</w>
사업 장</w>
투표 율
[' googletag.cmd.push(function()</w>
더불어민주당 에서는</w>
어려 운
goog le</w>
26 0
기획 재정
진보 를</w>
해결 하고</w>
예상 했다.</w>
변화 ,</w>
이용 섭</w>
여론조사 기관</w>
제1 야당이</w>
후원 금</w>
확정 한</w>
조성 해</w>
01D5CB 42
im g</w>
하기 만</w>
고위 공직자</w>
제한 을</w>
하라 "고</w>
김태 년</w>
시스템 에</w>
살펴 보고</w>
\xa0\xa0 ☎\xa0진행자\xa0&gt;\xa0
거짓 말</w>
임대 주택</w>
유권자 들을</w>
느끼 게</w>
@hankyung.com 기사제보</w>
지역위원장 )</w>
데일리 안</w>
김정은 의</w>
지역민 들의</w>
.chosun.com/site/data/html_dir/ 2019
획기 적인</w>
정황 이</w>
저울 질
엔터 테인먼
&lt;inp ut</w>
" 문</w>
' 21대</w>
( 200
- 5
1 .6
l =
‘ 고
‘ 스
‘ 2020</w>
개 요
거 란</w>
경 고를</w>
고 3</w>
규 정이</w>
깔 려</w>
농 성장
동 래
동 안에</w>
드 물
물 량</w>
밀 레니
생 계
성 사</w>
솔 선수
수 호</w>
신 당에</w>
양 양
윤 형
은 퇴</w>
자 가격
적 자
죠 ,</w>
줄 고</w>
증 인으로</w>
집 은</w>
편 지</w>
편 의를</w>
포 천</w>
하 는가.</w>
현 기자</w>
황 당한</w>
회 장에</w>
흐 르는</w>
대표 가)</w>
정치 자금을</w>
al add
in _ttb
하겠 다"며</w>
정책 기획
30 여</w>
는데 요</w>
운동 은</w>
01D5B 53
예정 대로</w>
통과 시킨</w>
보여 준다.</w>
국민의 당을</w>
주택 의</w>
김정 재</w>
(4 4
검사 들이</w>
대법 원에서</w>
일( 수)</w>
하셨 는데</w>
행보 로</w>
전북 의</w>
끌어 안
높아 질</w>
위험 을</w>
1000 명을</w>
여의도 연구원</w>
분당 갑</w>
m. blog.naver.com</w>
상품 권</w>
01D5E7 89
친일 파
아니겠 습니까?</w>
초청 해</w>
제7 회</w>
자유로 울</w>
파이낸 셜
공교 롭
khan _art
i.co.kr/arti /
kh_ news/
aladd in_ttb
aladdin_ttb _
( 70
0 ;</w>
8 %</w>
@ g
A 000001
S K</w>
p a
y ang
“ 새로운</w>
계 엄</w>
과 학</w>
국 악
귀 족
그 칠</w>
금 년</w>
더 보기]</w>
돌 연</w>
됐 으며</w>
물 음에</w>
박 기
수 당을</w>
수 술을</w>
시 가
않 더라도</w>
역 은</w>
연 다.</w>
왔 다”며</w>
외 쳤다.</w>
저 감
저 러
채 ,</w>
커 진</w>
편 지를</w>
10 9
미래 에
() 으로</w>
13 개</w>
강조 했습니다.</w>
이상 직</w>
산업 으로</w>
정치인 들을</w>
부산 에</w>
해주 면</w>
드러 날</w>
공공 부문</w>
후원 회</w>
효과 적인</w>
중도 보수</w>
협력 의</w>
5, 000
여기 에는</w>
출범 을</w>
저희 들은</w>
우리공화 당이</w>
하루 에</w>
유리 할</w>
적절 하지</w>
상징 성이</w>
인사청문 회에서</w>
막아 내
풀이 된다.
이하 로</w>
선거관리위원회 는</w>
간단 한</w>
right s</w>
의총 에서</w>
반려 동물</w>
최고위 과정</w>
봉하 마을
band .u
?input =1
line-height:1 15%
ACii igA
2 ,si:</w>
3 3</w>
3 2</w>
3 ]</w>
[ 이데일리</w>
‘ 기
‘ 이
“ 20대</w>
금 ,</w>
깔 끔
대 검
데 스
때 문</w>
말 라</w>
모 든
물 가</w>
송 언
수 소</w>
쓰 기</w>
앞 장</w>
예 전</w>
왔 을</w>
인 증</w>
임 용
점 심
조 희
주 춤
중 에서는</w>
증 상
진 (
치 닫고</w>
코 노
토 박
학 원
한 양대</w>
합 작
en c
경제 )</w>
01D5E 2F41E57
비례 용</w>
50 만</w>
관계 와</w>
교육 부가</w>
ch ung
활동 은</w>
대학 의</w>
공약 도</w>
여러분 을</w>
.2 %),</w>
60 8
광주 와</w>
우려 되는</w>
인천 ·
말했다. ']</w>
피해 는</w>
김성 주</w>
따라 야</w>
김현 아</w>
-2 9</w>
이지 요.</w>
왜곡 된</w>
취약 한</w>
홍준표 의</w>
인생 의</w>
자부 심을</w>
추정 되는</w>
무너뜨 리는</w>
선별 진료
마쳤 습니다.</w>
포커스 데일리</w>
양상 이다.</w>
sub _
모니터 링
경제협력 개발
동국 대</w>
원상 회복
탁월 한</w>
# 구미</w>
1 .1
@ donga.com</w>
[ 충남
h e:</w>
걸 러
기 분이</w>
다 하겠다고</w>
달 렸다.</w>
답 글
당 헌</w>
던 져</w>
되 셨
란 드
만 명
많 지만</w>
맞 대결
믿 어
박 사는</w>
반 해</w>
벌 이</w>
복 이</w>
부 연
비 교</w>
섰 던</w>
소 각
오 류
유 통</w>
이 랬
인 선
인 준</w>
입 원</w>
장 점
재 료
전 기</w>
정 직한</w>
조 각
조 영
중 장
지 나가
최 헌
축 사
탈 당과</w>
토 대를</w>
풍 선
피 하고</w>
했 기에</w>
정치 활동을</w>
위원 )</w>
20 만</w>
총선 공약</w>
000000 8
000000 48
12 .0pt;
것이 다
.1 %),</w>
어떻 습니까?</w>
혁신 적인</w>
스트 레이
논의 하기</w>
... '
경찰 서
따르 고</w>
민생 ·
영향 력</w>
4· 3
강화 수</w>
확보 가</w>
현재 로서는</w>
역사 교과서</w>
교체 가</w>
소속 의</w>
당협 위원장과</w>
인구 를</w>
선출 직
밝히 기도</w>
44 141
매일 신문</w>
차별 과</w>
홈페이 지에서</w>
오세훈 ·
실천 하는</w>
졸업 했다.</w>
아파트 는</w>
분노 하고</w>
집단 의</w>
해주시 고</w>
TK (
박찬 대</w>
.kr/ news/articleView.html?idxno=
hw p</w>
박성 민</w>
도덕 적</w>
사기 극
화합 과</w>
공인 중개
걸림 돌이</w>
조일 출</w>
적잖 은</w>
410 44141
41044141 000001
" 그</w>
# 장
# 선거</w>
) ■</w>
3 4</w>
3 시간</w>
5 선을</w>
T B
[ 보도자료
b e</w>
f orm
l d
가 락</w>
거 스
공 군</w>
광 명</w>
구 할</w>
기 ·
남 과</w>
놓 치지</w>
되 나
말 처럼</w>
미 달
발 판을</w>
본 인들이</w>
부 단
생 존</w>
숫 자를</w>
신 사
오 태
요 충
육 성을</w>
읍 면
자 !</w>
전 원이</w>
제 ’</w>
총 수
출 국
편 한</w>
표 정으로</w>
한 숨
합 시다.</w>
홍 용
자유 주의</w>
al /
정당 이다.</w>
서울 역</w>
통합 당에</w>
비례 한국당</w>
관계 자의</w>
비판 적인</w>
요구 와</w>
[' 더불어민주당</w>
관리 하는</w>
통과 시켰다.</w>
감사 드린
판단 하는</w>
해주 세요.</w>
노력 은</w>
제도 다.</w>
35 6
기술 이</w>
유지 했다.</w>
주요 내용은</w>
:0 7</w>
영역 을</w>
당협 위원장은</w>
확진 자는</w>
자동 으로</w>
법률 을</w>
-1 6</w>
한미 연합
ㅋㅋ ㅋ</w>
기억 하고</w>
부의 장,</w>
수요 일</w>
세상 은</w>
정의당 도</w>
rig ht</w>
테크 놀
2020년 은</w>
name =
기동 민</w>
han.co.kr/ kh_news/
(민주통합 )</w>
han.co.kr/kh_news/ khan_art
" 제가</w>
" 진중권</w>
% 2F
7 )</w>
; font-family:
[ 연합뉴스</w>
_ id=
v +
각 인
각 기</w>
검 ·경</w>
국 면</w>
길 이다.</w>
날 부터</w>
넣 은</w>
네 덜
눈 여겨
대 개</w>
대 립</w>
도 )</w>
돌 렸다.</w>
동 기</w>
됐 으며,</w>
메 신
바 지
범 여권의</w>
법 관</w>
복 지는</w>
산 악
새 해가</w>
시 시
신 림
싶 을</w>
양 당이</w>
엄 격한</w>
없 다”</w>
역 }]}]},01D5E8F18CFB75F000000
예 외</w>
옳 다고</w>
이 \xa0
장 치를</w>
주 면서</w>
중 공업</w>
착 공</w>
태 도는</w>
트 릭
하 도</w>
한 태
했 듯이</w>
행 복</w>
호 주
회 사에</w>
정치 /
정치 학
위원 의</w>
공천 룰
http:// m.
이야 .</w>
지방 검찰청</w>
처리 한</w>
외교 를</w>
성공 적인</w>
어렵 다”고</w>
script &gt;</w>
.8 %),</w>
사이 에서는</w>
호남 은</w>
김현 정&gt;</w>
86 E
다니 고</w>
내부 에서는</w>
업체 에</w>
중소기업 과</w>
싸움 에</w>
너무 나도</w>
노조 의</w>
내각 제</w>
:2 5</w>
일어나 지</w>
카카오 톡</w>
이회 창
법인 세</w>
구독 자</w>
도둑질 하려</w>
원내대책 회의에서</w>
특파 원</w>
5 ,bf:</w>
8 100
C h
b rea
o t
p r
~ 29
‘ 문
낙 태
날 씨가</w>
노 사</w>
다 닐</w>
도 래
라 인을</w>
로 이
말 하기도</w>
멘 트</w>
문 성
미 리
뿐 인</w>
선 정한</w>
십 니까</w>
얻 어야</w>
연 이은</w>
예 타
온 ,</w>
의 아
이 곳은</w>
익 명을</w>
입 지</w>
자 연</w>
잠 정
잡 았
장 승
적 자</w>
좀 비
좋 았
지 점
최 성
하 네요.</w>
합 류</w>
행 정을</w>
환 은</w>
의원 (4
후보 들과</w>
re s
문제 들을</w>
18 :
했다. ']</w>
가능 하게</w>
전문 가는</w>
변호 인
공동 상임선거대책
전망 에</w>
하시 라.</w>
입장 과</w>
조정 하는</w>
의료 기관</w>
제시 하지</w>
(6 5·
도입 한</w>
감염 병
문재인 과</w>
원칙 은</w>
센터 에</w>
행동 하는</w>
전체 적인</w>
공감 하고</w>
표현 한</w>
분야 는</w>
진중 권은</w>
최근 까지</w>
진정 성이</w>
방해 하는</w>
험지 출마
된다 면,</w>
총괄 하는</w>
우세 한</w>
참조 하면</w>
원자 력</w>
중원 구</w>
·성 주·
http://news.k han.co.kr/kh_news/khan_art
분양가 상한제</w>
oh my
01D5E5357FDDD71000000 89
서예 문화</w>
( 부산
( 원장</w>
3 F
6 60
e s</w>
y s
값 은</w>
결 을</w>
근 ,</w>
도 발을</w>
되 지만,</w>
린 다고</w>
목 숨
미 에</w>
바 짝</w>
법 적인</w>
봅 니다.\xa0
분 구가</w>
불 시
붙 여</w>
서 기</w>
신 격
양 의</w>
어 졌다.</w>
었 지만,</w>
읍 ,</w>
인 헌
자 택</w>
잘 할</w>
정 정
중 이</w>
지 불
차 장</w>
해 병
황 희
대표 직을</w>
정치 신인</w>
20 명</w>
뉴스 ,</w>
30 석
30 석</w>
30 %를</w>
진행 한다.</w>
주장 해</w>
이해 관계가</w>
이었 을</w>
이었 다”고</w>
평가 에</w>
대책 도</w>
확인 을</w>
장애 를</w>
대응 은</w>
의미 한다.</w>
김성 식</w>
이명 수</w>
하기 까지</w>
어디 까지</w>
과거 로</w>
-1 2</w>
김태 우</w>
후보자 에게</w>
체제 에서</w>
E9 B
있는 지,</w>
일축 했다.</w>
여성가족 부</w>
Pre vi
탈바 꿈
12.0pt; line-height:115%
( R
6 9F8
D I
H O
I s
K -
e d</w>
v al
‘ 황교안</w>
‘ 안철수</w>
가 이나</w>
꼽 은</w>
꽃 을</w>
대 열에</w>
말 합니다.</w>
말 레이
박 덕
반 대한</w>
병 원이</w>
보 안</w>
보 상</w>
보 였던</w>
살 짝</w>
새 삼</w>
선 물</w>
시 위에</w>
시 도는</w>
신 촌
알 파
역 풍
열 망을</w>
원 씨는</w>
있 나</w>
재 연
좌 고우
트 라우
핑 크
하 는데도</w>
행 렬
흐 름</w>
의원 까지</w>
후보 (
지역 에는</w>
총리 와의</w>
서울 지역</w>
우리 당이</w>
15 %</w>
했다. /
필요 성에</w>
있었 다면</w>
있었 는데,</w>
혁신 위원장</w>
노동 자,</w>
== ==</w>
-0 9</w>
말씀 하시는</w>
논의 도</w>
여러분 들께</w>
나오 게</w>
해결 의</w>
공정 의</w>
기준 )</w>
있어 서다.</w>
있으 므로</w>
확대 할</w>
선거법 의</w>
90 F0000000
유튜 버</w>
im news
받아들 여야</w>
실현 하기</w>
새· 정당인)</w>
기자회견 에</w>
20200 30
(3 명)</w>
1월 부터</w>
여권 에서</w>
#21대 국회의원선거</w>
위협 하는</w>
올리 며</w>
01D5D27 EC
01D5B7F D38
당협위원장 ),</w>
DF E9B
캠페 인
01D5DA6 DFE9B
7E 69F8
관여 한</w>
답답 한</w>
이춘 희</w>
여유 가</w>
구속영 장</w>
교섭단체 를</w>
·더· 정당인)</w>
01D5B89B 86E
01D5C5EE 7E69F8
01D5B89B86E 90F0000000
01D5C5EE7E69F8 2000000
( 제
) 인</w>
. hwp</w>
1 .0
2 .3
3 27
E 61
U N</w>
‘ 나
강 희
같 으면</w>
고 착
공 방</w>
교 민</w>
구 경
구 본
군 공항</w>
귀 추가</w>
기 로에</w>
김 모
는 지도</w>
락 이</w>
론 ’</w>
만 도</w>
만 18세</w>
말 ,</w>
믿 음을</w>
바 꾼
바 둑
바 다</w>
박 빙</w>
배 신의</w>
번 은</w>
법 적
불 문
사 구
소 수의</w>
시 각</w>
시 에는</w>
실 물
않 겠다”고</w>
알 면서도</w>
왔 기</w>
움 과</w>
윤 보
이 곳
있 거나</w>
자 사고
제 압
직 장</w>
진 솔
파 리</w>
표 면
하 남</w>
합 쳐서</w>
해 에</w>
희 (
20 %를</w>
미래 한국당을</w>
지지 자
했다. 이날</w>
시장 경제
다" 면서도</w>
e. naver
새누리 당에서</w>
종로 구의</w>
주의 자
더불어민주당 에서</w>
경찰 을</w>
유승 희</w>
공개 하지</w>
노력 으로</w>
영입 인재
없었 다”고</w>
이루 기</w>
연대 에</w>
살아 남
실패 했다.</w>
view .asp?
추천 한</w>
조짐 을</w>
단식 은</w>
소개 한</w>
부여 하는</w>
세종시 당</w>
기울 여</w>
근무 하는</w>
우리나라 에서</w>
에너 지를</w>
정론 관
미세먼 지
순천 시</w>
명분 도</w>
장소 :</w>
연계 해</w>
/w C
콘텐츠 를</w>
연휴 를</w>
불확실 성이</w>
전후 로</w>
나루 히토</w>
무분별 한</w>
01D5E7A8E DA6A0E0000000
저작권자(c )</w>
?input=1 195m</w>
# 광주
# 여수
, ,</w>
F 4
W TO
m p
“ 제</w>
걸 맞은</w>
그 보다</w>
금 에</w>
길 래</w>
남 원
냈 다</w>
다 면
다 나</w>
덕 에</w>
데 다,</w>
등 에게</w>
민 원을</w>
받 들어</w>
배 심
북 방
분 으로</w>
빅 텐트
산 ,</w>
살 포
살 ...마스크영역\'
세 포
세 월</w>
시 하는</w>
시 기는</w>
신 도</w>
안 성</w>
양 을</w>
연 봉
옆 에서</w>
왕 의</w>
위 치</w>
위 기로</w>
을 수록</w>
이 문
이 헌
재 고
적 정
전 까지는</w>
정 서를</w>
초 심을</w>
축 적
출 구
판 교</w>
필 연
하 는데요.</w>
한 수
할 애
협 업
확 신을</w>
10 주기</w>
on t</w>
아니 다”고</w>
30 )</w>
100 %
() 과</w>
혁신 에</w>
청와대 사진기자단
예산 부수
역할 ']</w>
감사 합니다
판단 했다.</w>
의석 의</w>
분석 된다.</w>
전국 동시
현실 에서</w>
누구 의</w>
고려 하지</w>
요청 이</w>
받았 고</w>
ac ity:</w>
핵심 이다.</w>
살아 갈</w>
검사 장
움직 이고</w>
반발 하는</w>
}]}]},01D5E AA
주요뉴스\' 한강</w>
#구미 _
op acity:</w>
리더십 에</w>
불평 등과</w>
이에 요.\xa0
전기 요금</w>
아쉬 움을</w>
깨끗 하고</w>
프레임 에</w>
&amp;aid=000 4
홍준표 ,</w>
지소미아 를</w>
미래한국당 이라는</w>
고등학교 를</w>
옹진 군</w>
국정현안점검조정 회의에서</w>
이렇게 까지</w>
사자 "진중권</w>
정점 식</w>
만장일 치로</w>
AFFFFAB RRRQA
http://news.khan.co.kr/kh_news/khan_art _view.html?
살...마스크영역\' 강</w>
( E
9 개</w>
A 3C
I B
O ut
P ar
[ 제천
g ye
가 열
가 져</w>
겠 다,</w>
고 기
그 분들이</w>
김 없이</w>
내 빈
논 객
놓 고,</w>
마 리
명 목으로</w>
반 포
봤 다.
서 명을</w>
선 전</w>
세 제
세 비</w>
소 명을</w>
었 다”고</w>
영 세
요 건
운 명이</w>
있 느냐</w>
재 정이</w>
저 한테</w>
전 송
주 (
증 인
지 표</w>
진 해</w>
최 장</w>
타 격이</w>
향 해서</w>
황 제
\' 라고</w>
\' 이라는</w>
지지 자들
그러 다가</w>
200 7</w>
활동 하며</w>
0000000 75
말씀 하시
입니 까
단체 인</w>
기획 조정
판단 은</w>
비롯 된</w>
드러 나</w>
피해 자가</w>
학생 들에게</w>
공관 위원장</w>
:0 1</w>
개선 ,</w>
비난 이</w>
경기도 지사</w>
좌파 의</w>
은행 은</w>
존경 하고</w>
54 38
과제 에</w>
형성 한</w>
하여 금</w>
취업 자</w>
벗어 날</w>
기본소득 당</w>
진흥 원</w>
01D5E3D 7F0E
다,\xa0 이렇게</w>
사회적 경제</w>
▲&lt; 동아</w>
악재 가</w>
실용 적</w>
민노 총
신년인 사회에서</w>
급속 도로</w>
우원 식</w>
박범 계</w>
캠퍼 스</w>
백의종 군
후쿠시 마</w>
Previ ous</w>
" 황교안</w>
3 .5
E 55
j n
w ang
’ 만</w>
“ 왜</w>
고 개</w>
굴 복
권 ·
농 성에</w>
동 일</w>
망 하는</w>
반 값</w>
법 」
변 명
보 장을</w>
상 고
서 면
신 공항
싸 늘
연 금을</w>
예 배
우 ·
우 의</w>
원 인으로</w>
유 학
응 원을</w>
일 갈
일 일</w>
일 까지
있 잖아요.</w>
주 상
증 여
처 방
폭 넓게</w>
풀 뿌리</w>
품 격을</w>
하 지만
했 어요.\xa0
형 ,</w>
지역 별로는</w>
총선 승리를</w>
사회 관계
공천 배제
28 8
평가 한</w>
평가 하고</w>
국정 운영에</w>
설명 할</w>
해결 될</w>
드리 지</w>
떨어 졌
전문가 로서</w>
주목 해야</w>
적용 을</w>
대법 원장</w>
이슈 는</w>
분열 이</w>
나왔 다고</w>
홍보 를</w>
불법 적인</w>
김형 오
화성 시
근로 시간</w>
답변 하고</w>
/0 3
교과 서를</w>
김수 민\xa0&gt;\xa0
new s</w>
유튜브 에</w>
유튜브 를</w>
!! !!
절대 적으로</w>
하우 스</w>
김연 철</w>
엘리 트</w>
클러 스터</w>
(국 )</w>
스리 랑
변재 일</w>
어처 구니
(중략 )</w>
2 명
3 명
7 %</w>
9 27
= naver
E 13
T F</w>
` 으로</w>
“ 어떤</w>
거 쳐서</w>
경 실
골 몰
공 고</w>
나 노
뉴 데일리</w>
늦 추
다 수를</w>
대 하는</w>
대 답을</w>
등 판
마 당
명 령</w>
묻 지
박 지
법 원,</w>
법 학과</w>
보 자는</w>
분 쟁</w>
사 들의</w>
손 실을</w>
송 년
수 능
시 대로</w>
실 ·
않 자</w>
압 력을</w>
애 니
유 은혜
이 와
자 문</w>
장 벽
전 성
정 윤
준 다고</w>
진 작
진 심을</w>
징 금</w>
취 를</w>
토 마
통 으로</w>
파 문이</w>
편 에서</w>
합 병
흔 쾌
의원 ),</w>
에서 조차</w>
10 6
ar S
국가 안전보장
지원 하기</w>
참석 하여</w>
-0 4</w>
여러분 들과</w>
있다. [
최고위원 회의
이뤄 졌
아이 들에게</w>
발생 해</w>
이재 영</w>
토론 회에</w>
확정 되지</w>
해야 하는</w>
9E 14
제공 할</w>
:0 2</w>
핵심 으로</w>
보건 의료</w>
김용 민</w>
쇄신 과</w>
쏟아 져</w>
E9 9E14
6B E99E14
외면 하는</w>
go.factfinder.co.kr/ 14
border- bottom
김대중 은</w>
박성 중</w>
20150 5
없애 고</w>
화장 품</w>
교육청 은</w>
단호 히</w>
노래 를</w>
1A 000001
유영 하</w>
감당 할</w>
twit ter
최후 의</w>
싱가포 르
강효 상</w>
문충 운</w>
kimhyun81 @</w>
등락 률
공교롭 게도</w>
A3C 1A000001
E55 A3C1A000001
( www.
- 11
2 D
7 만
: )</w>
P h
‘ 검찰</w>
간 신
간 ,</w>
겨 레
경 복
과 잉</w>
대 일</w>
더 한</w>
론 이다.</w>
막 판에</w>
말 들이</w>
명 리학
반 전
배 진
본 다</w>
사 수
선 열
성 에서</w>
스 )</w>
실 업</w>
아 까
야 하는</w>
어 우러
없 다.”</w>
역 시
요 원</w>
웨 이
위 도</w>
이 리</w>
이 행</w>
일 만</w>
정 강
조 재
주 어야</w>
준 ,</w>
줄 여</w>
취 해</w>
폐 기를</w>
플 루
한 옥
선거 (
경제 보복</w>
위원장 님</w>
했다. 이어</w>
상황 이라</w>
진행 해</w>
관계 에서</w>
개혁 안을</w>
16 일까지</w>
ch ann
지원 도</w>
평가 할</w>
발언 ,</w>
당선 무효
입니 까?
공동 대표,</w>
od =
대선 ,</w>
장애 인이</w>
전국 으로</w>
공정 성</w>
어렵 다</w>
당원 들에게</w>
보이 기도</w>
도입 ,</w>
도입 해</w>
충청 남도</w>
집중 하고</w>
거부 할</w>
한미 동맹</w>
지나 고</w>
비교 할</w>
사항 에</w>
방침 에</w>
검찰총 장을</w>
지지층 은</w>
구속 된</w>
아파트 에</w>
흔들 림</w>
올해 의</w>
블로 그에</w>
정치개혁 의</w>
사령 부</w>
선생 님
양보 를</w>
오래 전부터</w>
광산 구을</w>
리얼미터 는</w>
맞붙 을</w>
회사 인</w>
증권 정보
일꾼 이</w>
문자 메시지를</w>
금천 구</w>
편향 된</w>
권영 세</w>
편안 한</w>
kook ilbo.com</w>
한국노 총</w>
Fe b</w>
행정자치 부</w>
pane _
(AS F
chann el
. ’</w>
C M
P C</w>
m an
‘ 친박
‘ 청년</w>
거 다</w>
권 노
그 나
나 흘
답 글</w>
당 대표와</w>
되 지는</w>
많 았던</w>
맞 선</w>
맞 설</w>
맞 대결을</w>
무 지</w>
묵 은</w>
박 정</w>
보 다.</w>
보 였다.
뿐 만이</w>
새 정
서 명</w>
송 도</w>
숙 이</w>
순 창
시 인
양 국의</w>
어 의</w>
오 승
원 영
위 례
의 사의</w>
이 행을</w>
장 동
장 면이</w>
재 해</w>
전 도
전 권을</w>
접 견
제 4차</w>
종 에</w>
진 동
친 북
통 의</w>
특 강
티 켓
펼 치는</w>
하 냐
해 석</w>
혁 명이</w>
한국 사</w>
19 )</w>
on g</w>
으로 든</w>
그러 므로</w>
12 개</w>
비례 대표가</w>
사실 이라면</w>
중앙 위원회</w>
기업 들은</w>
25 000000
있었 다.
예정 이다</w>
대상 인</w>
당선 자가</w>
세종 지역</w>
북한 인권
정보 는</w>
소득 주도</w>
현재 가
.naver .com</w>
없었 을</w>
협상 과</w>
대법 관은</w>
공감 하는</w>
제출 된</w>
가지 게</w>
민심 과</w>
과거 사</w>
시절 ,</w>
ED 25000000
아버 지는</w>
반복 되는</w>
송파 병</w>
베이 징
01D5EAA B93337D3000000
연계 한</w>
대학교 에서</w>
02.1 0</w>
괜찮 은</w>
김영삼 은</w>
건국 대</w>
급속 히</w>
다당 제</w>
집무 실</w>
휴대 폰</w>
엄중 히</w>
01D5AFBA790 ED25000000
농산 물</w>
박홍 근</w>
기자aymsdream @</w>
4ㆍ 15</w>
background -
조배 숙</w>
79B6CF9000000 7
ACiiigA ooooA
12.0pt;line-height:115% ;font-family:
1 E4
9 01
9 000
9 ,bf:</w>
9 DA
_ 0000
c lo
h ref=
‘ 자
‘ 우리</w>
‘ 대한민국</w>
’ 하는</w>
文 정권</w>
겠 습니까?</w>
꿈 은</w>
놀 랐
늘 릴</w>
다 문화</w>
대 의를</w>
대 가를</w>
돌 풍을</w>
동 문</w>
되 레</w>
되 겠다.</w>
란 한</w>
류 인
보 기에</w>
봐 서</w>
부 흥
분 식
분 포
불 로
수 지구
승 객
앉 은</w>
였 기</w>
오 빠
웃 는</w>
일 가</w>
장 마감
주 력</w>
진 상을</w>
진 술을</w>
참 을</w>
처 리는</w>
출 발을</w>
통 화를</w>
평 소
한 류
화 되는</w>
의원 )
아니 에요.</w>
news .k
http:// caf
혁신 적</w>
발전 할</w>
등록 은</w>
그렇 기에</w>
공약 개발
단체 ,</w>
통과 시켰
포함 되지</w>
49 55
나가 기</w>
방송 인</w>
당원 들은</w>
김정 숙</w>
고민 해야</w>
효과 적으로</w>
민주평화 당·
통일 의</w>
넘어 가
데이 트
치러 진다.</w>
신속 하고</w>
이기 고</w>
시절 에는</w>
오세훈 의</w>
오세훈 은</w>
포기 할</w>
사망 한</w>
내세 웠
1번 지로</w>
안녕하 십니까
01D5E15 2F85D274000001
전라 북도</w>
폐기 물</w>
(왼쪽 )</w>
맞붙 는</w>
De arS
오후 에는</w>
크리 스마
-------------------------------- --------------------------------
진상규 명</w>
수치 다.</w>
오픈 프라이
소셜 네트워크
구속영 장을</w>
항소 심</w>
전일 가
전일 대비
정운 천</w>
시레이 션</w>
게리 맨
인포 맥
weet Hello</w>
증권정보 현재가
DearS weetHello</w>
3 조
A AC
F 9
[ 아산
건 물을</w>
고 질
고 서</w>
국 립</w>
꼴 이</w>
농 단
단 계를</w>
달 래
대 기자</w>
대 사를</w>
등 급</w>
로 비
리 버
면 죄
바 를</w>
비 리가</w>
사 찰</w>
속 초</w>
스 탄</w>
않 기를</w>
엄 마</w>
연 말까지</w>
영 암
이 계
이 고
일 사
읽 기</w>
있 더라도</w>
점 령
정 중
주 동
증 진
증 상</w>
참 가</w>
철 수</w>
청 사진을</w>
체 육</w>
초 ,</w>
카 톡
특 감
파 에</w>
폭 등
힘 들었
on @asiae.co.kr</w>
정당 이라고</w>
사람 만</w>
사람 들,</w>
들어 서는</w>
연합 (
필요 하고</w>
관계 ,</w>
사업 도</w>
여러분 은</w>
.2 4</w>
되었 으며,</w>
인천 시
88 63
공수처 법은</w>
누구 에게</w>
보이 지만</w>
도입 하는</w>
안보 ,</w>
신청 구
표현 은</w>
09 6F
비서관 과</w>
나왔 다</w>
잖아 .</w>
공식 화한</w>
사과 와</w>
출범 했다.</w>
코로나19 에</w>
하라 !</w>
정리 해</w>
기울 여야</w>
이루어 져야</w>
측근 인</w>
감소 한</w>
CA 2
:4 5</w>
가슴 을</w>
깨끗 하게</w>
걸어 온</w>
간절 한</w>
AD 6000000
삼권분 립</w>
범국민 투쟁
6~ 7석,</w>
자료사진 ]</w>
http://www.han i.co.kr/arti/
@hanmail .net</w>
http://news.khan.co.kr/kh_news/khan_art_view.html? artid=
096F AD6000000
# 울산
# 김경욱
5 번</w>
A r
B 00
C ol
D 3E
X /
b y</w>
o ck
“ 검찰</w>
개 각을</w>
관 례
국 내에</w>
그 다음에</w>
당 에서도</w>
더 니
마 인
머 리가</w>
모 셔
미 치
방 명
배 ,</w>
변 이</w>
보 러
본 다고</w>
비 리에</w>
순 국
시 군
아 키
옮 겼
원 론
원 동</w>
유 의미
윤 희
이 니
이 다”라고</w>
인 선을</w>
자 서
정 가</w>
제 조</w>
제 기를</w>
조 문</w>
줄 여
지 각
지 수가</w>
진 도</w>
청 도</w>
추 봉</w>
친 인
테 니
펼 치기</w>
폭 망
프 로</w>
했 다"면서</w>
환 영</w>
선거 비용
아니 더라도</w>
들어 가고</w>
&gt; 과의</w>
16 000001B
27 20F
13 5EDE000000
혁신 은</w>
주의 ,</w>
29 000000
평화 가</w>
계획 도</w>
DA 135EDE000000
89 E13
8F 4000000
논란 ,</w>
un g</w>
환경 ,</w>
구미 갑</w>
촉구 하며</w>
9E 1E4
신뢰 할</w>
제공 )</w>
AC 89E13
개선 과</w>
선출 됐다.</w>
촛불 혁명
변호사 와</w>
안철수 ·
고위 급</w>
법률 에</w>
장애인 ,</w>
CB 16000001B
\xa0\xa0 ☎\xa0
01D5B89 DA135EDE000000
3E 9E1E4
부처 의</w>
2020.0 2.2
인사청문 회
E8 CBF
01D5CD 3E9E1E4
허위 사실
입문 한</w>
주간 집
부추 기는</w>
장학 금</w>
가득 한</w>
ram e</w>
드루 킹
팽팽 한</w>
01D5C5ED E8CBF
신민 당</w>
01D5B89B 2720F
전격 적으로</w>
01D5CD2C AC89E13
소재·부품·장 비</w>
WT O</w>
https://news.naver.com/main/read.nhn?mode=LSD&amp;mid= sec
홍사 덕</w>
5438 8F4000000
8863 CB16000001B
01D5CD3E9E1E4 CF000001
01D5C5EDE8CBF 7A000000
01D5B89B2720F 29000000
. 17
3 개
? !</w>
S e
d ent
f 8A
n i
w o
‘ 유
강 사</w>
계 산이</w>
공 짜
날 까지</w>
노 숙
당 하게</w>
독 식
독 특
두 터
들 보다</w>
론 '</w>
률 도</w>
별 세
병 (ASF
복 수
불 화
사 학
사 리</w>
생 이</w>
소 회를</w>
수 주</w>
순 차적으로</w>
신 유진</w>
아 냐
안 하고</w>
안 된다는</w>
않 습니까?\xa0
양 구</w>
원 도</w>
을 까요?</w>
이 력을</w>
일 대에서</w>
읽 는</w>
재 활
즐 겁
지 위</w>
취 하는</w>
태 영</w>
터 져
판 에서</w>
표 심
합 해</w>
항 은</w>
혜 택</w>
훈 기자</w>
힘 찬</w>
의원 연맹</w>
출마 해야</w>
총리 직을</w>
때문 이었다.</w>
200 9</w>
혁신 안이</w>
요구 한다.</w>
책임 도</w>
전략 이다.</w>
산업 부</w>
세종 특별자치
도시 철도</w>
비례대표 제의</w>
정상 회의
예상 됩니다.</w>
김영 진</w>
의료 원</w>
달라 지는</w>
구미 시</w>
공무 집행
개최 하고</w>
-2 1</w>
um =
당( 가칭
선임 기자
느끼 지</w>
해외 에서</w>
대부분 을</w>
변경 을</w>
오신 환
위해서 다.</w>
2· 27</w>
강서 갑</w>
논쟁 을</w>
tb s</w>
경청 하고</w>
기원 합니다.</w>
하더라 .</w>
강석 호</w>
경로 당</w>
비유 하자면</w>
01D5D70BFDAB1F0000000 F
뉴라이 트
1주 일</w>
for ma
면세 점</w>
1948 년</w>
매니페 스토
더군 다나</w>
침탈 과</w>
# 나주
( 황</w>
( 2019
0 .7
5 86
7 기</w>
9 억</w>
C 1
T M
c h</w>
f ont</w>
y i
‘ 공정
“ 당의</w>
강 성</w>
겁 니다</w>
계 십니다.</w>
국 과</w>
그 대
기 위해</w>
남 천
내 일은</w>
도 화
모 의</w>
무 대에서</w>
미 칠
박 양
배 지를</w>
보 니
서 고</w>
석 )
성 희
승 패를</w>
시 즌</w>
안 착
어 이
연 천</w>
이 .</w>
전 주시
전 력이</w>
제 2</w>
지 형이</w>
총 선거에</w>
추 종
추 혜선</w>
치 렀
텐 트를</w>
티 ,</w>
피 하는</w>
하 다"며</w>
하 므로</w>
해 보니</w>
훈 \xa0&gt;\xa0
한국 경제</w>
정치 라는</w>
출마 했다.</w>
지지 자들을</w>
정책 들을</w>
국회의원 도</w>
사업 자</w>
책임 대표는</w>
이었 지만,</w>
pt ;
발언 도</w>
어려 웠
국정 의</w>
진보 진영이</w>
대응 ,</w>
않는 다
보도 는</w>
자체 에</w>
공수처 에</w>
성장 한</w>
실시 해</w>
보이 면서</w>
.\xa0 \xa0
자치 분권
:0 cm
찾아 서</w>
시행 령
안정 과</w>
기반 한</w>
스럽 고</w>
업무 에</w>
바랍 니다</w>
방안 과</w>
비슷 하게</w>
근무 를</w>
키워 드</w>
오차 범위
다짐 을</w>
증거 인
철회 하고</w>
이렇 듯</w>
피의 사실</w>
의문 이다.</w>
신호 탄
선별 적</w>
구리 시</w>
자처 하는</w>
행안 부</w>
정관 용
박시 영</w>
공식화 했다.</w>
[...]
