{"<unk>":0,"!":1,"\"":2,"#":3,"%":4,"&":5,"'":6,"(":7,")":8,"*":9,"+":10,",":11,"-":12,".":13,"/":14,"0":15,"1":16,"2":17,"3":18,"4":19,"5":20,"6":21,"7":22,"8":23,"9":24,":":25,";":26,"<":27,"=":28,">":29,"?":30,"@":31,"A":32,"B":33,"C":34,"D":35,"E":36,"F":37,"G":38,"H":39,"I":40,"J":41,"K":42,"L":43,"M":44,"N":45,"O":46,"P":47,"Q":48,"R":49,"S":50,"T":51,"U":52,"V":53,"W":54,"X":55,"Y":56,"Z":57,"[":58,"\\":59,"]":60,"^":61,"_":62,"`":63,"a":64,"b":65,"c":66,"d":67,"e":68,"f":69,"g":70,"h":71,"i":72,"j":73,"k":74,"l":75,"m":76,"n":77,"o":78,"p":79,"q":80,"r":81,"s":82,"t":83,"u":84,"v":85,"w":86,"x":87,"y":88,"z":89,"{":90,"|":91,"}":92,"~":93,"©":94,"±":95,"·":96,"―":97,"‘":98,"’":99,"“":100,"”":101,"•":102,"․":103,"…":104,"‧":105,"※":106,"↑":107,"→":108,"∼":109,"①":110,"②":111,"ⓒ":112,"■":113,"□":114,"▲":115,"△":116,"▶":117,"▷":118,"◆":119,"◇":120,"○":121,"◎":122,"●":123,"☎":124,"☞":125,"《":126,"》":127,"「":128,"」":129,"『":130,"』":131,"【":132,"】":133,"ㅋ":134,"ㅎ":135,"ㅡ":136,"ㆍ":137,"中":138,"前":139,"北":140,"文":141,"美":142,"與":143,"靑":144,"가":145,"각":146,"간":147,"갈":148,"감":149,"갑":150,"값":151,"갔":152,"강":153,"갖":154,"같":155,"개":156,"객":157,"갤":158,"거":159,"걱":160,"건":161,"걷":162,"걸":163,"검":164,"겁":165,"것":166,"게":167,"겐":168,"겠":169,"겨":170,"격":171,"겪":172,"견":173,"결":174,"겸":175,"겼":176,"경":177,"계":178,"고":179,"곡":180,"곤":181,"곧":182,"골":183,"곳":184,"공":185,"과":186,"곽":187,"관":188,"괄":189,"광":190,"괜":191,"괴":192,"굉":193,"교":194,"구":195,"국":196,"군":197,"굳":198,"굴":199,"궁":200,"권":201,"궐":202,"귀":203,"규":204,"균":205,"그":206,"극":207,"근":208,"글":209,"금":210,"급":211,"긋":212,"긍":213,"기":214,"긴":215,"길":216,"김":217,"깃":218,"깊":219,"까":220,"깔":221,"깜":222,"깝":223,"깨":224,"꺼":225,"께":226,"껴":227,"꼬":228,"꼭":229,"꼴":230,"꼼":231,"꼽":232,"꽃":233,"꾸":234,"꾼":235,"꿀":236,"꿈":237,"꿔":238,"뀌":239,"끄":240,"끈":241,"끊":242,"끌":243,"끔":244,"끗":245,"끝":246,"끼":247,"낌":248,"나":249,"낙":250,"난":251,"날":252,"낡":253,"남":254,"납":255,"났":256,"낭":257,"낮":258,"낳":259,"내":260,"낸":261,"낼":262,"냈":263,"냉":264,"냐":265,"냥":266,"너":267,"널":268,"넓":269,"넘":270,"넣":271,"네":272,"넷":273,"녀":274,"녁":275,"년":276,"념":277,"녕":278,"노":279,"녹":280,"논":281,"놀":282,"놈":283,"농":284,"높":285,"놓":286,"놨":287,"뇌":288,"누":289,"눈":290,"눠":291,"뉴":292,"느":293,"는":294,"늘":295,"능":296,"늦":297,"니":298,"닌":299,"닐":300,"님":301,"닙":302,"닝":303,"다":304,"닥":305,"단":306,"닫":307,"달":308,"담":309,"답":310,"닷":311,"당":312,"대":313,"댓":314,"더":315,"덕":316,"던":317,"덜":318,"덧":319,"덮":320,"데":321,"델":322,"도":323,"독":324,"돈":325,"돌":326,"돕":327,"동":328,"돼":329,"됐":330,"되":331,"된":332,"될":333,"됨":334,"됩":335,"두":336,"둑":337,"둔":338,"둘":339,"둥":340,"뒤":341,"뒷":342,"드":343,"득":344,"든":345,"듣":346,"들":347,"듭":348,"듯":349,"등":350,"디":351,"딜":352,"딩":353,"따":354,"딱":355,"딸":356,"땅":357,"때":358,"땐":359,"떠":360,"떤":361,"떨":362,"떻":363,"떼":364,"또":365,"똑":366,"뚜":367,"뛰":368,"뜨":369,"뜻":370,"띄":371,"띠":372,"라":373,"락":374,"란":375,"람":376,"랍":377,"랐":378,"랑":379,"래":380,"랙":381,"랜":382,"램":383,"랫":384,"랬":385,"략":386,"량":387,"러":388,"럭":389,"런":390,"럴":391,"럼":392,"럽":393,"렀":394,"렇":395,"레":396,"렌":397,"려":398,"력":399,"련":400,"렬":401,"렴":402,"렵":403,"렷":404,"렸":405,"령":406,"례":407,"로":408,"록":409,"론":410,"롬":411,"롭":412,"롯":413,"롱":414,"뢰":415,"료":416,"룡":417,"루":418,"룰":419,"룸":420,"룹":421,"뤄":422,"류":423,"륙":424,"륜":425,"률":426,"르":427,"른":428,"를":429,"름":430,"릇":431,"릉":432,"리":433,"릭":434,"린":435,"릴":436,"림":437,"립":438,"릿":439,"링":440,"마":441,"막":442,"만":443,"많":444,"말":445,"맙":446,"맛":447,"망":448,"맞":449,"맡":450,"매":451,"맥":452,"맨":453,"맹":454,"맺":455,"머":456,"먹":457,"먼":458,"멀":459,"멈":460,"메":461,"멘":462,"며":463,"면":464,"멸":465,"명":466,"몇":467,"모":468,"목":469,"몫":470,"몰":471,"몸":472,"못":473,"몽":474,"묘":475,"무":476,"묵":477,"묶":478,"문":479,"묻":480,"물":481,"뭉":482,"뭐":483,"뭔":484,"뭘":485,"뮤":486,"므":487,"미":488,"민":489,"믿":490,"밀":491,"및":492,"밑":493,"바":494,"박":495,"밖":496,"반":497,"받":498,"발":499,"밝":500,"밟":501,"밤":502,"밥":503,"방":504,"밭":505,"배":506,"백":507,"버":508,"번":509,"벌":510,"범":511,"법":512,"벗":513,"베":514,"벤":515,"벨":516,"벽":517,"변":518,"별":519,"병":520,"보":521,"복":522,"본":523,"볼":524,"봄":525,"봅":526,"봉":527,"봐":528,"봤":529,"부":530,"북":531,"분":532,"불":533,"붕":534,"붙":535,"뷰":536,"브":537,"블":538,"비":539,"빅":540,"빈":541,"빌":542,"빙":543,"빚":544,"빛":545,"빠":546,"빨":547,"빼":548,"뻔":549,"뽑":550,"뿌":551,"뿐":552,"쁘":553,"쁜":554,"사":555,"삭":556,"산":557,"살":558,"삶":559,"삼":560,"샀":561,"상":562,"새":563,"색":564,"생":565,"서":566,"석":567,"선":568,"설":569,"섬":570,"섭":571,"섯":572,"섰":573,"성":574,"세":575,"센":576,"셀":577,"셈":578,"셋":579,"셔":580,"션":581,"셜":582,"셨":583,"소":584,"속":585,"손":586,"솔":587,"송":588,"쇄":589,"쇼":590,"수":591,"숙":592,"순":593,"술":594,"숨":595,"숫":596,"숭":597,"쉬":598,"쉽":599,"슈":600,"스":601,"슨":602,"슬":603,"슴":604,"습":605,"슷":606,"승":607,"시":608,"식":609,"신":610,"실":611,"싫":612,"심":613,"십":614,"싱":615,"싶":616,"싸":617,"싼":618,"쌓":619,"써":620,"썼":621,"쏟":622,"쏠":623,"쓰":624,"쓴":625,"쓸":626,"씀":627,"씨":628,"씩":629,"씬":630,"아":631,"악":632,"안":633,"앉":634,"않":635,"알":636,"암":637,"압":638,"앗":639,"았":640,"앙":641,"앞":642,"애":643,"액":644,"앤":645,"앵":646,"야":647,"약":648,"양":649,"얘":650,"어":651,"억":652,"언":653,"얻":654,"얼":655,"엄":656,"업":657,"없":658,"엇":659,"었":660,"엉":661,"에":662,"엔":663,"엘":664,"엠":665,"여":666,"역":667,"연":668,"열":669,"염":670,"엽":671,"였":672,"영":673,"옆":674,"예":675,"옛":676,"오":677,"옥":678,"온":679,"올":680,"옮":681,"옳":682,"옵":683,"옹":684,"와":685,"완":686,"왔":687,"왕":688,"왜":689,"외":690,"왼":691,"요":692,"욕":693,"용":694,"우":695,"욱":696,"운":697,"울":698,"움":699,"웃":700,"웅":701,"워":702,"원":703,"월":704,"웠":705,"웨":706,"위":707,"윗":708,"유":709,"육":710,"윤":711,"율":712,"융":713,"으":714,"은":715,"을":716,"음":717,"읍":718,"응":719,"의":720,"이":721,"익":722,"인":723,"일":724,"읽":725,"잃":726,"임":727,"입":728,"잇":729,"있":730,"잉":731,"잊":732,"자":733,"작":734,"잔":735,"잖":736,"잘":737,"잠":738,"잡":739,"장":740,"재":741,"쟁":742,"저":743,"적":744,"전":745,"절":746,"젊":747,"점":748,"접":749,"정":750,"제":751,"젝":752,"젠":753,"져":754,"졌":755,"조":756,"족":757,"존":758,"졸":759,"좀":760,"좁":761,"종":762,"좋":763,"좌":764,"죄":765,"죠":766,"주":767,"죽":768,"준":769,"줄":770,"중":771,"줘":772,"줬":773,"쥐":774,"즈":775,"즉":776,"즌":777,"즐":778,"즘":779,"증":780,"지":781,"직":782,"진":783,"질":784,"짐":785,"집":786,"짓":787,"징":788,"짜":789,"짝":790,"짧":791,"째":792,"쨌":793,"쪽":794,"쯤":795,"찌":796,"찍":797,"차":798,"착":799,"찬":800,"찮":801,"찰":802,"참":803,"창":804,"찾":805,"채":806,"책":807,"챙":808,"처":809,"척":810,"천":811,"철":812,"첨":813,"첩":814,"첫":815,"청":816,"체":817,"쳐":818,"쳤":819,"초":820,"촉":821,"촌":822,"촛":823,"총":824,"촬":825,"최":826,"추":827,"축":828,"춘":829,"출":830,"춤":831,"충":832,"춰":833,"취":834,"츠":835,"측":836,"층":837,"치":838,"칙":839,"친":840,"칠":841,"침":842,"칭":843,"카":844,"칼":845,"캐":846,"캠":847,"캡":848,"커":849,"컨":850,"컴":851,"컷":852,"케":853,"켓":854,"켜":855,"켰":856,"코":857,"콘":858,"콜":859,"콩":860,"쾌":861,"쿠":862,"크":863,"큰":864,"클":865,"큼":866,"키":867,"킨":868,"킬":869,"킹":870,"타":871,"탁":872,"탄":873,"탈":874,"탐":875,"탑":876,"탓":877,"탕":878,"태":879,"택":880,"터":881,"턴":882,"털":883,"텃":884,"테":885,"텍":886,"텐":887,"텔":888,"템":889,"토":890,"톡":891,"톤":892,"톱":893,"통":894,"퇴":895,"투":896,"튜":897,"트":898,"특":899,"튼":900,"틀":901,"티":902,"팀":903,"팅":904,"파":905,"팎":906,"판":907,"팔":908,"패":909,"팩":910,"팬":911,"팽":912,"퍼":913,"펀":914,"페":915,"펜":916,"펴":917,"편":918,"펼":919,"평":920,"폐":921,"포":922,"폭":923,"폰":924,"폴":925,"폼":926,"표":927,"푸":928,"풀":929,"품":930,"풍":931,"퓰":932,"프":933,"픈":934,"플":935,"피":936,"픽":937,"핀":938,"필":939,"핑":940,"하":941,"학":942,"한":943,"할":944,"함":945,"합":946,"항":947,"해":948,"핵":949,"했":950,"행":951,"향":952,"허":953,"헌":954,"험":955,"헤":956,"헬":957,"혀":958,"혁":959,"현":960,"혈":961,"혐":962,"협":963,"혔":964,"형":965,"혜":966,"호":967,"혹":968,"혼":969,"홀":970,"홈":971,"홍":972,"화":973,"확":974,"환":975,"활":976,"황":977,"회":978,"획":979,"횡":980,"효":981,"후":982,"훈":983,"훨":984,"훼":985,"휘":986,"휴":987,"흐":988,"흔":989,"흘":990,"흠":991,"흡":992,"흥":993,"희":994,"히":995,"힌":996,"힐":997,"힘":998,"女":999,"﻿":1000,"만</w>":1001,"는</w>":1002,"가</w>":1003,"서</w>":1004,".</w>":1005,"주</w>":1006,"수</w>":1007,"을</w>":1008,"◎</w>":1009,"에</w>":1010,")</w>":1011,"자</w>":1012,"장</w>":1013,"명</w>":1014,",</w>":1015,"고</w>":1016,"필</w>":1017,":</w>":1018,"며</w>":1019,"의</w>":1020,"방</w>":1021,"다</w>":1022,"도</w>":1023,"좌</w>":1024,"면</w>":1025,"0</w>":1026,"이</w>":1027,"지</w>":1028,"과</w>":1029,"게</w>":1030,"감</w>":1031,"인</w>":1032,"3</w>":1033,"ㆍ</w>":1034,"럼</w>":1035,"로</w>":1036,"%</w>":1037,"니</w>":1038,"4</w>":1039,"사</w>":1040,"평</w>":1041,"를</w>":1042,"싱</w>":1043,"즈</w>":1044,"들</w>":1045,"승</w>":1046,"분</w>":1047,"회</w>":1048,"?</w>":1049,"나</w>":1050,"던</w>":1051,"동</w>":1052,"간</w>":1053,"론</w>":1054,"기</w>":1055,"까</w>":1056,"일</w>":1057,"2</w>":1058,"…</w>":1059,"대</w>":1060,"춘</w>":1061,"역</w>":1062,"요</w>":1063,"더</w>":1064,"영</w>":1065,"'</w>":1066,"은</w>":1067,"야</w>":1068,"계</w>":1069,"음</w>":1070,"께</w>":1071,"데</w>":1072,"남</w>":1073,"전</w>":1074,"희</w>":1075,"(</w>":1076,"n</w>":1077,"용</w>":1078,"된</w>":1079,"r</w>":1080,"조</w>":1081,"층</w>":1082,"란</w>":1083,"치</w>":1084,"력</w>":1085,"관</w>":1086,"~</w>":1087,"’</w>":1088,"리</w>":1089,"선</w>":1090,"손</w>":1091,"금</w>":1092,"물</w>":1093,"당</w>":1094,"설</w>":1095,"될</w>":1096,"신</w>":1097,"종</w>":1098,"와</w>":1099,"년</w>":1100,"라</w>":1101,"p</w>":1102,"든</w>":1103,"터</w>":1104,"할</w>":1105,"날</w>":1106,"안</w>":1107,"해</w>":1108,"`</w>":1109,"패</w>":1110,"폭</w>":1111,"정</w>":1112,"S</w>":1113,"건</w>":1114,"탄</w>":1115,"려</w>":1116,"·</w>":1117,"료</w>":1118,"진</w>":1119,"차</w>":1120,"단</w>":1121,"원</w>":1122,"→</w>":1123,"여</w>":1124,"성</w>":1125,"시</w>":1126,"7</w>":1127,"o</w>":1128,"국</w>":1129,"!</w>":1130,"소</w>":1131,"포</w>":1132,"=</w>":1133,"배</w>":1134,"득</w>":1135,"부</w>":1136,"타</w>":1137,"]</w>":1138,"별</w>":1139,"냥</w>":1140,"침</w>":1141,"무</w>":1142,"권</w>":1143,"_</w>":1144,"른</w>":1145,"래</w>":1146,"땐</w>":1147,"파</w>":1148,"티</w>":1149,"보</w>":1150,"경</w>":1151,"구</w>":1152,"록</w>":1153,"듯</w>":1154,"1</w>":1155,"적</w>":1156,"a</w>":1157,"↑</w>":1158,"크</w>":1159,"트</w>":1160,"U</w>":1161,"한</w>":1162,"례</w>":1163,"되</w>":1164,"써</w>":1165,"험</w>":1166,"욱</w>":1167,"즉</w>":1168,"혜</w>":1169,"머</w>":1170,"러</w>":1171,"쟁</w>":1172,"”</w>":1173,"실</w>":1174,"새</w>":1175,"갈</w>":1176,"술</w>":1177,"5</w>":1178,"등</w>":1179,"낼</w>":1180,"거</w>":1181,"련</w>":1182,"^</w>":1183,"m</w>":1184,"변</w>":1185,"엔</w>":1186,"준</w>":1187,"어</w>":1188,"숙</w>":1189,"제</w>":1190,"\\</w>":1191,"공</w>":1192,"청</w>":1193,"울</w>":1194,"냐</w>":1195,"직</w>":1196,"송</w>":1197,"업</w>":1198,"D</w>":1199,"급</w>":1200,"A</w>":1201,"스</w>":1202,"황</w>":1203,"월</w>":1204,"법</w>":1205,";</w>":1206,"격</w>":1207,"바</w>":1208,"병</w>":1209,"민</w>":1210,"g</w>":1211,"화</w>":1212,"률</w>":1213,"y</w>":1214,"식</w>":1215,"교</w>":1216,"율</w>":1217,"억</w>":1218,"얼</w>":1219,"저</w>":1220,"ㅡ</w>":1221,"내</w>":1222,"쉬</w>":1223,"양</w>":1224,"난</w>":1225,"후</w>":1226,"씨</w>":1227,"비</w>":1228,"☎</w>":1229,"8</w>":1230,"북</w>":1231,"재</w>":1232,"산</w>":1233,"착</w>":1234,"l</w>":1235,"개</w>":1236,"6</w>":1237,"상</w>":1238,"B</w>":1239,"범</w>":1240,"□</w>":1241,"E</w>":1242,"히</w>":1243,"석</w>":1244,"t</w>":1245,"덕</w>":1246,"훈</w>":1247,"하</w>":1248,"연</w>":1249,"복</w>":1250,"홍</w>":1251,"학</w>":1252,"길</w>":1253,"슴</w>":1254,"근</w>":1255,"온</w>":1256,"광</w>":1257,"열</w>":1258,"중</w>":1259,"e</w>":1260,"령</w>":1261,"커</w>":1262,"습</w>":1263,"표</w>":1264,"런</w>":1265,"속</w>":1266,"룰</w>":1267,"언</w>":1268,"문</w>":1269,"C</w>":1270,"-</w>":1271,"목</w>":1272,"째</w>":1273,"및</w>":1274,"뷰</w>":1275,"림</w>":1276,"J</w>":1277,"ㅋ</w>":1278,"션</w>":1279,"핵</w>":1280,"족</w>":1281,"박</w>":1282,"축</w>":1283,"값</w>":1284,"처</w>":1285,"함</w>":1286,"악</w>":1287,"레</w>":1288,"약</w>":1289,"끔</w>":1290,"브</w>":1291,"줄</w>":1292,"섭</w>":1293,"짜</w>":1294,"형</w>":1295,"출</w>":1296,"철</w>":1297,"콜</w>":1298,"돼</w>":1299,"떤</w>":1300,"늘</w>":1301,"르</w>":1302,"했</w>":1303,"짝</w>":1304,"천</w>":1305,"탓</w>":1306,"현</w>":1307,"창</w>":1308,"합</w>":1309,"웅</w>":1310,"반</w>":1311,"생</w>":1312,"질</w>":1313,"랑</w>":1314,"흥</w>":1315,"군</w>":1316,"+</w>":1317,"미</w>":1318,"마</w>":1319,"능</w>":1320,"위</w>":1321,"액</w>":1322,"곤</w>":1323,"9</w>":1324,"강</w>":1325,"번</w>":1326,"찬</w>":1327,"*</w>":1328,"충</w>":1329,"링</w>":1330,"모</w>":1331,"통</w>":1332,"또</w>":1333,"폐</w>":1334,"규</w>":1335,"균</w>":1336,"순</w>":1337,"때</w>":1338,"극</w>":1339,"태</w>":1340,"P</w>":1341,"네</w>":1342,"발</w>":1343,"행</w>":1344,"말</w>":1345,"운</w>":1346,"첩</w>":1347,"협</w>":1348,"랙</w>":1349,"▶</w>":1350,"뿐</w>":1351,"롱</w>":1352,"걸</w>":1353,"죄</w>":1354,"품</w>":1355,"호</w>":1356,"채</w>":1357,"큼</w>":1358,"H</w>":1359,"김</w>":1360,"K</w>":1361,"긴</w>":1362,"s</w>":1363,"풍</w>":1364,"겐</w>":1365,"참</w>":1366,"그</w>":1367,"킨</w>":1368,"우</w>":1369,"답</w>":1370,"큰</w>":1371,"잘</w>":1372,"녕</w>":1373,"쯤</w>":1374,"탁</w>":1375,"Y</w>":1376,"씩</w>":1377,"○</w>":1378,"】</w>":1379,"심</w>":1380,"x</w>":1381,"깃</w>":1382,"임</w>":1383,"측</w>":1384,"망</w>":1385,"루</w>":1386,"테</w>":1387,"점</w>":1388,"두</w>":1389,"람</w>":1390,"총</w>":1391,"작</w>":1392,"것</w>":1393,"입</w>":1394,"항</w>":1395,"램</w>":1396,"빌</w>":1397,"량</w>":1398,"G</w>":1399,"판</w>":1400,"애</w>":1401,"/</w>":1402,"u</w>":1403,"님</w>":1404,"※</w>":1405,"초</w>":1406,"아</w>":1407,"엽</w>":1408,"갑</w>":1409,"드</w>":1410,"핀</w>":1411,"돈</w>":1412,"V</w>":1413,"립</w>":1414,"오</w>":1415,"팅</w>":1416,"외</w>":1417,"글</w>":1418,"름</w>":1419,"뒤</w>":1420,"키</w>":1421,"린</w>":1422,"겨</w>":1423,"킹</w>":1424,"불</w>":1425,"편</w>":1426,"찌</w>":1427,"I</w>":1428,"육</w>":1429,"꽃</w>":1430,"d</w>":1431,"올</w>":1432,"릴</w>":1433,"냉</w>":1434,"예</w>":1435,"j</w>":1436,"킬</w>":1437,"볼</w>":1438,"i</w>":1439,"@</w>":1440,"녀</w>":1441,"렸</w>":1442,"허</w>":1443,"졸</w>":1444,"환</w>":1445,"벌</w>":1446,"혁</w>":1447,"ⓒ</w>":1448,"곳</w>":1449,"융</w>":1450,"■</w>":1451,"“</w>":1452,"카</w>":1453,"담</w>":1454,"세</w>":1455,"팀</w>":1456,"빈</w>":1457,"f</w>":1458,"켜</w>":1459,"혹</w>":1460,"됨</w>":1461,"둔</w>":1462,"즌</w>":1463,"픈</w>":1464,"럽</w>":1465,"먼</w>":1466,"렬</w>":1467,"블</w>":1468,"\"</w>":1469,"콩</w>":1470,"봐</w>":1471,"찰</w>":1472,"z</w>":1473,"죠</w>":1474,"톱</w>":1475,"체</w>":1476,"본</w>":1477,"▲</w>":1478,"룹</w>":1479,"집</w>":1480,"달</w>":1481,"널</w>":1482,"첫</w>":1483,"읍</w>":1484,"딩</w>":1485,"토</w>":1486,"앙</w>":1487,"X</w>":1488,"곡</w>":1489,"휴</w>":1490,"륜</w>":1491,"퍼</w>":1492,"존</w>":1493,"책</w>":1494,"》</w>":1495,"겸</w>":1496,"맹</w>":1497,"완</w>":1498,"베</w>":1499,"피</w>":1500,"․</w>":1501,"h</w>":1502,"솔</w>":1503,"ㅎ</w>":1504,"프</w>":1505,"《</w>":1506,"v</w>":1507,"與</w>":1508,"왕</w>":1509,"검</w>":1510,"택</w>":1511,"北</w>":1512,"w</w>":1513,"M</w>":1514,"셀</w>":1515,"촉</w>":1516,"백</w>":1517,"럴</w>":1518,"디</w>":1519,"』</w>":1520,"욕</w>":1521,"靑</w>":1522,"낌</w>":1523,"휘</w>":1524,"힐</w>":1525,"칠</w>":1526,"뭐</w>":1527,"앞</w>":1528,"k</w>":1529,"퇴</w>":1530,"취</w>":1531,"살</w>":1532,"암</w>":1533,"워</w>":1534,"왜</w>":1535,"윤</w>":1536,"코</w>":1537,"획</w>":1538,"클</w>":1539,"옥</w>":1540,"N</w>":1541,"십</w>":1542,"쪽</w>":1543,"Q</w>":1544,"매</w>":1545,"밥</w>":1546,"져</w>":1547,"맛</w>":1548,"칙</w>":1549,"케</w>":1550,"류</w>":1551,"켓</w>":1552,"유</w>":1553,"Z</w>":1554,"귀</w>":1555,"증</w>":1556,"꼬</w>":1557,"릉</w>":1558,"못</w>":1559,"페</w>":1560,"절</w>":1561,"컴</w>":1562,"렴</w>":1563,"R</w>":1564,"혀</w>":1565,"쓸</w>":1566,"◇</w>":1567,"움</w>":1568,"봉</w>":1569,"향</w>":1570,"알</w>":1571,"짓</w>":1572,"딱</w>":1573,"릭</w>":1574,"낸</w>":1575,"슈</w>":1576,"투</w>":1577,"섬</w>":1578,"꾸</w>":1579,"멸</w>":1580,"객</w>":1581,"팩</w>":1582,"견</w>":1583,"각</w>":1584,"‘</w>":1585,"짐</w>":1586,"잉</w>":1587,"닙</w>":1588,"풀</w>":1589,"츠</w>":1590,"턴</w>":1591,"척</w>":1592,"템</w>":1593,"맥</w>":1594,"염</w>":1595,"념</w>":1596,"눈</w>":1597,"핑</w>":1598,"틀</w>":1599,"T</w>":1600,"둘</w>":1601,"슨</w>":1602,"前</w>":1603,"힌</w>":1604,"홀</w>":1605,"꺼</w>":1606,"닌</w>":1607,"응</w>":1608,"탈</w>":1609,"헌</w>":1610,"L</w>":1611,"텍</w>":1612,"막</w>":1613,"춰</w>":1614,"즘</w>":1615,"밝</w>":1616,"몽</w>":1617,"칭</w>":1618,"O</w>":1619,"」</w>":1620,"밭</w>":1621,"룡</w>":1622,"튼</w>":1623,"락</w>":1624,"힘</w>":1625,"골</w>":1626,"굴</w>":1627,"낮</w>":1628,"묘</w>":1629,"쇄</w>":1630,"W</w>":1631,"뜻</w>":1632,"덜</w>":1633,"밖</w>":1634,"농</w>":1635,"노</w>":1636,"셔</w>":1637,"익</w>":1638,"느</w>":1639,"맨</w>":1640,"았</w>":1641,"☞</w>":1642,"촌</w>":1643,"}</w>":1644,"△</w>":1645,"q</w>":1646,"c</w>":1647,"략</w>":1648,"></w>":1649,"벨</w>":1650,"엄</w>":1651,"섯</w>":1652,"괴</w>":1653,"엠</w>":1654,"최</w>":1655,"삼</w>":1656,"F</w>":1657,"확</w>":1658,"넷</w>":1659,"센</w>":1660,"효</w>":1661,"밤</w>":1662,"밀</w>":1663,"였</w>":1664,"文</w>":1665,"버</w>":1666,"색</w>":1667,"으</w>":1668,"묵</w>":1669,"◆</w>":1670,"훨</w>":1671,"#</w>":1672,"꾼</w>":1673,"中</w>":1674,"딸</w>":1675,"봄</w>":1676,"숨</w>":1677,"친</w>":1678,"깨</w>":1679,"①</w>":1680,"결</w>":1681,"쇼</w>":1682,"닝</w>":1683,"끼</w>":1684,"활</w>":1685,"컷</w>":1686,"둑</w>":1687,"젠</w>":1688,"텔</w>":1689,"너</w>":1690,"[</w>":1691,"닥</w>":1692,"좀</w>":1693,"높</w>":1694,"찍</w>":1695,"플</w>":1696,"딜</w>":1697,"앵</w>":1698,"엘</w>":1699,"슬</w>":1700,"벽</w>":1701,"뿌</w>":1702,"궁</w>":1703,"흠</w>":1704,"옛</w>":1705,"쳐</w>":1706,"털</w>":1707,"흔</w>":1708,"픽</w>":1709,"었</w>":1710,"톤</w>":1711,"콘</w>":1712,"곧</w>":1713,"랍</w>":1714,"탕</w>":1715,"셜</w>":1716,"녁</w>":1717,"독</w>":1718,"잠</w>":1719,"캡</w>":1720,"폰</w>":1721,"륙</w>":1722,"씀</w>":1723,"접</w>":1724,"곽</w>":1725,"듭</w>":1726,"돌</w>":1727,"혼</w>":1728,"|</w>":1729,"없</w>":1730,"폴</w>":1731,"닐</w>":1732,"릇</w>":1733,"빨</w>":1734,"추</w>":1735,"뉴</w>":1736,"렌</w>":1737,"옹</w>":1738,"잡</w>":1739,"빚</w>":1740,"폼</w>":1741,"뭘</w>":1742,"美</w>":1743,"빙</w>":1744,"―</w>":1745,"「</w>":1746,"쥐</w>":1747,"긋</w>":1748,"띠</w>":1749,"메</w>":1750,"납</w>":1751,"톡</w>":1752,"됐</w>":1753,"웃</w>":1754,"빅</w>":1755,"깔</w>":1756,"탐</w>":1757,"꿔</w>":1758,"랜</w>":1759,"캠</w>":1760,"②</w>":1761,"뢰</w>":1762,"벗</w>":1763,"몇</w>":1764,"따</w>":1765,"떼</w>":1766,"b</w>":1767,"몰</w>":1768,"롬</w>":1769,"끌</w>":1770,"압</w>":1771,"넘</w>":1772,"둥</w>":1773,"델</w>":1774,"징</w>":1775,"쁜</w>":1776,"탑</w>":1777,"쿠</w>":1778,"●</w>":1779,"쉽</w>":1780,"잔</w>":1781,"겁</w>":1782,"괄</w>":1783,"잇</w>":1784,"흐</w>":1785,"궐</w>":1786,"춤</w>":1787,"팬</w>":1788,"뇌</w>":1789,"앤</w>":1790,"누</w>":1791,"﻿</w>":1792,"칼</w>":1793,"룸</w>":1794,"벤</w>":1795,"릿</w>":1796,"멈</w>":1797,"텐</w>":1798,"푸</w>":1799,"빠</w>":1800,"셋</w>":1801,"•</w>":1802,"쓰</w>":1803,"꼴</w>":1804,"싼</w>":1805,"걱</w>":1806,"꼭</w>":1807,"©</w>":1808,"윗</w>":1809,"혈</w>":1810,"뭉</w>":1811,"쓴</w>":1812,"렇</w>":1813,"삶</w>":1814,"좋</w>":1815,"죽</w>":1816,"끗</w>":1817,"덧</w>":1818,"줘</w>":1819,"꿈</w>":1820,"랫</w>":1821,"빛</w>":1822,"끝</w>":1823,"팔</w>":1824,"갤</w>":1825,"났</w>":1826,"셈</w>":1827,"붕</w>":1828,"흘</w>":1829,"싸</w>":1830,"웨</w>":1831,"펀</w>":1832,"럭</w>":1833,"놀</w>":1834,"컨</w>":1835,"싶</w>":1836,"밑</w>":1837,"갖</w>":1838,"있</w>":1839,"졌</w>":1840,"숭</w>":1841,"멘</w>":1842,"±</w>":1843,"땅</w>":1844,"떨</w>":1845,"렷</w>":1846,"첨</w>":1847,"렵</w>":1848,"뻔</w>":1849,"앗</w>":1850,"꿀</w>":1851,"엇</w>":1852,"녹</w>":1853,"낙</w>":1854,"엉</w>":1855,"∼</w>":1856,"멀</w>":1857,"껴</w>":1858,"젊</w>":1859,"팎</w>":1860,"놈</w>":1861,"캐</w>":1862,"왔</w>":1863,"옆</w>":1864,"같</w>":1865,"훼</w>":1866,"‧</w>":1867,"女</w>":1868,"몸</w>":1869,"쾌</w>":1870,"&</w>":1871,"낭</w>":1872,"겪</w>":1873,"먹</w>":1874,"겠</w>":1875,"닷</w>":1876,"뭔</w>":1877,"롭</w>":1878,"헬</w>":1879,"펜</w>":1880,"빼</w>":1881,"삭</w>":1882,"횡</w>":1883,"뮤</w>":1884,"끈</w>":1885,"【</w>":1886,"▷</w>":1887,"홈</w>":1888,"앉</w>":1889,"논</w>":1890,"헤</w>":1891,"놓</w>":1892,"{</w>":1893,"혐</w>":1894,"댓</w>":1895,"슷</w>":1896,"많</w>":1897,"떠</w>":1898,"혔</w>":1899,"롯</w>":1900,"않</w>":1901,"왼</w>":1902,"흡</w>":1903,"맡</w>":1904,"얘</w>":1905,"됩</w>":1906,"씬</w>":1907,"끄</w>":1908,"꼼</w>":1909,"팽</w>":1910,"뛰</w>":1911,"꼽</w>":1912,"펴</w>":1913,"특</w>":1914,"겼</w>":1915,"낡</w>":1916,"눠</w>":1917,"깜</w>":1918,"뤄</w>":1919,"옮</w>":1920,"즐</w>":1921,"긍</w>":1922,"몫</w>":1923,"받</w>":1924,"밟</w>":1925,"뽑</w>":1926,"튜</w>":1927,"므</w>":1928,"셨</w>":1929,"젝</w>":1930,"찮</w>":1931,"『</w>":1932,"뜨</w>":1933,"넣</w>":1934,"뚜</w>":1935,"깝</w>":1936,"켰</w>":1937,"찾</w>":1938,"쏠</w>":1939,"옵</w>":1940,"짧</w>":1941,"웠</w>":1942,"촬</w>":1943,"쌓</w>":1944,"잖</w>":1945,"덮</w>":1946,"뒷</w>":1947,"렀</w>":1948,"뀌</w>":1949,"갔</w>":1950,"쁘</w>":1951,"섰</w>":1952,"똑</w>":1953,"랬</w>":1954,"촛</w>":1955,"펼</w>":1956,"맞</w>":1957,"떻</w>":1958,"묻</w>":1959,"믿</w>":1960,"다.</w>":1961,"00":1962,"으로</w>":1963,"에서</w>":1964,"\\'":1965,"니다.</w>":1966,"하는</w>":1967,"했다.</w>":1968,"01":1969,"의원":1970,"xa":1971,"\\xa":1972,"하고</w>":1973,"민주":1974,"대표":1975,"다.":1976,"한국":1977,"0000":1978,"\\xa0":1979,"이다.</w>":1980,"선거":1981,"국회":1982,"정치":1983,"위원":1984,"20":1985,"다는</w>":1986,"이라":1987,"..":1988,"습니다.</w>":1989,"후보":1990,"있다.</w>":1991,"se":1992,"다고</w>":1993,"le":1994,"0,":1995,".c":1996,"대통":1997,"다”":1998,"있는</w>":1999,"지역":2000,"국민":2001,"D5":2002,"01D5":2003,"들이</w>":2004,"고,</w>":2005,"21":2006,"gt":2007,"자유":2008,"201":2009,".co":2010,"총선":2011,"면서</w>":2012,"al":2013,"&gt":2014,"en":2015,"대통령":2016,"in":2017,"da":2018,"지만</w>":2019,"대한</w>":2020,"에서":2021,"정부":2022,"의원</w>":2023,"민주당</w>":2024,"19":2025,"fal":2026,"false":2027,"000000":2028,"까지</w>":2029,"한국당</w>":2030,"총선</w>":2031,"false,":2032,"한국당":2033,"p:</w>":2034,"id":2035,"10":2036,"한다.</w>":2037,"민주당":2038,"에게</w>":2039,"출마":2040,");</w>":2041,"on":2042,"ent":2043,"예비":2044,"하게</w>":2045,"적으로</w>":2046,"문재":2047,"다”고</w>":2048,"미래":2049,"적인</w>":2050,"이라고</w>":2051,"ble":2052,"들의</w>":2053,"ti":2054,"dable":2055,"아니":2056,"정당":2057,"총리":2058,"하겠":2059,"서울":2060,"더불":2061,"경제":2062,"하지</w>":2063,"위해</w>":2064,"통합":2065,"생각":2066,"ht":2067,"부터</w>":2068,"er":2069,"사람":2070,"지난</w>":2071,"라고</w>":2072,"ar":2073,"ww":2074,"더불어":2075,"문재인</w>":2076,"기자":2077,"에는</w>":2078,".k":2079,"지지":2080,"었다.</w>":2081,"우리":2082,"습니":2083,"해야</w>":2084,"것으로</w>":2085,"위원장":2086,"ew":2087,"&gt;</w>":2088,"해서</w>":2089,"때문":2090,"nc":2091,"//":2092,"[b":2093,"d[b":2094,"d[b]":2095,"re":2096,"am":2097,"15":2098,"21대</w>":2099,"문제":2100,"들은</w>":2101,"\\xa0</w>":2102,"으로":2103,"18":2104,"그러":2105,"입니다.</w>":2106,"lt":2107,"요.</w>":2108,"ment":2109,"의원은</w>":2110,"정책":2111,"48":2112,"--":2113,"12":2114,"01D5E":2115,"뉴스":2116,"는데</w>":2117,"것은</w>":2118,"대표</w>":2119,"위한</w>":2120,"리고</w>":2121,"대한":2122,"했다.":2123,"비례":2124,"시장":2125,"청와":2126,".co.k":2127,"대표는</w>":2128,"\\');</w>":2129,"되는</w>":2130,"si":2131,"가능":2132,"황교":2133,"기자</w>":2134,"사회":2135,"라는</w>":2136,"다\"":2137,"t:</w>":2138,"에서는</w>":2139,"&lt":2140,"보수":2141,"국회</w>":2142,"do":2143,"자유한국당</w>":2144,"국회의원":2145,"예비후보":2146,"사를</w>":2147,"후보</w>":2148,"하기</w>":2149,"것이다.</w>":2150,"(\\'":2151,"tp":2152,"검찰":2153,"국회의원</w>":2154,"http":2155,"정의":2156,"것이</w>":2157,"상황":2158,"서울</w>":2159,"우리</w>":2160,"함께</w>":2161,"장관":2162,"11":2163,"30":2164,"://":2165,"회의":2166,"대해</w>":2167,"&lt;":2168,"]}":2169,"이런</w>":2170,"장을</w>":2171,"대로</w>":2172,"들어":2173,"공천":2174,"진행":2175,"ews":2176,"연합":2177,"이날</w>":2178,"에도</w>":2179,"밝혔":2180,"하면</w>":2181,"들을</w>":2182,"통해</w>":2183,"시민":2184,"황교안</w>":2185,"17":2186,"대표가</w>":2187,"et":2188,"100":2189,"더불어민주당</w>":2190,"[{":2191,"대한민":2192,"...</w>":2193,"원내":2194,"ta":2195,"200":2196,"&gt;":2197,"도록</w>":2198,"기를</w>":2199,"말했다.</w>":2200,"an":2201,"14":2202,"1,":2203,"지는</w>":2204,"합니다.</w>":2205,"),</w>":2206,"50":2207,"이라는</w>":2208,"선거</w>":2209,"리를</w>":2210,"당의</w>":2211,"필요":2212,"news":2213,"것이":2214,"서는</w>":2215,"렇게</w>":2216,"것을</w>":2217,"이번</w>":2218,"국가":2219,"보다</w>":2220,".co.kr":2221,"없는</w>":2222,"같은</w>":2223,".p":2224,"관계":2225,"인사":2226,"e.":2227,"사실":2228,"개혁":2229,"og":2230,"지역</w>":2231,"관련":2232,"amp":2233,"36":2234,"di":2235,"당이</w>":2236,"2020":2237,"w.":2238,"자는</w>":2239,",b":2240,"get":2241,"&amp":2242,"조사":2243,"하며</w>":2244,"지난":2245,"다면</w>":2246,".q":2247,"dable(\\'":2248,"d[b].q":2249,"fu":2250,"의원이</w>":2251,"다른</w>":2252,"자유한국당":2253,"다”며</w>":2254,"된다.</w>":2255,"나라":2256,"()":2257,"중앙":2258,"16":2259,"장은</w>":2260,"정권":2261,"ncti":2262,"functi":2263,"자신":2264,"다.\\xa0":2265,"27":2266,"기도</w>":2267,"때문에</w>":2268,"te":2269,"47":2270,"시작":2271,"대통령</w>":2272,"누리":2273,"그는</w>":2274,"지금</w>":2275,"위원회":2276,"됐다.</w>":2277,"지를</w>":2278,"되고</w>":2279,"코로":2280,"하면서</w>":2281,"선언":2282,"지만":2283,"f:</w>":2284,"가장</w>":2285,".1":2286,"그런</w>":2287,"하지만</w>":2288,"....":2289,"그리고</w>":2290,"는데":2291,"e,":2292,"교육":2293,"등을</w>":2294,"국무":2295,"지고</w>":2296,"만들":2297,"청와대</w>":2298,"수사":2299,"여론":2300,"있습니다.</w>":2301,"새누리":2302,"다시</w>":2303,"력을</w>":2304,"\\',</w>":2305,"당은</w>":2306,"기업":2307,"많은</w>":2308,"았다.</w>":2309,"밝혔다.</w>":2310,"성을</w>":2311,"이낙":2312,"최고":2313,"&amp;":2314,"정부</w>":2315,"ument":2316,"리는</w>":2317,"였다.</w>":2318,"25":2319,"이나</w>":2320,"결과":2321,".com":2322,"안을</w>":2323,"정을</w>":2324,"하여</w>":2325,"http://":2326,"제가</w>":2327,"이어</w>":2328,"go":2329,"function":2330,"c:</w>":2331,"두고</w>":2332,"ch":2333,"24":2334,"13":2335,"하고,</w>":2336,"장이</w>":2337,"지만,</w>":2338,"기에</w>":2339,"정치</w>":2340,"as":2341,"위원회</w>":2342,"이후</w>":2343,"ru":2344,"그래":2345,"www.":2346,"출마</w>":2347,"새로":2348,"지원":2349,",\\'":2350,"경제</w>":2351,"청년":2352,".0":2353,"추진":2354,"발표":2355,"']</w>":2356,"있었":2357,"연구":2358,"FB":2359,"성이</w>":2360,"바른":2361,"당시</w>":2362,"했던</w>":2363,"동안</w>":2364,"사업":2365,"자가</w>":2366,"비판":2367,"이낙연</w>":2368,"어떻":2369,"이어":2370,"출마를</w>":2371,"tic":2372,"대한민국":2373,"박근":2374,"참여":2375,"여러":2376,"주장":2377,"st":2378,"혁신":2379,"id:</w>":2380,"지금":2381,"운동":2382,"내년</w>":2383,"요구":2384,"며,</w>":2385,"종로":2386,"22":2387,"없이</w>":2388,"이고</w>":2389,"책임":2390,"총선에서</w>":2391,"가는</w>":2392,"요.":2393,"&gt;\\xa0":2394,"화를</w>":2395,"ag":2396,"이는</w>":2397,"내용":2398,"열린</w>":2399,"하다.</w>":2400,"들과</w>":2401,"지도":2402,"시간":2403,"주의":2404,"활동":2405,"모두</w>":2406,"모든</w>":2407,"강조":2408,"투표":2409,"선을</w>":2410,"=a":2411,"관련</w>":2412,"결정":2413,"['":2414,"대변":2415,"000":2416,"스트":2417,"pp:</w>":2418,"이해":2419,"으면</w>":2420,"sh":2421,"지역구":2422,"한다는</w>":2423,"하나":2424,"졌다.</w>":2425,"이었":2426,"사건":2427,"28":2428,"안철":2429,"특별":2430,"대학":2431,"in.":2432,"ri":2433,"기로</w>":2434,"바른미래":2435,"조국</w>":2436,"(l":2437,"set":2438,"2019":2439,"Ele":2440,"관리":2441,"전문":2442,";e":2443,"Element":2444,"ㅡㅡ":2445,"idget":2446,"예비후보</w>":2447,"=\\'":2448,"e,_":2449,"이유":2450,"현재</w>":2451,"했습니다.</w>":2452,"변호":2453,"기가</w>":2454,"어떻게</w>":2455,"rea":2456,"사는</w>":2457,"이야":2458,"29":2459,"pt":2460,"40":2461,"아니라</w>":2462,"주민":2463,"있다는</w>":2464,"평가":2465,"많이</w>":2466,"들에게</w>":2467,"특히</w>":2468,"이를</w>":2469,"발전":2470,"코로나":2471,"경우</w>":2472,"그런":2473,"그러나</w>":2474,"cp:</w>":2475,"에서도</w>":2476,"pl":2477,"다\"고</w>":2478,"당을</w>":2479,"참석":2480,"저는</w>":2481,"전략":2482,"이라며</w>":2483,"사무":2484,"처럼</w>":2485,"노동":2486,"따라</w>":2487,"다며</w>":2488,"01D5B":2489,"\\xa0&gt;\\xa0":2490,"==":2491,"-0":2492,"이상":2493,"000001":2494,"지방":2495,"산업":2496,"”이라고</w>":2497,"예정":2498,"0000000":2499,"어떤</w>":2500,"이렇게</w>":2501,"보고":2502,"si:</w>":2503,"말씀":2504,"등록":2505,"오는</w>":2506,"indo":2507,"없다.</w>":2508,"가운":2509,"자리":2510,"한다고</w>":2511,"교수":2512,"시장</w>":2513,"이에</w>":2514,"----":2515,"발언":2516,"중요":2517,"대책":2518,"정당</w>":2519,"새로운</w>":2520,"이러":2521,"세력":2522,"이상</w>":2523,"습니다</w>":2524,"})":2525,"더불어민주당":2526,"20대</w>":2527,"대상":2528,"대통령이</w>":2529,",pp:</w>":2530,"np:</w>":2531,"정치인":2532,"국민의</w>":2533,"회를</w>":2534,"오후</w>":2535,"windo":2536,"ay":2537,"◎\\xa0":2538,"이제</w>":2539,"vi":2540,"대해":2541,"최근</w>":2542,"70":2543,",bf:</w>":2544,"i:</w>":2545,"오전</w>":2546,"평화":2547,"사진":2548,"했다</w>":2549,"논의":2550,"어려":2551,"당선":2552,"ch:</w>":2553,"]},":2554,"주시":2555,"세종":2556,"명을</w>":2557,"{np:</w>":2558,"[{cp:</w>":2559,"ru:</w>":2560,"국무총리":2561,"}]}":2562,"국정":2563,"장,</w>":2564,".n":2565,"goog":2566,"준비":2567,"청와대":2568,"그렇":2569,"ae":2570,"der":2571,"결국</w>":2572,"공천</w>":2573,"……":2574,"(5":2575,"미래통합":2576,"국민</w>":2577,"박근혜</w>":2578,"공약":2579,"대표의</w>":2580,"23":2581,"-21":2582,"google":2583,"[{t:</w>":2584,"예산":2585,".com/":2586,"4748":2587,"언론":2588,"일본":2589,"3648":2590,"0,ru:</w>":2591,"47483648":2592,"47483648,pp:</w>":2593,"계획":2594,"-2147483648,pp:</w>":2595,"국회에서</w>":2596,"}]}]},":2597,"여러분":2598,"도시":2599,"지적":2600,"명이</w>":2601,"ush":2602,".push":2603,".push(":2604,"입니":2605,"...":2606,"지역구</w>":2607,"행정":2608,"견을</w>":2609,"대구":2610,"그런데</w>":2611,"서도</w>":2612,".2":2613,".com</w>":2614,"지난해</w>":2615,"과정":2616,"or":2617,"개정":2618,"부분":2619,"있다.":2620,"등이</w>":2621,"어야</w>":2622,"않고</w>":2623,"문화":2624,"사가</w>":2625,"중심":2626,"대통령의</w>":2627,"기자회":2628,"ut":2629,"그래서</w>":2630,"시키":2631,",si:</w>":2632,"모습":2633,"않았":2634,"위를</w>":2635,"26":2636,"밖에</w>":2637,"정부의</w>":2638,",ch:</w>":2639,"오세":2640,"도를</w>":2641,"있다고</w>":2642,"정세":2643,",id:</w>":2644,"기는</w>":2645,"오늘</w>":2646,"단체":2647,"av":2648,"비서":2649,"ce":2650,"공동":2651,"37":2652,"01D5C":2653,"겠습니다.</w>":2654,"경쟁":2655,"연합뉴스":2656,"마음":2657,"자의</w>":2658,"되었":2659,"보면</w>":2660,"여야</w>":2661,"합니":2662,"공수":2663,"역할":2664,"뉴스</w>":2665,"에선</w>":2666,"정의당</w>":2667,"60":2668,"l:</w>":2669,"4월</w>":2670,"법무":2671,"\\'</w>":2672,"상을</w>":2673,"보고</w>":2674,"되지</w>":2675,"전망":2676,"라도</w>":2677,"바로</w>":2678,"선거구":2679,"b:</w>":2680,"관심":2681,"알려":2682,"가운데</w>":2683,"페이":2684,"경기":2685,"있을</w>":2686,"%)</w>":2687,"fo":2688,"의원의</w>":2689,"정도":2690,"인터":2691,"function(":2692,"경찰":2693,"공직":2694,"여성":2695,"보수</w>":2696,"치를</w>":2697,"https":2698,"’을</w>":2699,"통과":2700,"대변인":2701,"나오":2702,"DA":2703,"원을</w>":2704,"총선을</w>":2705,"광주":2706,"권을</w>":2707,"새누리당</w>":2708,"od":2709,"만큼</w>":2710,"안전":2711,"asi":2712,"..</w>":2713,"설명":2714,"100,":2715,"있도록</w>":2716,"대를</w>":2717,"협의":2718,"처리":2719,"arg":2720,"총리는</w>":2721,"제21대</w>":2722,"미국":2723,"금지":2724,"또한</w>":2725,"것도</w>":2726,"역시</w>":2727,"%)":2728,"89":2729,"않은</w>":2730,"asiae":2731,"정부가</w>":2732,"같이</w>":2733,"마련":2734,"점을</w>":2735,"부동":2736,"돌아":2737,"%,</w>":2738,"수가</w>":2739,"doc":2740,",a":2741,"자를</w>":2742,"8F":2743,"따르":2744,"북한":2745,"포함":2746,"=1":2747,"논란":2748,"유권":2749,"정보":2750,"document":2751,"https://":2752,"기획":2753,"다가</w>":2754,"비례대표</w>":2755,"정치적</w>":2756,"한국</w>":2757,"비례대표":2758,"확인":2759,"최고위원":2760,"합의":2761,"\\',\\'":2762,"제를</w>":2763,"보인":2764,"},":2765,"총리</w>":2766,"거나</w>":2767,"되면</w>":2768,"진보":2769,"느냐":2770,"면,</w>":2771,"il":2772,"해결":2773,"전에</w>":2774,"라며</w>":2775,"tag":2776,"선거법</w>":2777,"js":2778,"유승":2779,"위원장</w>":2780,"했다고</w>":2781,"니까</w>":2782,"수도":2783,"이미</w>":2784,"대선":2785,"안철수</w>":2786,"조사</w>":2787,"목소":2788,"께서</w>":2789,"승리":2790,"대한민국</w>":2791,"나는</w>":2792,"앞두고</w>":2793,"왔다.</w>":2794,"0,b":2795,"운영":2796,"되어</w>":2797,"기사":2798,"ur":2799,"까?</w>":2800,"부산":2801,"2015":2802,"정상":2803,"예비후보는</w>":2804,"감사":2805,"는데,</w>":2806,"하려":2807,"으며</w>":2808,"나타":2809,"소속</w>":2810,"대통령은</w>":2811,"googletag":2812,"정치를</w>":2813,"연동":2814,"복지":2815,"법을</w>":2816,"수석":2817,"un":2818,"자신의</w>":2819,"패스트":2820,"49":2821,"그렇게</w>":2822,"패스트트":2823,"CFB":2824,"하시":2825,"질문":2826,"세계":2827,"판단":2828,"사태":2829,"과의</w>":2830,"선택":2831,"장애":2832,"요.\\xa0":2833,"우려":2834,"다’":2835,"등의</w>":2836,"의석":2837,"가지</w>":2838,"18CFB":2839,"01D5E8F":2840,"01D5E8F18CFB":2841,"인가":2842,"경우":2843,",\\xa0":2844,"인천":2845,"예상":2846,"겠다는</w>":2847,"분석":2848,"식을</w>":2849,"해주":2850,"회의</w>":2851,"대응":2852,"명의</w>":2853,"무엇":2854,".ch":2855,"검찰</w>":2856,"않는":2857,"전국":2858,"s)":2859,"공개":2860,"공정":2861,"지가</w>":2862,"대전":2863,"개발":2864,"이었다.</w>":2865,"입장":2866,"현실":2867,"노무":2868,"보도":2869,"........":2870,".3":2871,"민주당은</w>":2872,"당에</w>":2873,"장관</w>":2874,"마스":2875,"aver":2876,"수도</w>":2877,"노력":2878,"바탕":2879,"반드":2880,"[]":2881,"sc":2882,"여러</w>":2883,"외교":2884,"반드시</w>":2885,"기준":2886,"nd":2887,"이뤄":2888,",l":2889,"출신":2890,"가능성이</w>":2891,"(){":2892,"새정치":2893,"죠.</w>":2894,".5":2895,"argument":2896,"장의</w>":2897,"제로</w>":2898,"0,s":2899,"’를</w>":2900,"법안":2901,"비롯":2902,".push(argument":2903,".push(arguments)":2904,"의미":2905,".co.kr</w>":2906,"변화":2907,"우리가</w>":2908,"여의":2909,"민생":2910,"34":2911,"영향":2912,"오늘":2913,"지원</w>":2914,"id=":2915,"보여":2916,"직접</w>":2917,"if":2918,"일본</w>":2919,"han":2920,"지지율":2921,"ame":2922,",t":2923,"놓고</w>":2924,"받아":2925,"성공":2926,"중국":2927,"심판":2928,"들도</w>":2929,"않는</w>":2930,"영입":2931,"19</w>":2932,"일이</w>":2933,"바른미래당</w>":2934,"앞으로</w>":2935,"88":2936,"false,d":2937,"75":2938,"나가":2939,"기대":2940,"리가</w>":2941,"제도":2942,"주의</w>":2943,"아닌</w>":2944,"원의</w>":2945,"window":2946,"반대":2947,"이다.":2948,"지도</w>":2949,"대표와</w>":2950,"정부는</w>":2951,"는지</w>":2952,"후보가</w>":2953,"방문":2954,"부를</w>":2955,"수준":2956,"시간</w>":2957,"rc":2958,"자체":2959,"습니다.":2960,"sta":2961,"199":2962,"인이</w>":2963,"해도</w>":2964,"상태":2965,"좋은</w>":2966,"31":2967,"%로</w>":2968,"국민의":2969,"한다”고</w>":2970,"있다</w>":2971,"4·":2972,"35":2973,"2년</w>":2974,"s:</w>":2975,"79":2976,"38":2977,"만들어":2978,"경선":2979,"얘기":2980,"공수처":2981,"탄핵":2982,"인물":2983,"사의</w>":2984,"구성":2985,"보는</w>":2986,"인권":2987,"환경":2988,"src":2989,"제안":2990,"scri":2991,"el":2992,"미국</w>":2993,"위원장은</w>":2994,"의혹":2995,"수를</w>":2996,"다,</w>":2997,"기관":2998,"-8":2999,"위해":3000,"원에</w>":3001,"39":3002,"다음":3003,"인의</w>":3004,"ong":3005,"46":3006,"asiae.co.kr":3007,"교통":3008,"2020년</w>":3009,"강화":3010,"이용":3011,"방송":3012,"기록":3013,"것”이라고</w>":3014,"받고</w>":3015,"이사":3016,"드러":3017,"제대로</w>":3018,"정세균</w>":3019,"어렵":3020,"있어":3021,".i":3022,"이번":3023,"원이</w>":3024,"김영":3025,"w:</w>":3026,"시스":3027,"script":3028,"조정":3029,"일부</w>":3030,"o/":3031,"대표를</w>":3032,"정책</w>":3033,"정치권":3034,"ser":3035,"ug":3036,"나온":3037,"이다</w>":3038,"회의에서</w>":3039,".co.kr/":3040,"오세훈</w>":3041,"urn":3042,")[":3043,"지,</w>":3044,"일을</w>":3045,"아이":3046,"여론조사":3047,"지키":3048,"asy":3049,"만에</w>":3050,"종로</w>":3051,"arent":3052,"재배":3053,"도전":3054,"정말</w>":3055,"말했다.":3056,"Be":3057,"당과</w>":3058,"하겠다는</w>":3059,"if(":3060,"강조했다.</w>":3061,"ret":3062,"요?</w>":3063,"nce":3064,"전히</w>":3065,"민주주의":3066,"사람이</w>":3067,"By":3068,"세대":3069,"2016":3070,"[])":3071,"ren":3072,"9D":3073,"경기</w>":3074,"01D5D":3075,"시대":3076,"fore":3077,"7년</w>":3078,"아무":3079,"말을</w>":3080,".get":3081,"ervi":3082,"하겠다고</w>":3083,"0]":3084,"Log":3085,"st/":3086,"reate":3087,"모르":3088,".getElement":3089,"Tag":3090,"function(){":3091,"send":3092,"않을</w>":3093,".create":3094,"Name":3095,"Servi":3096,"utf":3097,"async":3098,"=function(){":3099,"sBy":3100,".getElementsBy":3101,"TagName":3102,".getElementsByTagName":3103,"htm":3104,".createElement":3105,"주도":3106,".parent":3107,"static":3108,"Service":3109,"widget":3110,"전국</w>":3111,"e.in":3112,"plug":3113,"&&":3114,"sert":3115,"Nod":3116,"function(d":3117,"Before":3118,".parentNod":3119,"e.insert":3120,"Before(":3121,".parentNode.insert":3122,".parentNode.insertBefore(":3123,"return":3124,"0];":3125,"static.":3126,"in.js":3127,"||":3128,"arset":3129,"(function(d":3130,"utf-8":3131,"(d[b].q":3132,"(window":3133,")return":3134,",e,_":3135,",document":3136,";d[b]":3137,";e.":3138,"=d[b].q":3139,"Once":3140,"Widget":3141,"_=a":3142,"_.parentNode.insertBefore(":3143,"min.js":3144,"};e":3145,"\\';</w>":3146,"\\'dable":3147,"\\'asiae.co.kr":3148,"\\';e.":3149,"dable\\',\\'":3150,"dable.i":3151,"//static.":3152,"d[b]&&":3153,"e.async":3154,"dist/":3155,",b,l":3156,"dable(\\'set":3157,"dable(\\'ren":3158,"dable(\\'send":3159,"d[b].q)return":3160,",\\'dable\\',\\'":3161,"=a.createElement":3162,"in.min.js":3163,"(l);</w>":3164,"(l)[":3165,";e.ch":3166,"=\\'utf-8":3167,"=\\'//static.":3168,"e,_);</w>":3169,"})(window":3170,"derWidget":3171,",a,b,l":3172,"따르면</w>":3173,"=1;e.ch":3174,".push(arguments)};e":3175,"src=\\'//static.":3176,"script\\');</w>":3177,"o/dist/":3178,"if(d[b]&&":3179,"[]).push(arguments)};e":3180,"LogOnce":3181,"=function(){(d[b].q":3182,".getElementsByTagName(l)[":3183,"Service\\',</w>":3184,"widget_":3185,"plugin.min.js":3186,"0];_.parentNode.insertBefore(":3187,"||[]).push(arguments)};e":3188,"arset=\\'utf-8":3189,"(function(d,a,b,l":3190,",e,_)</w>":3191,",document,\\'dable\\',\\'":3192,";d[b]=function(){(d[b].q":3193,"=d[b].q||[]).push(arguments)};e":3194,"_=a.getElementsByTagName(l)[":3195,"\\'dablewidget_":3196,"\\'asiae.co.kr\\');</w>":3197,"\\';e.src=\\'//static.":3198,"dable.io/dist/":3199,"e.async=1;e.ch":3200,"dable(\\'setService\\',</w>":3201,"dable(\\'renderWidget":3202,"dable(\\'sendLogOnce":3203,"d[b].q)return;d[b]=function(){(d[b].q":3204,"=a.createElement(l);</w>":3205,"})(window,document,\\'dable\\',\\'":3206,"if(d[b]&&d[b].q)return;d[b]=function(){(d[b].q":3207,"plugin.min.js\\';</w>":3208,"0];_.parentNode.insertBefore(e,_);</w>":3209,"arset=\\'utf-8\\';e.src=\\'//static.":3210,"(function(d,a,b,l,e,_)</w>":3211,"=d[b].q||[]).push(arguments)};e=a.createElement(l);</w>":3212,"_=a.getElementsByTagName(l)[0];_.parentNode.insertBefore(e,_);</w>":3213,"dable.io/dist/plugin.min.js\\';</w>":3214,"e.async=1;e.charset=\\'utf-8\\';e.src=\\'//static.":3215,"dable(\\'renderWidget\\',</w>":3216,"dable(\\'sendLogOnce\\');</w>":3217,"})(window,document,\\'dable\\',\\'script\\');</w>":3218,"if(d[b]&&d[b].q)return;d[b]=function(){(d[b].q=d[b].q||[]).push(arguments)};e=a.createElement(l);</w>":3219,"e.async=1;e.charset=\\'utf-8\\';e.src=\\'//static.dable.io/dist/plugin.min.js\\';</w>":3220,"국제":3221,"어느</w>":3222,"때문이다.</w>":3223,"http://www.":3224,"했다는</w>":3225,".4":3226,"누구":3227,"는가":3228,"주요</w>":3229,"먼저</w>":3230,"앞서</w>":3231,"주는</w>":3232,"했고,</w>":3233,"아시":3234,"성장":3235,".9":3236,"관계자는</w>":3237,"갖고</w>":3238,"사법":3239,"5D":3240,"다만</w>":3241,"하고":3242,"현역</w>":3243,"받은</w>":3244,"당원":3245,"의료":3246,"달라":3247,"수는</w>":3248,"마지":3249,"다\"며</w>":3250,"기본":3251,"12월</w>":3252,"에게":3253,"자로</w>":3254,"기념":3255,"심을</w>":3256,"희망":3257,"ticle":3258,"후보는</w>":3259,"제시":3260,"정권</w>":3261,"부는</w>":3262,".6":3263,"표를</w>":3264,"피해":3265,"것이라고</w>":3266,".7":3267,"력이</w>":3268,"제는</w>":3269,"계속</w>":3270,"다양":3271,"자들이</w>":3272,"한국당은</w>":3273,"()</w>":3274,"인재":3275,"총선에</w>":3276,"연합</w>":3277,"김종":3278,"학생":3279,"올해</w>":3280,"ㅡㅡㅡㅡ":3281,"발생":3282,"실시":3283,"힘을</w>":3284,"하였":3285,"미래통합당</w>":3286,"부정":3287,"언급":3288,"소득":3289,"선거구</w>":3290,"8년</w>":3291,"치고</w>":3292,"2:</w>":3293,"있으":3294,"문제가</w>":3295,"결과</w>":3296,"부가</w>":3297,"확보":3298,"ve":3299,"상임":3300,"리트":3301,"개혁</w>":3302,"역할을</w>":3303,"대선</w>":3304,"1월</w>":3305,"드는</w>":3306,"확대":3307,"전재</w>":3308,"과정에서</w>":3309,".8":3310,"지켜":3311,"문을</w>":3312,"치는</w>":3313,"15일</w>":3314,"1:</w>":3315,"아닌":3316,"보인다.</w>":3317,"정신":3318,"바이러":3319,"으로는</w>":3320,"제기":3321,"8A":3322,"나경":3323,"보이":3324,"있어</w>":3325,"한다":3326,"bo":3327,"홍준":3328,"이재":3329,"(6":3330,"상승":3331,"이름":3332,"한다</w>":3333,"김무":3334,"장과</w>":3335,"0,o":3336,"20</w>":3337,"세를</w>":3338,"겠다고</w>":3339,"지지</w>":3340,"안에</w>":3341,"렸다.</w>":3342,"주택":3343,"현재":3344,"의원과</w>":3345,"대해서</w>":3346,"투쟁":3347,"기자회견을</w>":3348,"부동산</w>":3349,"선거를</w>":3350,"ad":3351,"물론</w>":3352,"news/":3353,"더욱</w>":3354,"진행자</w>":3355,"4년</w>":3356,"행사":3357,"너무</w>":3358,"구미":3359,"학교":3360,"의원을</w>":3361,"나서":3362,"이해찬</w>":3363,"아파":3364,"조직":3365,"중요한</w>":3366,"대구</w>":3367,"지에</w>":3368,"프로":3369,"했지만</w>":3370,".naver":3371,"와글":3372,"민주당이</w>":3373,"제1":3374,"그동안</w>":3375,"야당</w>":3376,"내려":3377,"다가":3378,"2월</w>":3379,"가지고</w>":3380,"”이라며</w>":3381,"경험":3382,"금융":3383,"하는데</w>":3384,"크게</w>":3385,"공화":3386,"김정":3387,"당내</w>":3388,"것입니다.</w>":3389,"일보</w>":3390,"모두":3391,"잘못":3392,"ok":3393,"유승민</w>":3394,"경남":3395,"공공":3396,"하겠습니다.</w>":3397,"선거에서</w>":3398,"도입":3399,".\\xa0":3400,"바란":3401,"내가</w>":3402,"1년</w>":3403,"촉구":3404,"재배포</w>":3405,"지로</w>":3406,"기자]</w>":3407,"기술":3408,"play":3409,"====":3410,"수밖에</w>":3411,"위에</w>":3412,"밝혀":3413,"고민":3414,"도가</w>":3415,"15</w>":3416,"당,</w>":3417,"감염":3418,"하기로</w>":3419,"토론":3420,"당한</w>":3421,"dis":3422,"으로서</w>":3423,"났다.</w>":3424,"등에</w>":3425,"진행자":3426,"고려":3427,"울산":3428,"보기</w>":3429,"후원":3430,"요청":3431,"스스":3432,"역사":3433,"확정":3434,"받았":3435,"display":3436,"높은</w>":3437,"우리는</w>":3438,"드리":3439,"80":3440,"사이":3441,"국회의":3442,"공관":3443,"생활":3444,")이</w>":3445,"차기</w>":3446,"지난달</w>":3447,"공무":3448,"떨어":3449,"01D5A":3450,".htm":3451,"2,":3452,"--------":3453,"호남":3454,"no":3455,"문제를</w>":3456,"진영":3457,"ac":3458,"회에서</w>":3459,"처음":3460,"사실</w>":3461,"매우</w>":3462,"아직</w>":3463,"입장을</w>":3464,"사퇴":3465,"해야":3466,"관련해</w>":3467,"안이</w>":3468,"위기":3469,"포인":3470,"ma":3471,"경북":3472,"유지":3473,"김성":3474,"의를</w>":3475,"사랑":3476,"사실상</w>":3477,".display":3478,"googletag.display":3479,"있다”고</w>":3480,"연동형</w>":3481,"검토":3482,"통합</w>":3483,"없었":3484,"사용":3485,"**":3486,"재판":3487,"안보":3488,"진행자\\xa0&gt;\\xa0":3489,"전문가":3490,"9E":3491,"출처":3492,"인정":3493,"3:</w>":3494,"추가":3495,"그러면서</w>":3496,"조선":3497,"});":3498,"방식":3499,"대표,</w>":3500,"감을</w>":3501,"시에</w>":3502,"있고</w>":3503,"후보를</w>":3504,"article":3505,"4:</w>":3506,"a:</w>":3507,"주요":3508,"로는</w>":3509,"data":3510,"응답":3511,"교체":3512,"받는</w>":3513,"자료":3514,"중국</w>":3515,"시는</w>":3516,"임을</w>":3517,"위원장이</w>":3518,"6:</w>":3519,"서를</w>":3520,"it":3521,"가족":3522,"마스크":3523,"위원</w>":3524,"국민이</w>":3525,"장에</w>":3526,"5:</w>":3527,"\\u":3528,"문재인":3529,"다양한</w>":3530,"0,l":3531,"주목":3532,"법무부</w>":3533,"원칙":3534,"2019년</w>":3535,"대해서는</w>":3536,"기업</w>":3537,"효과":3538,"(4":3539,"이루":3540,"인데</w>":3541,"페이스":3542,"선거법":3543,"정책을</w>":3544,"90":3545,"충청":3546,"이명":3547,"내고</w>":3548,"본부":3549,"친박":3550,"ig":3551,"so":3552,"약속":3553,"이미":3554,"청년</w>":3555,"신청":3556,"원에서</w>":3557,"’에</w>":3558,"신뢰":3559,"아야</w>":3560,"인지</w>":3561,"여야":3562,"ont":3563,"1,f":3564,"노무현</w>":3565,"한나라":3566,"9D0000000":3567,"수사</w>":3568,"김대":3569,"하다고</w>":3570,"헌법":3571,"필요한</w>":3572,"의원,</w>":3573,"제3":3574,"제공":3575,"협상":3576,"여의도</w>":3577,"있었다.</w>":3578,"아니다.</w>":3579,"자치":3580,"대한민국의</w>":3581,"범죄":3582,"1417":3583,"…………":3584,"원내대표는</w>":3585,"중에</w>":3586,"false,s":3587,"자들의</w>":3588,"코로나</w>":3589,"자,</w>":3590,"한편</w>":3591,"변호사</w>":3592,"th":3593,"건설":3594,"으나</w>":3595,"가능성":3596,"대화":3597,"도로</w>":3598,"거론":3599,"33":3600,"권력":3601,"67":3602,"나경원</w>":3603,"선거에</w>":3604,"las":3605,"번째</w>":3606,"이야기":3607,"ily":3608,"마다</w>":3609,"F000000":3610,"센터":3611,"했고</w>":3612,"의견":3613,"북한</w>":3614,"출신</w>":3615,"민주평화":3616,"전을</w>":3617,"년간</w>":3618,"01D5E8F18CFB9D0000000":3619,"최대</w>":3620,"서울시장":3621,"장에서</w>":3622,"천안":3623,"더라도</w>":3624,"반영":3625,"01D5E8F18CFB9D00000005D":3626,"사회</w>":3627,"가고</w>":3628,"중심으로</w>":3629,"도,</w>":3630,"AC":3631,"또는</w>":3632,"59":3633,"따른</w>":3634,"적극":3635,"길을</w>":3636,"득표":3637,"건강":3638,"ang":3639,"간의</w>":3640,"집중":3641,"투자":3642,"분명":3643,"중소":3644,"◎\\xa0진행자\\xa0&gt;\\xa0":3645,"%),</w>":3646,"통일":3647,"이란</w>":3648,"못한</w>":3649,"누가</w>":3650,"코로나19</w>":3651,"하다는</w>":3652,"방향":3653,"중도":3654,"바람":3655,"0,t":3656,"내는</w>":3657,"대안":3658,"인터뷰":3659,"오히":3660,"”고</w>":3661,"이후":3662,"7:</w>":3663,"로서</w>":3664,"씨는</w>":3665,"얼마":3666,"정한</w>":3667,"이자</w>":3668,"있다":3669,"공천을</w>":3670,"데,</w>":3671,"소통":3672,":0":3673,"중인</w>":3674,"본격":3675,"영역":3676,"니까":3677,"이인":3678,"창당":3679,"개최":3680,"오히려</w>":3681,"%를</w>":3682,"다음</w>":3683,"회의를</w>":3684,"김진":3685,"강력":3686,"서비":3687,"나,</w>":3688,"열고</w>":3689,"지속":3690,"따라":3691,"소속":3692,"선관":3693,"자기</w>":3694,"적용":3695,"한다면</w>":3696,"보호":3697,"6C":3698,"상대":3699,"부산</w>":3700,"신문":3701,"겠다.</w>":3702,"연대":3703,"핵심":3704,"확산":3705,"총리가</w>":3706,"냈다.</w>":3707,"찾아":3708,"임명":3709,"위는</w>":3710,"국내</w>":3711,"법안</w>":3712,"일자":3713,"야당":3714,"불출마</w>":3715,"gtag":3716,"행동":3717,"00000":3718,"ove":3719,"자세":3720,"살아":3721,"어려운</w>":3722,"일부터</w>":3723,"검사":3724,"대법":3725,"나라</w>":3726,"금을</w>":3727,"기소":3728,"전체":3729,"덧붙":3730,"후보자</w>":3731,"정권의</w>":3732,"’이</w>":3733,"공식</w>":3734,"관광":3735,"레이":3736,"후원</w>":3737,"시행":3738,"비상":3739,"학교</w>":3740,"=연합뉴스":3741,"관에서</w>":3742,"사업</w>":3743,"이슈":3744,"차지":3745,"나온다.</w>":3746,"각각</w>":3747,"시민</w>":3748,"li":3749,"일(":3750,"구청":3751,"박원":3752,"것에</w>":3753,"거의</w>":3754,"당협":3755,"있지만</w>":3756,"공감":3757,"넘어":3758,"인을</w>":3759,"개월</w>":3760,"보좌":3761,"간담":3762,"유튜":3763,"회장</w>":3764,"하도록</w>":3765,"확실":3766,"명,</w>":3767,"하셨":3768,"··":3769,"구조":3770,"구체":3771,"바꾸":3772,"바탕,t":3773,"부족":3774,"패스트트랙</w>":3775,"핵심</w>":3776,"수도권</w>":3777,"이기</w>":3778,"만나</w>":3779,"후보로</w>":3780,"이러한</w>":3781,"vs</w>":3782,"일보":3783,"의회</w>":3784,"하다</w>":3785,"불구":3786,"-15":3787,"세계</w>":3788,"국가</w>":3789,"홍준표</w>":3790,"이라</w>":3791,"이끌":3792,"단체</w>":3793,"하자":3794,"단을</w>":3795,"여론조사</w>":3796,"설치":3797,"(\"":3798,"김경":3799,"수출":3800,"3년</w>":3801,"개선":3802,"있기</w>":3803,".html":3804,"면서도</w>":3805,"아시아":3806,"위해서</w>":3807,"안정":3808,"기반":3809,"어나":3810,"회가</w>":3811,"국민을</w>":3812,"않았다.</w>":3813,"종합":3814,"”라고</w>":3815,"원,</w>":3816,"3월</w>":3817,"인구":3818,"새정치민주":3819,"혐의":3820,"세우":3821,"출처</w>":3822,"도시</w>":3823,"동,</w>":3824,"사람들이</w>":3825,"으며,</w>":3826,"window.":3827,"17일</w>":3828,"영향을</w>":3829,"알고</w>":3830,"고발":3831,"대학교</w>":3832,"되면서</w>":3833,"정도</w>":3834,"문제</w>":3835,")가</w>":3836,"절차":3837,"김무성</w>":3838,"경선</w>":3839,"대상으로</w>":3840,"만들어</w>":3841,"font":3842,"국회가</w>":3843,"위가</w>":3844,"정당이</w>":3845,"지사":3846,"상당":3847,"와의</w>":3848,"있을":3849,"나아":3850,"제외":3851,"가까":3852,"상황에서</w>":3853,"보건":3854,"움직":3855,"들에</w>":3856,"활동을</w>":3857,"말이</w>":3858,"점에서</w>":3859,"선출":3860,"표현":3861,"09":3862,"45":3863,"데이":3864,"있는데</w>":3865,"하기도</w>":3866,"반발":3867,"주에</w>":3868,"인사</w>":3869,"의원(":3870,"ing":3871,"부의</w>":3872,"습니다":3873,"국토":3874,"기사</w>":3875,"분이</w>":3876,"서에</w>":3877,"행복":3878,"지역의</w>":3879,"대통령과</w>":3880,"못하고</w>":3881,"등으로</w>":3882,"co":3883,"음을</w>":3884,"버스":3885,")을</w>":3886,"한국당이</w>":3887,"sp":3888,"어제</w>":3889,"\\u00":3890,".html?":3891,"그의</w>":3892,"비서관":3893,"여성</w>":3894,"신당</w>":3895,"@han":3896,"하나</w>":3897,"청문":3898,"거래":3899,"했는데</w>":3900,"있게</w>":3901,"당에서</w>":3902,"광주</w>":3903,"김현":3904,"19대</w>":3905,"ev":3906,"권의</w>":3907,"라이":3908,"세요":3909,"행보":3910,"협력":3911,"정무":3912,"정이</w>":3913,"분열":3914,"들어</w>":3915,"촛불":3916,"메시":3917,"조성":3918,"신종</w>":3919,"의견을</w>":3920,"점이</w>":3921,"로,</w>":3922,"적이</w>":3923,"\"이라고</w>":3924,"치러":3925,"자유한국당이</w>":3926,"충분":3927,"방법":3928,"소를</w>":3929,"강원":3930,"관한</w>":3931,"78":3932,"폐쇄":3933,"변호사":3934,"나섰":3935,"장으로</w>":3936,"전혀</w>":3937,"계속":3938,"움을</w>":3939,"제도</w>":3940,"확진":3941,"5,":3942,"무소속</w>":3943,"가진</w>":3944,"드린":3945,"100,e":3946,"되었다.</w>":3947,"분야":3948,"부담":3949,"우선</w>":3950,"한다.":3951,"윤석":3952,"MB":3953,"국회를</w>":3954,"AA":3955,"경영":3956,"하락":3957,"받을</w>":3958,"뜻을</w>":3959,"무리":3960,"인사를</w>":3961,"전체</w>":3962,"기존</w>":3963,"국민들이</w>":3964,"스럽":3965,"굉장":3966,"활용":3967,"이정":3968,"제출":3969,"하던</w>":3970,"결과를</w>":3971,"모습을</w>":3972,"브리":3973,"계를</w>":3974,"3일</w>":3975,"no=":3976,"서,</w>":3977,"선거운동":3978,")는</w>":3979,"스스로</w>":3980,"font-":3981,"민주당의</w>":3982,"직을</w>":3983,"없다는</w>":3984,"생활</w>":3985,"장관이</w>":3986,"2016년</w>":3987,"저작":3988,"원내대표":3989,"부에</w>":3990,"실패":3991,"것이라는</w>":3992,"전달":3993,"성과":3994,"on</w>":3995,"나왔":3996,"57":3997,"제주":3998,"서울시":3999,"6일</w>":4000,"석을</w>":4001,"정당의</w>":4002,"함께":4003,"반면</w>":4004,"무상":4005,"실을</w>":4006,"가져":4007,"로부터</w>":4008,"조치":4009,"거리":4010,"규모":4011,"됩니다.</w>":4012,"국회에</w>":4013,"9F":4014,"시장은</w>":4015,"01D5CB":4016,"250":4017,"0,h":4018,"자유한국당은</w>":4019,"관리위원회":4020,"비서실":4021,"굉장히</w>":4022,"심각":4023,"패스트트랙":4024,"의사":4025,"100,r":4026,"이게</w>":4027,"im":4028,"위원장을</w>":4029,"입법":4030,"개인":4031,"바이러스</w>":4032,"해당</w>":4033,"목표":4034,"이라도</w>":4035,"사에서</w>":4036,"여당</w>":4037,"가지":4038,"’,</w>":4039,"잖아":4040,"안철수":4041,"EC":4042,"남북":4043,"드립":4044,"TO":4045,"무슨</w>":4046,"있고,</w>":4047,"불출마를</w>":4048,"벌어":4049,"움이</w>":4050,"하기":4051,"민중":4052,"’의</w>":4053,"여전히</w>":4054,"활성":4055,"공식":4056,"전해":4057,"성과</w>":4058,"yle":4059,"문제는</w>":4060,"운동</w>":4061,"비롯한</w>":4062,"밝히":4063,"한번":4064,"-2":4065,"'을</w>":4066,"유치":4067,"이동":4068,"아니냐":4069,"려고</w>":4070,"거부":4071,"이와</w>":4072,"이가</w>":4073,"지역에</w>":4074,"과거</w>":4075,"도는</w>":4076,"시설":4077,"고도</w>":4078,")의</w>":4079,"tru":4080,"장관은</w>":4081,"홍보":4082,"했습니다</w>":4083,"보다는</w>":4084,"사무총":4085,"수원":4086,"어서</w>":4087,"르는</w>":4088,"Vi":4089,"탄핵</w>":4090,"d:</w>":4091,"여기":4092,"일,</w>":4093,"분들이</w>":4094,"통신":4095,"회에</w>":4096,"강남":4097,"증가":4098,"국민의당</w>":4099,"일까지</w>":4100,"들고</w>":4101,"말로</w>":4102,"만나":4103,"대결":4104,"대변인은</w>":4105,"한국당의</w>":4106,"1417,":4107,"거든":4108,"교수는</w>":4109,"정치의</w>":4110,"사과":4111,"전환":4112,"장관에</w>":4113,"주장했다.</w>":4114,"자동":4115,"2017년</w>":4116,"병원</w>":4117,"선대":4118,"view":4119,"젊은</w>":4120,"당대":4121,"응원":4122,"입니다</w>":4123,"me":4124,"님께서</w>":4125,"’로</w>":4126,"................":4127,"44":4128,"66":4129,"jo":4130,"때는</w>":4131,"앞에서</w>":4132,"가치":4133,"이른":4134,"원은</w>":4135,"자들은</w>":4136,"김용":4137,"올라":4138,"ung":4139,"별로</w>":4140,"의원들이</w>":4141,");":4142,"통한</w>":4143,"상황을</w>":4144,"일에</w>":4145,"합니다</w>":4146,"설명했다.</w>":4147,"페이스북":4148,"다르":4149,"원내대표</w>":4150,"세월":4151,"e:</w>":4152,"심상":4153,"리더":4154,"일단</w>":4155,"미래를</w>":4156,"당연":4157,"한반":4158,"style":4159,"밝혔다.":4160,"어디":4161,"원으로</w>":4162,"불법":4163,"하는":4164,"개혁을</w>":4165,"얼마나</w>":4166,"으로,</w>":4167,"민심":4168,"과거":4169,"각종</w>":4170,"조국":4171,"황교안":4172,"11월</w>":4173,"View":4174,"상공":4175,"신속":4176,"등록</w>":4177,"지지를</w>":4178,"내용을</w>":4179,"마지막</w>":4180,"idx":4181,"um":4182,"경남</w>":4183,"손학":4184,"추천":4185,"집권":4186,"생각이</w>":4187,"겠다”고</w>":4188,"기간":4189,"하거나</w>":4190,"2018년</w>":4191,"알려졌다.</w>":4192,"추가</w>":4193,"아나":4194,"보니</w>":4195,"경자":4196,"스타":4197,"국민들의</w>":4198,"명으로</w>":4199,"일은</w>":4200,"진영</w>":4201,"10월</w>":4202,"기간</w>":4203,"신문</w>":4204,"물을</w>":4205,"용산":4206,"적극</w>":4207,"했을</w>":4208,"20일</w>":4209,"발언을</w>":4210,"부터":4211,"바뀌":4212,"검찰이</w>":4213,"43":4214,")은</w>":4215,"바라":4216,"목소리를</w>":4217,"개월":4218,"존재":4219,"호남</w>":4220,"false,a":4221,"02":4222,"영입</w>":4223,"국방":4224,"생각을</w>":4225,"정도로</w>":4226,"나온</w>":4227,"인해</w>":4228,"매일":4229,"어도</w>":4230,"4·15</w>":4231,"고위":4232,"습니다.\\xa0":4233,"내놓":4234,"받아들":4235,"위반":4236,"사회적</w>":4237,"지역을</w>":4238,"총선이</w>":4239,"조사를</w>":4240,"법률":4241,"국무총리가</w>":4242,"어요.</w>":4243,"news.naver":4244,"사고":4245,"무너":4246,"격을</w>":4247,"회담":4248,"지낸</w>":4249,"보내":4250,"방안을</w>":4251,"조짐":4252,"-1":4253,"event":4254,"실현":4255,"제한":4256,"공약</w>":4257,"다”면서</w>":4258,"실제</w>":4259,"true,":4260,"이익":4261,"초롬":4262,"함초롬":4263,"대통령을</w>":4264,"기득":4265,"새·":4266,"들었":4267,"책임을</w>":4268,"e=":4269,"출범":4270,"전화":4271,"시절</w>":4272,"10일</w>":4273,"비난":4274,"번째":4275,"충남":4276,"종로구</w>":4277,"없다고</w>":4278,"제2":4279,"경북</w>":4280,"아직":4281,"news/article":4282,")에</w>":4283,"95":4284,"인천</w>":4285,"Lay":4286,"{\\'":4287,"\\':":4288,"dataLay":4289,"gtag(\\'":4290,"하겠다”고</w>":4291,"\\u0027":4292,"삼성":4293,"조금</w>":4294,"…\\'":4295,"상황이</w>":4296,"년에</w>":4297,"심재":4298,"서로</w>":4299,"향후</w>":4300,"말씀을</w>":4301,"이고,</w>":4302,"최선을</w>":4303,"논란이</w>":4304,"코로나19":4305,"2일</w>":4306,"균형":4307,"무단":4308,"보장":4309,"위성":4310,"전했다.</w>":4311,"발전을</w>":4312,"32":4313,"현대":4314,"함초롬바탕,t":4315,"고용":4316,"하라":4317,"경기도":4318,"mj":4319,"대한민국을</w>":4320,"나오고</w>":4321,"물갈":4322,"규제</w>":4323,"55":4324,"심히</w>":4325,"업무":4326,"작업":4327,"했다":4328,"앞에</w>":4329,"배제":4330,"사진</w>":4331,"자와</w>":4332,"받았다.</w>":4333,"div":4334,"5일</w>":4335,"승리를</w>":4336,"광역":4337,"전쟁":4338,"예정이다.</w>":4339,"상이</w>":4340,"민주</w>":4341,"분위":4342,"재정":4343,"n:</w>":4344,"그대로</w>":4345,"구축":4346,"일으":4347,"BX":4348,"아나운":4349,"생산":4350,"이전":4351,"!!</w>":4352,"둘러":4353,"000원":4354,"다’는</w>":4355,"300":4356,"장애인":4357,"4일</w>":4358,"받아</w>":4359,"공유":4360,"강한</w>":4361,"단식":4362,"부부</w>":4363,"광화":4364,"나라를</w>":4365,"있지</w>":4366,"J4":4367,"발표</w>":4368,"지의</w>":4369,"다”는</w>":4370,"}]}]},01D5E":4371,"9일</w>":4372,"to":4373,"우선":4374,"r:</w>":4375,"21대":4376,"5G</w>":4377,"만드는</w>":4378,"주고</w>":4379,"자유한국당의</w>":4380,"1.</w>":4381,"198":4382,"차례</w>":4383,"박근혜":4384,"2015-0":4385,"이야기를</w>":4386,"0,m":4387,"주요뉴스":4388,"EB":4389,"DAY</w>":4390,"false,f":4391,"검증":4392,"청소":4393,"가능한</w>":4394,"전당대":4395,"왼쪽":4396,"기관</w>":4397,"사례":4398,"이종":4399,"저희":4400,"향해</w>":4401,"%포인":4402,"13일</w>":4403,"TODAY</w>":4404,"elv":4405,"정청":4406,"다.”</w>":4407,"투표</w>":4408,"Gok":4409,"nBX":4410,"스러":4411,"사람은</w>":4412,"다\"…\\'":4413,"37J4":4414,"\\'dablewidget_Gok":4415,"\\'dablewidget_37J4":4416,"마스크영역":4417,"mjelv":4418,"주요뉴스\\'":4419,"nBXN":4420,"\\'dablewidget_Gokmjelv":4421,"\\'dablewidget_37J4nBXN":4422,"\\'dablewidget_Gokmjelv\\');</w>":4423,"규정":4424,"orea":4425,"서구":4426,"자리를</w>":4427,"동의":4428,"김형":4429,"규제":4430,"박지원</w>":4431,"한번</w>":4432,"’가</w>":4433,"군사":4434,"갤럭":4435,"김태":4436,"11일</w>":4437,"기자회견":4438,"이제는</w>":4439,"산업</w>":4440,"지소":4441,"미디":4442,"6월</w>":4443,"호소":4444,"지금까지</w>":4445,"er</w>":4446,"단일":4447,"01D5E8F18CFB75":4448,"이며</w>":4449,"한미":4450,"해왔":4451,"24일</w>":4452,"극복":4453,"현역":4454,"5월</w>":4455,"회의에</w>":4456,"지나":4457,"지정":4458,"3D":4459,"해석":4460,"연합뉴스</w>":4461,"마이":4462,"선거가</w>":4463,"16일</w>":4464,"수사를</w>":4465,"2.</w>":4466,"위해서는</w>":4467,"또다른</w>":4468,"IL":4469,"인)</w>":4470,"-ad":4471,"이른바</w>":4472,"실에서</w>":4473,"진다.</w>":4474,"저작권":4475,"CB":4476,")를</w>":4477,"고요.</w>":4478,"새로운":4479,"보고서에</w>":4480,"지소미":4481,"않겠":4482,"결정</w>":4483,"과학":4484,"등록을</w>":4485,"%p</w>":4486,"여당":4487,"추미":4488,"회장":4489,"지역에서</w>":4490,"물러":4491,"대비</w>":4492,"려는</w>":4493,"시사":4494,"?\\xa0":4495,"||</w>":4496,"있다”며</w>":4497,"20200":4498,"으로도</w>":4499,"돼야</w>":4500,"전남":4501,"고양":4502,"22일</w>":4503,"27일</w>":4504,"중단":4505,"박원순</w>":4506,"체육":4507,"연기":4508,"사람</w>":4509,"4월":4510,"는다.</w>":4511,"생각한다.</w>":4512,"우리공화":4513,"하려는</w>":4514,"까.</w>":4515,"하자</w>":4516,"u:</w>":4517,"회복":4518,"7일</w>":4519,"찾아</w>":4520,"수의</w>":4521,"정권을</w>":4522,"비교":4523,"만이</w>":4524,"인은</w>":4525,"-01":4526,"같다.</w>":4527,"예산</w>":4528,"ty":4529,"브리핑":4530,"산을</w>":4531,"폭로</w>":4532,"불구하고</w>":4533,"서비스":4534,"마스크영역\\'":4535,"8일</w>":4536,"이지만</w>":4537,"좋아":4538,"&amp;</w>":4539,"5·":4540,"md":4541,"권이</w>":4542,"였던</w>":4543,"보수당</w>":4544,"차별":4545,"시도":4546,"지금은</w>":4547,"늘어":4548,"사항":4549,"소개":4550,"추진</w>":4551,"불가":4552,"성남":4553,"쳤다.</w>":4554,"획정":4555,"’는</w>":4556,"나.</w>":4557,"국회의원이</w>":4558,"갤럭시":4559,"30</w>":4560,"false,b":4561,"flas":4562,"집행":4563,"에서의</w>":4564,"기준</w>":4565,"임시":4566,"68":4567,"최소":4568,"시간이</w>":4569,"7F":4570,"23일</w>":4571,"않다.</w>":4572,"bl":4573,"식이</w>":4574,"노출":4575,"열심히</w>":4576,"아나운서</w>":4577,"파출":4578,"&lt;/":4579,"수록</w>":4580,"42":4581,"된다고</w>":4582,"씨가</w>":4583,"동을</w>":4584,"정부와</w>":4585,"ky":4586,"매입</w>":4587,"스트</w>":4588,"ran":4589,"시장이</w>":4590,"ㅋㅋ":4591,"’으로</w>":4592,"독재":4593,"센터</w>":4594,"자인</w>":4595,"ro":4596,"조차</w>":4597,"화성":4598,"밝혀진</w>":4599,"-g":4600,"사건</w>":4601,"프레":4602,"리지</w>":4603,"위로</w>":4604,"하루":4605,"르고</w>":4606,"yo":4607,"납입":4608,"위원장,</w>":4609,"Korea":4610,"필리":4611,"개발</w>":4612,".cmd":4613,".push(function(":4614,"googletag.cmd":4615,".push(function()</w>":4616,"googletag.cmd.push(function()</w>":4617,"(\\'div":4618,"pt-ad":4619,"-0\\');</w>":4620,"관심이</w>":4621,"googletag.display(\\'div":4622,"-gpt-ad":4623,"googletag.display(\\'div-gpt-ad":4624,"기억":4625,"이촌":4626,"googletag.display(\\'div-gpt-ad-15":4627,"것인가":4628,"선언</w>":4629,"일자리</w>":4630,"선정":4631,"좌파":4632,"이기":4633,"원내대표가</w>":4634,"'를</w>":4635,"총선은</w>":4636,"의석을</w>":4637,"윤석열</w>":4638,"글로":4639,"방침":4640,"19일</w>":4641,"E000000":4642,"머니":4643,"][":4644,"공개</w>":4645,"정치가</w>":4646,"검찰의</w>":4647,"자체가</w>":4648,"고승":4649,"영등":4650,"196":4651,"아파트</w>":4652,"봐야</w>":4653,"사생활</w>":4654,"시신</w>":4655,"년을</w>":4656,"영업":4657,"최종</w>":4658,"아주</w>":4659,"파출소":4660,"정당을</w>":4661,"대란</w>":4662,"김기":4663,"습니까?</w>":4664,"쇄신":4665,"교육</w>":4666,"단계":4667,"경기도</w>":4668,"01D5AFB":4669,"View.html?":4670,"일본의</w>":4671,"안은</w>":4672,"시절":4673,"지하":4674,"4+":4675,"무단</w>":4676,"중앙선거":4677,"ED":4678,"의석</w>":4679,"CF":4680,"{id:</w>":4681,"올랐":4682,"정치에</w>":4683,"질문에</w>":4684,"갤럭시S":4685,"검찰총":4686,"SN":4687,"대신</w>":4688,"이들은</w>":4689,"사건\\'":4690,"HM":4691,"근로":4692,"명예":4693,"idxno=":4694,"18일</w>":4695,"고자</w>":4696,"에만</w>":4697,"우리의</w>":4698,"정리":4699,"여권</w>":4700,"납입일</w>":4701,"예측":4702,"main":4703,"더라":4704,"독립":4705,"당장</w>":4706,"0원에</w>":4707,"구를</w>":4708,"야권</w>":4709,"했다”고</w>":4710,"선언했다.</w>":4711,"추경":4712,"한다”며</w>":4713,"최저":4714,"그냥</w>":4715,"고승덕</w>":4716,"지적했다.</w>":4717,"이인영</w>":4718,"처음</w>":4719,"만든</w>":4720,"…결국</w>":4721,"류를</w>":4722,"자루</w>":4723,"2주에</w>":4724,"없을</w>":4725,"news/articleView.html?":4726,"한번씩":4727,"당원</w>":4728,"와글와글":4729,"0,n":4730,"밝힌</w>":4731,"style=":4732,"관계</w>":4733,"되어":4734,"마대</w>":4735,"선의</w>":4736,"888</w>":4737,"갤럭시S10":4738,"…\\'</w>":4739,"후보자":4740,"\"0원에</w>":4741,"…밝혀진</w>":4742,"감이</w>":4743,"샀다\"…\\'":4744,"女시신</w>":4745,"\\'고승덕</w>":4746,"\\'와글와글":4747,"인권보고서에</w>":4748,"폐쇄\"0원에</w>":4749,"조짐']</w>":4750,"이촌파출소":4751,"사건\\'…밝혀진</w>":4752,"한번씩…\\'</w>":4753,"갤럭시S10\\'</w>":4754,"샀다\"…\\'갤럭시S10\\'</w>":4755,"\\'와글와글\\'고승덕</w>":4756,"이촌파출소…결국</w>":4757,"과연</w>":4758,"롭게</w>":4759,"입니다.":4760,"선언한</w>":4761,"지사</w>":4762,"국회의원선거</w>":4763,"으로부터</w>":4764,"}},":4765,"DC":4766,"공급":4767,"기초":4768,"’라는</w>":4769,"내에서</w>":4770,"뛰어":4771,"2020</w>":4772,"경제를</w>":4773,"나왔다.</w>":4774,"비해</w>":4775,"의지를</w>":4776,"예비후보가</w>":4777,"시스템":4778,"무단전재</w>":4779,"oveKorea":4780,"ILoveKorea":4781,"HM888</w>":4782,"ILoveKoreaHM888</w>":4783,"부분</w>":4784,"비례</w>":4785,"28일</w>":4786,"회는</w>":4787,"하였다.</w>":4788,"30일</w>":4789,"있겠":4790,"21일</w>":4791,"만을</w>":4792,"성향":4793,"등은</w>":4794,"부탁":4795,"4.1":4796,"전북":4797,"희생":4798,"에게는</w>":4799,"ate":4800,"는가.</w>":4801,"네이":4802,"활동</w>":4803,"문희":4804,"홈페이":4805,"긍정":4806,"MC":4807,"의무":4808,"개편":4809,"나누":4810,"연설":4811,"DD":4812,"세가</w>":4813,"복귀":4814,"주민</w>":4815,"가를</w>":4816,"이명박</w>":4817,"오세훈":4818,"지지율</w>":4819,"걱정":4820,"앞장":4821,"정동":4822,"6F":4823,"고등":4824,"규모</w>":4825,"김병":4826,"출연":4827,"새정치민주연합</w>":4828,"바이":4829,"정규":4830,"동구":4831,"위의</w>":4832,"관심을</w>":4833,"김대중</w>":4834,"기다":4835,"철저":4836,"해보":4837,"통화":4838,"비판했다.</w>":4839,"있던</w>":4840,"아울":4841,"주택</w>":4842,"14일</w>":4843,"도의</w>":4844,":1":4845,"억원</w>":4846,"되어야</w>":4847,"시키는</w>":4848,"만한</w>":4849,"소상공":4850,"자원":4851,"52":4852,"발의":4853,"ㅡㅡㅡㅡㅡㅡㅡㅡ":4854,"중진":4855,"그러면</w>":4856,"리트윗":4857,"41":4858,"자신이</w>":4859,"소중":4860,"최초":4861,"리트윗</w>":4862,"당(":4863,"news/articleView.html?idxno=":4864,"86":4865,"연결":4866,"성에</w>":4867,"자리에서</w>":4868,"덧붙였다.</w>":4869,"된다는</w>":4870,"통합을</w>":4871,"마음을</w>":4872,"자기":4873,"·새·":4874,"오른</w>":4875,")과</w>":4876,"신고":4877,"남은</w>":4878,"식으로</w>":4879,"얘기를</w>":4880,"리트윗했습니다</w>":4881,"분을</w>":4882,"daily":4883,"비율":4884,"지지층":4885,"정의당은</w>":4886,"이지</w>":4887,"않으면</w>":4888,"정확":4889,"조건":4890,"일반":4891,"실천":4892,"하신</w>":4893,"글을</w>":4894,"석,</w>":4895,"저도</w>":4896,"3.</w>":4897,"방역":4898,"이,</w>":4899,"따라서</w>":4900,"서초":4901,"방송</w>":4902,"21</w>":4903,"비를</w>":4904,"joong":4905,"뿐만</w>":4906,"식에</w>":4907,"론을</w>":4908,"공약을</w>":4909,"000000B":4910,"것처럼</w>":4911,"7월</w>":4912,"동시에</w>":4913,"탈당":4914,"계가</w>":4915,"심의":4916,"function</w>":4917,"살펴":4918,"수용":4919,"체제":4920,"반응":4921,"그가</w>":4922,"손학규</w>":4923,"하겠다.</w>":4924,"tn":4925,"민주당과</w>":4926,"그룹</w>":4927,"01D5E8F18CFB75F000000":4928,"을)</w>":4929,"2012년</w>":4930,"못하는</w>":4931,"혁명":4932,"아서</w>":4933,"작성":4934,"학과</w>":4935,"12일</w>":4936,"들,</w>":4937,"한나라당</w>":4938,"나타났다.</w>":4939,"사라":4940,"유리":4941,"99":4942,"없습니다.</w>":4943,"오른":4944,"전날</w>":4945,"p?":4946,"불출마":4947,"총리의</w>":4948,"2020.</w>":4949,"유일":4950,"비롯해</w>":4951,"적절":4952,"노력을</w>":4953,"역대</w>":4954,"장기":4955,"것과</w>":4956,"#구미":4957,"반대</w>":4958,"스마":4959,"카드":4960,"외국":4961,"lt:</w>":4962,"로운</w>":4963,"보궐":4964,"무역":4965,"않는다.</w>":4966,"27</w>":4967,"가격":4968,"충북":4969,"하루</w>":4970,"바랍":4971,"심사":4972,"한겨":4973,"가야</w>":4974,"그게</w>":4975,"한·":4976,"“(":4977,"만원</w>":4978,"니다</w>":4979,"본다.</w>":4980,"서의</w>":4981,"여기에</w>":4982,"정세균":4983,"든지</w>":4984,"https://www.":4985,"주로</w>":4986,"500":4987,"쏟아":4988,"ho":4989,"한편":4990,"특정</w>":4991,"끌어":4992,"통합당</w>":4993,"높아":4994,"일어":4995,"이유로</w>":4996,"세요.</w>":4997,"작용":4998,"4.":4999,"언제":5000,"함을</w>":5001,"8월</w>":5002,"가서</w>":5003,"실제로</w>":5004,"이상의</w>":5005,"9월</w>":5006,"AB":5007,"E9":5008,"TV":5009,"76":5010,"수행":5011,"후보의</w>":5012,"king":5013,"’이라는</w>":5014,"일각":5015,"혐의로</w>":5016,"나갈</w>":5017,"은행":5018,"거쳐</w>":5019,"부여":5020,"출판":5021,"r/":5022,"그룹":5023,"권한":5024,"불과":5025,"역임":5026,"국회는</w>":5027,"했지만,</w>":5028,"관측":5029,"트럼":5030,"답변":5031,"있다./":5032,"되기</w>":5033,"구속":5034,"연대</w>":5035,"졸업":5036,"하며,</w>":5037,"추미애</w>":5038,"01D5B8A":5039,"df":5040,"검찰개혁":5041,"영상":5042,"지지율이</w>":5043,"========":5044,"이번에</w>":5045,"저작권자</w>":5046,"%에</w>":5047,"'는</w>":5048,"선에</w>":5049,"포기":5050,"아니면</w>":5051,"ranking":5052,"국무총리</w>":5053,"위험":5054,"다니":5055,"아파트":5056,"내부":5057,"이같이</w>":5058,"의원도</w>":5059,"국민들":5060,"일)</w>":5061,"개헌":5062,"해온</w>":5063,"정당에</w>":5064,"저의</w>":5065,"대해서도</w>":5066,"kyung":5067,"나오는</w>":5068,"이기도</w>":5069,"53":5070,"p_":5071,"아닌가":5072,".”</w>":5073,"수수":5074,"판결":5075,"십시":5076,"집권</w>":5077,"국의</w>":5078,"나선</w>":5079,"의사를</w>":5080,"시장의</w>":5081,"심상정</w>":5082,"존경":5083,"세력이</w>":5084,"결과가</w>":5085,"분노":5086,"소비":5087,"빨리</w>":5088,"안건":5089,"부의":5090,"지역은</w>":5091,"하려고</w>":5092,"대전</w>":5093,"의정":5094,"01D5AD":5095,"지시":5096,"KB":5097,"갔다.</w>":5098,"민주화":5099,"다”</w>":5100,"마찬":5101,"드립니다.</w>":5102,"하고자</w>":5103,"취재":5104,"용인":5105,"공수처</w>":5106,"아울러</w>":5107,"선진":5108,"않을":5109,"관이</w>":5110,"치열":5111,"사실을</w>":5112,"이하</w>":5113,"와서</w>":5114,"컷오":5115,"마무리":5116,"환영":5117,"전통":5118,"인한</w>":5119,"2.":5120,"필요가</w>":5121,"업체":5122,"해를</w>":5123,"는데요.</w>":5124,"한테</w>":5125,"교수</w>":5126,"나올</w>":5127,"방안":5128,"이들</w>":5129,"넘어</w>":5130,"합리":5131,"필리버스":5132,"것이다</w>":5133,"이었던</w>":5134,"명은</w>":5135,"아버":5136,"'에</w>":5137,"교섭":5138,"위에서</w>":5139,"유승민":5140,"정치는</w>":5141,"개입":5142,"신당":5143,"으니</w>":5144,"전남</w>":5145,"충분히</w>":5146,"i.co.kr":5147,"bor":5148,"정기":5149,"공항":5150,"사망":5151,"시켰":5152,"이유는</w>":5153,"ul":5154,"비슷":5155,"경제,</w>":5156,"세종시":5157,"마지막":5158,"져야</w>":5159,"민주주의</w>":5160,"상징":5161,"%가</w>":5162,"대중":5163,"false,k":5164,"과는</w>":5165,"불안":5166,"있었던</w>":5167,"0,r":5168,"정당인)</w>":5169,".ph":5170,"아닙":5171,"0,bb":5172,"심재철</w>":5173,"쉽지</w>":5174,"집을</w>":5175,"손을</w>":5176,"D000000":5177,"당선</w>":5178,"보유":5179,"었던</w>":5180,"1일</w>":5181,"검찰은</w>":5182,"영등포":5183,"자한":5184,"나와</w>":5185,"이념":5186,"false,h":5187,"1417,o":5188,"주자</w>":5189,"중소기업":5190,"/0":5191,"작년</w>":5192,"태극":5193,"www":5194,"발표한</w>":5195,"대의</w>":5196,"미래</w>":5197,"발표했다.</w>":5198,"51":5199,"야당의</w>":5200,"해당":5201,"것인":5202,"내세":5203,"25일</w>":5204,"수도권":5205,"근거":5206,"것”이라며</w>":5207,"내지</w>":5208,"박영":5209,"명에</w>":5210,"국회의</w>":5211,"통해서</w>":5212,"세대</w>":5213,"확대</w>":5214,"흔들":5215,"라디":5216,"열린":5217,"조금":5218,"부모":5219,"시간을</w>":5220,"비용":5221,"사업을</w>":5222,"자연":5223,"행위":5224,"등장":5225,"\\xa0\\xa0":5226,"조합":5227,"10</w>":5228,"구가</w>":5229,"일자리":5230,"있어야</w>":5231,"기울":5232,"어린":5233,"법안을</w>":5234,"joongang":5235,"된다.":5236,"분양":5237,"편집":5238,"border":5239,"민정":5240,"진행</w>":5241,"받지</w>":5242,"26일</w>":5243,"득표율":5244,"찬성":5245,"유튜브</w>":5246,"등과</w>":5247,"으로써</w>":5248,"동원":5249,"선임":5250,"01D5B89":5251,"google_":5252,"부와</w>":5253,"절대</w>":5254,"61":5255,"임금":5256,"강력한</w>":5257,"무시":5258,"법이</w>":5259,"세월호</w>":5260,"분류":5261,"시장을</w>":5262,"googletag.display(\"":5263,"MC_":5264,"dfp_":5265,"google_dfp_":5266,"googletag.display(\"google_dfp_":5267,"googletag.display(\"google_dfp_MC_":5268,"박정":5269,"진보</w>":5270,".f":5271,"아베</w>":5272,"완전히</w>":5273,"째,</w>":5274,"문희상</w>":5275,"장관의</w>":5276,"수성":5277,"수요":5278,"재건":5279,"적을</w>":5280,"ace":5281,"관악":5282,"서민":5283,"px":5284,"공격":5285,"(1":5286,"1번":5287,"속에</w>":5288,"없고</w>":5289,"이르":5290,"lef":5291,"tion":5292,"op":5293,"대가</w>":5294,"신천":5295,"----------------":5296,"%의</w>":5297,"5년</w>":5298,"리에</w>":5299,"%p":5300,"더불어</w>":5301,"려면</w>":5302,"현직</w>":5303,"한다\"고</w>":5304,"이루어":5305,"정체":5306,"진짜</w>":5307,"홍문</w>":5308,"근무":5309,"디지":5310,"영화":5311,"해서는</w>":5312,"EE":5313,"mk":5314,"인상":5315,"의원들은</w>":5316,"민족":5317,"분의</w>":5318,"내에</w>":5319,"된다</w>":5320,"AF":5321,"t.co":5322,"”라며</w>":5323,"주변":5324,"부동산":5325,"대학</w>":5326,"우리나라":5327,"년도</w>":5328,"되겠":5329,"연장":5330,"창원":5331,"지역으로</w>":5332,"시켜":5333,"아는</w>":5334,"생각합니다.</w>":5335,"싸움":5336,"6B":5337,"적극적으로</w>":5338,"에너":5339,"이라면</w>":5340,"명한</w>":5341,"민간":5342,"한국의</w>":5343,"가능성을</w>":5344,"로를</w>":5345,"연령":5346,"시민의</w>":5347,"합니다":5348,"아시아경제</w>":5349,"넘는</w>":5350,"미세":5351,"야권":5352,"0년</w>":5353,"뉴시스":5354,"필요하":5355,"처벌":5356,"사람을</w>":5357,"그러니까</w>":5358,"신년":5359,"열어</w>":5360,"77":5361,"회장은</w>":5362,"정권이</w>":5363,"대책을</w>":5364,"대해선</w>":5365,"나고</w>":5366,"니다.":5367,"당·":5368,"감독":5369,"금지</w>":5370,"코로나바이러스</w>":5371,"충남</w>":5372,"분명히</w>":5373,":00":5374,"앞둔</w>":5375,"이면</w>":5376,"t.co/":5377,"고를</w>":5378,"을,</w>":5379,"사회의</w>":5380,"54":5381,"자금":5382,"줄어":5383,"처리</w>":5384,"@joongang":5385,"년이</w>":5386,"달라고</w>":5387,"변화를</w>":5388,"죠.\\xa0":5389,"거짓":5390,"세상":5391,"적이고</w>":5392,"진중":5393,"선거사무":5394,"01D5D70":5395,"까지는</w>":5396,"무상급":5397,"he":5398,"모두가</w>":5399,"정치인</w>":5400,"event_":5401,"관을</w>":5402,"당직":5403,"window.dataLay":5404,"window.dataLayer</w>":5405,"유력":5406,"’은</w>":5407,"것\"이라고</w>":5408,"부장":5409,"의결":5410,"프리":5411,"매일경제</w>":5412,"집단":5413,"이트":5414,"지면서</w>":5415,"h:</w>":5416,"없어</w>":5417,"프로그":5418,"간에</w>":5419,"유성":5420,"3,":5421,"01D5CAC":5422,"북한의</w>":5423,"ze":5424,"아가":5425,"온라":5426,"라면</w>":5427,"년부터</w>":5428,"조치를</w>":5429,"김재":5430,"잡고</w>":5431,"그래도</w>":5432,"의원들의</w>":5433,"전반":5434,"김문":5435,"까요?</w>":5436,"차원에서</w>":5437,"한반도</w>":5438,"주거":5439,"싸우":5440,"잘못된</w>":5441,"있는":5442,"대책</w>":5443,"해소":5444,"저지":5445,"창당</w>":5446,"게시":5447,"기여":5448,"평균</w>":5449,"안녕":5450,"본격적인</w>":5451,"공직선거법</w>":5452,"wit":5453,"없다”고</w>":5454,"경제가</w>":5455,"당부":5456,"all":5457,"계의</w>":5458,"read":5459,"결정을</w>":5460,"번호":5461,"자문":5462,"비대":5463,"문제에</w>":5464,"대구·":5465,"막을</w>":5466,"쉽게</w>":5467,"당으로</w>":5468,"국은</w>":5469,"의해</w>":5470,"말고</w>":5471,"인재</w>":5472,"하시는</w>":5473,"대에</w>":5474,"검사</w>":5475,"시점":5476,"85":5477,"바로":5478,"최근":5479,"나서</w>":5480,"be":5481,"글로벌</w>":5482,"우회":5483,"우파":5484,"인구</w>":5485,"장애인</w>":5486,"처음으로</w>":5487,"실질":5488,"점검":5489,"진정":5490,"해주시":5491,"이름을</w>":5492,"29일</w>":5493,"평가를</w>":5494,"만의</w>":5495,"없어":5496,"(3":5497,"지키는</w>":5498,"자에</w>":5499,"소수":5500,"곳에</w>":5501,"가치를</w>":5502,"습니까":5503,"우한</w>":5504,"파악":5505,"작은</w>":5506,"C8":5507,"도움이</w>":5508,"있어서</w>":5509,"고는</w>":5510,"측근":5511,"경향":5512,"분야</w>":5513,"지휘":5514,"an</w>":5515,"',</w>":5516,"연구원</w>":5517,"\"이라며</w>":5518,"lin":5519,"명)</w>":5520,"것이다.":5521,"대응</w>":5522,"안타":5523,"얼굴":5524,"-->":5525,"대상</w>":5526,"ec":5527,"르게</w>":5528,"아산":5529,"발을</w>":5530,"3E":5531,"궁금":5532,"량을</w>":5533,"압박":5534,"사표를</w>":5535,"상황이다.</w>":5536,".w":5537,"일정":5538,"인식":5539,"마스크</w>":5540,"고향":5541,"의원님":5542,"과제":5543,"않아</w>":5544,"에,</w>":5545,".php?":5546,"개를</w>":5547,"바탕으로</w>":5548,"만큼":5549,"정론":5550,"스러운</w>":5551,"감소":5552,"강제":5553,"나머":5554,"데일":5555,"부처":5556,"폭력":5557,"서울시</w>":5558,"인데":5559,"계획이다.</w>":5560,"...마스크영역\\'":5561,"blog":5562,"모양":5563,"싶은</w>":5564,"창출":5565,"격차":5566,"더불어민주당은</w>":5567,"바이러스":5568,"교과":5569,"시설</w>":5570,"다\"면서</w>":5571,")·":5572,"사,</w>":5573,"속에서</w>":5574,"하자는</w>":5575,"아래</w>":5576,"미세먼":5577,"현안":5578,"지구":5579,"대표(":5580,"예비후보로</w>":5581,"보였다.</w>":5582,"행을</w>":5583,"화가</w>":5584,"임대":5585,"유권자":5586,"대통합":5587,"리서":5588,"선거제</w>":5589,"우리나라</w>":5590,"관계를</w>":5591,"느끼":5592,"평가</w>":5593,"장관,</w>":5594,"댓글</w>":5595,"여당의</w>":5596,"오를</w>":5597,"전략</w>":5598,"설립":5599,"시각":5600,"없다</w>":5601,"CE":5602,"국민들은</w>":5603,"김부":5604,"야당이</w>":5605,"asiae.co.kr</w>":5606,"//</w>":5607,"1월":5608,"라,</w>":5609,"상한":5610,"해외":5611,"측은</w>":5612,"지원을</w>":5613,"대권":5614,"인간":5615,"TV</w>":5616,"false,u":5617,"4.</w>":5618,"만원":5619,"향한</w>":5620,"미국의</w>":5621,"기구":5622,"분들":5623,"18대</w>":5624,"달리</w>":5625,"없었다.</w>":5626,"었습니다.</w>":5627,"권리":5628,"기회를</w>":5629,"국민과</w>":5630,"포함한</w>":5631,"xt":5632,"공무원":5633,"같은":5634,"임종":5635,"도에</w>":5636,"곳에서</w>":5637,"협회</w>":5638,"고령":5639,"양산":5640,"중이다.</w>":5641,"자리에</w>":5642,"만약</w>":5643,"봉사":5644,"봤다.</w>":5645,"였다.":5646,"선호":5647,"입을</w>":5648,"세력의</w>":5649,"os":5650,"고함</w>":5651,"\\'dablewidget_37J4nBXN\\');</w>":5652,"18</w>":5653,"부,</w>":5654,"수로</w>":5655,"협의체":5656,"리기</w>":5657,"나섰다.</w>":5658,"최종":5659,"98":5660,"at":5661,"국정</w>":5662,"패배":5663,"내용은</w>":5664,"김상":5665,"보이는</w>":5666,"연구원":5667,"000원후원</w>":5668,"순천":5669,"시킬</w>":5670,"left":5671,"하지만,</w>":5672,"맞는</w>":5673,"위치":5674,"시켜</w>":5675,"사회를</w>":5676,"대문":5677,"거든요.</w>":5678,"공직자":5679,"민주평화당</w>":5680,"2015년</w>":5681,"06":5682,"반도":5683,"북구":5684,"tf":5685,"……………………":5686,"@asiae.co.kr</w>":5687,"관련한</w>":5688,"드렸":5689,"여수":5690,"형성":5691,"(서울":5692,"된다면</w>":5693,"나설</w>":5694,"삶을</w>":5695,"대부분":5696,"무소속":5697,"바란다.</w>":5698,"적폐":5699,"점은</w>":5700,"배경":5701,"합니다.":5702,"더니</w>":5703,"불법</w>":5704,"출마할</w>":5705,"사진=":5706,"십시오":5707,"0,d":5708,"안녕하":5709,"보이고</w>":5710,"복지</w>":5711,"조를</w>":5712,"참석한</w>":5713,",m":5714,"의심":5715,"지면</w>":5716,"행태":5717,"D,bf:</w>":5718,"가기</w>":5719,"공간":5720,"이며,</w>":5721,"관련된</w>":5722,"관은</w>":5723,"설득":5724,"정국":5725,"0,lc:</w>":5726,"국민에게</w>":5727,"이로</w>":5728,"다’고</w>":5729,"문화</w>":5730,"케이":5731,"C6":5732,"la":5733,"C,si:</w>":5734,"본회의</w>":5735,"회장,</w>":5736,"전이</w>":5737,"테마":5738,"신설":5739,"국내":5740,"올해":5741,"바꿔":5742,"지와</w>":5743,"ight":5744,"총선의</w>":5745,"참여</w>":5746,"치료":5747,"참석해</w>":5748,"연수":5749,"이들이</w>":5750,"12월":5751,"장(":5752,"65":5753,"개의</w>":5754,"대비":5755,"EF":5756,"니까?</w>":5757,"위반</w>":5758,"경선을</w>":5759,"금지&gt;</w>":5760,"단이</w>":5761,"많다.</w>":5762,"변경":5763,"정유":5764,"흐름":5765,"목소리가</w>":5766,"주를</w>":5767,"한마":5768,"의혹</w>":5769,"선거는</w>":5770,"선언을</w>":5771,"3선</w>":5772,"사태</w>":5773,"안팎":5774,"197":5775,"모임":5776,"직후</w>":5777,"국회의원)</w>":5778,"naver":5779,"했기</w>":5780,"시키고</w>":5781,"미디어":5782,"상의</w>":5783,"출판기념":5784,"끝까지</w>":5785,"소리":5786,"현장</w>":5787,"있지만,</w>":5788,"정부에</w>":5789,"고문":5790,"가면</w>":5791,"대체":5792,"동남":5793,"키워":5794,"당사":5795,"07":5796,"Qu":5797,"관,</w>":5798,"위원회를</w>":5799,"라.</w>":5800,"리얼":5801,"이언":5802,"그럼":5803,"단지</w>":5804,"이낙연":5805,"이건</w>":5806,"선이</w>":5807,"만들</w>":5808,"예방":5809,"주자":5810,"&lt;</w>":5811,"시민들의</w>":5812,"2020.0":5813,"벤처":5814,"전망이다.</w>":5815,"같아":5816,"김수":5817,"되고,</w>":5818,"위기</w>":5819,"되었습니다.</w>":5820,"으면서</w>":5821,"지급":5822,"대변인</w>":5823,"http://t.co/":5824,"운동을</w>":5825,"ack":5826,"트럼프</w>":5827,"때마다</w>":5828,"blog.naver":5829,"아침":5830,"자격":5831,"협상</w>":5832,"01D5C5":5833,"면에서</w>":5834,"언론</w>":5835,"론이</w>":5836,"일로</w>":5837,"6년</w>":5838,"인,</w>":5839,")와</w>":5840,"듣고</w>":5841,"결코</w>":5842,"4.15</w>":5843,"하다":5844,"방해":5845,"국민은</w>":5846,")']</w>":5847,"우려가</w>":5848,"겁니다.</w>":5849,"알아":5850,"오차":5851,"ery</w>":5852,"뉴스1":5853,"김형오</w>":5854,"남양":5855,"지역구를</w>":5856,".01":5857,"하려</w>":5858,"셔서</w>":5859,"TK":5860,"투자</w>":5861,"주가</w>":5862,"이승":5863,"정부를</w>":5864,"입력</w>":5865,"rite":5866,"단식</w>":5867,"출발":5868,"=연합뉴스)</w>":5869,"다짐":5870,"원하는</w>":5871,"결과에</w>":5872,"마저</w>":5873,"죠.":5874,"국회의원을</w>":5875,"예산을</w>":5876,"항상</w>":5877,"text":5878,"애국":5879,"다”라고</w>":5880,"&lt;저작권자</w>":5881,".co.kr,</w>":5882,"구...마스크영역\\'":5883,"단순":5884,"사실조국</w>":5885,"주요뉴스\\'2주에</w>":5886,"구...마스크영역\\'마대</w>":5887,"았던</w>":5888,"여권":5889,"험지</w>":5890,"수정":5891,"시·":5892,"총선기획":5893,"유권자</w>":5894,"당연히</w>":5895,"당초</w>":5896,"단의</w>":5897,"차례":5898,"/c":5899,"공항</w>":5900,"이전</w>":5901,"코스":5902,"%포인트</w>":5903,"광진":5904,"hn":5905,"예고":5906,"회,</w>":5907,"훨씬</w>":5908,"document.w":5909,"마을":5910,"판을</w>":5911,"상당히</w>":5912,"사람들":5913,"mk.co.kr,</w>":5914,"대부분</w>":5915,"지사는</w>":5916,"불가피":5917,"고.</w>":5918,"철도":5919,"사실이</w>":5920,"document.write":5921,"거리</w>":5922,"김세":5923,"아래":5924,"하더라도</w>":5925,"저를</w>":5926,"노무현":5927,"인으로</w>":5928,"제도를</w>":5929,"진출":5930,"트를</w>":5931,"정치권</w>":5932,"계에</w>":5933,"법에</w>":5934,"본회의":5935,"2014년</w>":5936,"금지]":5937,"아직도</w>":5938,"공사</w>":5939,"(\"\"":5940,"jQu":5941,"기고</w>":5942,"window.jQu":5943,"document.write(\"\"":5944,"금지]window.jQu":5945,"document.write(\"\")']</w>":5946,"금지]window.jQuery</w>":5947,"조원":5948,"aid=":5949,"동맹":5950,"블로":5951,"or:</w>":5952,"농업":5953,"듯이</w>":5954,"때도</w>":5955,"포항":5956,"힘이</w>":5957,"0,bf:</w>":5958,"명과</w>":5959,"책을</w>":5960,"최악":5961,"더불어민주당이</w>":5962,"주셨":5963,"성장</w>":5964,"일부":5965,"있다면</w>":5966,"강하게</w>":5967,"더민주</w>":5968,"사에</w>":5969,"소재":5970,"자영업":5971,"et</w>":5972,"리더십":5973,"겠다</w>":5974,"보험":5975,"MBC</w>":5976,"년의</w>":5977,"발전</w>":5978,"인사청문":5979,"청와대가</w>":5980,"목소리":5981,"못했다.</w>":5982,"반복":5983,"것이란</w>":5984,"예술":5985,"en:</w>":5986,"inder":5987,"news.":5988,"됐다.":5989,"무능":5990,"중진</w>":5991,"너무":5992,"DB":5993,"back":5994,"acebo":5995,"정의</w>":5996,"송파":5997,"(2":5998,"맡고</w>":5999,"부천":6000,"인도":6001,"공천관리":6002,"가능성도</w>":6003,"당대표":6004,"방식으로</w>":6005,"@hankyung":6006,"신을</w>":6007,"기능":6008,"지검":6009,"안의</w>":6010,"CA":6011,"요?":6012,"종료":6013,"ry":6014,"기업의</w>":6015,"공정한</w>":6016,"SNS":6017,"81":6018,"단은</w>":6019,"상황에</w>":6020,"보수의</w>":6021,"A000000":6022,"ko":6023,"이유가</w>":6024,"아무리</w>":6025,"인공":6026,"산이</w>":6027,"현장":6028,"겠다":6029,"님이</w>":6030,"나라가</w>":6031,"inder.co.kr/":6032,"'이</w>":6033,"방위":6034,"임금</w>":6035,"입당":6036,"장관을</w>":6037,"심각한</w>":6038,"신임</w>":6039,"서울시장</w>":6040,"김해":6041,"출생</w>":6042,"노조":6043,"선고":6044,"드라":6045,"m:</w>":6046,"고통":6047,"결과는</w>":6048,"지소미아</w>":6049,"사상</w>":6050,"아니냐는</w>":6051,"낮은</w>":6052,"적은</w>":6053,"미리</w>":6054,"논의를</w>":6055,"actf":6056,"co:</w>":6057,"과정을</w>":6058,"들었다.</w>":6059,"없다":6060,"한일</w>":6061,"actfinder.co.kr/":6062,"계획을</w>":6063,"되도록</w>":6064,"ye":6065,"임기</w>":6066,"투입":6067,"특수":6068,"히는</w>":6069,"전략공천":6070,"불평":6071,"코리":6072,"페이스북에</w>":6073,"있습니다</w>":6074,"의혹을</w>":6075,"했다”며</w>":6076,"아가다":6077,"길이</w>":6078,"외면":6079,")에서</w>":6080,"했으나</w>":6081,"아가다경자":6082,"성,</w>":6083,"세로</w>":6084,"매일</w>":6085,"평화를</w>":6086,"내야</w>":6087,"돌입":6088,"마포":6089,"목포":6090,"아가다경자홍문</w>":6091,"h_":6092,"그것이</w>":6093,"주·":6094,"진실을</w>":6095,"97":6096,"국립":6097,"률이</w>":6098,"본부</w>":6099,"만들기</w>":6100,"운영</w>":6101,"통상":6102,"성과를</w>":6103,"거예":6104,"요,</w>":6105,"대체</w>":6106,"원내</w>":6107,"go.f":6108,"go.factfinder.co.kr/":6109,"Ne":6110,"도로":6111,"지금의</w>":6112,"의견이</w>":6113,"영남":6114,"곳이</w>":6115,"사망</w>":6116,"수사권</w>":6117,"yout":6118,"리서치":6119,"’(":6120,"스포":6121,"31일</w>":6122,"정의당이</w>":6123,"][ⓒ</w>":6124,"공동</w>":6125,"입국":6126,"전북</w>":6127,"국토교통":6128,"보기":6129,"불리":6130,"민주주의를</w>":6131,"으나,</w>":6132,"개소":6133,"목을</w>":6134,"졌다.":6135,"예비후보자</w>":6136,"느냐</w>":6137,"대(":6138,"반기</w>":6139,"이것이</w>":6140,"하려면</w>":6141,"tn]":6142,"경찰</w>":6143,"깊은</w>":6144,":00</w>":6145,"시가</w>":6146,"친구":6147,"불편":6148,"험지":6149,"대는</w>":6150,"참고":6151,"한편,</w>":6152,"/ctn]":6153,"민심을</w>":6154,"환경</w>":6155,"둘러싼</w>":6156,"기회":6157,"반기":6158,"않도록</w>":6159,"지역구인</w>":6160,"그때</w>":6161,"미사":6162,"아마</w>":6163,"친노":6164,"막아":6165,":5":6166,"mi":6167,"마치고</w>":6168,"만들고</w>":6169,"능력":6170,"면서":6171,"씨의</w>":6172,"증거":6173,"기자들과</w>":6174,"심이</w>":6175,"안보</w>":6176,"여당이</w>":6177,"실망":6178,"@hankyung.com":6179,"김한":6180,"자료를</w>":6181,"youtu":6182,"담당":6183,"총리와</w>":6184,"대,</w>":6185,"됐던</w>":6186,"형사":6187,"무엇보다</w>":6188,"영상</w>":6189,"조건</w>":6190,"특위</w>":6191,"마친</w>":6192,"한다.\\xa0":6193,"구체적인</w>":6194,"y:</w>":6195,"2009":6196,"border-":6197,"기존":6198,"세종시</w>":6199,"혼란":6200,"합의</w>":6201,"오늘은</w>":6202,"가가</w>":6203,"최고</w>":6204,"회원":6205,"는,</w>":6206,"소위</w>":6207,"메시지를</w>":6208,"그럼에도</w>":6209,"1000":6210,"정당은</w>":6211,"투표를</w>":6212,"논의가</w>":6213,"가까운</w>":6214,"리얼미":6215,"1차</w>":6216,"법과</w>":6217,"본인이</w>":6218,"인과</w>":6219,"기준으로</w>":6220,"병원":6221,"달러":6222,"오르":6223,"이제":6224,"내용이</w>":6225,"나머지</w>":6226,"ff":6227,"갑)</w>":6228,"의뢰":6229,"이철":6230,"하여":6231,"김민":6232,"명령":6233,"한다며</w>":6234,"경제의</w>":6235,"#21대":6236,"s=":6237,"자신을</w>":6238,"정의당":6239,"허용":6240,"검찰에</w>":6241,"공약으로</w>":6242,"동아":6243,"식품":6244,"까지":6245,"재선</w>":6246,"준비</w>":6247,"선거대책":6248,"세력</w>":6249,"웠다.</w>":6250,"혁신</w>":6251,"개입</w>":6252,"말하는</w>":6253,"일이다.</w>":6254,"필리버스터":6255,"밀어":6256,"위협":6257,"친박</w>":6258,"의식":6259,"전면</w>":6260,"검토</w>":6261,"다운</w>":6262,"진실":6263,"위원장의</w>":6264,"님의</w>":6265,"접촉":6266,"clas":6267,"거운</w>":6268,"문이</w>":6269,"법적</w>":6270,"시킨</w>":6271,"조작":6272,"쪽으로</w>":6273,"한국당을</w>":6274,"된다":6275,"물이</w>":6276,"전면":6277,"직접":6278,"제외한</w>":6279,"견제":6280,"정에</w>":6281,"아니고</w>":6282,"안양":6283,"강조했다.":6284,"라디오</w>":6285,"같습니다.</w>":6286,"이들의</w>":6287,"겨냥":6288,"나도</w>":6289,"박찬":6290,"의장":6291,"이었습니다.</w>":6292,"},{":6293,"은행</w>":6294,"여부를</w>":6295,"대처":6296,"px;</w>":6297,"6,ch:</w>":6298,"F8":6299,"로의</w>":6300,"김포":6301,"새해</w>":6302,"의한</w>":6303,"질을</w>":6304,"daum":6305,".nhn":6306,"보이지</w>":6307,"결집":6308,"됐습니다.</w>":6309,"대거</w>":6310,".nhn?":6311,"4-2":6312,"58":6313,"스,</w>":6314,"01D5E15":6315,"시,</w>":6316,"일반</w>":6317,"fam":6318,"new":6319,"논란</w>":6320,"성은</w>":6321,"셈이다.</w>":6322,"63":6323,"공소":6324,"그걸</w>":6325,"내부</w>":6326,"주,</w>":6327,"바랍니다.</w>":6328,"대권</w>":6329,"시의</w>":6330,"참가":6331,"(새</w>":6332,"끝에</w>":6333,"요즘</w>":6334,"지방선거</w>":6335,"family":6336,"2년":6337,"건을</w>":6338,"계획</w>":6339,"음에도</w>":6340,"사고</w>":6341,"적으로는</w>":6342,"하느냐":6343,"font-family":6344,"베이":6345,"자들을</w>":6346,"집회</w>":6347,"근본":6348,"롯데":6349,"시기":6350,"책임</w>":6351,"main/":6352,"상황</w>":6353,"존중":6354,"01D5E9E":6355,"있다며</w>":6356,"활성화":6357,"어떠":6358,"정동영</w>":6359,"ne":6360,"’과</w>":6361,"대규모</w>":6362,"면을</w>":6363,"2019</w>":6364,"서울대</w>":6365,"줘야</w>":6366,"6000000":6367,"선거의</w>":6368,"Hon":6369,"니,</w>":6370,"만난</w>":6371,"사람들은</w>":6372,"의원에</w>":6373,"2011년</w>":6374,"통합의</w>":6375,"08":6376,"법은</w>":6377,"보다":6378,"일정</w>":6379,"주기</w>":6380,"하라고</w>":6381,"20년</w>":6382,"이미지":6383,"치지</w>":6384,"발언</w>":6385,"수출</w>":6386,"재난":6387,"최대한</w>":6388,"(19":6389,"므로</w>":6390,"권력을</w>":6391,"얼마</w>":6392,"이지":6393,"인터뷰에서</w>":6394,"계약":6395,"왔습니다.</w>":6396,"풀이":6397,"CB</w>":6398,"출마한</w>":6399,"01D5E9F":6400,"BF":6401,"소방":6402,"였습니다.</w>":6403,"거듭":6404,"비판을</w>":6405,"더불어민주당의</w>":6406,"589":6407,"SO":6408,"삶의</w>":6409,"호선</w>":6410,"지역구에</w>":6411,"그리":6412,"올림":6413,"저희</w>":6414,"때까지</w>":6415,"생각하는</w>":6416,"2차</w>":6417,"당대표</w>":6418,"역을</w>":6419,"청구":6420,"항공":6421,"광화문</w>":6422,"height":6423,"12</w>":6424,"과감":6425,"김동":6426,"시급":6427,"취임</w>":6428,"여러분</w>":6429,"려야</w>":6430,"유세":6431,"상정":6432,"앞장서":6433,"해양":6434,"국민들에게</w>":6435,"예상된다.</w>":6436,"daum.n":6437,"그랬":6438,"면접":6439,"비정규":6440,"하나로</w>":6441,"···":6442,"@joongang.co.kr":6443,"670":6444,"신경":6445,"위,</w>":6446,"&amp;aid=":6447,"개정</w>":6448,"안산":6449,"3월":6450,"3.1":6451,"지지율은</w>":6452,"................................":6453,"여의도":6454,"훼손":6455,"1.":6456,"장악":6457,"타협":6458,"정치,</w>":6459,"혁신을</w>":6460,"잖아요.</w>":6461,"강행":6462,"cc:</w>":6463,"악화":6464,"정책에</w>":6465,"종로에</w>":6466,"2월":6467,"여야가</w>":6468,"01D5CB4":6469,").</w>":6470,"oid=":6471,"자금</w>":6472,"지게</w>":6473,"1,l":6474,"ci:</w>":6475,"보답":6476,"표가</w>":6477,"다소</w>":6478,"이탈":6479,"인터넷":6480,"새보수":6481,"시험":6482,"시고</w>":6483,"시를</w>":6484,"헌신":6485,"ode=":6486,"지사가</w>":6487,"녹색":6488,"바른</w>":6489,"회관에서</w>":6490,"스토":6491,"이것은</w>":6492,"13</w>":6493,":4":6494,"린다.</w>":6495,"행정안전":6496,"비례연합":6497,"사건을</w>":6498,"절차를</w>":6499,"김문수</w>":6500,"['</w>":6501,"불러":6502,"출사표를</w>":6503,"드린다.</w>":6504,"강화</w>":6505,"억원":6506,"의회":6507,"피해</w>":6508,"동작":6509,"돌파":6510,"형태":6511,"희망을</w>":6512,"통화에서</w>":6513,"마찬가지":6514,"대표도</w>":6515,"몰아":6516,"연구소</w>":6517,"스마트":6518,"3C":6519,"구에</w>":6520,"선수":6521,"연속</w>":6522,"계층":6523,"위원회가</w>":6524,"맞아</w>":6525,"이하":6526,"false}},":6527,"경제부":6528,"as:</w>":6529,"2,ci:</w>":6530,"false,fi:</w>":6531,"강경":6532,"전주":6533,"젊은":6534,"제의</w>":6535,"정상회담":6536,"청소년":6537,"감안":6538,"네요.</w>":6539,"심으로</w>":6540,"인들이</w>":6541,"대표에게</w>":6542,"김대중":6543,"세력을</w>":6544,"열어":6545,"영화</w>":6546,"정치개혁":6547,"이든</w>":6548,"절반":6549,"겼다.</w>":6550,"관계가</w>":6551,"이던</w>":6552,"전직</w>":6553,"행사</w>":6554,"지방자치":6555,"명(":6556,".0pt":6557,"News":6558,"새로</w>":6559,"천·":6560,"****":6561,"위원회는</w>":6562,"XC":6563,"우파</w>":6564,"출석":6565,"의원총":6566,"@se":6567,"명확":6568,"계파":6569,"시아</w>":6570,"프랑":6571,"한일":6572,"새로운보수당</w>":6573,"발견":6574,"현행</w>":6575,"서울경제,</w>":6576,"%(":6577,"오류를</w>":6578,"차를</w>":6579,"한,</w>":6580,"연동형":6581,"민중당</w>":6582,"모델":6583,"청주":6584,"파괴":6585,"했으며</w>":6586,"거주":6587,"그건</w>":6588,"대회":6589,"면서,</w>":6590,"비상대책":6591,"존경하는</w>":6592,"day":6593,"가.</w>":6594,"배우":6595,"전한</w>":6596,"위원회의</w>":6597,"^^</w>":6598,"기독":6599,"분위기":6600,"재외":6601,"제작":6602,"진정한</w>":6603,"폐지":6604,"경험을</w>":6605,"걸고</w>":6606,"다!</w>":6607,"예를</w>":6608,"철회":6609,"대학원</w>":6610,"프로젝":6611,"read.nhn?":6612,"즉각</w>":6613,"단에</w>":6614,"답했다.</w>":6615,"당신":6616,"배당":6617,"적이다.</w>":6618,"정책위":6619,"'로</w>":6620,"01D5E8F18CFB9D00000005DD,bf:</w>":6621,"01D5E8F18CFB9D00000005DC,si:</w>":6622,"단독":6623,"세상을</w>":6624,"청산":6625,"이어서</w>":6626,"논의</w>":6627,"어진</w>":6628,"힘들":6629,"네트":6630,"전라":6631,"왜곡":6632,"구의</w>":6633,"위원장과</w>":6634,"na":6635,"class=":6636,"3대</w>":6637,"과반":6638,"사로</w>":6639,"투쟁을</w>":6640,"이에":6641,"이행":6642,"있으면</w>":6643,"회담</w>":6644,"그림":6645,"후보와</w>":6646,"9B":6647,"대단":6648,"됐다고</w>":6649,"font-si":6650,"인데,</w>":6651,"가,</w>":6652,"그에</w>":6653,"대출":6654,"압수수":6655,"XC']</w>":6656,"내각":6657,"석이</w>":6658,"479":6659,"말씀</w>":6660,"아예</w>":6661,"청와대는</w>":6662,"그럼</w>":6663,"이냐":6664,"전진":6665,"충돌":6666,"어르":6667,"울산</w>":6668,"364":6669,"새롭게</w>":6670,"의미가</w>":6671,"곳은</w>":6672,"낙선":6673,"김정은</w>":6674,"시대</w>":6675,"판매":6676,"광화문":6677,"사퇴</w>":6678,"소득</w>":6679,"점으로</w>":6680,"만,</w>":6681,"자고</w>":6682,"정권은</w>":6683,"우한":6684,"불가능":6685,"정론관에서</w>":6686,"’에서</w>":6687,"수상":6688,"자료</w>":6689,"rem":6690,"정보를</w>":6691,"434":6692,"71":6693,"F0000000":6694,"ter</w>":6695,"김어":6696,"남북</w>":6697,"률은</w>":6698,"보도</w>":6699,"전자":6700,"자세한</w>":6701,"4+1":6702,"컷오프":6703,"전기":6704,"새누리당":6705,"에게도</w>":6706,"va":6707,"표본":6708,"압도":6709,"오신":6710,"typ":6711,"EA":6712,"국민적</w>":6713,"sis":6714,"인재영입":6715,":3":6716,"노원":6717,"정두":6718,"하니</w>":6719,"'의</w>":6720,"상대로</w>":6721,"국가의</w>":6722,"동의</w>":6723,"01D5E6F":6724,"중앙당</w>":6725,"64":6726,"눈에</w>":6727,"배치":6728,"인터뷰</w>":6729,"선거운동을</w>":6730,"워크":6731,"탈락":6732,"국무총리는</w>":6733,"따뜻":6734,"디지털":6735,"E8":6736,"메르":6737,"못할</w>":6738,"석패":6739,"심한</w>":6740,"열리는</w>":6741,"현지":6742,"경고":6743,"오랜</w>":6744,"제조":6745,"구을</w>":6746,"곳을</w>":6747,"그것은</w>":6748,"00000000":6749,"선거용</w>":6750,"ke":6751,"”며</w>":6752,"당권":6753,"하나의</w>":6754,"고속":6755,"어쨌":6756,"취업":6757,"했는데,</w>":6758,"그렇다면</w>":6759,"01D5DFB":6760,"영국</w>":6761,"함수</w>":6762,"명백":6763,"의장은</w>":6764,"품을</w>":6765,"이끌어":6766,"보지</w>":6767,"주지</w>":6768,"초등":6769,"서비스</w>":6770,"얘기가</w>":6771,"신분":6772,"할지</w>":6773,"안에서</w>":6774,"앵커":6775,"계기로</w>":6776,"비리</w>":6777,"외에</w>":6778,"제일</w>":6779,"막기</w>":6780,"있는지</w>":6781,"천정":6782,"취임":6783,"았습니다.</w>":6784,"고위공직자":6785,"마치</w>":6786,"완성":6787,"있다\"고</w>":6788,"접근":6789,"선거운동</w>":6790,"광명":6791,"심사</w>":6792,"모른":6793,"일에는</w>":6794,"충북</w>":6795,"2018":6796,"움직임":6797,"7B":6798,"원래</w>":6799,"주문":6800,"flash_":6801,"2C":6802,"Call":6803,"부끄":6804,"우회하기</w>":6805,"비전":6806,"대표적인</w>":6807,"465":6808,"remove":6809,"구로":6810,"원장</w>":6811,"정치인이</w>":6812,"노인":6813,"정보</w>":6814,"&amp;oid=":6815,"싶다.</w>":6816,"조선</w>":6817,"연구소":6818,"flash</w>":6819,"_flash_":6820,"부패":6821,"추가function</w>":6822,"back()</w>":6823,"Callback()</w>":6824,"removeCallback()</w>":6825,"_flash_removeCallback()</w>":6826,"69":6827,"는데도</w>":6828,"마음이</w>":6829,"2000000":6830,"자본":6831,"폐기":6832,"사람의</w>":6833,"'으로</w>":6834,"사와</w>":6835,"느낌":6836,"졌습니다.</w>":6837,"혹은</w>":6838,"호를</w>":6839,"김부겸</w>":6840,"(결정</w>":6841,"말한</w>":6842,"효과가</w>":6843,"적극적인</w>":6844,"KT":6845,"규탄":6846,"비박":6847,"일방":6848,"꾸준":6849,"완화":6850,"유튜브":6851,"’라고</w>":6852,"연락":6853,"정책이</w>":6854,"유증</w>":6855,"일하는</w>":6856,"의원에게</w>":6857,"아닌가</w>":6858,"국이</w>":6859,"나를</w>":6860,"해진</w>":6861,"새정치민주연합":6862,"쓰고</w>":6863,"s/":6864,"시작했다.</w>":6865,"요구하는</w>":6866,"[연합뉴스":6867,"그것을</w>":6868,"주신</w>":6869,"5.</w>":6870,"스를</w>":6871,"진을</w>":6872,"됐다</w>":6873,"취소":6874,"치기</w>":6875,"군의</w>":6876,"수많은</w>":6877,"피해를</w>":6878,"1,</w>":6879,"수정</w>":6880,"후에</w>":6881,"법무부":6882,"62":6883,"정신을</w>":6884,"대화를</w>":6885,"주재":6886,"당선된</w>":6887,"1년":6888,"ap":6889,"정청래</w>":6890,"googletag.display(\\'div-gpt-ad-15670":6891,"googletag.display(\\'div-gpt-ad-15670434":6892,"오고</w>":6893,"돈을</w>":6894,"기득권</w>":6895,"자랑":6896,"조대":6897,"회동":6898,"변호사는</w>":6899,"@sedaily":6900,"적합":6901,"59465":6902,"googletag.display(\\'div-gpt-ad-1567043459465":6903,"googletag.display(\\'div-gpt-ad-1567043459465-0\\');</w>":6904,"점에</w>":6905,"서울중앙":6906,"이명박":6907,"이익을</w>":6908,"/2":6909,"관리</w>":6910,".kr</w>":6911,"가능성</w>":6912,"사태가</w>":6913,"있으며,</w>":6914,"스럽게</w>":6915,"연금":6916,"집회를</w>":6917,"창원</w>":6918,"주민들의</w>":6919,"경찰청":6920,"등에서</w>":6921,"방문</w>":6922,"출신인</w>":6923,"벗어":6924,"축하":6925,"헌법</w>":6926,"총리를</w>":6927,"['//</w>":6928,"평가가</w>":6929,"0,sc:</w>":6930,"시대를</w>":6931,"강원도</w>":6932,"무기":6933,"봅니다.</w>":6934,"시민들이</w>":6935,"위해서":6936,"긴급</w>":6937,"실장은</w>":6938,"통계":6939,"당당":6940,"말도</w>":6941,"선,</w>":6942,"자들":6943,"어려움을</w>":6944,"01D5E8F18CFB9D00000005D6,ch:</w>":6945,"정부에서</w>":6946,"감사합니다.</w>":6947,"상태다.</w>":6948,"감염증":6949,"지배":6950,"et/":6951,"79364":6952,"googletag.display(\\'div-gpt-ad-15589":6953,"47979364":6954,"googletag.display(\\'div-gpt-ad-1558947979364":6955,"googletag.display(\\'div-gpt-ad-1558947979364-0\\');</w>":6956,"식의</w>":6957,"확장":6958,"간담회를</w>":6959,"사전":6960,"3년":6961,"포스":6962,"다시":6963,"대립":6964,"위기를</w>":6965,"모르겠":6966,"김종인</w>":6967,"신속처리":6968,"한경":6969,"때가</w>":6970,"면이</w>":6971,"상에</w>":6972,"조정</w>":6973,"모르는</w>":6974,"한겨레":6975,"었다</w>":6976,"권역":6977,"스크":6978,"일정을</w>":6979,"놓은</w>":6980,"역사</w>":6981,"표결":6982,"행위를</w>":6983,"지도부</w>":6984,"행보를</w>":6985,"비가</w>":6986,"최고위원회의에서</w>":6987,"공무원</w>":6988,"직원":6989,"일본이</w>":6990,"@hankyung.com']</w>":6991,"BC":6992,"내용</w>":6993,"수익":6994,"어를</w>":6995,"이)</w>":6996,"있는데,</w>":6997,"해,</w>":6998,"현장에서</w>":6999,"그를</w>":7000,"민생</w>":7001,"사령":7002,"지명":7003,"참모":7004,"축소":7005,"다수</w>":7006,"03":7007,"중도</w>":7008,"0,f":7009,"오른쪽":7010,"한데</w>":7011,"예비후보,</w>":7012,"격려":7013,"계산":7014,"됐다는</w>":7015,"자산":7016,"프로그램":7017,"분당":7018,"수립":7019,"01D5CD":7020,"년대</w>":7021,"물론":7022,"민주당을</w>":7023,"올랐다.</w>":7024,"거다.</w>":7025,"박종":7026,"사유":7027,"함으로써</w>":7028,"총선과</w>":7029,"기록했다.</w>":7030,"연기)</w>":7031,"섰다.</w>":7032,"법,</w>":7033,"비례대표제</w>":7034,"담은</w>":7035,"뿐이다.</w>":7036,"있습니다.":7037,"left&gt;</w>":7038,"성의</w>":7039,"출마하는</w>":7040,"불거":7041,"대한민국이</w>":7042,"“이</w>":7043,"말은</w>":7044,"배출":7045,"석으로</w>":7046,"올리":7047,"회장이</w>":7048,"구는</w>":7049,"총재":7050,"3A":7051,"말이다.</w>":7052,"버린</w>":7053,"2F":7054,"2000":7055,"설치</w>":7056,"최고의</w>":7057,"부분에</w>":7058,"방문해</w>":7059,"돼지":7060,"않아":7061,"news.naver.com/":7062,"광역시</w>":7063,"끝나":7064,"방지":7065,"해외</w>":7066,"김명":7067,"소송":7068,"은,</w>":7069,"최대":7070,"필요하다.</w>":7071,"전문가</w>":7072,".12":7073,"가짜":7074,"확산</w>":7075,"제3유증</w>":7076,"법인</w>":7077,"와는</w>":7078,"조속":7079,"더민주":7080,"민의</w>":7081,"엄청":7082,"이다":7083,"적지</w>":7084,"제목":7085,"지어</w>":7086,"하다”고</w>":7087,"보건복지":7088,"sid":7089,"거듭</w>":7090,"건설</w>":7091,"것인지</w>":7092,"법조":7093,"이영":7094,"{}":7095,"제한</w>":7096,"윤리":7097,"있으며</w>":7098,"청사에서</w>":7099,"해가</w>":7100,"민주당에</w>":7101,"0,bc:</w>":7102,"false,st:</w>":7103,"con":7104,"데이터":7105,"v:</w>":7106,"민주화</w>":7107,"195":7108,"자체</w>":7109,"확실한</w>":7110,"게임":7111,"av:</w>":7112,"지역이</w>":7113,"news.naver.com</w>":7114,"장도</w>":7115,"평택":7116,"울산시장</w>":7117,"01D5AD8":7118,"su":7119,".kr/":7120,"대안신당</w>":7121,"칼럼":7122,"대통령에게</w>":7123,"one":7124,"포함해</w>":7125,"대구·경북":7126,",s":7127,"지에서</w>":7128,"평을</w>":7129,"특별위원회</w>":7130,"의장</w>":7131,"사태를</w>":7132,"변화가</w>":7133,"5.":7134,"기부":7135,"제정":7136,"osun":7137,"않습니다.</w>":7138,"자.</w>":7139,"자에게</w>":7140,"시작한</w>":7141,"0F":7142,"갈등을</w>":7143,"삼성전":7144,"외교</w>":7145,"여기서</w>":7146,"그간</w>":7147,"데도</w>":7148,"50%</w>":7149,"후보자가</w>":7150,".com/news/articleView.html?idxno=":7151,"탄핵을</w>":7152,"것”":7153,"교체</w>":7154,"투명":7155,"그렇지</w>":7156,"합류":7157,"해왔다.</w>":7158,"부분이</w>":7159,"어쨌든</w>":7160,"각오":7161,"이처럼</w>":7162,"형을</w>":7163,"0,tc:</w>":7164,"십시오.</w>":7165,"hw":7166,"앞으로도</w>":7167,"대폭</w>":7168,"수,</w>":7169,"펼쳐":7170,"시장에</w>":7171,"4차</w>":7172,"실무":7173,"등도</w>":7174,"중한</w>":7175,"0,lt:</w>":7176,"검찰개혁</w>":7177,"2008년</w>":7178,"않을까</w>":7179,"치열한</w>":7180,"알리고</w>":7181,"생각하고</w>":7182,"1위를</w>":7183,"2·":7184,"계는</w>":7185,"차이가</w>":7186,"협조":7187,"사회가</w>":7188,"font-family:":7189,"기지</w>":7190,"신청</w>":7191,"주장을</w>":7192,"여러분의</w>":7193,"3·":7194,"’이라고</w>":7195,"갈등</w>":7196,"비리":7197,"처리를</w>":7198,"출범</w>":7199,"아무런</w>":7200,"균형발전":7201,"개선</w>":7202,"중구</w>":7203,"이재명</w>":7204,"\"고</w>":7205,"는가?</w>":7206,"@sedaily.com":7207,"년까지</w>":7208,"차량":7209,"했으며,</w>":7210,"대에서</w>":7211,"01D5DA":7212,"지지율을</w>":7213,"리스트":7214,"상승</w>":7215,"지금도</w>":7216,"선생":7217,"타임":7218,"인가.</w>":7219,"사랑하는</w>":7220,"오직</w>":7221,"기획재":7222,"oo":7223,"불과</w>":7224,"집회":7225,"경쟁을</w>":7226,"랜드":7227,"정·":7228,"하겠습니다":7229,"양보":7230,"직무":7231,"ES":7232,"개최</w>":7233,"경상":7234,"동참":7235,"개혁의</w>":7236,"진중권</w>":7237,"witter</w>":7238,"도와":7239,"명분":7240,"배를</w>":7241,"중심의</w>":7242,"질문을</w>":7243,"대통령에</w>":7244,"01D5D27":7245,"_n":7246,"경우가</w>":7247,"마감":7248,"여서</w>":7249,"회사</w>":7250,"전략을</w>":7251,"나마</w>":7252,"승리</w>":7253,"지적이</w>":7254,"맞서</w>":7255,"보복":7256,"화된</w>":7257,"층의</w>":7258,"크다.</w>":7259,"정권에</w>":7260,"대북":7261,"연을</w>":7262,"촬영":7263,"텃밭":7264,"힘든</w>":7265,"요구를</w>":7266,"상대적으로</w>":7267,"Twitter</w>":7268,"ht:</w>":7269,"것이다.\\xa0":7270,"김두":7271,"이렇":7272,"보면서</w>":7273,"성·":7274,"이석":7275,"이길</w>":7276,"요.◎</w>":7277,"01D5B4":7278,"비슷한</w>":7279,"민정수석":7280,"94":7281,"당내":7282,"주체":7283,"후보자의</w>":7284,"18세</w>":7285,"참여할</w>":7286,"내린</w>":7287,"상실":7288,"올린</w>":7289,"비판이</w>":7290,"도입</w>":7291,"부인":7292,"대상이</w>":7293,"여러분!</w>":7294,"온라인</w>":7295,"이완":7296,"위원장으로</w>":7297,"&amp;ranking":7298,"바이오":7299,"A8":7300,"좌파</w>":7301,"선거관리위원회":7302,"조사에서</w>":7303,"개정안</w>":7304,"marg":7305,"방역</w>":7306,"관련,</w>":7307,"무엇을</w>":7308,"의정부":7309,"장외":7310,"협상을</w>":7311,"원칙을</w>":7312,"최악의</w>":7313,"margin":7314,"국정농":7315,"데이</w>":7316,"범위</w>":7317,"비핵":7318,"이성":7319,"마지막으로</w>":7320,"요일</w>":7321,"추구":7322,"있었습니다.</w>":7323,"말씀드리":7324,"가의</w>":7325,"강원</w>":7326,"기,</w>":7327,"도당</w>":7328,"불리는</w>":7329,"가까이</w>":7330,"'라는</w>":7331,"(A":7332,"바라는</w>":7333,"에이":7334,"하실</w>":7335,"가격</w>":7336,"시당</w>":7337,"시민단체":7338,"철저히</w>":7339,"사설":7340,"16</w>":7341,"공모":7342,"아름":7343,"통과</w>":7344,"다음에</w>":7345,"@sedaily.com&lt;저작권자</w>":7346,"지향":7347,"x250":7348,"이사</w>":7349,"대통령,</w>":7350,"한국당에</w>":7351,"새정치연합</w>":7352,"250x250":7353,"link":7354,"56":7355,"cn":7356,"군이</w>":7357,"사회에</w>":7358,"googletag.display(\"google_dfp_MC_250x250":7359,"googletag.display(\"google_dfp_MC_250x250\"":7360,"11</w>":7361,"74":7362,"wid":7363,"모아</w>":7364,"1만":7365,"사실은</w>":7366,"이주":7367,"저항":7368,"지자체":7369,"페이스북</w>":7370,"치러지는</w>":7371,"거기":7372,"나의</w>":7373,"네,</w>":7374,"식에서</w>":7375,"학생</w>":7376,"여러분,</w>":7377,"받으":7378,"자율":7379,"}]}]},01D5E8F18CFB75F000000":7380,"생을</w>":7381,"진단":7382,"함이</w>":7383,"출마가</w>":7384,"“문재인</w>":7385,"하다가</w>":7386,"0B":7387,"두려":7388,"참으로</w>":7389,"창업":7390,"해주세요":7391,"이언주</w>":7392,"각을</w>":7393,"방을</w>":7394,"세금":7395,"폐렴":7396,"때문입니다.</w>":7397,"장관과</w>":7398,"강서":7399,"긴급":7400,"논리":7401,"수산":7402,"정경":7403,"에서,</w>":7404,"기자][ⓒ</w>":7405,"방향으로</w>":7406,"[아시아경제</w>":7407,"가입":7408,"경산":7409,"발휘":7410,"중립":7411,"국회의원은</w>":7412,"UA":7413,"결혼":7414,"@hani.co.kr":7415,"한마디":7416,"박성":7417,"시의회</w>":7418,"제에</w>":7419,"검색":7420,"소환":7421,"시아":7422,"치가</w>":7423,"한국당과</w>":7424,"통합이</w>":7425,"범죄수사":7426,";}":7427,"인프":7428,"전광":7429,"전해졌다.</w>":7430,"갑자기</w>":7431,"답을</w>":7432,"2013년</w>":7433,"참여를</w>":7434,"al:</w>":7435,"어려울</w>":7436,"협의회</w>":7437,"d=":7438,"징역</w>":7439,"하라는</w>":7440,"도약":7441,"많았":7442,"방안</w>":7443,"01D5B6C":7444,"변화와</w>":7445,"미세먼지</w>":7446,"꿈을</w>":7447,"되자</w>":7448,"위기에</w>":7449,"키우":7450,"청와대와</w>":7451,"나아가</w>":7452,"나가는</w>":7453,"반박":7454,"더불어민주당과</w>":7455,"범죄</w>":7456,"장)</w>":7457,"시장,</w>":7458,"드리고</w>":7459,"보니까</w>":7460,"일의</w>":7461,"정은</w>":7462,"의원들</w>":7463,"부각":7464,"집값":7465,"나라의</w>":7466,"시청</w>":7467,"혁명</w>":7468,"교육을</w>":7469,"보다도</w>":7470,"다녀":7471,"물어":7472,"선거인":7473,"4F":7474,"새정치연합":7475,"네티":7476,"도덕":7477,"오래":7478,"체제</w>":7479,"국회의원,</w>":7480,"17대</w>":7481,"기본소득":7482,"분석</w>":7483,"본인":7484,"사하":7485,"씨를</w>":7486,"자주</w>":7487,"정치권의</w>":7488,"기자회견에서</w>":7489,"고위</w>":7490,"내기</w>":7491,"대신":7492,"해서":7493,"PK":7494,"을에</w>":7495,"패스트트랙(":7496,"사이에</w>":7497,"중구":7498,"포용":7499,"하는지</w>":7500,"지속적으로</w>":7501,"왜냐":7502,"이다.\\xa0":7503,"재보":7504,"캠프":7505,"아니라,</w>":7506,"%포인트":7507,"네이버":7508,"관심</w>":7509,"남아</w>":7510,"차단":7511,"평론":7512,"84":7513,"가슴":7514,"가족</w>":7515,"갈등이</w>":7516,"결의":7517,"기술</w>":7518,"김광":7519,"바닥":7520,"입법</w>":7521,"질의":7522,"01D5E6C":7523,"개정안":7524,"재산":7525,"인사들이</w>":7526,"나라는</w>":7527,"님,</w>":7528,"않게</w>":7529,"장소":7530,"정계":7531,"우리공화당</w>":7532,"말에</w>":7533,"묻는</w>":7534,"0,e":7535,"시스템</w>":7536,"3000000":7537,"m.":7538,"엄마":7539,"영호</w>":7540,"먹고</w>":7541,"이야기</w>":7542,"북한이</w>":7543,"시청":7544,"음이</w>":7545,"합의를</w>":7546,"선택을</w>":7547,"격전":7548,"복합":7549,"전부터</w>":7550,"절실":7551,"문제로</w>":7552,"거기에</w>":7553,"낡은</w>":7554,"bel":7555,"되는데</w>":7556,"보시":7557,"이유를</w>":7558,"~~":7559,"광산":7560,"높다.</w>":7561,"이달</w>":7562,"4+1</w>":7563,"cate":7564,"font-size":7565,"fe":7566,"완료":7567,"이겨":7568,"주류":7569,"하였습니다.</w>":7570,"야당은</w>":7571,"k:</w>":7572,"것이라며</w>":7573,"복잡":7574,"율이</w>":7575,"태어":7576,"....</w>":7577,"반대하는</w>":7578,"[출처":7579,"유력</w>":7580,"425":7581,"누군":7582,"양정":7583,"인근</w>":7584,"주식":7585,"현수":7586,"정책의</w>":7587,"도시로</w>":7588,"분에</w>":7589,"비판</w>":7590,"재생":7591,"새보수당</w>":7592,"생명":7593,"역사를</w>":7594,"자리</w>":7595,"초선</w>":7596,"01D5B7F":7597,"나타났":7598,"유일한</w>":7599,"C5":7600,"lu":7601,"개인</w>":7602,"년에는</w>":7603,"받게</w>":7604,"않으":7605,"발생한</w>":7606,"남구":7607,"살리":7608,"지구</w>":7609,"10년</w>":7610,"'고</w>":7611,"못해</w>":7612,"었다.":7613,"대로":7614,"들로</w>":7615,"순으로</w>":7616,"하겠다":7617,"(왼쪽":7618,"국회로</w>":7619,"0,ht:</w>":7620,"총선에서는</w>":7621,"false},":7622,"01D5EAA":7623,"내용의</w>":7624,"지도부가</w>":7625,"선관위</w>":7626,"진흥":7627,"민주주의의</w>":7628,"/20200":7629,"기후":7630,"생태":7631,"종교":7632,"좋겠":7633,"경제적</w>":7634,"시장과</w>":7635,"to</w>":7636,"150":7637,"font-size:":7638,"달라는</w>":7639,"유럽":7640,"리얼미터":7641,"효과를</w>":7642,"도대체</w>":7643,"분수":7644,"외에도</w>":7645,"\\xa01":7646,"뒤집":7647,"부지":7648,"대사":7649,"점이다.</w>":7650,"중·":7651,"탈당</w>":7652,"2022":7653,"정책과</w>":7654,"청와대에서</w>":7655,"&amp;rankingS":7656,"콘텐":7657,"여론이</w>":7658,"상품":7659,"점도</w>":7660,"했다가</w>":7661,".chosun":7662,"강기":7663,"상은</w>":7664,"자도</w>":7665,"민주노":7666,"원내대표,</w>":7667,"gory":7668,"LE":7669,"MI":7670,"비공개</w>":7671,"외부":7672,"원과</w>":7673,"설이</w>":7674,"후보자는</w>":7675,"인도네":7676,"모아":7677,"법안이</w>":7678,"www.k":7679,"width":7680,"공보":7681,"중에서</w>":7682,"하늘":7683,"마음으로</w>":7684,"새로운보수":7685,"박영선</w>":7686,"\"라고</w>":7687,"순간":7688,"윤소":7689,"지.</w>":7690,"하겠다</w>":7691,"김세연</w>":7692,"인물</w>":7693,"해선</w>":7694,"01D5E14":7695,"관리위원회</w>":7696,"신뢰를</w>":7697,"가정":7698,"기의</w>":7699,"무조건</w>":7700,"고위공직자범죄수사":7701,"광주시":7702,"권에</w>":7703,"맞붙":7704,"화에</w>":7705,"시작으로</w>":7706,"위원회에서</w>":7707,"'가</w>":7708,"창당을</w>":7709,"기자회견</w>":7710,"신천지</w>":7711,"결심":7712,"하는데,</w>":7713,"기업이</w>":7714,"오늘의</w>":7715,"지하철</w>":7716,"73":7717,"연계":7718,"채널":7719,"취약":7720,"타당":7721,"+1</w>":7722,"2A":7723,"활성화</w>":7724,"소중한</w>":7725,"}}":7726,"무당":7727,"전두":7728,"TK</w>":7729,"고맙":7730,"이야기가</w>":7731,"심판론":7732,"여론조사에서</w>":7733,"고요.\\xa0":7734,"교통</w>":7735,"그만":7736,"모색":7737,"1,d":7738,"어렵다.</w>":7739,"반도체</w>":7740,"!!":7741,"트위":7742,"면으로</w>":7743,"쓰는</w>":7744,"아쉬":7745,"홈페이지</w>":7746,"label":7747,"지식":7748,"대표에</w>":7749,"가시":7750,"거대</w>":7751,"맞지</w>":7752,"보낸</w>":7753,"주차":7754,"인가?</w>":7755,"한선":7756,"대선주자</w>":7757,"출신으로</w>":7758,"고한</w>":7759,"도서":7760,"교수가</w>":7761,"채택":7762,"논란을</w>":7763,"최고위원은</w>":7764,"과학기술":7765,"category":7766,"협정":7767,"자유한국당을</w>":7768,"개인의</w>":7769,"거라고</w>":7770,"도와</w>":7771,"있다.\\xa0":7772,"총괄":7773,"선거구에</w>":7774,"기사로</w>":7775,"확진자가</w>":7776,"CC":7777,"억원을</w>":7778,"종로에서</w>":7779,"어린이":7780,"출처=연합뉴스":7781,"(전</w>":7782,",c":7783,"의혹이</w>":7784,"부터는</w>":7785,"가게</w>":7786,"내세우":7787,"선에서</w>":7788,"야말로</w>":7789,"재정</w>":7790,"조경":7791,"직한</w>":7792,"필요하다고</w>":7793,"네티즌":7794,"포퓰":7795,"false,l":7796,"g:</w>":7797,"동물":7798,"들이":7799,"공천관리위원회":7800,"0,lw:</w>":7801,"false,bt:</w>":7802,"1호</w>":7803,"가기":7804,"인가</w>":7805,"협력</w>":7806,"fo:</w>":7807,"ty:</w>":7808,"아닙니다.</w>":7809,"6·":7810,"6월":7811,"tp:</w>":7812,"동에</w>":7813,"사안":7814,"105":7815,"참석했다.</w>":7816,"hi:</w>":7817,"단식을</w>":7818,"자녀":7819,"10월":7820,"do:</w>":7821,",as:</w>":7822,"pb:</w>":7823,"{a":7824,"비중":7825,"0,a":7826,"0,ol:</w>":7827,"진영의</w>":7828,"1417,or:</w>":7829,"true,hi:</w>":7830,"false,fa:</w>":7831,"1417,ot:</w>":7832,"1417,ob:</w>":7833,"'(":7834,".han":7835,"Cli":7836,"대회</w>":7837,"청와대의</w>":7838,"보좌관</w>":7839,"(사진":7840,"acebook":7841,"과도":7842,"그만큼</w>":7843,"차관":7844,"친문":7845,"국무총리와</w>":7846,"마땅":7847,"숨을</w>":7848,"원종":7849,"이걸</w>":7850,"주년</w>":7851,"투데이</w>":7852,"현안</w>":7853,"후보자를</w>":7854,"지역위원장":7855,"2010년</w>":7856,"10,":7857,"철학":7858,"시작된</w>":7859,"알려진</w>":7860,".daum.n":7861,"429":7862,"강남</w>":7863,"해체":7864,"있으니</w>":7865,"물갈이":7866,"po":7867,"살고</w>":7868,"서산":7869,"양대</w>":7870,"조항":7871,"진상":7872,"가운데":7873,"ㅡㅡㅡㅡㅡㅡㅡㅡㅡㅡㅡㅡㅡㅡㅡㅡ":7874,"물리":7875,"종의</w>":7876,"이라면서</w>":7877,"인터넷</w>":7878,"정유경":7879,"기타</w>":7880,"끝난</w>":7881,"0,si:</w>":7882,"이번에는</w>":7883,"박정희</w>":7884,"[이미지":7885,"내다":7886,"에스":7887,"하러</w>":7888,"당협위원장":7889,"인구가</w>":7890,"2,m":7891,"4252,m":7892,"fig":7893,"세훈":7894,"아무</w>":7895,"있느냐":7896,"초선":7897,"호,</w>":7898,"eq":7899,"반성":7900,"심지어</w>":7901,"종료</w>":7902,"파주":7903,"정부,</w>":7904,"정부서울":7905,"석패율":7906,"SB":7907,"또다시</w>":7908,"보며</w>":7909,"이수":7910,"꾸준히</w>":7911,"=뉴시스":7912,"본격</w>":7913,"선전":7914,"예비</w>":7915,"자들</w>":7916,"했다며</w>":7917,"기준을</w>":7918,"춘천":7919,"◎\\xa0정유경":7920,"[연합뉴스]":7921,"스가</w>":7922,"지역구에서</w>":7923,"생활을</w>":7924,"오신환</w>":7925,"달려":7926,"동일":7927,"양국</w>":7928,"정작</w>":7929,"탄생":7930,"흘러":7931,"저희가</w>":7932,"어르신":7933,"대출</w>":7934,"박주":7935,"상처":7936,"주최":7937,"인사는</w>":7938,"그들의</w>":7939,"내리":7940,"헌법재판":7941,"4년":7942,"구미</w>":7943,"정의당의</w>":7944,"그럴</w>":7945,"깨끗":7946,"참여하는</w>":7947,"어려워":7948,"목표로</w>":7949,"임종석</w>":7950,"미추":7951,"상생":7952,"수에</w>":7953,"[이미지출처=연합뉴스":7954,"서가</w>":7955,"대응을</w>":7956,"모양새":7957,"(전":7958,"2.0":7959,"구설":7960,"만으로</w>":7961,"01D5E7":7962,"확진자</w>":7963,"기와</w>":7964,"두에</w>":7965,"것이라</w>":7966,"자유한국당과</w>":7967,"최고위원</w>":7968,"경선에서</w>":7969,"공수처법</w>":7970,"기생":7971,"부상":7972,"분담":7973,"상식":7974,"공원</w>":7975,"법의</w>":7976,"변화</w>":7977,"전당대회</w>":7978,"5B":7979,"경쟁</w>":7980,"권과</w>":7981,"베트":7982,"신인":7983,"준연동형</w>":7984,"하면서도</w>":7985,"정당으로</w>":7986,"고등학교</w>":7987,"800":7988,"나?</w>":7989,"연장</w>":7990,"자들과</w>":7991,"너무나</w>":7992,"되며</w>":7993,"분은</w>":7994,"보여주":7995,"span</w>":7996,"과정</w>":7997,"분들은</w>":7998,"집계":7999,"최초로</w>":8000,"(G":8001,"때부터</w>":8002,"지냈":8003,"아니라고</w>":8004,"국회의원의</w>":8005,"-02":8006,"내려놓":8007,"물갈이</w>":8008,"네이버</w>":8009,"s_":8010,"달성":8011,"최소</w>":8012,"합동":8013,"대표로</w>":8014,"열린우리":8015,"DF":8016,"재단</w>":8017,"인사가</w>":8018,"정청래":8019,"프레임":8020,"플랫":8021,"교섭단체</w>":8022,"@joongang.co.kr']</w>":8023,"0E":8024,"명이다.</w>":8025,"정계</w>":8026,"제공</w>":8027,"회관</w>":8028,"발언하고</w>":8029,"3개</w>":8030,"권은</w>":8031,"뚜렷":8032,"정비":8033,"죄를</w>":8034,"차원의</w>":8035,"치며</w>":8036,"화,</w>":8037,"선거제도</w>":8038,"주장하는</w>":8039,"대화</w>":8040,"박지원":8041,"석의</w>":8042,"1·":8043,"해달라":8044,"아\\xa0&gt;\\xa0":8045,"풀어":8046,"11월":8047,"부분은</w>":8048,"자동차":8049,"#홍":8050,"따로</w>":8051,")으로</w>":8052,"법사":8053,"의사</w>":8054,"var</w>":8055,"닷컴</w>":8056,"마산":8057,"소가</w>":8058,"이니</w>":8059,"모습이</w>":8060,"기반을</w>":8061,"여당인</w>":8062,"new</w>":8063,";function</w>":8064,"된다”고</w>":8065,"얻은</w>":8066,"체계":8067,"1번지":8068,"lo":8069,"유재":8070,"자들에게</w>":8071,"힌다.</w>":8072,"예산안</w>":8073,"소중히</w>":8074,"매년</w>":8075,"성사":8076,"의미를</w>":8077,"가로":8078,"나와":8079,"넘게</w>":8080,"준호</w>":8081,"◎\\xa0정유경\\xa0&gt;\\xa0":8082,"랜드</w>":8083,"민·":8084,"보완":8085,"신용":8086,"여당은</w>":8087,"집값</w>":8088,"20150":8089,"선거구는</w>":8090,"5월":8091,"더·":8092,"원전</w>":8093,"한국갤":8094,"대선에서</w>":8095,"아프리":8096,"자유</w>":8097,"의원)</w>":8098,"구체적으로</w>":8099,"맡아</w>":8100,"빠른</w>":8101,"정태":8102,"회사":8103,"밝혔다</w>":8104,"무력":8105,"태극기</w>":8106,"5000":8107,"설계":8108,"어머니":8109,"재선":8110,"위원회(":8111,"대한민국은</w>":8112,")로</w>":8113,"나눠":8114,"혐오":8115,"홍문":8116,"것이고</w>":8117,"포퓰리":8118,":2":8119,"단계</w>":8120,"지방선거에서</w>":8121,"입장에서</w>":8122,"실시한</w>":8123,"겪고</w>":8124,"면에</w>":8125,"세에</w>":8126,"제주</w>":8127,"트리":8128,"국가가</w>":8129,"이상을</w>":8130,"계시":8131,"동주</w>":8132,"주변</w>":8133,"친일":8134,"규모의</w>":8135,"감찰":8136,"대형</w>":8137,"혜택":8138,"추진하는</w>":8139,"사람들의</w>":8140,"◎\\xa0김진":8141,"본격적으로</w>":8142,"mo":8143,"동이</w>":8144,"의료</w>":8145,"지지도</w>":8146,"시간)</w>":8147,"논쟁":8148,"압승":8149,"87":8150,"인재영입</w>":8151,"권력</w>":8152,"특정":8153,"\\');":8154,"공천에서</w>":8155,"&amp;aid=000":8156,"#김":8157,"때,</w>":8158,"성향</w>":8159,"전문</w>":8160,"출신의</w>":8161,"누구나</w>":8162,"\\'dablewidget_37J4nBXN\\');":8163,"\\'dablewidget_37J4nBXN\\');(function(d,a,b,l,e,_)</w>":8164,"법제":8165,"전쟁</w>":8166,"덧붙였다.":8167,"기회가</w>":8168,"빠르게</w>":8169,"아침</w>":8170,"했었":8171,"아니겠":8172,"ilbo":8173,"어떠한</w>":8174,"’와</w>":8175,"점점</w>":8176,"조기</w>":8177,"배당금":8178,"/w":8179,"말했다</w>":8180,"전까지</w>":8181,"회장을</w>":8182,"정도의</w>":8183,"공포":8184,"윤상":8185,"100%</w>":8186,"준비하고</w>":8187,"7934":8188,"행복한</w>":8189,"◎\\xa0김진아\\xa0&gt;\\xa0":8190,"·이":8191,"대목":8192,"맡은</w>":8193,"발굴":8194,"하이":8195,"자동차</w>":8196,"로도</w>":8197,"Date":8198,"강동":8199,"믿고</w>":8200,"연금</w>":8201,"우세":8202,"죠?</w>":8203,"구청장</w>":8204,"[\\'":8205,"“‘":8206,"력과</w>":8207,"상업":8208,"승인</w>":8209,"신의</w>":8210,"질병":8211,"업체</w>":8212,"위와</w>":8213,"정쟁":8214,"domain":8215,"정무수석":8216,"번호:":8217,"구자":8218,"여자":8219,"잠시</w>":8220,"경남도":8221,",{\\'":8222,"--</w>":8223,"AR":8224,"s\\':":8225,"|후원":8226,"은혜</w>":8227,"했으면</w>":8228,"행사를</w>":8229,"\\':</w>":8230,"\\']}":8231,"\\'기사":8232,"\\'후원</w>":8233,"\\'UA":8234,"\\',{\\'":8235,"er.push(arguments)":8236,"er\\':":8237,"검찰청":8238,"());":8239,"ay.han":8240,"\\',\\'event_":8241,"js\\',</w>":8242,"[];function</w>":8243,"(){dataLay":8244,"397934":8245,"});gtag(\\'":8246,"gtag(){dataLay":8247,"-15397934":8248,"spay.han":8249,"event\\',\\'":8250,"{\\'link":8251,"{\\'domain":8252,"\\':\\'후원</w>":8253,"gtag(\\'con":8254,"gtag(\\'js\\',</w>":8255,"노출:":8256,"노출\\',\\'event_":8257,"i.co.kr\\']}":8258,"event_category":8259,"4-2\\',</w>":8260,"cnspay.han":8261,";}gtag(\\'js\\',</w>":8262,"label\\':</w>":8263,"fig\\',</w>":8264,"Date());":8265,"[\\'cnspay.han":8266,"s\\':[\\'cnspay.han":8267,"|후원노출:":8268,"\\'기사번호:":8269,"\\'UA-15397934":8270,"\\',{\\'event_category":8271,"er.push(arguments);}gtag(\\'js\\',</w>":8272,"er\\':{\\'domain":8273,"});gtag(\\'event\\',\\'":8274,"gtag(){dataLayer.push(arguments);}gtag(\\'js\\',</w>":8275,"{\\'linker\\':{\\'domain":8276,"gtag(\\'config\\',</w>":8277,"노출\\',\\'event_label\\':</w>":8278,"i.co.kr\\']}});gtag(\\'event\\',\\'":8279,"Date());gtag(\\'config\\',</w>":8280,"s\\':[\\'cnspay.hani.co.kr\\']}});gtag(\\'event\\',\\'":8281,"\\'UA-153979344-2\\',</w>":8282,"\\',{\\'event_category\\':\\'후원</w>":8283,"{\\'linker\\':{\\'domains\\':[\\'cnspay.hani.co.kr\\']}});gtag(\\'event\\',\\'":8284,"망을</w>":8285,"박형":8286,"음.</w>":8287,"채용":8288,"시민사회":8289,"360":8290,"http://news":8291,"현재의</w>":8292,"이후에</w>":8293,"부평":8294,"용산</w>":8295,"커지고</w>":8296,"확충":8297,"지지하는</w>":8298,"244":8299,"(50":8300,"건의</w>":8301,"이유</w>":8302,"테이":8303,"입니다":8304,"촉구했다.</w>":8305,"경영</w>":8306,"동안":8307,"지대</w>":8308,"에서만</w>":8309,"새누리당이</w>":8310,"부분을</w>":8311,"정치권에</w>":8312,"인에</w>":8313,"한의</w>":8314,"통합에</w>":8315,"대학교":8316,"안타깝":8317,"패스트트랙(신속처리":8318,"돌려":8319,"se_":8320,"2020.01":8321,"ic":8322,"연기</w>":8323,"“이번</w>":8324,"소에</w>":8325,"2004년</w>":8326,"신도시</w>":8327,"업을</w>":8328,"홍준표":8329,"분들의</w>":8330,"하태":8331,"훈련":8332,"보좌관":8333,"지소미아":8334,"감염</w>":8335,"게도</w>":8336,"까지도</w>":8337,"이틀":8338,"쳐야</w>":8339,"출근":8340,"공천이</w>":8341,"LS":8342,"원장은</w>":8343,"가산":8344,"고소":8345,"군은</w>":8346,"철도</w>":8347,"친문</w>":8348,"최저임금</w>":8349,"je":8350,"겠습니다</w>":8351,"구민":8352,"중랑":8353,"진료":8354,"미칠</w>":8355,"사진을</w>":8356,"준비를</w>":8357,"무상급식</w>":8358,"LG":8359,"갖추":8360,"카카":8361,"게다가</w>":8362,"십니까":8363,"아들</w>":8364,"양극":8365,"일간</w>":8366,"참사</w>":8367,"새누리당의</w>":8368,"새누리당은</w>":8369,"무려</w>":8370,"정으로</w>":8371,"허위":8372,"력은</w>":8373,"공산":8374,"30%</w>":8375,"&amp;sid":8376,"언론에</w>":8377,"성장을</w>":8378,"없고,</w>":8379,"없다”며</w>":8380,"인적</w>":8381,"선거법을</w>":8382,"관측이</w>":8383,"3.":8384,"당시":8385,"본인의</w>":8386,"제,</w>":8387,"2017":8388,"진행된</w>":8389,"for</w>":8390,"추가로</w>":8391,"6.</w>":8392,"말할</w>":8393,"사전</w>":8394,"증권":8395,"보를</w>":8396,"원본</w>":8397,"조심":8398,"수(":8399,"왔던</w>":8400,"위안":8401,"의견</w>":8402,"회(":8403,"원내대표의</w>":8404,"[출처]</w>":8405,"깊고</w>":8406,"모으":8407,"제안을</w>":8408,"체제를</w>":8409,"총장</w>":8410,"포인트":8411,"the</w>":8412,"량이</w>":8413,"이뤄질</w>":8414,"다행":8415,"반대로</w>":8416,"버렸":8417,"수입":8418,"자세로</w>":8419,"de":8420,"일관":8421,"남기</w>":8422,"반면,</w>":8423,"여권의</w>":8424,"한다\"며</w>":8425,"떨어진</w>":8426,"일으키":8427,"대외":8428,"부로</w>":8429,"전의</w>":8430,"홍익":8431,"환자</w>":8432,"전망이</w>":8433,"댓글":8434,"수준에</w>":8435,"거죠.</w>":8436,"벗어나":8437,"평균":8438,"폐렴</w>":8439,"분위기가</w>":8440,"탄을</w>":8441,"테러":8442,"정책으로</w>":8443,",tb:</w>":8444,"바꾸는</w>":8445,"ㅋㅋㅋㅋ":8446,"본회의에서</w>":8447,"인지도":8448,"(57":8449,"돌아가":8450,"한겨레</w>":8451,"naver.":8452,"쓰겠습니다.</w>":8453,"역량을</w>":8454,"일도</w>":8455,"정당과</w>":8456,"40대</w>":8457,"이사장은</w>":8458,"하자고</w>":8459,"기존의</w>":8460,"[편집":8461,"나리":8462,"보였":8463,"지정</w>":8464,"투쟁</w>":8465,".18</w>":8466,"데일리":8467,"의원회관에서</w>":8468,"창당준비":8469,"께서는</w>":8470,"나쁜</w>":8471,"수호":8472,"전세":8473,"하나가</w>":8474,"가동":8475,"방법을</w>":8476,"신인</w>":8477,"일제":8478,"활발":8479,"여러번</w>":8480,"과도</w>":8481,"목적":8482,"타고</w>":8483,"6729":8484,"이지만,</w>":8485,"KBS</w>":8486,"대정부":8487,"동대문":8488,"오랫":8489,"출생":8490,"했다\"고</w>":8491,"화와</w>":8492,"\\'});":8493,"라면서</w>":8494,"버리":8495,"폭로":8496,"유리한</w>":8497,"본회의를</w>":8498,"윤동주</w>":8499,"496729":8500,"일자리를</w>":8501,"429496729":8502,"7월":8503,"만원을</w>":8504,"일어나":8505,"사회에서</w>":8506,"none":8507,"us":8508,"극단":8509,"기재":8510,"우수":8511,"평등":8512,"것이고,</w>":8513,"전략공천</w>":8514,"건이</w>":8515,"들께</w>":8516,"머물":8517,"시민과</w>":8518,"4294967295,":8519,"국을</w>":8520,"보고서는</w>":8521,"2009년</w>":8522,"IS":8523,"분기</w>":8524,"전개":8525,"갈등":8526,"꼬집":8527,"느껴":8528,"성격":8529,"소에서</w>":8530,"안내":8531,"치게</w>":8532,"2007년</w>":8533,"수사에</w>":8534,"%는</w>":8535,"사장</w>":8536,"세요</w>":8537,"경험이</w>":8538,"약속을</w>":8539,"응원해주세요":8540,"FF":8541,"구조</w>":8542,"드리는</w>":8543,"모를</w>":8544,"일과</w>":8545,"조용":8546,"축산":8547,"다음과</w>":8548,"도에서</w>":8549,"이날":8550,"받아야</w>":8551,"<span</w>":8552,"메이":8553,"번의</w>":8554,"증명":8555,"부족한</w>":8556,"천정배</w>":8557,"감염증(":8558,"De":8559,"률을</w>":8560,"맞이":8561,"벌이고</w>":8562,"여론</w>":8563,"빠진</w>":8564,"소식":8565,"을은</w>":8566,"ent</w>":8567,"가능성은</w>":8568,"계파</w>":8569,"부담을</w>":8570,"SK":8571,"길로</w>":8572,"많아":8573,"무산":8574,"얻을</w>":8575,"졌다</w>":8576,"하에</w>":8577,"결단":8578,"의지가</w>":8579,"자(":8580,"체를</w>":8581,"01D5E5":8582,"2)</w>":8583,"수단":8584,"지요.</w>":8585,"선동":8586,"9000000":8587,"실업":8588,"만들었":8589,"미추홀":8590,"빠져":8591,"시정":8592,"알찬</w>":8593,"주제로</w>":8594,"하겠습니다</w>":8595,"&amp;m":8596,"================":8597,"1D":8598,"[사진</w>":8599,"아동":8600,"아세":8601,"야만</w>":8602,"양승":8603,"예상</w>":8604,"벌써</w>":8605,"사업이</w>":8606,"사건이</w>":8607,"내일</w>":8608,"자신들의</w>":8609,"분석이</w>":8610,"김정은":8611,"담을</w>":8612,"맞춤":8613,"제와</w>":8614,"지사의</w>":8615,"국민들</w>":8616,"rig":8617,"보답하겠습니다":8618,"현지시간)</w>":8619,"대와</w>":8620,"발광":8621,"행위</w>":8622,"현장을</w>":8623,"수사가</w>":8624,"설명했다.":8625,"YES":8626,"봐도</w>":8627,"상관":8628,"seri":8629,"2x":8630,"갖춘</w>":8631,"님과</w>":8632,"윤영":8633,"피의":8634,"의원들을</w>":8635,"아니었":8636,"교체를</w>":8637,"#21대총선</w>":8638,"가)</w>":8639,"오래</w>":8640,"30대</w>":8641,"여론조사를</w>":8642,".net</w>":8643,"입장에서는</w>":8644,"가지로</w>":8645,"부품":8646,"의가</w>":8647,",h":8648,"계기가</w>":8649,"대결</w>":8650,"사기":8651,"신도시":8652,"진심으로</w>":8653,"김진태</w>":8654,"바꿀</w>":8655,"입성":8656,"신고</w>":8657,"예정</w>":8658,"활동에</w>":8659,"공부":8660,"선포":8661,"하겠다\"고</w>":8662,"경우에는</w>":8663,"02.1":8664,"걸로</w>":8665,"맞춰</w>":8666,"진입":8667,"개정안을</w>":8668,"판단을</w>":8669,"☎\\xa0":8670,"것\"이라며</w>":8671,"공시":8672,"박용":8673,"의왕":8674,"차로</w>":8675,"청원":8676,"충주":8677,"캠페":8678,"(0":8679,"걸쳐</w>":8680,"공익":8681,"노선":8682,"상당한</w>":8683,"83":8684,"것.</w>":8685,"마무":8686,"1호":8687,"93":8688,"날이</w>":8689,"떠나</w>":8690,"추모":8691,"포럼":8692,"보고서를</w>":8693,"해결을</w>":8694,"후원하기":8695,"왜냐하면</w>":8696,"10,000원":8697,"Y\\'});":8698,"aticle":8699,"hy":8700,"세워":8701,"원진실을</w>":8702,"중간":8703,"폭력</w>":8704,"호텔":8705,"1,000원후원</w>":8706,"후원원진실을</w>":8707,"방향을</w>":8708,"5,000원후원</w>":8709,"-->후원하기":8710,"_no</w>":8711,"|후원노출:Y\\'});":8712,"{\\'linker\\':{\\'domains\\':[\\'cnspay.hani.co.kr\\']}});gtag(\\'event\\',\\'YES":8713,"응원해주세요,</w>":8714,"10,000원후원원진실을</w>":8715,"aticle_no</w>":8716,"-->후원하기응원해주세요,</w>":8717,"|후원노출:Y\\'});var</w>":8718,"{\\'linker\\':{\\'domains\\':[\\'cnspay.hani.co.kr\\']}});gtag(\\'event\\',\\'YES\\',{\\'event_category\\':\\'후원</w>":8719,"”는</w>":8720,"그들이</w>":8721,"않다는</w>":8722,"제20대</w>":8723,"보답하겠습니다후원</w>":8724,"눈을</w>":8725,"닷컴":8726,"중앙일보":8727,"가운데,</w>":8728,"시대의</w>":8729,"다운":8730,"대회를</w>":8731,"스의</w>":8732,"접수":8733,"관련해서</w>":8734,"감사</w>":8735,"비전을</w>":8736,"지자</w>":8737,"확신":8738,"이해찬":8739,"습니까?":8740,"%였다.</w>":8741,"위하여</w>":8742,"중심</w>":8743,"지기</w>":8744,"정책은</w>":8745,"부산·":8746,"수준의</w>":8747,"bot":8748,"(7":8749,"(서울</w>":8750,"꿈꾸":8751,"나무":8752,"해명":8753,"에너지</w>":8754,"가량</w>":8755,"광장에서</w>":8756,"십니까?</w>":8757,"파일</w>":8758,"김현미</w>":8759,"serif":8760,"고성":8761,"권유":8762,"년,</w>":8763,"상호</w>":8764,"실행":8765,"여명이</w>":8766,"지혜":8767,"한국은</w>":8768,"경제에</w>":8769,"노영":8770,"박상":8771,"아주":8772,"id\"":8773,"사람들</w>":8774,"1,flu":8775,"googletag.display(\"google_dfp_MC_2x":8776,"1,fluid\"":8777,"googletag.display(\"google_dfp_MC_2x1,fluid\"":8778,"·정":8779,"기호</w>":8780,"소리를</w>":8781,"후보들이</w>":8782,"책임이</w>":8783,".html</w>":8784,"tb":8785,"되게</w>":8786,"야당을</w>":8787,"의도":8788,"초대</w>":8789,"언급한</w>":8790,"공을</w>":8791,"깊이</w>":8792,"조직</w>":8793,"했습니다.":8794,"현실을</w>":8795,"알겠습니다.</w>":8796,"조성</w>":8797,"포토":8798,"군소":8799,"날을</w>":8800,"문의</w>":8801,"번도</w>":8802,"콘서":8803,"만들어야</w>":8804,"밀어붙":8805,"엄청난</w>":8806,"04":8807,"2B":8808,"끄는</w>":8809,"남성":8810,"미니":8811,"버스</w>":8812,"조원</w>":8813,"청주</w>":8814,"학과":8815,"사회복지":8816,".0pt;":8817,"A4":8818,"드릴</w>":8819,"정해":8820,"민주당,</w>":8821,"이어질</w>":8822,"html":8823,"감치</w>":8824,"부총리</w>":8825,"5·18</w>":8826,"난다.</w>":8827,"와이":8828,"0,co:</w>":8829,"8월":8830,"디자":8831,"아카":8832,"(서울=연합뉴스)</w>":8833,"압수수색":8834,"끼리</w>":8835,"뒤에</w>":8836,"번에</w>":8837,"부인</w>":8838,"신중":8839,"지도부에</w>":8840,"이대로</w>":8841,"인들의</w>":8842,"보수가</w>":8843,"미래통합당":8844,"김재원</w>":8845,"안타까":8846,"데일리</w>":8847,"건립":8848,"고가</w>":8849,"노회":8850,"농어":8851,"01D5E3D":8852,"사태로</w>":8853,"0,ml:</w>":8854,"생존":8855,"false,m":8856,"false,ae":8857,"미래통합당은</w>":8858,"false,aa:</w>":8859,"적절한</w>":8860,"false,ae:</w>":8861,"!!!</w>":8862,"박한</w>":8863,"유통":8864,"이같은</w>":8865,"혐의</w>":8866,"이정현</w>":8867,"her":8868,"kim":8869,"기소</w>":8870,"능력을</w>":8871,"님은</w>":8872,"이기는</w>":8873,"인생":8874,"장례":8875,"군을</w>":8876,"직권":8877,"사건에</w>":8878,"규제를</w>":8879,"대안을</w>":8880,"본회의에</w>":8881,"소리</w>":8882,"요구에</w>":8883,"공직선거법":8884,"3당</w>":8885,"그것도</w>":8886,"최경":8887,"제시했다.</w>":8888,"true,s":8889,"400":8890,"건너":8891,"격한</w>":8892,"룸에서</w>":8893,"일찌":8894,"doso":8895,"지도부는</w>":8896,"['이낙연</w>":8897,"감시":8898,"다를</w>":8899,"분들</w>":8900,"신년</w>":8901,"유의</w>":8902,"잡는</w>":8903,"층이</w>":8904,"사진=연합뉴스":8905,"대변인이</w>":8906,"&amp;sid1":8907,"가르":8908,"갑·":8909,"나지</w>":8910,"농민":8911,"한컴":8912,"교과서</w>":8913,"하면,</w>":8914,"자유한국당에</w>":8915,"하나는</w>":8916,":\\xa0":8917,"신규</w>":8918,"실에</w>":8919,"제품":8920,"검찰을</w>":8921,"여러분께</w>":8922,"다수":8923,"잠재":8924,"주민들이</w>":8925,"(58":8926,"작업을</w>":8927,"일각에서는</w>":8928,"doso7":8929,"0px;</w>":8930,"1)</w>":8931,"남아":8932,"될지</w>":8933,"이준":8934,"쳐서</w>":8935,"출마해</w>":8936,".co.kr/news/":8937,"단수":8938,"모여</w>":8939,"유시민</w>":8940,"일꾼":8941,"있음을</w>":8942,"전화</w>":8943,"효율":8944,"#국회의원</w>":8945,"4선</w>":8946,"기대한":8947,"않고,</w>":8948,"충격":8949,"민주적</w>":8950,"대학생":8951,"산업의</w>":8952,"경쟁이</w>":8953,"조선일보</w>":8954,"·무":8955,"걸어":8956,"구역":8957,"꼽히는</w>":8958,"시선":8959,"인물이</w>":8960,"95%</w>":8961,"/연합뉴스":8962,"과천":8963,"추경</w>":8964,"테크":8965,"유권자의</w>":8966,"김병준</w>":8967,"벤처기업":8968,"마케":8969,"상으로</w>":8970,"선정</w>":8971,"신동":8972,"화하는</w>":8973,"2015-04":8974,"관광</w>":8975,"김승":8976,"무관":8977,"이광":8978,"MBC":8979,"01D5D70BF":8980,"01D5D70BFDA":8981,"보냈":8982,"심사를</w>":8983,"어깨":8984,"발전에</w>":8985,"권력의</w>":8986,"구나</w>":8987,"뒷받":8988,"운운":8989,"총장은</w>":8990,"\"(":8991,"검경":8992,"남지</w>":8993,"늦게</w>":8994,"렀다.</w>":8995,"수석</w>":8996,"이원":8997,"1980":8998,"위성정당</w>":8999,"기조":9000,"부처</w>":9001,"졌던</w>":9002,"죄송":9003,"후보에게</w>":9004,"사람들을</w>":9005,"site":9006,"경선에</w>":9007,"제안한</w>":9008,"01D5DA6":9009,"120":9010,"남용":9011,"신종":9012,"요구</w>":9013,"후보에</w>":9014,"뉴스]</w>":9015,"그렇다고</w>":9016,"사퇴를</w>":9017,"일찌감치</w>":9018,"한컴바탕,t":9019,"/html":9020,"민간</w>":9021,"없애":9022,"토대로</w>":9023,"도전장을</w>":9024,"중앙선거여론조사":9025,"직속</w>":9026,"특별한</w>":9027,"경계":9028,"손혜":9029,"확정</w>":9030,"외교부</w>":9031,"(10":9032,"7C":9033,"골목":9034,"곳이다.</w>":9035,"올바른</w>":9036,"측이</w>":9037,"판에</w>":9038,"노동자</w>":9039,"acebook.com/":9040,"오랫동안</w>":9041,"다,\\xa0":9042,"몸을</w>":9043,"질문</w>":9044,"역사적</w>":9045,"imag":9046,"blog.naver.com/":9047,"(여러번</w>":9048,"갑에</w>":9049,"인수":9050,"입당</w>":9051,"제재":9052,"집중</w>":9053,"찾은</w>":9054,"현충":9055,"경우는</w>":9056,"번째로</w>":9057,"고위공직자범죄수사처":9058,".◎</w>":9059,"명도</w>":9060,"없기</w>":9061,"자부":9062,"함에</w>":9063,"화하고</w>":9064,"\\xa0\\xa0</w>":9065,"행정관":9066,"선진화":9067,"던진</w>":9068,"버리고</w>":9069,"원내대표를</w>":9070,"과정에</w>":9071,"국회의장</w>":9072,"서울시장이</w>":9073,"blog.naver.com</w>":9074,"기획재정부</w>":9075,"선배":9076,"그러한</w>":9077,"뉴스1</w>":9078,"강력히</w>":9079,"란히</w>":9080,"반문":9081,"발생</w>":9082,"아,</w>":9083,"총선,</w>":9084,"연합회</w>":9085,"마스크를</w>":9086,"시켰다.</w>":9087,"FT":9088,"시기에</w>":9089,"문자":9090,"파트":9091,"6A":9092,"om":9093,"체결":9094,"\\xa0“":9095,"\\xa0:\\xa0":9096,"미래한국당</w>":9097,"것이냐":9098,"미국이</w>":9099,"youtube":9100,"니다.\\xa0":9101,"무효":9102,"약에</w>":9103,"추천</w>":9104,"홍남기</w>":9105,"사건의</w>":9106,"민생을</w>":9107,"나서야</w>":9108,"확실히</w>":9109,"갈수록</w>":9110,"교류":9111,"맞추":9112,"역사의</w>":9113,"전투":9114,"호(":9115,"변호사가</w>":9116,"입장</w>":9117,"입국</w>":9118,"지검</w>":9119,"차량</w>":9120,"확진</w>":9121,"교수,</w>":9122,"있을지</w>":9123,"보편":9124,"제도가</w>":9125,"잖아요.\\xa0":9126,"강북":9127,"의문":9128,"경찰이</w>":9129,"맞은</w>":9130,"한미</w>":9131,"화합":9132,"v.daum.n":9133,"‘조국</w>":9134,"스는</w>":9135,"이진":9136,"이것을</w>":9137,"있다\"며</w>":9138,"전부</w>":9139,"10%</w>":9140,"미래한국당":9141,"정치인들이</w>":9142,"박원순":9143,"아카데":9144,"날인</w>":9145,"무게":9146,"야권의</w>":9147,"한·일</w>":9148,"소재</w>":9149,"국회의원),</w>":9150,"청년들이</w>":9151,"'이라는</w>":9152,"6.":9153,"강연":9154,"질이</w>":9155,"통제":9156,"상황은</w>":9157,"공작":9158,"김미":9159,"달리":9160,"로가</w>":9161,"부르":9162,"현황":9163,"필요하다는</w>":9164,"05":9165,"거나,</w>":9166,"본인</w>":9167,"사상":9168,"사업에</w>":9169,"김경수</w>":9170,"행정안전부</w>":9171,"IM":9172,"온갖</w>":9173,"혁통":9174,"교육부</w>":9175,"결정에</w>":9176,"#더불어민주당</w>":9177,")도</w>":9178,"실장</w>":9179,"장에게</w>":9180,"/2019":9181,"노조</w>":9182,"사이</w>":9183,"등록했다.</w>":9184,"얘기다.</w>":9185,"4,":9186,"곧바로</w>":9187,"남을</w>":9188,"만만":9189,"것인가?</w>":9190,"앞서":9191,"저녁</w>":9192,"지상":9193,"지연":9194,"2019-":9195,"중앙선거관리위원회":9196,"SOMI":9197,"메르스</w>":9198,"CD":9199,"기사를</w>":9200,"언제</w>":9201,"나중에</w>":9202,"만났":9203,"말까지</w>":9204,"아닐":9205,"조치</w>":9206,"으로서의</w>":9207,"시민이</w>":9208,"7E":9209,"간사":9210,"귀국":9211,"동구</w>":9212,"로써</w>":9213,"뭔가</w>":9214,"얻어</w>":9215,"필요</w>":9216,"경우,</w>":9217,"상태에서</w>":9218,"있어요.</w>":9219,"가질</w>":9220,"끊임":9221,"화장":9222,"다가온</w>":9223,"습니다!</w>":9224,"님을</w>":9225,"단,</w>":9226,"안전</w>":9227,"홍영":9228,"나가야</w>":9229,"행사에</w>":9230,"권한을</w>":9231,"늘어나":9232,"번영":9233,"시흥":9234,"연석":9235,"\\'을</w>":9236,"사회적":9237,"Hel":9238,"계열":9239,"정당인</w>":9240,"경제와</w>":9241,"통합추진":9242,"공사":9243,"솔직":9244,"시나리":9245,"소득주도":9246,"내내</w>":9247,"지방</w>":9248,"치르":9249,"캠프</w>":9250,"편성":9251,"위원,</w>":9252,"정치인의</w>":9253,"수출규제</w>":9254,"심의위원회</w>":9255,"전광훈</w>":9256,"9월":9257,"시한":9258,"재벌":9259,"직업":9260,"착수":9261,":30</w>":9262,"강을</w>":9263,"열었다.</w>":9264,"서울에서</w>":9265,"요구했다.</w>":9266,"바른미래당":9267,"o:</w>":9268,"되기를</w>":9269,"은?</w>":9270,"전화를</w>":9271,"주력":9272,"최재":9273,"칠곡":9274,"하니까</w>":9275,"허가":9276,"보수를</w>":9277,"기반</w>":9278,"돼서</w>":9279,"뿌리":9280,"우는</w>":9281,"잡을</w>":9282,"SNS</w>":9283,"니다":9284,"독일":9285,"동지":9286,"로지</w>":9287,"아마":9288,"율은</w>":9289,"인하":9290,"장인</w>":9291,"재개":9292,"국가안보":9293,"자체를</w>":9294,"간담회에서</w>":9295,"8,":9296,"고향</w>":9297,"됐고,</w>":9298,"무소속으로</w>":9299,"1~":9300,"공급</w>":9301,"생각</w>":9302,"이슈가</w>":9303,"데이터</w>":9304,"고발</w>":9305,"봉쇄":9306,"체계</w>":9307,"하지는</w>":9308,"orm":9309,"YT":9310,"구상":9311,"양·":9312,"임명</w>":9313,"증을</w>":9314,"행한</w>":9315,"출연해</w>":9316,"4.15":9317,"1위</w>":9318,"대의":9319,"본청</w>":9320,"여부</w>":9321,"육성":9322,"재판</w>":9323,"180":9324,"국가를</w>":9325,"보도가</w>":9326,"이름이</w>":9327,"물러나":9328,"가?</w>":9329,"간다.</w>":9330,"동두":9331,"안심":9332,"올렸다.</w>":9333,"정진":9334,"직원</w>":9335,"총리,</w>":9336,"경제는</w>":9337,"문제와</w>":9338,"▲&lt;":9339,"멈추":9340,"민심</w>":9341,"친노</w>":9342,"바람직":9343,"부장판":9344,"의미</w>":9345,"적임":9346,"컷오프</w>":9347,"3000":9348,"mode=":9349,"괜찮":9350,"기본</w>":9351,"심판</w>":9352,"이웃":9353,"해운":9354,"들어가":9355,"개정안이</w>":9356,".co.kr/news/articleView.html?idxno=":9357,"news.naver.com/main/":9358,"site/":9359,"변수":9360,"유명":9361,"추정":9362,"들어서</w>":9363,"결과,</w>":9364,"미래통합당의</w>":9365,"독재</w>":9366,"듯한</w>":9367,"축구":9368,"인터뷰를</w>":9369,"청소년</w>":9370,"미디어</w>":9371,"나누고</w>":9372,"관여":9373,"다면,</w>":9374,"로조국</w>":9375,"만은</w>":9376,"많았다.</w>":9377,"신상":9378,"입문":9379,"필요성을</w>":9380,"사실마스크영역\\'":9381,"정무부":9382,"주요뉴스\\'마대</w>":9383,"구설로조국</w>":9384,"사실마스크영역\\'2주에</w>":9385,"600":9386,"[뉴스1":9387,"보도를</w>":9388,"없게</w>":9389,"였다</w>":9390,"20%</w>":9391,"교육청":9392,"토론을</w>":9393,"col":9394,"결국은</w>":9395,"매매":9396,"김영삼</w>":9397,"미·":9398,"했는지</w>":9399,"은평":9400,"주도</w>":9401,"탈북":9402,"504":9403,"경쟁력</w>":9404,"시대에</w>":9405,"하락한</w>":9406,"따뜻한</w>":9407,"3B":9408,"겠다며</w>":9409,"없도록</w>":9410,"오늘도</w>":9411,"09:00":9412,"29</w>":9413,"3)</w>":9414,"어요.\\xa0":9415,"억울":9416,"주시기</w>":9417,"건축":9418,"못하면</w>":9419,"부진":9420,"여행":9421,"인적":9422,"지인</w>":9423,"최초</w>":9424,"텐데</w>":9425,"참여한</w>":9426,"세력은</w>":9427,"선거구를</w>":9428,"우려를</w>":9429,"site/data":9430,"OEC":9431,"결론":9432,"국제</w>":9433,"enn":9434,"site/data/html":9435,"가치</w>":9436,"뜨거운</w>":9437,"오후":9438,"치면</w>":9439,"다”라며</w>":9440,"에서부터</w>":9441,"보여주는</w>":9442,"분야에서</w>":9443,"시스템을</w>":9444,"KBS":9445,".chosun.com/":9446,"소외":9447,"율을</w>":9448,"중앙</w>":9449,"네트워크":9450,"경청":9451,"또한,</w>":9452,"보면,</w>":9453,"촛불</w>":9454,"알려져</w>":9455,"단순히</w>":9456,"비례연합정당</w>":9457,"We":9458,"갑,</w>":9459,"곳으로</w>":9460,"뮤니":9461,"보인</w>":9462,"자제":9463,"좌우":9464,"주자로</w>":9465,"특검":9466,"요.◎\\xa0진행자\\xa0&gt;\\xa0":9467,"al</w>":9468,"개로</w>":9469,"심에서</w>":9470,"않은":9471,"이우":9472,"정치적으로</w>":9473,"계와</w>":9474,"윤호":9475,"제약":9476,"나오지</w>":9477,"경력":9478,"구로</w>":9479,"로서는</w>":9480,"보통</w>":9481,"시스</w>":9482,"측의</w>":9483,"플러":9484,"한국이</w>":9485,"이상이</w>":9486,"0,tt:</w>":9487,"Id=":9488,"비용</w>":9489,"살인":9490,"역에서</w>":9491,"한국에</w>":9492,"비례대표제를</w>":9493,"24</w>":9494,"기한</w>":9495,"영·":9496,"필수":9497,"['황교안</w>":9498,"대법원</w>":9499,"부활":9500,"승부":9501,"이들을</w>":9502,"해결</w>":9503,"행보에</w>":9504,"유치원</w>":9505,"2,bf:</w>":9506,"께서도</w>":9507,"석은</w>":9508,"실이</w>":9509,"이병":9510,"이전에</w>":9511,"(공수처":9512,")]</w>":9513,"기원":9514,"염두에</w>":9515,"익을</w>":9516,"하라</w>":9517,"추진하고</w>":9518,"그렇기</w>":9519,"카카오":9520,"대기업":9521,"미치는</w>":9522,"적어도</w>":9523,"지도부":9524,"IT":9525,"가로</w>":9526,"굳이</w>":9527,"도착":9528,"양당</w>":9529,"오로지</w>":9530,"초래":9531,"2006년</w>":9532,"나온다.":9533,"밝히고</w>":9534,"간부":9535,"길에</w>":9536,"들이다.</w>":9537,"법원</w>":9538,"소통</w>":9539,"주장이</w>":9540,"중재":9541,"해요.</w>":9542,"서울의</w>":9543,"회의실에서</w>":9544,"안전을</w>":9545,"중국의</w>":9546,"감염병</w>":9547,"일(현지시간)</w>":9548,"김두관</w>":9549,"고개를</w>":9550,"성실":9551,"주목된다.</w>":9552,"한마디로</w>":9553,"금강":9554,"서구</w>":9555,"양천":9556,"어가</w>":9557,"회의가</w>":9558,"따르면,</w>":9559,"기사)</w>":9560,"방침이다.</w>":9561,"넘겨":9562,"리아</w>":9563,"머리":9564,"명칭":9565,"속으로</w>":9566,"치로</w>":9567,"바른미래당은</w>":9568,"정부서울청사에서</w>":9569,"년생":9570,"않다고</w>":9571,"창조":9572,"공개적으로</w>":9573,"포인트</w>":9574,"(을)</w>":9575,"계엄":9576,"권은":9577,"전인</w>":9578,"참조":9579,"커뮤니":9580,"바란다”고</w>":9581,"view.php?":9582,"25</w>":9583,"김관":9584,"순환":9585,"이회":9586,"민주통합":9587,"시장에서</w>":9588,"공식적으로</w>":9589,"mike":9590,"겠지만</w>":9591,"나서는</w>":9592,"내렸":9593,"밝혔습니다.</w>":9594,"한경닷컴</w>":9595,"구매":9596,"내놨":9597,"법으로</w>":9598,"30분":9599,"&gt;&lt;/":9600,"남양주":9601,"ennmike":9602,"나선":9603,"스티":9604,"호흡":9605,"화할</w>":9606,"한국당,</w>":9607,"언론의</w>":9608,"B4":9609,"mso":9610,"of</w>":9611,"’도</w>":9612,"챙기":9613,"크리":9614,"정당,</w>":9615,"국가균형발전":9616,"'은</w>":9617,"/A":9618,"_di":9619,"국에</w>":9620,"기까지</w>":9621,"아닐</w>":9622,"인근":9623,"찾는</w>":9624,"아니라는</w>":9625,"정보통신":9626,"700":9627,"개방":9628,"공단</w>":9629,"물은</w>":9630,"부문</w>":9631,"성남</w>":9632,"커녕</w>":9633,"예정된</w>":9634,"지키기</w>":9635,"선거사무소</w>":9636,"뒷받침":9637,"0.":9638,"구성</w>":9639,"번호</w>":9640,"로서의</w>":9641,"협력을</w>":9642,"정치와</w>":9643,"지역과</w>":9644,"2002년</w>":9645,"1,t":9646,"발표를</w>":9647,"ory":9648,"기반으로</w>":9649,"개편</w>":9650,"만든":9651,"인상</w>":9652,"지냈다.</w>":9653,"집에</w>":9654,"포럼</w>":9655,"현재는</w>":9656,"돼지열":9657,"&amp;sid1=":9658,"we":9659,"결단을</w>":9660,"과제를</w>":9661,"답답":9662,"데다</w>":9663,"술을</w>":9664,"의의</w>":9665,"폐지</w>":9666,"표명":9667,"종로는</w>":9668,"이름으로</w>":9669,"양정철</w>":9670,"남부":9671,"보여</w>":9672,"영광":9673,"청원</w>":9674,"지역민":9675,"100억</w>":9676,"민심이</w>":9677,"소상공인</w>":9678,"“우리</w>":9679,"마을</w>":9680,"상무":9681,"시부터</w>":9682,"악한</w>":9683,"60대</w>":9684,"않는다는</w>":9685,"어렵게</w>":9686,"대단히</w>":9687,"googletag.display(\"google_dfp_MC_250x250\");":9688,"교회</w>":9689,"도민":9690,"소유":9691,"앤드":9692,"업무</w>":9693,"연구</w>":9694,"투기":9695,"현동</w>":9696,"한국을</w>":9697,"위원회에</w>":9698,"논란에</w>":9699,"국방부</w>":9700,"인공지":9701,"read.nhn?mode=":9702,"mso-":9703,"다른":9704,"부정</w>":9705,"있음</w>":9706,"자꾸</w>":9707,"제주도":9708,"주한</w>":9709,"해질</w>":9710,"심판을</w>":9711,"김영삼":9712,"제1야당</w>":9713,"약속했다.</w>":9714,"text-":9715,"비정규직</w>":9716,"아내":9717,"통일</w>":9718,"위원으로</w>":9719,"예비후보의</w>":9720,"해주는</w>":9721,"110":9722,"간단":9723,"지목":9724,"포천":9725,"아니다</w>":9726,"국가혁명":9727,"그렇지만</w>":9728,"협의를</w>":9729,"판결을</w>":9730,"드린</w>":9731,"들과의</w>":9732,"변수가</w>":9733,"않기</w>":9734,"유능":9735,"추진할</w>":9736,"(11":9737,"됐지만</w>":9738,"들여":9739,"목적으로</w>":9740,"저런</w>":9741,"정상회담</w>":9742,"업무를</w>":9743,"yeong":9744,"2.1":9745,"더보기</w>":9746,"마음</w>":9747,"빅매":9748,"소상공인":9749,"최초의</w>":9750,"한선교</w>":9751,"50</w>":9752,"간절":9753,"알리":9754,"추락":9755,"분명한</w>":9756,"브리핑룸에서</w>":9757,"어린</w>":9758,"올려":9759,"유엔":9760,"--></w>":9761,"전략적</w>":9762,"일본은</w>":9763,"vetic":9764,"newsis":9765,"패스트트랙(신속처리안건":9766,"개념":9767,"방치":9768,"저녁":9769,"정민</w>":9770,"치면서</w>":9771,"정치자금":9772,"하태경</w>":9773,"px</w>":9774,"ter":9775,"도심</w>":9776,"도움을</w>":9777,"인지":9778,"등록한</w>":9779,"예상되는</w>":9780,"최소한의</w>":9781,"유력한</w>":9782,"_dir/":9783,"\\고</w>":9784,"ms":9785,"금액":9786,"기구</w>":9787,"나요?</w>":9788,"는게</w>":9789,"다수의</w>":9790,"배신":9791,"수원</w>":9792,"신호":9793,"유감":9794,"일주":9795,"출산":9796,"협약":9797,"사람도</w>":9798,"중국인</w>":9799,"site/data/html_dir/":9800,"ck":9801,"되길</w>":9802,"수습":9803,"올라</w>":9804,"화이트":9805,"으로의</w>":9806,"비판했다.":9807,"정보보호":9808,"4.0":9809,"파이":9810,"조속히</w>":9811,"1인</w>":9812,"17</w>":9813,"물로</w>":9814,"수소":9815,"이죠.</w>":9816,"전했다.":9817,"지방선거":9818,"내놓은</w>":9819,"--------------------------------":9820,"#예비후보</w>":9821,"min":9822,"대장":9823,"머리를</w>":9824,"특히":9825,"생각은</w>":9826,"입니다.\\xa0":9827,"환경을</w>":9828,"이사장</w>":9829,"도입을</w>":9830,"안대":9831,"티브":9832,"해주신</w>":9833,"제시한</w>":9834,"정두언</w>":9835,"&amp;mid=":9836,"다해</w>":9837,"대북</w>":9838,"마자</w>":9839,"주세요.</w>":9840,"호영</w>":9841,"이어지고</w>":9842,"기관이</w>":9843,"이미지를</w>":9844,"분위기를</w>":9845,"D&amp;mid=":9846,"가야":9847,"공안":9848,"독자":9849,"총학생":9850,"자한당</w>":9851,"달러</w>":9852,"속도를</w>":9853,"징용</w>":9854,"기자,</w>":9855,"사건은</w>":9856,"기득권을</w>":9857,"가중":9858,"대덕":9859,"례를</w>":9860,"실정":9861,"제천":9862,"직전</w>":9863,"국토교통부</w>":9864,"발행":9865,"버티":9866,"변혁":9867,"이란":9868,"대표하는</w>":9869,"30분</w>":9870,"수석부":9871,"네티즌본부":9872,"2000001":9873,"PK</w>":9874,"ly":9875,"겨울":9876,"면&gt;</w>":9877,"참석</w>":9878,"한명":9879,"요구하고</w>":9880,"게시판</w>":9881,"567":9882,"공통":9883,"공장</w>":9884,"늘리":9885,"부한</w>":9886,"전파":9887,"결정할</w>":9888,"마무리</w>":9889,"AD":9890,"[디지털":9891,"보입니다.</w>":9892,"정수</w>":9893,"회와</w>":9894,"국회법</w>":9895,"코로나바이러스":9896,"부정적</w>":9897,"고민정</w>":9898,"프로젝트":9899,"1천":9900,"?”</w>":9901,"IN":9902,"급등":9903,"분들을</w>":9904,"실종":9905,"아들":9906,"었지만</w>":9907,"올렸":9908,"주간":9909,"힘으로</w>":9910,"의원으로</w>":9911,"미국과</w>":9912,"방문한</w>":9913,"조선일보":9914,"2~":9915,"때보다</w>":9916,"로만</w>":9917,"모바":9918,"중단</w>":9919,"채널</w>":9920,"모자":9921,"사직":9922,"실은</w>":9923,"싶습니다.</w>":9924,"었다고</w>":9925,"출입":9926,"지난해":9927,"요구가</w>":9928,"분석했다.</w>":9929,"당협위원장</w>":9930,"이끌어</w>":9931,"계속해서</w>":9932,"구,</w>":9933,"별로는</w>":9934,"빼앗":9935,"유치</w>":9936,"일산":9937,"정국</w>":9938,"침해":9939,"중도층":9940,"서비스를</w>":9941,"++":9942,"구도가</w>":9943,"도심":9944,"안과</w>":9945,"았다</w>":9946,"호감":9947,"\\xa0‘":9948,"01D5E78":9949,"발언은</w>":9950,"아무도</w>":9951,"바람을</w>":9952,"운용":9953,"회장의</w>":9954,"중요하다.</w>":9955,"콘텐츠":9956,"1억":9957,"BB":9958,"당진":9959,"당도</w>":9960,"명시":9961,"박수":9962,"분리":9963,"자발":9964,"포부를</w>":9965,"화한</w>":9966,"\\'에</w>":9967,"00000001":9968,"6개월</w>":9969,"ra":9970,"소신":9971,"심리":9972,"좋은":9973,"평화</w>":9974,"혜영</w>":9975,"0005":9976,"4월15일</w>":9977,"농림":9978,"여부에</w>":9979,"절을</w>":9980,"좋지</w>":9981,"초청":9982,"혹시</w>":9983,"정치로</w>":9984,"&amp;c":9985,"mas</w>":9986,"반응을</w>":9987,"맞춤형</w>":9988,"것,</w>":9989,"연한</w>":9990,"운전":9991,"절반</w>":9992,"국가와</w>":9993,"◎\\xa0정청래":9994,"명백한</w>":9995,".chosun.com/site/data/html_dir/":9996,"높게</w>":9997,"높였다.</w>":9998,"받는":9999,"블랙":10000,"상상":10001,"성인</w>":10002,"수)</w>":10003,"연대를</w>":10004,"국회의원으로</w>":10005,"2020년":10006,"이정미</w>":10007,"style='":10008,"·장":10009,"목숨을</w>":10010,"의장이</w>":10011,"차이":10012,"개정을</w>":10013,"검사를</w>":10014,"그나마</w>":10015,"김봉":10016,"막는</w>":10017,"상규</w>":10018,"성균":10019,"종목":10020,"촉구</w>":10021,"혼자</w>":10022,"손학규":10023,"있다./윤동주</w>":10024,"높았다.</w>":10025,"분간</w>":10026,"영상을</w>":10027,"우려</w>":10028,"Hong</w>":10029,"걸음":10030,"여기</w>":10031,"중략":10032,"정치권이</w>":10033,"패스트트랙에</w>":10034,"당연한</w>":10035,"거물":10036,"떠나":10037,"배분":10038,"안동":10039,"들어오":10040,"시키기</w>":10041,"김태호</w>":10042,",st:</w>":10043,"국무총리,</w>":10044,"검토하고</w>":10045,"조원진</w>":10046,"미사일</w>":10047,"그저</w>":10048,"그들은</w>":10049,"살을</w>":10050,"평창":10051,"폭발":10052,"위원은</w>":10053,"발언이</w>":10054,"(59":10055,"비서관</w>":10056,"아닌가.</w>":10057,"KK":10058,"다(":10059,"보육":10060,"부추":10061,"세워</w>":10062,"아까</w>":10063,"언을</w>":10064,"주한미":10065,"진,</w>":10066,"진이</w>":10067,"art":10068,"예비후보(":10069,"교수)</w>":10070,"거론되고</w>":10071,"조치가</w>":10072,"주류</w>":10073,"키로</w>":10074,"타이":10075,"진행되고</w>":10076,"()의</w>":10077,"정권과</w>":10078,"보인다.":10079,"도전하는</w>":10080,"최저임금":10081,"박찬주</w>":10082,"72":10083,"구에서</w>":10084,"남녀</w>":10085,"에겐</w>":10086,"찬성</w>":10087,"대변인,</w>":10088,"무너뜨":10089,"거리를</w>":10090,"도둑":10091,"만족":10092,"무를</w>":10093,"북미":10094,"아베":10095,"정당들이</w>":10096,"서울특별":10097,"기관의</w>":10098,"상승한</w>":10099,"거든요.\\xa0":10100,"news.naver.com/main/read.nhn?mode=":10101,"style='font-size:":10102,"=20200":10103,"개가</w>":10104,"기만</w>":10105,"문자</w>":10106,"업계</w>":10107,"습니까?\\xa0":10108,"“황</w>":10109,"법률</w>":10110,"안고</w>":10111,"유은혜</w>":10112,"이트</w>":10113,"후보,</w>":10114,"48DA":10115,"01D5B48DA":10116,"4개</w>":10117,"기대를</w>":10118,"날치기</w>":10119,"충실":10120,"검찰청</w>":10121,"합니다.\\xa0":10122,"전망했다.</w>":10123,"통과를</w>":10124,"다음은</w>":10125,"함께하는</w>":10126,"정확한</w>":10127,"위치한</w>":10128,"type":10129,"[디지털뉴스":10130,"(20":10131,"1인":10132,"건은</w>":10133,"과제</w>":10134,"남편":10135,"불참":10136,"하기는</w>":10137,"항의":10138,"000001B":10139,"9B0005":10140,"01D5B48DA9B0005":10141,"yna":10142,"것”</w>":10143,"서대문":10144,"아우":10145,"체감":10146,"하게":10147,"여야의</w>":10148,"C000000":10149,"능력이</w>":10150,"박진</w>":10151,"전에는</w>":10152,"조만":10153,"부끄러":10154,",k":10155,"신설</w>":10156,"잘못</w>":10157,"집니다.</w>":10158,"국회의원(":10159,"아시아</w>":10160,"센터에서</w>":10161,"%에서</w>":10162,"Xmas</w>":10163,"건의":10164,"김원":10165,"독일</w>":10166,"몰랐":10167,"평가는</w>":10168,"보수통합</w>":10169,"선거구가</w>":10170,"ongXmas</w>":10171,"지사,</w>":10172,"사례가</w>":10173,"@hani.co.krwindow.dataLayer</w>":10174,"3.0":10175,"시작</w>":10176,"졌다는</w>":10177,"인사들의</w>":10178,"야당인</w>":10179,"5F":10180,"달라</w>":10181,"슬로":10182,"침체":10183,"한-":10184,"헌정":10185,"요구한</w>":10186,"지도자":10187,"실질적인</w>":10188,"고수":10189,"달하는</w>":10190,"살려":10191,"세종</w>":10192,"우리도</w>":10193,"2466":10194,"아프리카":10195,"거래</w>":10196,"나름":10197,"노동</w>":10198,"시다.</w>":10199,"등록이</w>":10200,"경쟁력을</w>":10201,"프랑스</w>":10202,"조대원</w>":10203,"가며</w>":10204,"동북":10205,"설립</w>":10206,"수영":10207,"경우도</w>":10208,"현재까지</w>":10209,"me/":10210,"@Hon":10211,"n.":10212,"구갑</w>":10213,"김근":10214,"말하고</w>":10215,"먹는</w>":10216,"위축":10217,"gtongXmas</w>":10218,"1668":10219,"확인할</w>":10220,"운영하는</w>":10221,"국가혁명배당금":10222,"@HongtongXmas</w>":10223,"김혜":10224,"동문":10225,"제19대</w>":10226,"1,b":10227,"1601":10228,"여론을</w>":10229,"시켜야</w>":10230,"◎\\xa0정청래\\xa0&gt;\\xa0":10231,"”,</w>":10232,"뒤를</w>":10233,"민병":10234,"부문":10235,"불신":10236,"즉시</w>":10237,"확보</w>":10238,"19세</w>":10239,"2000년</w>":10240,"an:</w>":10241,"2020-02":10242,"주장하고</w>":10243,"sh:</w>":10244,"serif'":10245,",p":10246,",co:</w>":10247,"5개</w>":10248,"김장":10249,"체계를</w>":10250,"토지":10251,"지적했다.":10252,"공직자</w>":10253,"0,rc:</w>":10254,"거예요.</w>":10255,"cl:</w>":10256,"약간</w>":10257,"외부</w>":10258,"저지</w>":10259,"현안을</w>":10260,"자유민주주의":10261,"false,lt:</w>":10262,"false,sh:</w>":10263,"false,cl:</w>":10264,"0,bi:</w>":10265,",td:</w>":10266,"신청을</w>":10267,"0,tw:</w>":10268,"0,rt:</w>":10269,"0,rw:</w>":10270,"0,bbt:</w>":10271,"0,bbc:</w>":10272,"0,bbw:</w>":10273,"0,dt:</w>":10274,"0,dc:</w>":10275,"0,fi:</w>":10276,"1,dw:</w>":10277,"pa:</w>":10278,"방식을</w>":10279,"의원인</w>":10280,"di:</w>":10281,"문화체육":10282,"누구도</w>":10283,".000":10284,"길은</w>":10285,"세금</w>":10286,"지도부의</w>":10287,"사태에</w>":10288,"가치가</w>":10289,"0,nt:</w>":10290,"만큼은</w>":10291,"[이미지출처=연합뉴스][":10292,"cs:</w>":10293,"id</w>":10294,"거리가</w>":10295,"되기도</w>":10296,"발탁":10297,"법인":10298,"한정":10299,"혐의를</w>":10300,"0,g":10301,"ar:</w>":10302,"충청권</w>":10303,"코리아":10304,"hwp":10305,"기생충":10306,"),as:</w>":10307,",d":10308,"j:</w>":10309,"{pa:</w>":10310,"”(":10311,"끌고</w>":10312,"더욱":10313,"도전</w>":10314,"악재":10315,"일할</w>":10316,"패를</w>":10317,"했다면</w>":10318,"\\'를</w>":10319,"0,pp:</w>":10320,"0,pb:</w>":10321,"19360":10322,"false,e":10323,"]}},":10324,"1,pp:</w>":10325,",ap:</w>":10326,",ac:</w>":10327,"0,sb:</w>":10328,"0,sa:</w>":10329,"false,ds:</w>":10330,"1417},{":10331,"0,nn:</w>":10332,"850,sb:</w>":10333,"1,lc:</w>":10334,"1,lw:</w>":10335,",cd:</w>":10336,"false,ll:</w>":10337,"{at:</w>":10338,"0,au:</w>":10339,"24420":10340,"567,st:</w>":10341,"246628":10342,"1668246628":10343,"1936024420":10344,"1417},{ty:</w>":10345,"{cc:</w>":10346,"},b":10347,"개성공":10348,"연일</w>":10349,"카페":10350,"공동체":10351,"됐고</w>":10352,"이중":10353,"잡아":10354,"지고,</w>":10355,"위원장인</w>":10356,"마이크</w>":10357,"우리나라의</w>":10358,"“지난</w>":10359,".....</w>":10360,"예산이</w>":10361,"01D5B48DA9B00050000000":10362,"다라고</w>":10363,"본질":10364,"셔야</w>":10365,"오만":10366,"전시":10367,"조합</w>":10368,"차가</w>":10369,"0,al:</w>":10370,"16대</w>":10371,"구성된</w>":10372,"비교적</w>":10373,"스포츠":10374,"감염증(코로나19":10375,"거세":10376,"거취":10377,"계신</w>":10378,"도지사</w>":10379,"들께서</w>":10380,"묻고</w>":10381,"세는</w>":10382,"운동에</w>":10383,"교수의</w>":10384,"고등학교":10385,"news.v.daum.n":10386,"한국갤럽":10387,"\"라며</w>":10388,"(주":10389,"5.18</w>":10390,"B0":10391,"bit":10392,"금융</w>":10393,"내비":10394,"봤을</w>":10395,"수렴":10396,"시위":10397,"엇갈":10398,"연간</w>":10399,"협의</w>":10400,"통합진보":10401,"정의로운</w>":10402,"관계자</w>":10403,"단체가</w>":10404,"-01T":10405,"외국인</w>":10406,"삼성전자</w>":10407,".000Z":10408,"2차":10409,"당정":10410,"선제":10411,"월드":10412,"절대":10413,"취지를</w>":10414,"10시</w>":10415,"news.com</w>":10416,"청년들의</w>":10417,"아이디":10418,"지키고</w>":10419,"친박계</w>":10420,"가격이</w>":10421,"올림픽":10422,"다할</w>":10423,"만약에</w>":10424,"이한":10425,"태도를</w>":10426,"선거구획정":10427,"-01-01T":10428,":00.000Z":10429,"09:00:00.000Z":10430,"8504":10431,"Re":10432,"yp":10433,"배려":10434,"싸워":10435,"원본":10436,"정착":10437,"춘추":10438,"국민들을</w>":10439,"경찰은</w>":10440,"보궐선거</w>":10441,"1601-01-01T":10442,"1601-01-01T09:00:00.000Z":10443,"데요.</w>":10444,"됐을</w>":10445,"안상":10446,"측근</w>":10447,"침묵":10448,"주목을</w>":10449,"역임한</w>":10450,"8504,m":10451,"아프":10452,"전·":10453,"지수":10454,"마음에</w>":10455,"중소벤처기업":10456,"조경태</w>":10457,"'라고</w>":10458,"(갑)</w>":10459,"4대</w>":10460,"개별":10461,"두는</w>":10462,"새해":10463,"싱크":10464,"외환":10465,"의원님</w>":10466,"뉴스는</w>":10467,"해결할</w>":10468,"득표율</w>":10469,"DE":10470,"담긴</w>":10471,"대국민</w>":10472,"쇄신</w>":10473,"인용":10474,"평양":10475,"지역위원장</w>":10476,"통합은</w>":10477,"청와대에</w>":10478,"전문가들은</w>":10479,"유일하게</w>":10480,"youtu.":10481,"금태":10482,"내리</w>":10483,"래도</w>":10484,"시로</w>":10485,"펜앤드":10486,"개혁에</w>":10487,"하시고</w>":10488,"하자면</w>":10489,"방침을</w>":10490,"강창":10491,"나은</w>":10492,"단호":10493,"삼아</w>":10494,"오르고</w>":10495,"주인":10496,"들어서":10497,"미래통합당이</w>":10498,"마련된</w>":10499,"법안은</w>":10500,"카드를</w>":10501,"[이미지출처=연합뉴스][아시아경제</w>":10502,"C9":10503,"WH":10504,"꼽힌다.</w>":10505,"남도</w>":10506,"눈길을</w>":10507,"맞게</w>":10508,"의원직</w>":10509,"2020-01":10510,"’고</w>":10511,"돈이</w>":10512,"요!</w>":10513,"원자":10514,"정,</w>":10515,"화학":10516,"으로서는</w>":10517,"국회의원예비후보</w>":10518,"국가적</w>":10519,"성공한</w>":10520,"5,d":10521,"2시</w>":10522,"군에</w>":10523,"담보":10524,"막고</w>":10525,"못하게</w>":10526,"주관":10527,"표준":10528,"ing</w>":10529,"000000A":10530,"방법이</w>":10531,"1,bf:</w>":10532,"강요":10533,"당규":10534,"생기":10535,"식은</w>":10536,"작품":10537,"여러분과</w>":10538,"치러진</w>":10539,"당부했다.</w>":10540,"7.</w>":10541,"“지금</w>":10542,"과반</w>":10543,"역설":10544,"이래</w>":10545,"쪽에</w>":10546,"취지":10547,"해줄</w>":10548,"다.\\xa0&lt;":10549,"비판하는</w>":10550,"주의를</w>":10551,"평가했다.</w>":10552,"가에</w>":10553,"그야말로</w>":10554,"낮아":10555,"이희":10556,"이면서</w>":10557,"초·":10558,"보고를</w>":10559,"수준으로</w>":10560,"시대적</w>":10561,"대부분의</w>":10562,")’</w>":10563,"dong":10564,"ns:</w>":10565,"이벤":10566,"이어가고</w>":10567,"windowtext":10568,"나서서</w>":10569,"windowtext;</w>":10570,"B5":10571,"겸손":10572,"공정</w>":10573,"불을</w>":10574,"수준</w>":10575,"실험":10576,"실장이</w>":10577,"제안</w>":10578,"차게</w>":10579,"취득":10580,"사무처":10581,"겨냥한</w>":10582,"D-":10583,"가난":10584,"계로</w>":10585,"당사에서</w>":10586,"대행":10587,"동네":10588,"모임</w>":10589,"지지층</w>":10590,"변호사)</w>":10591,"프로그램</w>":10592,"조만간</w>":10593,"·신":10594,"이런":10595,"주주":10596,"홍보</w>":10597,"후퇴":10598,"사업은</w>":10599,"합의가</w>":10600,"중소기업</w>":10601,"2.2":10602,"’이다.</w>":10603,"공주":10604,"권,</w>":10605,"단과</w>":10606,"없다.":10607,"언급했다.</w>":10608,"강력하게</w>":10609,"lid</w>":10610,"5·18":10611,"김어준</w>":10612,"=0</w>":10613,"것입니다</w>":10614,"금천":10615,"김윤":10616,"꼼수":10617,"전형":10618,"없었던</w>":10619,"코리아</w>":10620,"곽상":10621,"없지</w>":10622,"의식을</w>":10623,"중부":10624,"입장이다.</w>":10625,"자세히</w>":10626,"\\'기사번호:9":10627,"농촌":10628,"다루":10629,"동생":10630,"비는</w>":10631,"연맹</w>":10632,"이끄는</w>":10633,"인연":10634,"한지</w>":10635,"대통령도</w>":10636,"30년</w>":10637,"인사로</w>":10638,"ha":10639,"그것":10640,"내외":10641,"다’</w>":10642,"동반":10643,"미안":10644,"엘이":10645,"홍성":10646,"우리에게</w>":10647,"공천에</w>":10648,"유권자들의</w>":10649,"제안했다.</w>":10650,"고려대</w>":10651,"medi":10652,"언제나</w>":10653,"5천":10654,"개표":10655,"로드</w>":10656,"시행</w>":10657,"어느":10658,"원·":10659,"국무총리의</w>":10660,"확인해</w>":10661,"감사의</w>":10662,"solid</w>":10663,"차지했다.</w>":10664,"선호도</w>":10665,"료를</w>":10666,"적,</w>":10667,"최순":10668,"하우":10669,"확인</w>":10670,"지역구는</w>":10671,"승리할</w>":10672,"리스트</w>":10673,"인권</w>":10674,"잡기</w>":10675,"전과</w>":10676,"조문":10677,"정부·":10678,"사이에서</w>":10679,"구체적</w>":10680,"기독교":10681,"전두환</w>":10682,"끊임없이</w>":10683,"개선을</w>":10684,"달아</w>":10685,"리포":10686,"않습니까?</w>":10687,"환자가</w>":10688,"조사는</w>":10689,"주장했다.":10690,"여성의</w>":10691,"무엇이</w>":10692,"선관위에</w>":10693,"청문회</w>":10694,"응원합니다":10695,"김어준":10696,"2022년</w>":10697,"news.naver.com/main/read.nhn?mode=LS":10698,"pennmike":10699,"스(":10700,"일자</w>":10701,"지내":10702,"화로</w>":10703,"통합과</w>":10704,"인물을</w>":10705,"바람이</w>":10706,"세우고</w>":10707,"방법으로</w>":10708,"me2.":10709,"5당</w>":10710,"말해</w>":10711,"비밀":10712,"여부":10713,"유도":10714,"통보":10715,"ins":10716,"공관위</w>":10717,"121":10718,"is":10719,"가리":10720,"를,</w>":10721,"비록</w>":10722,"송영":10723,"야합":10724,"입증":10725,"특징":10726,"2019.12":10727,"과거에</w>":10728,"비율이</w>":10729,"과도한</w>":10730,"(9":10731,",,":10732,"받기</w>":10733,"실용":10734,"안희":10735,"알았":10736,"이틀</w>":10737,"장),</w>":10738,"youtube.com/":10739,"결산":10740,"노래":10741,"논설":10742,"레이</w>":10743,"신념":10744,"정개":10745,"현상":10746,"정확히</w>":10747,"복귀</w>":10748,"연히</w>":10749,"이름</w>":10750,"이슈</w>":10751,"한때</w>":10752,"민주연구원":10753,"보여주고</w>":10754,"시설을</w>":10755,"나면</w>":10756,"드를</w>":10757,"세미":10758,"인턴":10759,"잡은</w>":10760,"정몽":10761,"현실</w>":10762,"의원들과</w>":10763,"승리의</w>":10764,"노무현재":10765,"이종걸</w>":10766,"윤소하</w>":10767,"나게</w>":10768,"만명</w>":10769,"말한다.</w>":10770,"모집":10771,"선별":10772,"세의</w>":10773,"저히</w>":10774,"줬다.</w>":10775,"직면":10776,"산업통상":10777,"협상에</w>":10778,"구조를</w>":10779,"표현을</w>":10780,"오차범위</w>":10781,"국정농단</w>":10782,"구독":10783,"군포":10784,"대선을</w>":10785,"유사":10786,"후배":10787,"의원들":10788,"해주셨":10789,"경선이</w>":10790,"경험과</w>":10791,"LED</w>":10792,"등이다.</w>":10793,"방에</w>":10794,"보복</w>":10795,"하더라":10796,"상업적</w>":10797,"권리를</w>":10798,"도봉":10799,"연휴</w>":10800,"하기에</w>":10801,"대통령께서</w>":10802,"이어지는</w>":10803,"의혹에</w>":10804,"협상이</w>":10805,"[뉴스1]":10806,"225":10807,"박물":10808,"이례":10809,"전락":10810,"지나</w>":10811,"추도":10812,"0,u":10813,"문제,</w>":10814,"말씀하셨":10815,"역할이</w>":10816,"비례대표를</w>":10817,"제출한</w>":10818,"리서치뷰":10819,"1A":10820,"군,</w>":10821,"김순":10822,"다면서</w>":10823,"정희":10824,"제보":10825,"종사":10826,"date":10827,"위해선</w>":10828,"뉴시스</w>":10829,"무책임":10830,"파견":10831,"이유다.</w>":10832,"UU":10833,"ju":10834,"뒤로</w>":10835,"민감":10836,"뽑는</w>":10837,"었고,</w>":10838,"획정</w>":10839,"희망</w>":10840,"대책이</w>":10841,"(48":10842,"감정":10843,"개헌</w>":10844,"고객":10845,"다름":10846,"동네</w>":10847,"쓰레":10848,"알게</w>":10849,"졌다고</w>":10850,"들어가</w>":10851,"유권자들이</w>":10852,"이미지</w>":10853,"행동을</w>":10854,"성균관":10855,"2천":10856,"uf:</w>":10857,"편향":10858,"행정</w>":10859,"story":10860,"미국은</w>":10861,"단일화</w>":10862,"C0":10863,"곳의</w>":10864,"내년도</w>":10865,"순간</w>":10866,"없다며</w>":10867,"여부가</w>":10868,"이태":10869,"조끼</w>":10870,"파가</w>":10871,"히고</w>":10872,"발언에</w>":10873,"탄핵의</w>":10874,"진영이</w>":10875,"오차는</w>":10876,"(18":10877,"가구</w>":10878,"김학":10879,"많아</w>":10880,"올려</w>":10881,"입학":10882,"있는데":10883,"팩트":10884,"지역구가</w>":10885,"국정원</w>":10886,",\\xa0이런</w>":10887,"대안신":10888,"합리적</w>":10889,"6.1":10890,"격리":10891,"보안":10892,"오영":10893,"장병":10894,"점,</w>":10895,"해지고</w>":10896,"sec":10897,"출마선언":10898,"정도가</w>":10899,"북한에</w>":10900,"성향의</w>":10901,"강석":10902,"갖는</w>":10903,"론에</w>":10904,"문학":10905,"자금을</w>":10906,"주민의</w>":10907,"의석수</w>":10908,"국회의장이</w>":10909,"절차에</w>":10910,"같은데</w>":10911,"아름다운</w>":10912,"낮추":10913,"매출":10914,"의존":10915,"자존":10916,"한글":10917,"느냐는</w>":10918,"고향인</w>":10919,"ok</w>":10920,"상담":10921,"서영":10922,"유공":10923,"전환</w>":10924,"중대한</w>":10925,"가능성에</w>":10926,"D9":10927,"경로":10928,"일요":10929,"미래한국당은</w>":10930,"문제의</w>":10931,"재배포":10932,"나서고</w>":10933,"top":10934,"6개월":10935,"급증":10936,"대형":10937,"동해":10938,"북도</w>":10939,"석에</w>":10940,"시기</w>":10941,"차출":10942,"하다.":10943,"화는</w>":10944,"선거개입</w>":10945,"그런데도</w>":10946,"갑은</w>":10947,"갖게</w>":10948,"금리</w>":10949,"넓은</w>":10950,"목)</w>":10951,"부당":10952,"적용</w>":10953,"철거":10954,"ar_":10955,"관계에</w>":10956,"소속으로</w>":10957,"hoto</w>":10958,"등급":10959,"목표를</w>":10960,"저와</w>":10961,"표시":10962,"경제성장":10963,"북한은</w>":10964,"합의한</w>":10965,"김성태</w>":10966,"다르다.</w>":10967,"홍익표</w>":10968,"And":10969,"DJ":10970,"ja":10971,"김도":10972,"남구</w>":10973,"리라</w>":10974,"비행":10975,"이창":10976,"전망</w>":10977,"하위</w>":10978,"정치적인</w>":10979,"라이브":10980,"왼쪽부터</w>":10981,"권고":10982,"취지의</w>":10983,"”라는</w>":10984,"서명":10985,"출처:</w>":10986,"사항을</w>":10987,"고위공직자범죄수사처(공수처":10988,"그녀":10989,"대대":10990,"많은":10991,"접어":10992,"투데이":10993,"확대를</w>":10994,"혁신과</w>":10995,"준비하는</w>":10996,"격차가</w>":10997,"내정":10998,"대하여</w>":10999,"이만":11000,"전력":11001,"선거와</w>":11002,"보고서</w>":11003,".3%</w>":11004,"여야는</w>":11005,"니까.</w>":11006,"바라보는</w>":11007,"·새·정당인)</w>":11008,"JT":11009,"강도</w>":11010,"거절":11011,"뭐가</w>":11012,"방법</w>":11013,"석(":11014,"스페":11015,"알겠":11016,"어디</w>":11017,"완수":11018,"완전</w>":11019,"판정을</w>":11020,"포커":11021,"했었다.</w>":11022,"자유를</w>":11023,"그래야</w>":11024,"세력과</w>":11025,"금지(":11026,"비례대표로</w>":11027,"촉구하는</w>":11028,"활성화를</w>":11029,"호소했다.</w>":11030,"객관":11031,"안건</w>":11032,"판사":11033,"방위비</w>":11034,"산업통상자원":11035,"BE":11036,"[앵커":11037,"동성":11038,"바가</w>":11039,"부채":11040,"성명":11041,"실로</w>":11042,"어.</w>":11043,"원장이</w>":11044,"이강":11045,"잇따라</w>":11046,"토록</w>":11047,"현안에</w>":11048,"김기현</w>":11049,"bs":11050,"것들이</w>":11051,"그리</w>":11052,"농성을</w>":11053,"든든":11054,"전,</w>":11055,"화)</w>":11056,"철저한</w>":11057,"22</w>":11058,"3선":11059,"[서울":11060,"관의</w>":11061,"구현":11062,"무서":11063,"법치":11064,"정우":11065,"진주":11066,"bit.":11067,"공연":11068,"내걸":11069,"막말":11070,"발의</w>":11071,"전용":11072,"총장이</w>":11073,"학부모":11074,"현지</w>":11075,"총선에서도</w>":11076,"필요합니다.</w>":11077,"운영을</w>":11078,"하였다</w>":11079,"진상규":11080,"96":11081,"던졌다.</w>":11082,"마련</w>":11083,"오차</w>":11084,"으니까</w>":11085,"준영</w>":11086,"탄압":11087,"들어갔":11088,"필리버스터</w>":11089,"가평":11090,"권오":11091,"락을</w>":11092,"은퇴":11093,"음성":11094,"했다.이</w>":11095,"발표할</w>":11096,"이었다</w>":11097,"예정일</w>":11098,"혜택을</w>":11099,"IC":11100,"결론을</w>":11101,"마쳤다.</w>":11102,"살리는</w>":11103,"선도":11104,"성적":11105,"원유":11106,"측에</w>":11107,"중앙일보</w>":11108,"운동권</w>":11109,"사법개혁":11110,"방안도</w>":11111,"풀이된다.</w>":11112,"Andro":11113,"가깝":11114,"금이</w>":11115,"목이</w>":11116,"복을</w>":11117,"우고</w>":11118,"워낙</w>":11119,"조작</w>":11120,"질의</w>":11121,"항쟁":11122,"국회,</w>":11123,"있었는데</w>":11124,"선거법과</w>":11125,"Android</w>":11126,"[]</w>":11127,"뉴욕":11128,"주말</w>":11129,"naver.me/":11130,"단수</w>":11131,"령을</w>":11132,"분들도</w>":11133,"일인</w>":11134,"평소</w>":11135,"http://naver.me/":11136,"지적도</w>":11137,"올림픽</w>":11138,"B1":11139,"건국":11140,"유니":11141,"잊지</w>":11142,"측면에서</w>":11143,"환을</w>":11144,"원내대표와</w>":11145,"거론되는</w>":11146,"받는다.</w>":11147,"여당과</w>":11148,"재미":11149,"지역구로</w>":11150,".5%</w>":11151,"AS":11152,"경인":11153,"인력</w>":11154,"의원직을</w>":11155,"국회의원과</w>":11156,"ign":11157,"지사와</w>":11158,"최소한</w>":11159,"바꿔야</w>":11160,"손혜원</w>":11161,"(8":11162,"상대</w>":11163,"수치":11164,"원인":11165,"통신</w>":11166,"투자를</w>":11167,"교육감":11168,"세대의</w>":11169,".11":11170,"거친</w>":11171,"농협":11172,"둘째,</w>":11173,"세금을</w>":11174,"이자":11175,"한국과</w>":11176,"194":11177,"만들겠습니다.</w>":11178,"897":11179,"돌아오":11180,"선대위</w>":11181,"극우":11182,"형이</w>":11183,"에서)</w>":11184,"기자가</w>":11185,"&lt;left&gt;</w>":11186,"한미동맹":11187,"&lt;/left&gt;</w>":11188,"/02":11189,"[무단</w>":11190,"긴장":11191,"등)]</w>":11192,"소아":11193,"옮겨":11194,"제거":11195,"올해는</w>":11196,"금지(상업적</w>":11197,"검증</w>":11198,"관심과</w>":11199,"0,st:</w>":11200,"기간을</w>":11201,"중앙선거관리위원회</w>":11202,"AI":11203,"Typ":11204,"건물":11205,"구축</w>":11206,"살아</w>":11207,"역할</w>":11208,"표심을</w>":11209,"해서도</w>":11210,"출마하지</w>":11211,"do/":11212,"다가오":11213,"페이스북을</w>":11214,"만큼,</w>":11215,"군산":11216,"빠져</w>":11217,"있으나</w>":11218,"in</w>":11219,"구리":11220,"않겠다는</w>":11221,"없다\"고</w>":11222,"일대</w>":11223,"문제도</w>":11224,"국민들께서</w>":11225,"(이하</w>":11226,"이동</w>":11227,"카드</w>":11228,"국정감사":11229,"다음달</w>":11230,"군사정보보호":11231,"마찬가지로</w>":11232,"노회찬</w>":11233,"공조":11234,"배우</w>":11235,"요?\\xa0":11236,"위대한</w>":11237,"유엔</w>":11238,"을에서</w>":11239,"자극":11240,"inher":11241,"이어졌다.</w>":11242,"성공을</w>":11243,"기본적으로</w>":11244,"inherit":11245,"▲...</w>":11246,"가능</w>":11247,"공언":11248,"동지</w>":11249,"별도의</w>":11250,"영,</w>":11251,"유세</w>":11252,"정면으로</w>":11253,"중대":11254,"했어요.</w>":11255,"생각하":11256,"가능하다.</w>":11257,"1,ch:</w>":11258,"어렵다는</w>":11259,"상임선대":11260,"고려해</w>":11261,"https://www.youtube.com/":11262,"선임기자</w>":11263,"과,</w>":11264,"목포</w>":11265,"산불":11266,"이혜":11267,"이의</w>":11268,"첫째,</w>":11269,"있었지만</w>":11270,"김경욱</w>":11271,"같아요.</w>":11272,"14</w>":11273,"[사설":11274,"공감</w>":11275,"다들</w>":11276,"당헌":11277,"방어":11278,"새벽</w>":11279,"운을</w>":11280,"택시":11281,"민주당에서</w>":11282,"관련주</w>":11283,"안전한</w>":11284,"수석은</w>":11285,"보여준</w>":11286,"윤호중</w>":11287,"시점에서</w>":11288,"예외":11289,"터를</w>":11290,"현상이</w>":11291,"사업의</w>":11292,"자리가</w>":11293,"당선됐다.</w>":11294,"이르면</w>":11295,"대구·경북</w>":11296,"겠다\"고</w>":11297,"려서</w>":11298,"며칠</w>":11299,"배정":11300,"사용</w>":11301,"유의":11302,"응답</w>":11303,"이견":11304,"정신</w>":11305,"집단</w>":11306,"해산":11307,"하겠다”며</w>":11308,"-03":11309,"부정적인</w>":11310,"or</w>":11311,"공존":11312,"기도":11313,"새벽":11314,"일시":11315,"일고</w>":11316,"하락</w>":11317,"한계가</w>":11318,"공공기관</w>":11319,"해당하는</w>":11320,"재건축</w>":11321,"기능을</w>":11322,"노영민</w>":11323,"‘문재인</w>":11324,"갈라":11325,"관에</w>":11326,"남았":11327,"당)</w>":11328,"대기업</w>":11329,"맞서":11330,"욕을</w>":11331,"해달라고</w>":11332,"들어간</w>":11333,"공유하기</w>":11334,"시점에</w>":11335,"................................................................":11336,"7A":11337,"건에</w>":11338,"높이는</w>":11339,"상향":11340,"세운</w>":11341,"영원":11342,"자처":11343,"풍을</w>":11344,"현장에</w>":11345,"발표하고</w>":11346,"경찰의</w>":11347,"의석수를</w>":11348,"노력이</w>":11349,"규정하고</w>":11350,"포퓰리즘":11351,"겠다”며</w>":11352,"력으로</w>":11353,"보증":11354,"열을</w>":11355,"은)</w>":11356,"홀에서</w>":11357,"지역이다.</w>":11358,"시민단체</w>":11359,"종로를</w>":11360,"2019.</w>":11361,"과정이</w>":11362,"중앙선거여론조사심의위원회</w>":11363,"91":11364,"가면서</w>":11365,"소식을</w>":11366,"의로</w>":11367,"회계":11368,"cho":11369,"충분한</w>":11370,"강기정</w>":11371,"'…":11372,"415":11373,"국장</w>":11374,"다만,</w>":11375,"않았습니다.</w>":11376,"변화의</w>":11377,"지방자치단체":11378,"노골":11379,"머니</w>":11380,"아니</w>":11381,"여당에</w>":11382,"위장":11383,"유기":11384,"주말":11385,"피력":11386,"브리핑을</w>":11387,"검경수사권</w>":11388,"걸린</w>":11389,"민노":11390,"보험</w>":11391,"보내</w>":11392,"오염":11393,"이거</w>":11394,"11시</w>":11395,"본부장</w>":11396,"946":11397,"건데</w>":11398,"방이</w>":11399,"보내고</w>":11400,"북구</w>":11401,"일시</w>":11402,"진의</w>":11403,"선거일</w>":11404,"것이기</w>":11405,"시간에</w>":11406,"되었다</w>":11407,"응답이</w>":11408,"인데요.</w>":11409,"도발":11410,"었고</w>":11411,"이젠</w>":11412,"장소</w>":11413,"찾을</w>":11414,"청취":11415,"50대</w>":11416,"https://blog.naver.com/":11417,"\\ufe":11418,"\\ufeff":11419,"건,</w>":11420,"눈물을</w>":11421,"량의</w>":11422,"수급":11423,"웠던</w>":11424,"자주":11425,"장기</w>":11426,"제재</w>":11427,"으로만</w>":11428,"어려움":11429,"1위":11430,"4대":11431,"4)</w>":11432,"각오를</w>":11433,"남겨":11434,"대우":11435,"두를</w>":11436,"선물":11437,"선과</w>":11438,"연관":11439,"월)</w>":11440,"이해</w>":11441,"일종의</w>":11442,"국회와</w>":11443,"20대":11444,"생각한다”고</w>":11445,"정치인은</w>":11446,"언론이</w>":11447,"가결":11448,"건강</w>":11449,"구성을</w>":11450,"세,</w>":11451,"이은":11452,"충돌</w>":11453,"평범":11454,"화의</w>":11455,"14.0pt;":11456,"사실이다.</w>":11457,"간담회</w>":11458,"초등학교</w>":11459,"oul":11460,"pop":11461,"당국":11462,"법정":11463,"살리기</w>":11464,"송구":11465,"수와</w>":11466,"직후":11467,"특보":11468,"\\'는</w>":11469,"개혁이</w>":11470,"활동하고</w>":11471,"Helvetic":11472,"'Ne":11473,"권영":11474,"오르는</w>":11475,"유족":11476,"장학":11477,"재·":11478,"첨부":11479,"시민을</w>":11480,"권역별</w>":11481,"2만":11482,"계양":11483,"노선</w>":11484,"러시아</w>":11485,"박사":11486,"부장</w>":11487,"설을</w>":11488,"성주":11489,"체제로</w>":11490,"최연":11491,"선언하고</w>":11492,"평화와</w>":11493,"핵심은</w>":11494,"상반기</w>":11495,"얘기</w>":11496,"준다.</w>":11497,"호가</w>":11498,"특별법</w>":11499,"조직을</w>":11500,"view/":11501,"기다리고</w>":11502,"1당이</w>":11503,"리게</w>":11504,"무장":11505,"스에</w>":11506,"연휴":11507,"함과</w>":11508,"허가</w>":11509,"회동을</w>":11510,"()을</w>":11511,"보도에</w>":11512,"민심의</w>":11513,"제2의</w>":11514,"최근에</w>":11515,"홍영표</w>":11516,"#총선</w>":11517,"E:</w>":11518,"분산":11519,"어차":11520,"용기</w>":11521,"으론</w>":11522,"전격</w>":11523,"집회에</w>":11524,"참배":11525,"초과":11526,"0,i":11527,"세대가</w>":11528,"add":11529,"style='font-size:14.0pt;":11530,"'Neti":11531,"소독":11532,"심의</w>":11533,"얘기도</w>":11534,"일상":11535,"생각해":11536,"비례정당</w>":11537,".20</w>":11538,"지켜야</w>":11539,"01D5D70A":11540,"시급한</w>":11541,"(12":11542,"게이트":11543,"끝으로</w>":11544,"는)</w>":11545,"임에도</w>":11546,"쪽에서</w>":11547,"지역별</w>":11548,"뉴스를</w>":11549,"이뤄지지</w>":11550,"원칙에</w>":11551,"치러질</w>":11552,"같다”고</w>":11553,"고생":11554,"공인":11555,"는?</w>":11556,"마쳤":11557,"민경":11558,"순위</w>":11559,"양당":11560,"에)</w>":11561,"졸업</w>":11562,"차이로</w>":11563,"하고도</w>":11564,"벌어진</w>":11565,"SOMIA":11566,"60</w>":11567,"9A":11568,"금)</w>":11569,"류정민</w>":11570,"졌고,</w>":11571,"하다”며</w>":11572,"50%":11573,"253":11574,"대결이</w>":11575,"/01":11576,"528":11577,"변경</w>":11578,"주실</w>":11579,"한창":11580,"한다’는</w>":11581,"활력을</w>":11582,"대한애국":11583,"정치권에서</w>":11584,"zen</w>":11585,"개국</w>":11586,"다섯</w>":11587,"당권</w>":11588,"사랑</w>":11589,"성산":11590,"있습니다.\\xa0":11591,"적도</w>":11592,"전공":11593,"정재":11594,"하길</w>":11595,"http://me2.":11596,"사무소</w>":11597,"세대교체":11598,"누구보다</w>":11599,"피해자</w>":11600,"http://me2.do/":11601,"'과</w>":11602,"민형":11603,"일간":11604,"입은</w>":11605,"획기":11606,"100</w>":11607,"마이크":11608,"긍정적인</w>":11609,"부끄럽":11610,"googletag.display(\"google_dfp_MC_2x1,fluid\");</w>":11611,"3%</w>":11612,"3차</w>":11613,"급격":11614,"발사":11615,"결과적으로</w>":11616,"알려졌다.":11617,"Neu":11618,"만만치</w>":11619,"23</w>":11620,"__":11621,"네.</w>":11622,"세상</w>":11623,"원(":11624,"틀을</w>":11625,"화되고</w>":11626,"출마의</w>":11627,"디지털</w>":11628,"style='font-size:14.0pt;font-family:":11629,"'Netizen</w>":11630,"매체":11631,"박완":11632,"삭제":11633,"상세</w>":11634,"좌절":11635,"사무총장</w>":11636,"Helvetica</w>":11637,"Neue,":11638,"(60":11639,"가졌다.</w>":11640,"광고":11641,"반환":11642,"우세</w>":11643,"지출":11644,"진다는</w>":11645,"초에</w>":11646,"우리나라는</w>":11647,"국회의원들이</w>":11648,"국회의장":11649,"부담이</w>":11650,"serif'></w>":11651,"구분":11652,"로드":11653,"양성":11654,"여겨":11655,"왼쪽</w>":11656,"전)</w>":11657,"자유민주주의</w>":11658,"이용해</w>":11659,"NS":11660,"x:</w>":11661,"경력</w>":11662,"계약</w>":11663,"구와</w>":11664,"비전</w>":11665,"사죄":11666,"숙한</w>":11667,"실시</w>":11668,"없지만</w>":11669,"체험":11670,"협동":11671,"지난주</w>":11672,"지금이라도</w>":11673,".4%</w>":11674,"것인가.</w>":11675,"일각에선</w>":11676,"type=1":11677,"mt":11678,"강득":11679,"박사</w>":11680,"속보":11681,"쿠데":11682,"경찰에</w>":11683,"변화에</w>":11684,"반도체":11685,"style='font-size:14.0pt;font-family:Helvetica</w>":11686,"….</w>":11687,"가득":11688,"갑질":11689,"고용</w>":11690,"눈높":11691,"모인</w>":11692,"소는</w>":11693,"위헌":11694,"재차</w>":11695,"차에</w>":11696,"아무것도</w>":11697,"type=":11698,"ak":11699,"가운</w>":11700,"네요</w>":11701,"선택</w>":11702,"씨와</w>":11703,"없으면</w>":11704,"었다는</w>":11705,"이한</w>":11706,"통을</w>":11707,"문제다.</w>":11708,"관련해서는</w>":11709,"과감한</w>":11710,"KTX</w>":11711,"최경환</w>":11712,"news.naver.com/main/read.nhn?mode=LSD&amp;mid=":11713,"Type=":11714,"김의":11715,"대기":11716,"머리</w>":11717,"연루":11718,"전으로</w>":11719,"항공</w>":11720,"행위에</w>":11721,"지지도는</w>":11722,"강조한</w>":11723,"결정이</w>":11724,"저작권</w>":11725,"제목의</w>":11726,"Q.</w>":11727,"과제로</w>":11728,"나주":11729,"세기</w>":11730,"요~</w>":11731,"워싱":11732,"주인공":11733,"컨설":11734,"어떻게":11735,"산업을</w>":11736,"계획이</w>":11737,"이번에도</w>":11738,"주택을</w>":11739,"한다.”</w>":11740,"홍문종</w>":11741,"마케팅":11742,"구역</w>":11743,"김선":11744,"대리":11745,"차관</w>":11746,"찾기</w>":11747,"정의당,</w>":11748,"조사에</w>":11749,"투쟁에</w>":11750,"분야의</w>":11751,"국민들께</w>":11752,"et/v":11753,"고집":11754,"논평":11755,"높아</w>":11756,"수행</w>":11757,"의장,</w>":11758,"태양":11759,"표창":11760,"주장에</w>":11761,"이뤄진</w>":11762,"탄핵에</w>":11763,"국토부</w>":11764,"부탁드립니다.</w>":11765,"인프라":11766,"유재수</w>":11767,"9시</w>":11768,"공고":11769,"도당":11770,"사장":11771,"수용</w>":11772,"시갑</w>":11773,"었는데</w>":11774,"유출":11775,"전원":11776,"합당</w>":11777,"홀딩":11778,"1,u":11779,"bo:</w>":11780,"처음부터</w>":11781,"'에서</w>":11782,".as":11783,"is</w>":11784,"경희":11785,"관철":11786,"색깔":11787,"잠룡":11788,"조기":11789,"진성":11790,"하신":11791,"했으나,</w>":11792,"개혁과</w>":11793,"&amp;date":11794,"운영에</w>":11795,"01D5D4":11796,"얼굴을</w>":11797,"행태를</w>":11798,"총선기획단</w>":11799,"0,it:</w>":11800,"o1:</w>":11801,"r1:</w>":11802,"‘정치</w>":11803,"는지,</w>":11804,"먼저":11805,"바꿔</w>":11806,"빈소를</w>":11807,"웃음":11808,"점차</w>":11809,"지역위원회</w>":11810,"false,en:</w>":11811,"false,bo:</w>":11812,"1,so":11813,"100,o1:</w>":11814,"0,ot:</w>":11815,"0,o2:</w>":11816,"0,o3:</w>":11817,"0,o4:</w>":11818,"0,o6:</w>":11819,"0,o5:</w>":11820,"0,o7:</w>":11821,"false,sb:</w>":11822,"false,ss:</w>":11823,"false,su:</w>":11824,"false,sm:</w>":11825,"기소된</w>":11826,"100,e2:</w>":11827,"100,e3:</w>":11828,"100,e4:</w>":11829,"100,e6:</w>":11830,"100,e5:</w>":11831,"100,e7:</w>":11832,"0,hc:</w>":11833,"0,hy:</w>":11834,"0,hx:</w>":11835,"false,uk:</w>":11836,"비핵화</w>":11837,"0,em:</w>":11838,"4294967295,uf:</w>":11839,"1,uc:</w>":11840,"1,so:</w>":11841,"#자유한국당</w>":11842,"류가</w>":11843,"성도</w>":11844,"이화":11845,"주십시오.</w>":11846,"하시면</w>":11847,"기준이</w>":11848,"9EB":11849,"사무총장은</w>":11850,"대결을</w>":11851,"고통을</w>":11852,"당당하게</w>":11853,"위안부</w>":11854,"엘이디</w>":11855,"3기</w>":11856,"31</w>":11857,"6개</w>":11858,"냐는</w>":11859,"시와</w>":11860,"실효":11861,"열렸다.</w>":11862,"이긴</w>":11863,"페미니":11864,"보수층":11865,"그렇다.</w>":11866,"분위기다.</w>":11867,"구자근</w>":11868,"0,us:</w>":11869,"D000001":11870,"계,</w>":11871,"곳,</w>":11872,"불교":11873,"유럽</w>":11874,"이끌</w>":11875,"인식을</w>":11876,"2030":11877,"혁신의</w>":11878,"방법은</w>":11879,"작업에</w>":11880,"acebook</w>":11881,"일방적으로</w>":11882,"노무현재단</w>":11883,"2동</w>":11884,"3개월</w>":11885,"es":11886,"대항":11887,"동과</w>":11888,"매진":11889,"부과":11890,"심장":11891,"았다.":11892,"어지는</w>":11893,"판이</w>":11894,"출마에</w>":11895,"발전과</w>":11896,"현역의원</w>":11897,"ormal":11898,"8.</w>":11899,"관과</w>":11900,"기대</w>":11901,"후반":11902,"법안에</w>":11903,"간담회":11904,"닷컴가기":11905,"#아가다경자홍문</w>":11906,"노사":11907,"시리":11908,"이천":11909,"조에</w>":11910,"하세요":11911,"다\"라고</w>":11912,"&gt;&lt;":11913,"처리가</w>":11914,"정상적인</w>":11915,"당협위원장이</w>":11916,"신년인":11917,"3천":11918,"?…":11919,"부당한</w>":11920,"산하</w>":11921,"스로</w>":11922,"최선의</w>":11923,"비서실</w>":11924,"모르고</w>":11925,".9%</w>":11926,"피해가</w>":11927,"리더십</w>":11928,"인도네시아</w>":11929,"inherit;</w>":11930,"6,":11931,"Photo</w>":11932,"됐다”고</w>":11933,"보겠습니다.</w>":11934,"수차례</w>":11935,"어제":11936,"중의</w>":11937,"지원하는</w>":11938,"정확하게</w>":11939,"반기문</w>":11940,"않아도</w>":11941,"실장,</w>":11942,"여는</w>":11943,"입장이</w>":11944,"주년을</w>":11945,"철호</w>":11946,"우리를</w>":11947,"시민들에게</w>":11948,"1,r1:</w>":11949,"방송통신":11950,"1,f2:</w>":11951,"1,f3:</w>":11952,"1,f4:</w>":11953,"1,f6:</w>":11954,"1,f5:</w>":11955,"1,f7:</w>":11956,"대안신당":11957,"연설을</w>":11958,"파트너":11959,"s1:</w>":11960,"동에서</w>":11961,"비유":11962,"세입":11963,"시도</w>":11964,"앉아</w>":11965,"자격</w>":11966,"토론</w>":11967,"2010":11968,"그렇습니다.</w>":11969,"확정된</w>":11970,"대화와</w>":11971,"대체로</w>":11972,"(15":11973,"D:</w>":11974,"ㅎㅎ</w>":11975,"라서</w>":11976,"져서</w>":11977,"한국인</w>":11978,"총선까지</w>":11979,"매각":11980,"오피":11981,"정봉":11982,"지분</w>":11983,"초기</w>":11984,"생각하지</w>":11985,"시민들과</w>":11986,"전국적으로</w>":11987,"고민을</w>":11988,"right":11989,":none":11990,"구도를</w>":11991,"일환":11992,"제품</w>":11993,"중에는</w>":11994,"체포":11995,"클릭":11996,"국회의원에</w>":11997,"사건으로</w>":11998,"다가오는</w>":11999,"(M":12000,"갑(":12001,"개각":12002,"김준":12003,"김지":12004,"동양대</w>":12005,"만나는</w>":12006,"붕괴":12007,"인민":12008,"저에게</w>":12009,"정식</w>":12010,"처분":12011,"친이":12012,"호의</w>":12013,"기업을</w>":12014,"광주·":12015,"나가고</w>":12016,"5선</w>":12017,"말아야</w>":12018,"박해":12019,"영국":12020,"용품</w>":12021,"위법":12022,"윤건":12023,"지사를</w>":12024,"피할</w>":12025,"화순</w>":12026,"검찰총장이</w>":12027,"ection":12028,"강제징용</w>":12029,"출판기념회를</w>":12030,"뉴스1)</w>":12031,"ID":12032,"TF":12033,"매각</w>":12034,"미루":12035,"수십":12036,"유동":12037,"위원이</w>":12038,"후보들의</w>":12039,"0,k":12040,"이해가</w>":12041,"상태로</w>":12042,"B57":12043,"가라":12044,"는가</w>":12045,"당내에서</w>":12046,"만날</w>":12047,"면접</w>":12048,"불확실":12049,"불만이</w>":12050,"상인":12051,"서야</w>":12052,"세요?</w>":12053,"하긴</w>":12054,"협정</w>":12055,"010":12056,"사진은</w>":12057,"드러냈다.</w>":12058,"실시되는</w>":12059,"article/":12060,"답변을</w>":12061,"에너지":12062,"youtu.be":12063,"82":12064,"일까":12065,"투기</w>":12066,"기자의</w>":12067,"들어갔다.</w>":12068,"논의할</w>":12069,"이용한</w>":12070,".8%</w>":12071,"선거운동에</w>":12072,"현역인</w>":12073,"특히,</w>":12074,"펜앤드마이크</w>":12075,"(한국":12076,"7,":12077,"가칭":12078,"개별</w>":12079,"답게</w>":12080,"부천</w>":12081,"블록":12082,"음식":12083,"차별</w>":12084,"않았던</w>":12085,"대변인을</w>":12086,"포함된</w>":12087,"거론된다.</w>":12088,"황교안,</w>":12089,"이완구</w>":12090,"±3.1":12091,"군요.</w>":12092,"방사":12093,"보은":12094,"연말":12095,"연령</w>":12096,"의약":12097,"화될</w>":12098,"사회는</w>":12099,"조사됐다.</w>":12100,"정치인으로</w>":12101,"소통을</w>":12102,"모른다.</w>":12103,"무죄":12104,"박병":12105,"북부":12106,"손으로</w>":12107,"오마이":12108,"의총":12109,"생각해</w>":12110,"당선이</w>":12111,"부정하는</w>":12112,"유성엽</w>":12113,"Facebook</w>":12114,"관료":12115,"긴밀":12116,"부합":12117,"소프":12118,"자기가</w>":12119,"즈니":12120,"지며</w>":12121,"01D5B946":12122,"언론사</w>":12123,"선관위는</w>":12124,"비서실장</w>":12125,"아직까지</w>":12126,"둘러싸":12127,"이철희</w>":12128,"민주노총":12129,"#용산":12130,"간호":12131,"노리는</w>":12132,"망이</w>":12133,"분명</w>":12134,"알리는</w>":12135,"앞선</w>":12136,"10대</w>":12137,"하겠다며</w>":12138,"모습.</w>":12139,"질문에는</w>":12140,"이번엔</w>":12141,"서울시장,</w>":12142,"\\u0027</w>":12143,"벗어나</w>":12144,"감염증(코로나19)</w>":12145,"popul":12146,"(경기</w>":12147,"가입</w>":12148,"귀를</w>":12149,"내려</w>":12150,"부가":12151,"실어":12152,"이남":12153,"포괄":12154,"미래가</w>":12155,"관련기사":12156,"40%</w>":12157,"개정안은</w>":12158,"모습이다.</w>":12159,"드러난</w>":12160,"사과를</w>":12161,"(49":12162,"1/":12163,"급속":12164,"끝났":12165,"밝혀</w>":12166,"색을</w>":12167,"아쉽":12168,"오픈":12169,"일치":12170,"http://www.k":12171,"중심에</w>":12172,"재판을</w>":12173,"Dec</w>":12174,"4000000":12175,"거는</w>":12176,"만드":12177,"빼고</w>":12178,"성완":12179,"소장은</w>":12180,"시우":12181,"실장":12182,"안으로</w>":12183,"어는</w>":12184,"옹호":12185,"용퇴":12186,"침을</w>":12187,"풍이</w>":12188,"검찰개혁을</w>":12189,"검찰총장</w>":12190,"<!":12191,"Th":12192,"가속":12193,"노인</w>":12194,"당무":12195,"사단":12196,"선·":12197,"실현</w>":12198,"안성":12199,"중에서도</w>":12200,"선거제도":12201,"지역인</w>":12202,"때문이다.":12203,".com/news/":12204,"100,s1:</w>":12205,"%)에서</w>":12206,"100,r2:</w>":12207,"100,r3:</w>":12208,"100,r4:</w>":12209,"100,r6:</w>":12210,"100,r5:</w>":12211,"100,r7:</w>":12212,"ranking/":12213,"분수대</w>":12214,"보편적</w>":12215,"감사를</w>":12216,"과거의</w>":12217,"꼼꼼":12218,"당에서는</w>":12219,"많고</w>":12220,"여명의</w>":12221,"이시":12222,"잃은</w>":12223,"정연":12224,"특혜":12225,"하면서":12226,"5대</w>":12227,"AP":12228,"광복":12229,"배제</w>":12230,"시위를</w>":12231,"영동":12232,"유영":12233,"인도</w>":12234,"자녀</w>":12235,"처럼":12236,"확보를</w>":12237,"D38":12238,"구도":12239,"구제":12240,"만찬":12241,"매주</w>":12242,"박진":12243,"승을</w>":12244,"혔다.</w>":12245,"회장과</w>":12246,"운동의</w>":12247,"01D5B9EB":12248,"기술을</w>":12249,"나아가":12250,"활용해</w>":12251,"영등포구</w>":12252,"Type=popul":12253,"01D5B9EB196":12254,"Type=popular_":12255,"7.":12256,"fb":12257,"nk":12258,"뜻이</w>":12259,"불어":12260,"사립":12261,"시킨":12262,"예결":12263,"주식</w>":12264,"중원":12265,"진지":12266,"행위가</w>":12267,"결정한</w>":12268,"대상에</w>":12269,"0,s2:</w>":12270,"0,s3:</w>":12271,"0,s4:</w>":12272,"0,s6:</w>":12273,"0,s5:</w>":12274,"0,s7:</w>":12275,"차지하는</w>":12276,"…………………………………………":12277,"0,e1:</w>":12278,"&amp;rankingSeq":12279,"&amp;rankingSection":12280,"botto":12281,"ranking/read.nhn?":12282,"Type=popular_day":12283,"(오른쪽":12284,"GT":12285,"계신":12286,"논평을</w>":12287,"북미</w>":12288,"생산</w>":12289,"음악":12290,"주승":12291,"2005년</w>":12292,"자신들이</w>":12293,"도전을</w>":12294,"바란다.\\xa0":12295,"의견도</w>":12296,"흐름을</w>":12297,"이에요.</w>":12298,"2019-12":12299,"&amp;rankingSectionId=":12300,"Type=popular_day&amp;oid=":12301,"e-":12302,"par":12303,"동영상</w>":12304,"배가</w>":12305,"않겠다고</w>":12306,"열렸":12307,"인맥":12308,"대표적</w>":12309,"2003년</w>":12310,"참여해</w>":12311,"%)이</w>":12312,"비례대표제":12313,"수준을</w>":12314,".7%,</w>":12315,"아닌지</w>":12316,"false,ut:</w>":12317,"감당":12318,"걱정이</w>":12319,"국으로</w>":12320,"논산":12321,"모니":12322,"복원":12323,"사항</w>":12324,"살기</w>":12325,"소셜":12326,"썼다.</w>":12327,"탓에</w>":12328,"했다.\\xa0":12329,"하나도</w>":12330,"발전의</w>":12331,"일본을</w>":12332,"되었고,</w>":12333,"&amp;date=20200":12334,"@:</w>":12335,"구태":12336,"말했습니다.</w>":12337,"백원":12338,"보호</w>":12339,"선출</w>":12340,"승부를</w>":12341,"엄중한</w>":12342,"챙겨":12343,"초반":12344,"판결</w>":12345,"정당한</w>":12346,"예비후보를</w>":12347,"결과로</w>":12348,"건강한</w>":12349,"정두언":12350,"(더</w>":12351,"28</w>":12352,"간접":12353,"것들을</w>":12354,"권분":12355,"급한</w>":12356,"납득":12357,"라인</w>":12358,"발족":12359,"부대</w>":12360,"익산":12361,"제발</w>":12362,"차원":12363,"트가</w>":12364,"의원들도</w>":12365,"그러니</w>":12366,"개발을</w>":12367,"9E76":12368,"지하철":12369,"분류되는</w>":12370,"꼬집었다.</w>":12371,"아프리카돼지열":12372,"8DC":12373,"’인</w>":12374,"국정을</w>":12375,"노선을</w>":12376,"덕분에</w>":12377,"뒤늦게</w>":12378,"막말</w>":12379,"부재":12380,"없어서</w>":12381,"의)</w>":12382,"공정하고</w>":12383,"영향력을</w>":12384,"5A":12385,"것입니다.":12386,"든,</w>":12387,"스케":12388,"약한</w>":12389,"작동":12390,"예정인</w>":12391,"(56":12392,"https://youtu.be":12393,"json":12394,".6%</w>":12395,"언급하며</w>":12396,"표본오차는</w>":12397,"문화체육관광":12398,"26</w>":12399,"7000000":12400,"=뉴스1)</w>":12401,"겨우</w>":12402,"구속</w>":12403,"낙동":12404,"남성</w>":12405,"돌리":12406,"듣는</w>":12407,"링크":12408,"방안이</w>":12409,"법원":12410,"부·":12411,"소식에</w>":12412,"신장":12413,"싸움을</w>":12414,"았고,</w>":12415,"억원의</w>":12416,"와도</w>":12417,"이래":12418,"잇는</w>":12419,"진술":12420,"파로</w>":12421,"편의":12422,"시민들은</w>":12423,"279F":12424,"서울시장은</w>":12425,"확실하게</w>":12426,"함초롬바탕,t3:</w>":12427,"상한제</w>":12428,"내다봤다.</w>":12429,"동두천":12430,"강력</w>":12431,"게임</w>":12432,"누리</w>":12433,"소식</w>":12434,"시기를</w>":12435,"위로":12436,"음에</w>":12437,"이춘":12438,"촉진":12439,"위원을</w>":12440,"아니지만</w>":12441,"and</w>":12442,"모습은</w>":12443,"선택한</w>":12444,"센터를</w>":12445,"기반이</w>":12446,"개인적으로</w>":12447,"기구(":12448,"간을</w>":12449,"경자</w>":12450,"끝내</w>":12451,"년대":12452,"다당":12453,"인력":12454,"일입니다.</w>":12455,"전재":12456,"협치":12457,"10.":12458,"않는다면</w>":12459,"공관위는</w>":12460,"어디로</w>":12461,"일으켰":12462,"비율은</w>":12463,"당직자</w>":12464,"죠.◎</w>":12465,"마찬가지다.</w>":12466,"열린우리당</w>":12467,"관행":12468,"국세":12469,"도저히</w>":12470,"비공개":12471,"살피":12472,"소집":12473,"운이</w>":12474,"이때</w>":12475,"특례":12476,"휴대전":12477,"\\xa0']</w>":12478,"당원과</w>":12479,"김수민</w>":12480,"아세안</w>":12481,"감과</w>":12482,"공시</w>":12483,"대답":12484,"든다.</w>":12485,"맞춰":12486,"무료":12487,"반려":12488,"벌인</w>":12489,"법상</w>":12490,"봐야":12491,"원희":12492,"장진영</w>":12493,"정파":12494,"하기를</w>":12495,"노동당</w>":12496,"기사입력</w>":12497,"최소화":12498,"atch":12499,"비정규직":12500,"베트남</w>":12501,"안대희</w>":12502,"“그</w>":12503,"법’</w>":12504,"어울":12505,"여유":12506,"자민":12507,"점과</w>":12508,"접한</w>":12509,"정성":12510,"탄탄":12511,"했을":12512,"검찰과</w>":12513,"주민들과</w>":12514,"공동대표</w>":12515,"제기되고</w>":12516,"토론회</w>":12517,"세우는</w>":12518,"기간이</w>":12519,"번째는</w>":12520,"솔직히</w>":12521,"금태섭</w>":12522,"40</w>":12523,"나갔":12524,"낙하":12525,"능력</w>":12526,"도매":12527,"물었다.</w>":12528,"버리는</w>":12529,"법·":12530,"사전에</w>":12531,"의학":12532,"태안":12533,"합당":12534,"마음대로</w>":12535,"인재를</w>":12536,"국회의장을</w>":12537,"다니는</w>":12538,"뚜렷한</w>":12539,"단독</w>":12540,"상당</w>":12541,"생겼":12542,"이은</w>":12543,"전과":12544,"함.</w>":12545,"는데.</w>":12546,"[단독":12547,"공표":12548,"기정":12549,"상호":12550,"신뢰</w>":12551,"이어진</w>":12552,"pt;</w>":12553,".7%</w>":12554,"경향신문</w>":12555,"어차피</w>":12556,"%대</w>":12557,"ram":12558,"검사가</w>":12559,"관리를</w>":12560,"남의</w>":12561,"단행":12562,"물고</w>":12563,"박우":12564,"연출":12565,"주권":12566,".16</w>":12567,"연구원은</w>":12568,"공약은</w>":12569,"전국의</w>":12570,"***":12571,"(새":12572,"3~":12573,"당일</w>":12574,"변한</w>":12575,"보내는</w>":12576,"원인</w>":12577,"점쳐":12578,"줄이</w>":12579,"펀드</w>":12580,"지역사회</w>":12581,"자유통일":12582,"대선후보</w>":12583,"이번이</w>":12584,"시대가</w>":12585,"data-":12586,"윤석열":12587,"의뢰해</w>":12588,"’이란</w>":12589,"감찰</w>":12590,"경호":12591,"노태":12592,"담당</w>":12593,"어,</w>":12594,"유입":12595,"파업":12596,"포항</w>":12597,"하면서,</w>":12598,"한강</w>":12599,"습니다만</w>":12600,"결정하는</w>":12601,"최고위원이</w>":12602,"0,mr:</w>":12603,"mun":12604,"검경</w>":12605,"나가</w>":12606,"는다는</w>":12607,"사법</w>":12608,"쉬운</w>":12609,"생각할</w>":12610,"위원회,</w>":12611,"요청을</w>":12612,"스타트":12613,"움직임이</w>":12614,"트위터":12615,"01D5B946279F":12616,"B8":12617,"드루":12618,"부(":12619,"삼성</w>":12620,"아끼":12621,"질서를</w>":12622,"집무":12623,"혁신도시</w>":12624,"승리로</w>":12625,"0,bt:</w>":12626,"0,bb:</w>":12627,"0,br:</w>":12628,"경우에</w>":12629,"0,lv:</w>":12630,"0,tp:</w>":12631,"0,mp:</w>":12632,"0,mn:</w>":12633,"false,bi:</w>":12634,"false,kp:</w>":12635,"false,kl:</w>":12636,"false,kw:</w>":12637,"false,kk:</w>":12638,"0,fl:</w>":12639,"무당층":12640,"분담금</w>":12641,",hl:</w>":12642,"false,mi:</w>":12643,"싱크크":12644,"0,kn:</w>":12645,"3만":12646,"인식이</w>":12647,"정과</w>":12648,"주기":12649,"요.”</w>":12650,".3%,</w>":12651,"연대는</w>":12652,"0,hi:</w>":12653,"김한길</w>":12654,"margin-":12655,"법제사법":12656,"군사정보보호협정":12657,"단속":12658,"박인":12659,"보셨":12660,"연말</w>":12661,"요즘":12662,"지경":12663,"청사</w>":12664,"천안함</w>":12665,"(?":12666,"광장</w>":12667,"시험</w>":12668,"실,</w>":12669,"전주</w>":12670,"전제로</w>":12671,"특권":12672,"했다\"며</w>":12673,"후임":12674,"예정이다.":12675,"언론은</w>":12676,"비서관은</w>":12677,"@joongang.co.kr</w>":12678,"SBS</w>":12679,"bu":12680,"소한</w>":12681,"입각":12682,"프라이":12683,"뉴스통신":12684,"정치인들의</w>":12685,"않는다고</w>":12686,":1px</w>":12687,"득표율을</w>":12688,"********":12689,"(S":12690,"101":12691,"같이":12692,"분쟁":12693,"삶이</w>":12694,"어리":12695,"재임</w>":12696,"주장은</w>":12697,"짜리</w>":12698,"2015</w>":12699,"10명</w>":12700,"시간은</w>":12701,"이해할</w>":12702,"확산을</w>":12703,"0000022":12704,"후보자에</w>":12705,"01D5D70BFDAB1":12706,"01D5D70BFDAB1F0000000":12707,"f1:</w>":12708,"ss":12709,"김우":12710,"느라</w>":12711,"다고함</w>":12712,"론으로</w>":12713,"말라":12714,"육군":12715,"첨단":12716,"협조를</w>":12717,"10.</w>":12718,"사업으로</w>":12719,"보고서":12720,"기록한</w>":12721,"위성정당을</w>":12722,"내세워</w>":12723,"130":12724,"ca":12725,"강화를</w>":12726,"고스":12727,"김희":12728,"놀라":12729,"박철":12730,"보상":12731,"상에서</w>":12732,"안양</w>":12733,"어로</w>":12734,"잃어":12735,"재무":12736,"짧은</w>":12737,"판사</w>":12738,"패러":12739,"민주당에서는</w>":12740,"바른미래당의</w>":12741,"사무실</w>":12742,"교수를</w>":12743,"트럼프":12744,"목소리도</w>":12745,"true,sl:</w>":12746,"이준석</w>":12747,"pt</w>":12748,"wn":12749,"얻었다.</w>":12750,"임기를</w>":12751,"지자체</w>":12752,"텍,</w>":12753,"생각도</w>":12754,"조사한</w>":12755,"일본에</w>":12756,"처리에</w>":12757,"(친":12758,"4당</w>":12759,"가짜</w>":12760,"강의</w>":12761,"까?":12762,"양평":12763,"임태":12764,"장·":12765,"조의</w>":12766,"진행한</w>":12767,"인사말을</w>":12768,"세력에</w>":12769,"언론을</w>":12770,"누구를</w>":12771,"/연합뉴스googletag.cmd.push(function()</w>":12772,"3명이</w>":12773,"견인":12774,"당리":12775,"성명을</w>":12776,"소수</w>":12777,"최우선":12778,"취급":12779,"수사와</w>":12780,"지원에</w>":12781,"바른미래당이</w>":12782,"논의에</w>":12783,"전망된다.</w>":12784,"2015-06":12785,"합리적인</w>":12786,"'.</w>":12787,"3분의</w>":12788,"B6":12789,"브라":12790,"안내</w>":12791,"유예</w>":12792,"질타":12793,"회동</w>":12794,"문화예술":12795,"나오면</w>":12796,"반발이</w>":12797,"플랫폼":12798,"결합":12799,"경을</w>":12800,"공학":12801,"십니다.</w>":12802,"연예":12803,"전염":12804,"행안":12805,"황현":12806,"주시는</w>":12807,"주도하는</w>":12808,"0000020":12809,"기간에</w>":12810,"박정희":12811,"다시피</w>":12812,"https://youtu.be/":12813,"D4F":12814,"ol":12815,"뛰고</w>":12816,"러시아":12817,"봉준호</w>":12818,"부적":12819,"오지</w>":12820,"완전한</w>":12821,"원활":12822,"육군</w>":12823,"전날":12824,"표방":12825,"했다.\\xa0</w>":12826,"발표된</w>":12827,"유권자가</w>":12828,"분들께</w>":12829,"E4":12830,"노후":12831,"문화를</w>":12832,"부작용":12833,"분권":12834,"얻는</w>":12835,"원외</w>":12836,"있다”면서</w>":12837,"절차</w>":12838,"지니":12839,"찾았다.</w>":12840,"총력을</w>":12841,"15대</w>":12842,"사회주의":12843,"%)와</w>":12844,"확인하러</w>":12845,"해석이</w>":12846,"있다./연합뉴스":12847,"느끼는</w>":12848,"5.18":12849,"A0":12850,"…“":12851,"가락":12852,"가이":12853,"기성</w>":12854,"보일</w>":12855,"비즈니":12856,"아빠":12857,"잡아</w>":12858,"재편":12859,"재생</w>":12860,"주거</w>":12861,"차라":12862,"만들었다.</w>":12863,"여론의</w>":12864,"지도자</w>":12865,"의석이</w>":12866,"필리버스터를</w>":12867,"물론,</w>":12868,"고()</w>":12869,"단에서</w>":12870,"대사</w>":12871,"발로</w>":12872,"아이</w>":12873,"요청</w>":12874,"자마자</w>":12875,"조롱":12876,"중]</w>":12877,"처벌</w>":12878,"20~":12879,"사람에게</w>":12880,"&amp;type=1":12881,"않았지만</w>":12882,"공동선대":12883,"해왔던</w>":12884,"사항은</w>":12885,"성향이</w>":12886,"블로그</w>":12887,"인사청문회</w>":12888,"(사":12889,"그린":12890,"도리":12891,"선은</w>":12892,"시에서</w>":12893,"싫어":12894,"이냐</w>":12895,"조장":12896,"초당":12897,"토로":12898,"청년의</w>":12899,"활동이</w>":12900,"말씀드렸":12901,"모습으로</w>":12902,"법안의</w>":12903,"희망이</w>":12904,"이후에도</w>":12905,"신속하게</w>":12906,"이회창</w>":12907,"CO":12908,"a.com</w>":12909,"ed":12910,"자격을</w>":12911,"0,av:</w>":12912,"지역에서는</w>":12913,"그러자</w>":12914,".com//":12915,"투표에</w>":12916,"청와대를</w>":12917,"연합뉴스]</w>":12918,"https://news.naver":12919,"49C":12920,"인물로</w>":12921,"선거법이</w>":12922,"true,ko":12923,"서구을</w>":12924,"구속영":12925,"해양수산":12926,"권은희</w>":12927,"true,ko:</w>":12928,"v=":12929,"겁게</w>":12930,"것보다</w>":12931,"김홍":12932,"상가":12933,"소의</w>":12934,"의향":12935,".8%,</w>":12936,"재판에</w>":12937,"다르게</w>":12938,"발의한</w>":12939,"안팎의</w>":12940,"1F":12941,"qu":12942,"규칙":12943,"단결":12944,"동료":12945,"부담</w>":12946,"유지</w>":12947,"입고</w>":12948,"포스트</w>":12949,"하진</w>":12950,"현행":12951,"화성</w>":12952,"자유와</w>":12953,"시작해</w>":12954,"광주광역시</w>":12955,"늘어난</w>":12956,"민주노총</w>":12957,"Neue,serif'></w>":12958,"A:</w>":12959,"눈치":12960,"역량":12961,"연세대</w>":12962,"이르는</w>":12963,"중,</w>":12964,"학습":12965,"해졌다.</w>":12966,"공약에</w>":12967,"학교를</w>":12968,"전체의</w>":12969,"이슈를</w>":12970,"경향신문":12971,"보건복지부</w>":12972,"박탈":12973,"손에</w>":12974,"어떤":12975,"을(":12976,"하지도</w>":12977,"사람,</w>":12978,"1,si:</w>":12979,"보도자료</w>":12980,"아무래도</w>":12981,"하고는</w>":12982,"김무성":12983,"연수원</w>":12984,"대정부질문":12985,"YTN</w>":12986,"공사는</w>":12987,"긍정</w>":12988,"나와서</w>":12989,"노웅":12990,"드디":12991,"모습</w>":12992,"병이</w>":12993,"부대":12994,"서원":12995,"이익</w>":12996,"저널":12997,"직격":12998,"징계":12999,"하기가</w>":13000,"항소":13001,"정부도</w>":13002,"들어가는</w>":13003,"160,bf:</w>":13004,"있었다</w>":13005,"않았다는</w>":13006,"되었던</w>":13007,"the":13008,"조금이라도</w>":13009,"이승만</w>":13010,"명령을</w>":13011,"포커스":13012,"제7":13013,"편안":13014,"하반기</w>":13015,"대표)</w>":13016,"추진을</w>":13017,"8A000000":13018,"일자리가</w>":13019,"main/ranking/read.nhn?":13020,"01D5DFB49C":13021,"8978A000000":13022,"[사설]</w>":13023,"&amp;date=2020030":13024,".com//main/ranking/read.nhn?":13025,"https://news.naver.com//main/ranking/read.nhn?":13026,"01D5DFB49C8978A000000":13027,"구도</w>":13028,"나간</w>":13029,"담고</w>":13030,"랐다.</w>":13031,"리의</w>":13032,"자로서</w>":13033,"주장</w>":13034,"취지로</w>":13035,"한기":13036,"행하는</w>":13037,"경제·":13038,"국무총리를</w>":13039,".5%,</w>":13040,"거리에서</w>":13041,"배제할</w>":13042,"비용을</w>":13043,"C8D":13044,"골자로</w>":13045,"김은":13046,"많지</w>":13047,"박경":13048,"번이나</w>":13049,"주간</w>":13050,"참패":13051,"표창원</w>":13052,"하명":13053,"획득":13054,"\\xa0■</w>":13055,"진행했다.</w>":13056,"http://www":13057,"정치권은</w>":13058,"학생들이</w>":13059,"출처:":13060,"바람에</w>":13061,"드린다.\\xa0":13062,"민심은</w>":13063,"5~":13064,"…\"":13065,"공영":13066,"내밀":13067,"문에</w>":13068,"비로</w>":13069,"유보":13070,"지?</w>":13071,"폭이</w>":13072,"1000,tc:</w>":13073,"민주주의가</w>":13074,"교섭단체":13075,"이하의</w>":13076,"호텔에서</w>":13077,"color:</w>":13078,"거꾸":13079,"꺼내":13080,"네일</w>":13081,"동력을</w>":13082,"병원에</w>":13083,"시즌":13084,"실제":13085,"않지만</w>":13086,"왔다</w>":13087,"천막":13088,"합격":13089,"seoul":13090,"다”면서도</w>":13091,"176":13092,"특별히</w>":13093,"제기한</w>":13094,"전체를</w>":13095,"2위를</w>":13096,"가지를</w>":13097,"나눠</w>":13098,"심은</w>":13099,"입력":13100,"차도</w>":13101,"0,id:</w>":13102,"보도자료를</w>":13103,"790":13104,"추구하는</w>":13105,"상처를</w>":13106,"플랫폼</w>":13107,"-19</w>":13108,"강진":13109,"대고</w>":13110,"2016</w>":13111,"미래한국당의</w>":13112,"정의를</w>":13113,"진행될</w>":13114,"발언으로</w>":13115,"주시길</w>":13116,"외교적</w>":13117,"전문가들</w>":13118,"일제히</w>":13119,"1동</w>":13120,"경정":13121,"도출":13122,"보실</w>":13123,"북·":13124,"원칙</w>":13125,"하여야</w>":13126,"정치에서</w>":13127,"진행하고</w>":13128,"저희는</w>":13129,"철저하게</w>":13130,"아버지</w>":13131,"/221":13132,"전·현직</w>":13133,"R&amp;":13134,"watch":13135,"강제</w>":13136,"공공</w>":13137,"데는</w>":13138,"동향":13139,"메디":13140,"삼권분":13141,"시당":13142,"야당에</w>":13143,"예방</w>":13144,"정하고</w>":13145,"증가</w>":13146,"쪽이</w>":13147,"확립":13148,"align":13149,"통합당은</w>":13150,"참석하고</w>":13151,"중요하다고</w>":13152,"달라”고</w>":13153,"EC%":13154,"회담을</w>":13155,"복귀를</w>":13156,"작용할</w>":13157,"내세운</w>":13158,"싸우는</w>":13159,"image</w>":13160,"이우현</w>":13161,"안희정</w>":13162,"차라리</w>":13163,"분구":13164,"시원":13165,"위성</w>":13166,"중산":13167,"해지는</w>":13168,"출처에서</w>":13169,"반응이</w>":13170,"중략...</w>":13171,"1000000":13172,"3/":13173,"남동":13174,"돌이</w>":13175,"미를</w>":13176,"반대를</w>":13177,"상,</w>":13178,"시범":13179,"연방":13180,"완벽":13181,"의사가</w>":13182,"이로써</w>":13183,"쇄신을</w>":13184,"각오로</w>":13185,"성완종</w>":13186,"(27":13187,"3명</w>":13188,"거두":13189,"건너</w>":13190,"마주":13191,"보령":13192,"비아":13193,"알아야</w>":13194,"일이":13195,"자산</w>":13196,"정상</w>":13197,"한해</w>":13198,"최고위":13199,"사건과</w>":13200,".2%,</w>":13201,"C:</w>":13202,"나이":13203,"못했던</w>":13204,"배의</w>":13205,"벌금":13206,"부응":13207,"불만을</w>":13208,"신당을</w>":13209,"주와</w>":13210,"즉위":13211,"최영호</w>":13212,"12·":13213,"투표가</w>":13214,"노동조합":13215,"모두의</w>":13216,"개헌을</w>":13217,"김관영</w>":13218,"%EC%":13219,"7,si:</w>":13220,"BC</w>":13221,"년은</w>":13222,"반발</w>":13223,"범위":13224,"서부":13225,"스터":13226,"응급":13227,"자립":13228,"주역":13229,"탈당을</w>":13230,"국민께</w>":13231,"대학생</w>":13232,"추미애":13233,"자연스럽게</w>":13234,"드라마":13235,"닷컴가기.</w>":13236,"계룡":13237,"대안</w>":13238,"미뤄":13239,"시위</w>":13240,"심에</w>":13241,"싸움이</w>":13242,"있다,</w>":13243,"주셔서</w>":13244,"특위":13245,"선거구로</w>":13246,"협의체</w>":13247,"공개한</w>":13248,"오늘부터</w>":13249,".9%,</w>":13250,"상임고문":13251,"글로벌":13252,"서울중앙지검":13253,"집계됐다.</w>":13254,"“문</w>":13255,"눈이</w>":13256,"부지</w>":13257,"브랜드":13258,"서서</w>":13259,"외의</w>":13260,"중에도</w>":13261,"1,id:</w>":13262,"수사는</w>":13263,"2019.0":13264,"현실적으로</w>":13265,"응답은</w>":13266,"01D5CB43":13267,"01D5CB43B5":13268,"공업":13269,"다고":13270,"묻자</w>":13271,"버렸다.</w>":13272,"분양</w>":13273,"성찰":13274,"2021":13275,"총리에게</w>":13276,"주장한</w>":13277,"혁신통합추진":13278,"지도부를</w>":13279,"i.co.kr</w>":13280,"구입":13281,"력에</w>":13282,"무역</w>":13283,"사)</w>":13284,"수당</w>":13285,"시진":13286,"임재":13287,"지리":13288,"화순":13289,"선거로</w>":13290,".2%</w>":13291,"요청했다.</w>":13292,"사례를</w>":13293,"조건을</w>":13294,"WS":13295,"내렸다.</w>":13296,"있는데요.</w>":13297,"전후":13298,"정황":13299,"착용":13300,"히지</w>":13301,"div</w>":13302,"청년이</w>":13303,"공약이</w>":13304,"도시재생":13305,".4%,</w>":13306,"민주평화당":13307,"&amp;sid1=100":13308,"%까지</w>":13309,"(47":13310,"anc":13311,"관점에서</w>":13312,"단양":13313,"막판</w>":13314,"막아야</w>":13315,"민이</w>":13316,"벌써":13317,"본선</w>":13318,"이룰</w>":13319,"지역경제</w>":13320,"기관인</w>":13321,"고민이</w>":13322,"김진표</w>":13323,"전쟁을</w>":13324,"감수":13325,"건으로</w>":13326,"로에</w>":13327,"롭고</w>":13328,"색이</w>":13329,"서해":13330,"아픈</w>":13331,"언이</w>":13332,"전병":13333,"전일":13334,"타격을</w>":13335,"통일을</w>":13336,"했어야</w>":13337,"이야말로</w>":13338,"사법농":13339,"변호사,</w>":13340,"-18</w>":13341,"자격이</w>":13342,"'이라고</w>":13343,"*…</w>":13344,"B000000":13345,"[20년</w>":13346,"ou":13347,"는다</w>":13348,"단원":13349,"바다":13350,"생길</w>":13351,"여명</w>":13352,"전제":13353,"현황</w>":13354,"평화의</w>":13355,"%)과</w>":13356,"%)를</w>":13357,"관측도</w>":13358,"2위</w>":13359,"것인데</w>":13360,"김일":13361,"내리고</w>":13362,"동안의</w>":13363,"뭐라고</w>":13364,"벌금</w>":13365,"부실":13366,"황운":13367,"비판도</w>":13368,"0000010":13369,"행정관</w>":13370,"광주광역":13371,"실패한</w>":13372,"의정활동</w>":13373,"조금씩</w>":13374,"김부겸":13375,"하여,</w>":13376,"박형준</w>":13377,"…'":13378,"령이</w>":13379,"맡았다.</w>":13380,"방해</w>":13381,"벨트":13382,"의지":13383,"전희":13384,"진다면</w>":13385,"징계</w>":13386,"포장":13387,"미래로</w>":13388,"국민의당":13389,"1987년</w>":13390,"공론":13391,"담한</w>":13392,"민을</w>":13393,"분당</w>":13394,"산불</w>":13395,"소로</w>":13396,"야권이</w>":13397,"통일부</w>":13398,"포함</w>":13399,"할수</w>":13400,"사회,</w>":13401,"들어갈</w>":13402,"바른미래당을</w>":13403,"압수수색</w>":13404,"3선을</w>":13405,"대검</w>":13406,"두로</w>":13407,"들인</w>":13408,"립니다.</w>":13409,"상권</w>":13410,"성공</w>":13411,"시티":13412,"열릴</w>":13413,"을),</w>":13414,"의장을</w>":13415,"일)":13416,"있음.</w>":13417,"진짜":13418,"후폭":13419,"지역위원장이</w>":13420,"지정된</w>":13421,"최근에는</w>":13422,".0pt;</w>":13423,"의원총회에서</w>":13424,"RR":13425,"mb":13426,"‘4+1":13427,"동의를</w>":13428,"올리는</w>":13429,"와중에</w>":13430,"용납":13431,"정도를</w>":13432,"제정</w>":13433,"휴대":13434,"있었다고</w>":13435,"전국에서</w>":13436,"방송을</w>":13437,"추가경정":13438,"근본적인</w>":13439,"안상수</w>":13440,"2명</w>":13441,"ci":13442,"·성":13443,"구민</w>":13444,"담아</w>":13445,"당선을</w>":13446,"디스":13447,"마라":13448,"석에서</w>":13449,"수·":13450,"시면</w>":13451,"쪽은</w>":13452,"청양":13453,"체제가</w>":13454,"판매</w>":13455,"진행할</w>":13456,",bl:</w>":13457,"참석,</w>":13458,"김종민</w>":13459,"받아들일</w>":13460,"doso7@":13461,"정희용</w>":13462,"(TK":13463,"1조":13464,"9.</w>":13465,"`을</w>":13466,"pag":13467,"각자</w>":13468,"균형</w>":13469,"뉴라이":13470,"대회에서</w>":13471,"독점":13472,"매매</w>":13473,"삼청":13474,"폭행":13475,"지원이</w>":13476,"대변하는</w>":13477,"만들어진</w>":13478,"제안에</w>":13479,"보건의료":13480,"today":13481,"다짐했다.</w>":13482,"인프라</w>":13483,"01D5E788":13484,"시나리오":13485,"OECD</w>":13486,"것임을</w>":13487,"권력이</w>":13488,"늘리는</w>":13489,"당정청":13490,"들면</w>":13491,"똑같은</w>":13492,"만남":13493,"재개발</w>":13494,"정병":13495,"지표":13496,"김민석</w>":13497,"[앵커]</w>":13498,"(사진=":13499,"NE":13500,"거고</w>":13501,"낙후":13502,"도전에</w>":13503,"동시":13504,"세대를</w>":13505,"않느냐":13506,"연천":13507,"종북":13508,"인사하고</w>":13509,"인사들을</w>":13510,"있었고</w>":13511,"어려움이</w>":13512,"보도자료":13513,"김영우</w>":13514,"정치권에서는</w>":13515,".6%,</w>":13516,"동남갑</w>":13517,"평범한</w>":13518,"1차":13519,"공략":13520,"는다고</w>":13521,"도의회</w>":13522,"되거나</w>":13523,"들지</w>":13524,"리아":13525,"신규":13526,"읽어":13527,"저소득":13528,"제출</w>":13529,"충청</w>":13530,"혁명의</w>":13531,"진행되는</w>":13532,"것이었다.</w>":13533,"대응에</w>":13534,"수준에서</w>":13535,"http://www.news":13536,"용산구</w>":13537,"윤건영</w>":13538,"거꾸로</w>":13539,"watch?":13540,"강행</w>":13541,"거대한</w>":13542,"당하고</w>":13543,"명부</w>":13544,"불가능한</w>":13545,"서다.</w>":13546,"쇼핑":13547,"어지고</w>":13548,"참신":13549,"타파":13550,"피켓</w>":13551,"준비가</w>":13552,"되었고</w>":13553,"공수처가</w>":13554,"주변에</w>":13555,"가만":13556,"리며</w>":13557,"보태":13558,"유연":13559,"정하는</w>":13560,"측면":13561,"화려":13562,"의원들에게</w>":13563,"다.[":13564,"지지자들이</w>":13565,"때문에,</w>":13566,"정책,</w>":13567,"세계적인</w>":13568,"무엇인지</w>":13569,"얘기하는</w>":13570,"분위기</w>":13571,"의무를</w>":13572,"마산합":13573,"질병관리":13574,"Web</w>":13575,"m_":13576,"기에는</w>":13577,"대비해</w>":13578,"일까?</w>":13579,"총장":13580,"축을</w>":13581,"커질</w>":13582,"혁명을</w>":13583,"현금":13584,"계획에</w>":13585,"비례대표제가</w>":13586,"대통합을</w>":13587,"국가균형발전위원회</w>":13588,"인공지능":13589,"감옥":13590,"거야":13591,"뜻이다.</w>":13592,"로선</w>":13593,"비주류":13594,"수립</w>":13595,"없음":13596,"타결":13597,"출마선언</w>":13598,"것이며,</w>":13599,"이었다고</w>":13600,"특별자치":13601,".7%)</w>":13602,"처음이다.</w>":13603,"정태호</w>":13604,"YS":13605,"pre":13606,"도모":13607,"되는":13608,"원문</w>":13609,"이것":13610,"기자들에게</w>":13611,"2008":13612,"선관위가</w>":13613,"주재로</w>":13614,"&amp;type=1&amp;rankingSectionId=":13615,"(14":13616,"9.":13617,"by":13618,"구도로</w>":13619,"리,</w>":13620,"반갑":13621,"부에서</w>":13622,"얼굴</w>":13623,"입당한</w>":13624,"직에서</w>":13625,"&lt;리서치뷰":13626,"1,s":13627,"확인됐다.</w>":13628,"과감하게</w>":13629,"구나":13630,"기획</w>":13631,"렸던</w>":13632,"변을</w>":13633,"분들과</w>":13634,"설명을</w>":13635,"인상을</w>":13636,"탈당한</w>":13637,"진행됐다.</w>":13638,"우려도</w>":13639,"구청장":13640,"현수막":13641,"#경자":13642,"td</w>":13643,"낙인":13644,"되겠습니다.</w>":13645,"두루</w>":13646,"많습니다.</w>":13647,"맞물":13648,"영도":13649,"옵니다.</w>":13650,"입에</w>":13651,"창의":13652,"흡수":13653,"국회선진화":13654,"위원장도</w>":13655,"선언,</w>":13656,"바른미래당·":13657,"이상으로</w>":13658,"현실이</w>":13659,"만들어서</w>":13660,"sour":13661,"하라”고</w>":13662,"보유한</w>":13663,"윤상현</w>":13664,"6시":13665,"m.f":13666,"건지</w>":13667,"겸임":13668,"론은</w>":13669,"물에</w>":13670,"선으로</w>":13671,"설치를</w>":13672,"스에서</w>":13673,"주고":13674,"증이</w>":13675,"총장의</w>":13676,"id=1":13677,"주도한</w>":13678,"하였고,</w>":13679,"어디에</w>":13680,"A씨는</w>":13681,"NH":13682,"당분간</w>":13683,"동교":13684,"심과</w>":13685,"여부는</w>":13686,"이른</w>":13687,"제21대":13688,"토크":13689,"특성":13690,"주민과</w>":13691,"안정적인</w>":13692,"newsis.com</w>":13693,"ation":13694,"간다는</w>":13695,"건물</w>":13696,"그럴":13697,"나쁘":13698,"보냈다.</w>":13699,"소리가</w>":13700,"수지</w>":13701,"없던</w>":13702,"원천":13703,"이기에</w>":13704,"집에서</w>":13705,"추후</w>":13706,"하남":13707,"전문기관</w>":13708,"말씀하신</w>":13709,"대구에서</w>":13710,"당권파":13711,"기(":13712,"기성":13713,"김연":13714,"살릴</w>":13715,"임이</w>":13716,"전원</w>":13717,"선거,</w>":13718,"대통령직속</w>":13719,"기자]":13720,"위원장에</w>":13721,"국가로</w>":13722,"여러분들의</w>":13723,"해결하기</w>":13724,"분열을</w>":13725,"·더·":13726,"감은</w>":13727,"리로</w>":13728,"미투":13729,"미흡":13730,"미투</w>":13731,"변수로</w>":13732,"병역":13733,"불러</w>":13734,"이경":13735,"주사":13736,"통영":13737,"189":13738,".1%</w>":13739,"전략기획":13740,"아이들이</w>":13741,"신청한</w>":13742,"비난을</w>":13743,"꿈꾸는</w>":13744,"정몽준</w>":13745,"벌써부터</w>":13746,"+2</w>":13747,"건가":13748,"고문</w>":13749,"대장</w>":13750,"떠난</w>":13751,"였다고</w>":13752,"을까</w>":13753,"음모":13754,"인식</w>":13755,"제보</w>":13756,"총체":13757,"협박":13758,"민주통합당</w>":13759,"미래의</w>":13760,"278":13761,"전망을</w>":13762,"관광객":13763,"규모가</w>":13764,"일으킨</w>":13765,"느끼고</w>":13766,"트리플":13767,"E,bf:</w>":13768,"‘반":13769,"같다고</w>":13770,"내놓고</w>":13771,"모욕":13772,"미친</w>":13773,"방지</w>":13774,"분도</w>":13775,"불공정":13776,"삭발":13777,"터리</w>":13778,"펀드":13779,"해법을</w>":13780,"현장의</w>":13781,"힘내":13782,"더불어민주당에</w>":13783,"중국에</w>":13784,"4·15":13785,"인물이다.</w>":13786,"com":13787,"전당대회를</w>":13788,"고양시</w>":13789,"높아지고</w>":13790,"height:":13791,"강경화</w>":13792,"bi":13793,"걸림":13794,"단합":13795,"돌이":13796,"명분이</w>":13797,"몇몇</w>":13798,"목사":13799,"목표</w>":13800,"생명을</w>":13801,"수여":13802,"실시간</w>":13803,"앞세워</w>":13804,"은혜":13805,"재선에</w>":13806,"정하게</w>":13807,"찾고</w>":13808,"캡처":13809,"파탄":13810,"환자":13811,"준비에</w>":13812,"대구경북":13813,"제도적</w>":13814,"드러났":13815,"어렵다고</w>":13816,".4%)</w>":13817,"살펴보면</w>":13818,"참고로</w>":13819,"아카데미</w>":13820,"bit.ly":13821,"당국은</w>":13822,"맞고</w>":13823,"배달":13824,"신당이</w>":13825,"이념</w>":13826,"임기가</w>":13827,"재공시</w>":13828,"팽팽":13829,"폴리":13830,"하되</w>":13831,"학회</w>":13832,"2006":13833,"책임은</w>":13834,"주민등록":13835,"목소리</w>":13836,"분석도</w>":13837,"어린이</w>":13838,"트위터</w>":13839,"학과를</w>":13840,"안타까운</w>":13841,"source":13842,"5E":13843,"강구":13844,"고마":13845,"기)</w>":13846,"나이</w>":13847,"동부":13848,"마저도</w>":13849,"미술":13850,"창출</w>":13851,"플레이":13852,"한다”는</w>":13853,"예비후보와</w>":13854,"관계는</w>":13855,"요.◎\\xa0":13856,"페이지</w>":13857,"달라질</w>":13858,"rankingType=popular_day&amp;oid=":13859,"물론이고</w>":13860,"그릇":13861,"보고,</w>":13862,"원광":13863,"저렇게</w>":13864,"좋을</w>":13865,"사람으로</w>":13866,"교육의</w>":13867,"경찰청</w>":13868,"최고위원회의에</w>":13869,"다’라는</w>":13870,"떨어져</w>":13871,"자원봉사":13872,"무시하고</w>":13873,"비중이</w>":13874,"도둑질":13875,"bottom":13876,"https://news.naver.com//main/ranking/read.nhn?rankingType=popular_day&amp;oid=":13877,"군·":13878,"그때":13879,"끝나고</w>":13880,"당적을</w>":13881,"스카":13882,"스코":13883,"임상":13884,"잘하고</w>":13885,"지킬</w>":13886,"출산</w>":13887,"할까":13888,"결정은</w>":13889,"정도는</w>":13890,"2015.0":13891,"비율을</w>":13892,"가짜뉴스":13893,"게재":13894,"계승":13895,"날치":13896,"매니":13897,"미군":13898,"살려</w>":13899,"소폭</w>":13900,"수혜":13901,"에다</w>":13902,"올리고</w>":13903,"우위를</w>":13904,"절대로</w>":13905,"지속</w>":13906,"타운</w>":13907,"해야만</w>":13908,"벌어지고</w>":13909,"김용태</w>":13910,"좌파독재":13911,"내부에서</w>":13912,"라디오":13913,"watch?v=":13914,"2개</w>":13915,"5년":13916,"견제</w>":13917,"까지의</w>":13918,"돼지</w>":13919,"된다”며</w>":13920,"밀려</w>":13921,"복지를</w>":13922,"생긴</w>":13923,"세웠다.</w>":13924,"어요</w>":13925,"장면":13926,"절박":13927,"태국</w>":13928,"선거용품</w>":13929,"사람들에게</w>":13930,"그러다</w>":13931,"회의는</w>":13932,"개혁은</w>":13933,"기업에</w>":13934,"이어야</w>":13935,"기록을</w>":13936,"신속히</w>":13937,"소개했다.</w>":13938,"분양가</w>":13939,"[편집]</w>":13940,"패스트트랙(신속처리안건)</w>":13941,"5%</w>":13942,"구호를</w>":13943,"근데</w>":13944,"기금":13945,"남해":13946,"넘기":13947,"더구나</w>":13948,"셨다.</w>":13949,"요금</w>":13950,"적의</w>":13951,"조회":13952,"한테":13953,"의원.</w>":13954,"후보자로</w>":13955,"보수재건":13956,"만들겠다는</w>":13957,"입니까?</w>":13958,"관심사":13959,"돌아온</w>":13960,"노력하고</w>":13961,"내려놓고</w>":13962,"문재인정부</w>":13963,"신뢰수준에</w>":13964,"전체가</w>":13965,"아직은</w>":13966,"본회의장에서</w>":13967,"모바일</w>":13968,"1인당</w>":13969,"No":13970,"건립</w>":13971,"광고</w>":13972,"명에게</w>":13973,"보류":13974,"부위원장</w>":13975,"신성":13976,"였고,</w>":13977,"용역":13978,"조현":13979,"터미":13980,"%)을</w>":13981,"위해,</w>":13982,"드러났다.</w>":13983,"기본적인</w>":13984,"모양새다.</w>":13985,"내놨다.</w>":13986,"(17":13987,"313":13988,"5만":13989,"거부</w>":13990,"목사는</w>":13991,"불이</w>":13992,"사면":13993,"악수":13994,"유명한</w>":13995,"조명":13996,"줄줄이</w>":13997,"지수</w>":13998,"정치세력":13999,"습니까.</w>":14000,"보수통합":14001,".6%)</w>":14002,"정신으로</w>":14003,"유지하고</w>":14004,"들었습니다.</w>":14005,"서초구</w>":14006,"세상에</w>":14007,"집값이</w>":14008,"드디어</w>":14009,"4차":14010,"8.":14011,"규정을</w>":14012,"도내</w>":14013,"본인은</w>":14014,"삼척":14015,"생생":14016,"선수</w>":14017,"셋째,</w>":14018,"심도</w>":14019,"여성이</w>":14020,"재개발":14021,"적·":14022,"주면</w>":14023,"즉,</w>":14024,"장관으로</w>":14025,"있었고,</w>":14026,"참여정부</w>":14027,"마이너":14028,"실질적으로</w>":14029,"형태로</w>":14030,"감안하면</w>":14031,"가상":14032,"강릉":14033,"교사":14034,"박재":14035,"설문":14036,"얘기는</w>":14037,"외치고</w>":14038,"재신임</w>":14039,"정미":14040,"존재</w>":14041,"판단</w>":14042,"회원</w>":14043,"다.\\xa0</w>":14044,"투표로</w>":14045,"안철수계</w>":14046,"드라마</w>":14047,"01D5E6CB57":14048,"poli":14049,"#홍홍</w>":14050,"“저는</w>":14051,"검사는</w>":14052,"만으로도</w>":14053,"박수를</w>":14054,"받으며</w>":14055,"선한</w>":14056,"신공항</w>":14057,"엄중":14058,"정종":14059,"조세":14060,"주저":14061,"직에</w>":14062,"채용</w>":14063,"허위</w>":14064,"결정했다.</w>":14065,"이었고,</w>":14066,"않았다고</w>":14067,"판단이</w>":14068,"0000021":14069,"상관없이</w>":14070,"유능한</w>":14071,"개성공단</w>":14072,"알겠습니다.\\xa0":14073,"#동</w>":14074,"#당</w>":14075,"#홍문</w>":14076,"A790":14077,"곳곳에서</w>":14078,"그만</w>":14079,"선봉":14080,"주주</w>":14081,"줄을</w>":14082,"튼튼":14083,"합법":14084,"2018</w>":14085,"인사들은</w>":14086,"교육,</w>":14087,"예산결산":14088,"선거구에서</w>":14089,"나타난</w>":14090,"1996년</w>":14091,"국민의당은</w>":14092,"제공하는</w>":14093,"01D5AFBA790":14094,"신분당선</w>":14095,"☎\\xa0진행자\\xa0&gt;\\xa0":14096,"acebook.com/story":14097,"#경자홍</w>":14098,"acebook.com/story.php?":14099,"#트리플":14100,"cent":14101,"갑질</w>":14102,"값이</w>":14103,"까지만</w>":14104,"둘째":14105,"로스":14106,"벌이는</w>":14107,"뿌리</w>":14108,"새만":14109,"약을</w>":14110,"어지":14111,"영남</w>":14112,"이럴</w>":14113,"작전":14114,"직장":14115,"탄력":14116,"행동</w>":14117,"있었다는</w>":14118,"에게서</w>":14119,"목표는</w>":14120,"안철수,</w>":14121,"#트리플8</w>":14122,"#홍</w>":14123,"게는</w>":14124,"기록</w>":14125,"넘지</w>":14126,"들여</w>":14127,"번을</w>":14128,"새누리</w>":14129,"원미":14130,"장수</w>":14131,"정말로</w>":14132,"트,</w>":14133,"하다며</w>":14134,"희,</w>":14135,"50억</w>":14136,"처리할</w>":14137,".9%)</w>":14138,"제1야당인</w>":14139,"원내대표도</w>":14140,"근거가</w>":14141,"#홍경자</w>":14142,"쿠데타":14143,".go":14144,"://</w>":14145,"갈등과</w>":14146,"감에</w>":14147,"나란히</w>":14148,"다라며</w>":14149,"소요":14150,"소식이</w>":14151,"시의":14152,"식에는</w>":14153,"이내":14154,"이스":14155,"전수":14156,"조가</w>":14157,"천년":14158,"하자,</w>":14159,"인사에</w>":14160,"이어가":14161,".3%)</w>":14162,"울산·":14163,"바꾸고</w>":14164,"브리핑</w>":14165,"01D5AD7":14166,"우파의</w>":14167,"리더십을</w>":14168,"1동,</w>":14169,"5명</w>":14170,"가세":14171,"거창":14172,"겁니까":14173,"극히</w>":14174,"냐,</w>":14175,"더이상</w>":14176,"모순":14177,"몰려":14178,"보훈":14179,"사모":14180,"생명과</w>":14181,"어른":14182,"연맹":14183,"진과</w>":14184,"짓는</w>":14185,"축소</w>":14186,"서울시는</w>":14187,"시민들을</w>":14188,"것이며</w>":14189,"종로의</w>":14190,"정신이</w>":14191,"해야할</w>":14192,"긍정적</w>":14193,"단순한</w>":14194,"조속한</w>":14195,"(GSOMIA":14196,"1명</w>":14197,"관해</w>":14198,"또,</w>":14199,"병원으로</w>":14200,"은폐":14201,"인증":14202,"포를</w>":14203,"효과</w>":14204,"소재·":14205,"기무":14206,"길,</w>":14207,"돌고</w>":14208,"되던</w>":14209,"리면</w>":14210,"분열</w>":14211,"앞당":14212,"영향</w>":14213,"일베":14214,"정운":14215,"책이</w>":14216,"플랜":14217,"행사가</w>":14218,"힘들어":14219,"국무회의에서</w>":14220,"여러분이</w>":14221,"도시를</w>":14222,"utm_":14223,"상태에</w>":14224,"무리한</w>":14225,"DDD":14226,"수요가</w>":14227,"전면에</w>":14228,"통합진보당</w>":14229,"m.facebook.com/story.php?":14230,";mso-":14231,"Gyeong":14232,"ll":14233,"구호":14234,"기사는</w>":14235,"낙마":14236,"대담":14237,"마침":14238,"만났다.</w>":14239,"방식</w>":14240,"별도로</w>":14241,"병을</w>":14242,"야당과</w>":14243,"어긋":14244,"역동":14245,"자살":14246,"종합</w>":14247,"진은</w>":14248,"카메":14249,"탈원전</w>":14250,"티브</w>":14251,"보수는</w>":14252,"위원회와</w>":14253,"지역구의</w>":14254,"이었지만</w>":14255,"성공적으로</w>":14256,"의혹과</w>":14257,"유치원":14258,"가치와</w>":14259,"지나치게</w>":14260,"동원해</w>":14261,"01D5C5EF":14262,"1주":14263,"1.5":14264,"B9":14265,"‘청년":14266,"“제가</w>":14267,"가스":14268,"대치":14269,"방지를</w>":14270,"병에</w>":14271,"상과</w>":14272,"진해":14273,"철회</w>":14274,"타운":14275,"플라":14276,"학살":14277,"호응":14278,"정의당과</w>":14279,"()를</w>":14280,"내용에</w>":14281,"감염증</w>":14282,"김의겸</w>":14283,"1%</w>":14284,"많으":14285,"받으면</w>":14286,"짓을</w>":14287,"청이</w>":14288,"회사의</w>":14289,"정치외교":14290,"개혁,</w>":14291,"예정입니다.</w>":14292,"법안과</w>":14293,"인정하고</w>":14294,"대화의</w>":14295,"활용한</w>":14296,"영등포</w>":14297,"공간을</w>":14298,"든든한</w>":14299,"3개월":14300,"가계":14301,"갈등의</w>":14302,"같아</w>":14303,"높이":14304,"여권이</w>":14305,"우회</w>":14306,"유상":14307,"일들이</w>":14308,"재앙":14309,"제시</w>":14310,"조계":14311,"태영호</w>":14312,"토막":14313,"파주시":14314,"피를</w>":14315,"01D5E3":14316,"받았던</w>":14317,"드리겠습니다.</w>":14318,"연대가</w>":14319,"만나고</w>":14320,"차별금지":14321,"01D5E149E76":14322,"9년</w>":14323,"늘었다.</w>":14324,"독자</w>":14325,"물려":14326,"원장":14327,"일정이</w>":14328,"판문":14329,"후임</w>":14330,"미래에</w>":14331,"기자간담회를</w>":14332,"rea</w>":14333,"나라,</w>":14334,"https://</w>":14335,"강원도":14336,"체제에</w>":14337,"표본오차</w>":14338,"고속도로</w>":14339,"김혜민</w>":14340,"4.2":14341,"갑을</w>":14342,"김석":14343,"들려":14344,"얻고</w>":14345,"일에도</w>":14346,"창립":14347,"008":14348,"국민연금":14349,"조사가</w>":14350,"마련해</w>":14351,"비서관이</w>":14352,"Client</w>":14353,"십니까?":14354,"가구":14355,"권성":14356,"극심한</w>":14357,"벽을</w>":14358,"사표</w>":14359,"실적</w>":14360,"영(":14361,"임현동</w>":14362,"잘하는</w>":14363,"재직":14364,"조달":14365,"조언":14366,"치명":14367,"lee":14368,"국민에</w>":14369,"민주당도</w>":14370,"기자간담회에서</w>":14371,"주민들은</w>":14372,"%)보다</w>":14373,"국민의당이</w>":14374,"당원들이</w>":14375,"위험한</w>":14376,"당당히</w>":14377,"반박했다.</w>":14378,"7000":14379,"……</w>":14380,"감동":14381,"김주":14382,"늘고</w>":14383,"단지":14384,"명심":14385,"명절</w>":14386,"분할":14387,"여객":14388,"장난":14389,"체가</w>":14390,"측면이</w>":14391,"경제신문":14392,"다\"는</w>":14393,"공천은</w>":14394,"stor</w>":14395,"내용이다.</w>":14396,"(55·":14397,".6%로</w>":14398,"분노를</w>":14399,"news.v.daum.net/v":14400,")'</w>":14401,"name":14402,"그쳤다.</w>":14403,"냐고</w>":14404,"요양":14405,"유가족":14406,"재산</w>":14407,"청장은</w>":14408,"판으로</w>":14409,".kr":14410,"지지도가</w>":14411,"12.</w>":14412,"국정감사</w>":14413,"마련한</w>":14414,"https://news.v.daum.net/v":14415,"분석이다.</w>":14416,"있어도</w>":14417,"상임위</w>":14418,"브리핑에서</w>":14419,"역임했다.</w>":14420,"근거로</w>":14421,"서울중앙지검</w>":14422,"원종건</w>":14423,"…‘":14424,"각별":14425,"간곡":14426,"군인권":14427,"끝이</w>":14428,"를)</w>":14429,"마크":14430,"모호":14431,"옆에</w>":14432,"일째</w>":14433,"임상</w>":14434,"중간</w>":14435,"차이를</w>":14436,"축사를</w>":14437,"친다.</w>":14438,"패권":14439,"허경영</w>":14440,"www.news":14441,"책임지고</w>":14442,"더불어민주당,</w>":14443,"정치인을</w>":14444,"세계에서</w>":14445,"제도는</w>":14446,"김진태":14447,"안철수의</w>":14448,"다르지</w>":14449,"무너진</w>":14450,"기득권":14451,"필요하다”고</w>":14452,"적임자":14453,"55</w>":14454,"가득</w>":14455,"고조":14456,"됐는데</w>":14457,"미지수":14458,"상장</w>":14459,"서와</w>":14460,"어질</w>":14461,"층을</w>":14462,"피선거":14463,"험지에</w>":14464,"후보들은</w>":14465,"inp":14466,"되었다고</w>":14467,"서울시가</w>":14468,".◎\\xa0진행자\\xa0&gt;\\xa0":14469,"2,</w>":14470,"for":14471,"twit":14472,"날짜":14473,"높이고</w>":14474,"등한</w>":14475,"메모":14476,"보라</w>":14477,"성북":14478,"식,</w>":14479,"원주":14480,"육성</w>":14481,"의도가</w>":14482,"적폐</w>":14483,"보수와</w>":14484,"미국에</w>":14485,"나타나고</w>":14486,"검증을</w>":14487,"불편한</w>":14488,"https://www.youtube.com/watch?v=":14489,"m.facebook.com/story.php?stor</w>":14490,"??</w>":14491,"고교</w>":14492,"관내</w>":14493,"높일</w>":14494,"당대표가</w>":14495,"도중</w>":14496,"들로부터</w>":14497,"만으로는</w>":14498,"모집</w>":14499,"비,</w>":14500,"어찌</w>":14501,"오면</w>":14502,"작성</w>":14503,"중동":14504,"화해":14505,"1988":14506,"현실에</w>":14507,"기대가</w>":14508,"호남에서</w>":14509,"mail":14510,"선거법은</w>":14511,"만나서</w>":14512,"정기국회</w>":14513,"AF7":14514,"<!--":14515,"“21대</w>":14516,"꼽았다.</w>":14517,"류의</w>":14518,"생겨":14519,"석·":14520,"소장":14521,"야할</w>":14522,"어면</w>":14523,"워크</w>":14524,"유효":14525,"중시":14526,"탄소":14527,"한계":14528,"대통합</w>":14529,"전략이</w>":14530,"논의는</w>":14531,"제기된</w>":14532,"토론회":14533,"사고가</w>":14534,"심재철":14535,"홈페이지를</w>":14536,"의정활동을</w>":14537,"2주</w>":14538,"4000001":14539,"가지는</w>":14540,"격이</w>":14541,"규명":14542,"내년":14543,"농성</w>":14544,"달아":14545,"동인천":14546,"방안에</w>":14547,"배상</w>":14548,"보통":14549,"세웠":14550,"시티</w>":14551,"의하면</w>":14552,"일까.</w>":14553,"편에</w>":14554,"해준</w>":14555,"사람과</w>":14556,"최고위원회의</w>":14557,"(54·":14558,".7%로</w>":14559,"밝히는</w>":14560,"KR":14561,"NA":14562,"거주</w>":14563,"골프":14564,"김남":14565,"높이</w>":14566,"부수":14567,"사우":14568,"손해":14569,"없는데</w>":14570,"완화</w>":14571,"있기를</w>":14572,"중학교</w>":14573,"칼을</w>":14574,"현,</w>":14575,"자유민주":14576,"and":14577,"관련하여</w>":14578,"자유한국당,</w>":14579,".com)</w>":14580,"산업혁명</w>":14581,"당원들의</w>":14582,".8%로</w>":14583,"중도·":14584,"비난했다.</w>":14585,"01D5B898":14586,"01D5C5ED":14587,"촬영을</w>":14588,"FTA":14589,").":14590,"BA":14591,"고교":14592,"공장":14593,"동료</w>":14594,"보게</w>":14595,"세상이</w>":14596,"신이</w>":14597,"액을</w>":14598,"이학":14599,"입법을</w>":14600,"전용</w>":14601,"죽음":14602,"창신":14603,"100&amp;rankingSeq":14604,"노동자의</w>":14605,"보도했다.</w>":14606,"기관에</w>":14607,"위반으로</w>":14608,"드렸습니다.</w>":14609,"=뉴시스]</w>":14610,"어깨띠</w>":14611,"명단을</w>":14612,"모범":14613,"삶에</w>":14614,"아이를</w>":14615,"위촉":14616,"줄이는</w>":14617,"퇴근":14618,"평양</w>":14619,"표출":14620,"학을</w>":14621,"행이</w>":14622,"대표와의</w>":14623,"한국당에서</w>":14624,"강화하는</w>":14625,".8%)</w>":14626,"확정했다.</w>":14627,"지속가능한</w>":14628,"성남시</w>":14629,"권리당원</w>":14630,"불평등</w>":14631,"리얼미터가</w>":14632,"복당":14633,"학년</w>":14634,"농림축산":14635,"블록체":14636,"5)</w>":14637,"9,</w>":14638,"D2":14639,"D8":14640,"me</w>":14641,"tv":14642,"강경</w>":14643,"고와</w>":14644,"공유</w>":14645,"관으로</w>":14646,"국,</w>":14647,"대·":14648,"라우":14649,"무료</w>":14650,"부품</w>":14651,"서민</w>":14652,"실태":14653,"전담":14654,"전세</w>":14655,"정인":14656,"좋겠다.</w>":14657,"첫째</w>":14658,"비판에</w>":14659,"대화가</w>":14660,"세월호":14661,"안녕하세요.</w>":14662,"무능한</w>":14663,"감추":14664,"기각":14665,"법도</w>":14666,"보았":14667,"에요.</w>":14668,"여주":14669,"책무":14670,"택시</w>":14671,"팔달":14672,"평생</w>":14673,"할당":14674,"에서다.</w>":14675,"ream":14676,"만들겠다고</w>":14677,"요구하며</w>":14678,"조치에</w>":14679,"늘어날</w>":14680,"정체성을</w>":14681,"키워드":14682,"들여다":14683,"낙인찍":14684,"가수</w>":14685,"글이</w>":14686,"도의원</w>":14687,"만일</w>":14688,"말하면</w>":14689,"비율</w>":14690,"옮겨</w>":14691,"요약":14692,"중견":14693,"문제점을</w>":14694,"50%를</w>":14695,"000001A":14696,"선택할</w>":14697,"호남의</w>":14698,"차지하고</w>":14699,"단일화를</w>":14700,"D,si:</w>":14701,"hap":14702,"tq":14703,"금의</w>":14704,"빌딩</w>":14705,"소장</w>":14706,"신혼":14707,"음주":14708,"저질":14709,"촉발":14710,"카페</w>":14711,"해졌":14712,"188":14713,"말했다.이</w>":14714,"고민하고</w>":14715,"국회의사":14716,"절차가</w>":14717,"사무총장,</w>":14718,"불리한</w>":14719,"정상회담을</w>":14720,"서울특별시</w>":14721,"춘추관":14722,"6000":14723,"갑에서</w>":14724,"거를</w>":14725,"군과</w>":14726,"동맹</w>":14727,"면담":14728,"사과</w>":14729,"옳은</w>":14730,"원혜영</w>":14731,"자동</w>":14732,"처를</w>":14733,"했는데":14734,"민주연구원</w>":14735,"한국에서</w>":14736,"news.co.kr</w>":14737,"단체의</w>":14738,"입장문을</w>":14739,"요청한</w>":14740,"온라인":14741,"현안점검":14742,"리얼미터</w>":14743,"근본적으로</w>":14744,"강성":14745,"관건":14746,"여지가</w>":14747,"의해서</w>":14748,"일대":14749,"점검</w>":14750,"학술":14751,"할머니":14752,"총선에선</w>":14753,"sion":14754,"기업들이</w>":14755,"환경이</w>":14756,"발생할</w>":14757,"반영된</w>":14758,"것인가</w>":14759,"http://news.k":14760,"둘러싸고</w>":14761,"(13":14762,"y_":14763,"가려":14764,"공원":14765,"남용</w>":14766,"보장</w>":14767,"석탄":14768,"시의원</w>":14769,"임기":14770,"전무":14771,"조한":14772,"탈환":14773,"화재":14774,"사회로</w>":14775,"선언하면서</w>":14776,".1%,</w>":14777,"주의가</w>":14778,"중심이</w>":14779,"합의에</w>":14780,"해결하는</w>":14781,"환경부</w>":14782,".4%로</w>":14783,"모두발언":14784,"군수</w>":14785,"년째</w>":14786,"엘리":14787,"준연동형":14788,"학원</w>":14789,"의원이다.</w>":14790,"예산은</w>":14791,"수석이</w>":14792,"건강을</w>":14793,"···</w>":14794,"출판기념회</w>":14795,"거기서</w>":14796,"중소벤처기업부</w>":14797,"감독</w>":14798,"다수가</w>":14799,"됐다”며</w>":14800,"들에게는</w>":14801,"명기한</w>":14802,"배포":14803,"시을</w>":14804,"진출</w>":14805,"추세":14806,"생각하면</w>":14807,"관련해선</w>":14808,"시키지</w>":14809,"이끌고</w>":14810,"고용노동":14811,"스마트</w>":14812,"일어난</w>":14813,"영남권</w>":14814,"끝나면</w>":14815,"원유철</w>":14816,"(201":14817,"B:</w>":14818,"감지":14819,"급식":14820,"둘러</w>":14821,"매입":14822,"반납":14823,"발기":14824,"스피":14825,"악용":14826,"이다,</w>":14827,"장성":14828,"절망":14829,"최일":14830,"치르는</w>":14831,"카르":14832,"0,ch:</w>":14833,"['자유한국당</w>":14834,"부산에서</w>":14835,",\\xa0이렇게</w>":14836,"확보할</w>":14837,"안보를</w>":14838,"CF0B":14839,"김상조</w>":14840,"급격히</w>":14841,"급여":14842,"남긴</w>":14843,"더해</w>":14844,"됨에</w>":14845,"싶어</w>":14846,"인들은</w>":14847,"주호영</w>":14848,"처한</w>":14849,"최형":14850,"패션":14851,"아니었다.</w>":14852,"che":14853,"통과한</w>":14854,"제도의</w>":14855,"01D5E8F18CFB75F0000000":14856,"1,tb:</w>":14857,"당리당":14858,"면세":14859,"범위를</w>":14860,"별다른</w>":14861,"업종":14862,"우호":14863,"읍·":14864,
[...]
